{"!":0,"\"":1,"#":2,"$":3,"%":4,"&":5,"'":6,"(":7,")":8,"*":9,"+":10,",":11,"-":12,".":13,"/":14,"0":15,"1":16,"2":17,"3":18,"4":19,"5":20,"6":21,"7":22,"8":23,"9":24,":":25,";":26,"<":27,"=":28,">":29,"?":30,"@":31,"A":32,"B":33,"C":34,"D":35,"E":36,"F":37,"G":38,"H":39,"I":40,"J":41,"K":42,"L":43,"M":44,"N":45,"O":46,"P":47,"Q":48,"R":49,"S":50,"T":51,"U":52,"V":53,"W":54,"X":55,"Y":56,"Z":57,"[":58,"\\":59,"]":60,"^":61,"_":62,"`":63,"a":64,"b":65,"c":66,"d":67,"e":68,"f":69,"g":70,"h":71,"i":72,"j":73,"k":74,"l":75,"m":76,"n":77,"o":78,"p":79,"q":80,"r":81,"s":82,"t":83,"u":84,"v":85,"w":86,"x":87,"y":88,"z":89,"{":90,"|":91,"}":92,"~":93,"¡":94,"¢":95,"£":96,"¤":97,"¥":98,"¦":99,"§":100,"¨":101,"©":102,"ª":103,"«":104,"¬":105,"®":106,"¯":107,"°":108,"±":109,"²":110,"³":111,"´":112,"µ":113,"¶":114,"·":115,"¸":116,"¹":117,"º":118,"»":119,"¼":120,"½":121,"¾":122,"¿":123,"À":124,"Á":125,"Â":126,"Ã":127,"Ä":128,"Å":129,"Æ":130,"Ç":131,"È":132,"É":133,"Ê":134,"Ë":135,"Ì":136,"Í":137,"Î":138,"Ï":139,"Ð":140,"Ñ":141,"Ò":142,"Ó":143,"Ô":144,"Õ":145,"Ö":146,"×":147,"Ø":148,"Ù":149,"Ú":150,"Û":151,"Ü":152,"Ý":153,"Þ":154,"ß":155,"à":156,"á":157,"â":158,"ã":159,"ä":160,"å":161,"æ":162,"ç":163,"è":164,"é":165,"ê":166,"ë":167,"ì":168,"í":169,"î":170,"ï":171,"ð":172,"ñ":173,"ò":174,"ó":175,"ô":176,"õ":177,"ö":178,"÷":179,"ø":180,"ù":181,"ú":182,"û":183,"ü":184,"ý":185,"þ":186,"ÿ":187,"Ā":188,"ā":189,"Ă":190,"ă":191,"Ą":192,"ą":193,"Ć":194,"ć":195,"Ĉ":196,"ĉ":197,"Ċ":198,"ċ":199,"Č":200,"č":201,"Ď":202,"ď":203,"Đ":204,"đ":205,"Ē":206,"ē":207,"Ĕ":208,"ĕ":209,"Ė":210,"ė":211,"Ę":212,"ę":213,"Ě":214,"ě":215,"Ĝ":216,"ĝ":217,"Ğ":218,"ğ":219,"Ġ":220,"ġ":221,"Ģ":222,"ģ":223,"Ĥ":224,"ĥ":225,"Ħ":226,"ħ":227,"Ĩ":228,"ĩ":229,"Ī":230,"ī":231,"Ĭ":232,"ĭ":233,"Į":234,"į":235,"İ":236,"ı":237,"Ĳ":238,"ĳ":239,"Ĵ":240,"ĵ":241,"Ķ":242,"ķ":243,"ĸ":244,"Ĺ":245,"ĺ":246,"Ļ":247,"ļ":248,"Ľ":249,"ľ":250,"Ŀ":251,"ŀ":252,"Ł":253,"ł":254,"Ń":255,"la":256,"Ġk":257,"on":258,"Ġla":259,"Ġe":260,"ta":261,"Ġp":262,"Ġd":263,"oj":264,"an":265,"is":266,"aj":267,"er":268,"Ġde":269,"Ġs":270,"en":271,"in":272,"Ġa":273,"or":274,"Ġm":275,"li":276,"ti":277,"as":278,"ar":279,"Ġn":280,"to":281,"re":282,"Ġkaj":283,"ÄĿ":284,"ro":285,"ri":286,"Ġes":287,"te":288,"un":289,"Äī":290,"Ġen":291,"Ġv":292,"ÅŃ":293,"Ġf":294,"ra":295,"om":296,"le":297,"ci":298,"Ġki":299,"tas":300,"lo":301,"Ġal":302,"am":303,"Ġt":304,"al":305,"Ġti":306,"ĠÄī":307,"toj":308,"do":309,"ur":310,"Ġestas":311,"el":312,"ka":313,"es":314,"io":315,"Ġne":316,"Ġi":317,"Ġre":318,"Ġb":319,"tis":320,"Ġin":321,"Ġh":322,"Ġvi":323,"ĠK":324,"ĠL":325,"di":326,"ĠE":327,"ojn":328,"Ġkon":329,"Ġpo":330,"âĢ":331,"ÅĿ":332,"Ġmi":333,"per":334,"Ġpor":335,"taj":336,"ko":337,"Ġli":338,"ĠS":339,"ter":340,"ul":341,"Ġj":342,"Ġg":343,"ig":344,"Ġ(":345,"um":346,"ĠM":347,"uj":348,"Ġan":349,"Ġo":350,"Ġpro":351,"ĠA":352,"da":353,"Ġ1":354,"vi":355,"ĠÄĿ":356,"ran":357,"Ġse":358,"Ġmal":359,"ĠP":360,"us":361,"ks":362,"ĠÄīi":363,"Ġl":364,"ajn":365,"de":366,"Ġke":367,"Ġpri":368,"vo":369,"Ġkun":370,"Ġper":371,"vas":372,"Ġsi":373,"po":374,"ĠT":375,"Ġel":376,"st":377,"Äµ":378,"kon":379,"va":380,"ita":381,"em":382,"ĠLa":383,"tu":384,"ĠÅĿ":385,"co":386,"ing":387,"ton":388,"Ġestis":389,"lan":390,"ru":391,"mo":392,"peran":393,"ĠâĢ":394,"Ġsu":395,"don":396,"zi":397,"ĠN":398,"Ġkom":399,"pe":400,"ĠaÅŃ":401,"tan":402,"ĠB":403,"Ġdi":404,"Ġkiu":405,"Ġ2":406,"os":407,"las":408,"Ġpli":409,"du":410,"ĠD":411,"lu":412,"ĠV":413,"ia":414,"aro":415,"ĠI":416,"Ġte":417,"iÄĿ":418,"Ġun":419,"aÅŃ":420,"ce":421,"Ġkiel":422,"Ġinter":423,"gi":424,"Ġek":425,"Ġpre":426,"kaÅŃ":427,"Ġri":428,"ĠÄ":429,"ĠEs":430,"ve":431,"ren":432,"aci":433,"oni":434,"Ġili":435,"ten":436,"Ġunu":437,"ĠF":438,"ma":439,"La":440,"Ġni":441,"ĠR":442,"ris":443,"eb":444,"Ġtiu":445,"go":446,"tra":447,"il":448,"Ġali":449,"Ġfor":450,"ĠG":451,"uz":452,"ek":453,"Ġsed":454,"Ġsen":455,"dis":456,"Ġdis":457,"ĠEsperan":458,"ki":459,"ino":460,"Ġmon":461,"ĠÄīe":462,"Ġha":463,"man":464,"Ġ\"":465,"ĠJ":466,"pon":467,"ol":468,"mi":469,"fi":470,"ga":471,"Ġc":472,"ver":473,"ĠH":474,"00":475,"tr":476,"pa":477,"vis":478,"ĠÄĿi":479,"taÅŃ":480,"me":481,"Ġsur":482,"Ġoni":483,"Ġver":484,"..":485,"tri":486,"Ġfar":487,"ĠU":488,"Ġkiuj":489,"jo":490,"fer":491,"bo":492,"Ġ19":493,"ni":494,"Ġka":495,"tojn":496,"tro":497,"doj":498,"ala":499,"diÄī":500,"ĠC":501,"ven":502,"men":503,"tor":504,"Ġling":505,"ÄĿo":506,"Ġpar":507,"Ġap":508,"Ġar":509,"pi":510,"aÄµ":511,"ble":512,"ed":513,"Ġ-":514,"Ġta":515,"Ġdu":516,"lej":517,"Ġpa":518,"ĠankaÅŃ":519,"Ġor":520,"ĠlaÅŃ":521,"Ġtra":522,"Ġuz":523,"Ġpovas":524,"ono":525,"van":526,"loj":527,"Ġtio":528,"so":529,"pren":530,"zo":531,"Ġda":532,"ku":533,"gan":534,"ĠEsperanto":535,"cio":536,"Ġno":537,"ĠMi":538,"Ġplej":539,"Ġnom":540,"bor":541,"Ġtu":542,"ĠVi":543,"Ġnur":544,"ĠÄĪ":545,"ata":546,"Ġhom":547,"dan":548,"for":549,"Ġkons":550,"Ġmul":551,"ado":552,"Ġjar":553,"Ġlo":554,"ĠO":555,"kaj":556,"Ġ3":557,"Ġsub":558,"kti":559,"Ġbon":560,"no":561,"Ġtro":562,"Ġmem":563,"Ġekz":564,"gis":565,").":566,"ke":567,"bro":568,"ÄĿis":569,"ĠÅĿi":570,"lon":571,"Ġdum":572,"den":573,"koj":574,"ero":575,"ĠLi":576,"kto":577,"Ġgran":578,"Ġra":579,"laj":580,"Ġle":581,"ĠEn":582,"ara":583,"Ġpost":584,"ĠantaÅŃ":585,"Ġres":586,"ub":587,"roj":588,"ern":589,"das":590,"âĢĿ":591,"Ġeks":592,"Ġme":593,"gra":594,"uloj":595,"kaz":596,"ge":597,"Ġman":598,"res":599,"bu":600,"kri":601,"Ġmin":602,"mp":603,"kis":604,"vers":605,"Ġma":606,"mon":607,"Ġpl":608,"ras":609,"Ġven":610,"ilo":611,"),":612,"ch":613,"ĠTi":614,"Ġsam":615,"ca":616,"mes":617,"ron":618,"01":619,"eni":620,"eblas":621,"kondiÄī":622,"Ġtre":623,"Ġak":624,"Ġlan":625,"ber":626,"Ġhavas":627,"ab":628,"con":629,"Ġnun":630,"ĠÄīiuj":631,"igi":632,"voj":633,"Ġ:":634,"sta":635,"Ġest":636,"lio":637,"ento":638,"ej":639,"Ġokaz":640,"stru":641,"Ġmo":642,"pan":643,"si":644,"aÄµo":645,"Ġur":646,"Ġjam":647,"Ġsci":648,"oro":649,"Ġkiam":650,"Ġesperan":651,"Ġso":652,"lik":653,"rin":654,"daj":655,"Ġol":656,"ÄĿas":657,"Ġsin":658,"ĠNe":659,"Ġeble":660,"Ġgra":661,"ces":662,"ĠKom":663,"ĠÄīar":664,"ĠâĢĶ":665,"ĠÂ":666,"Ġsta":667,"ľi":668,"Ġtiuj":669,"iÄĿis":670,"Ġdo":671,"lin":672,"Ġko":673,"tiko":674,"tajn":675,"ĠâĢľ":676,"Ġku":677,"Ġsia":678,"ĠAn":679,"Ġlabor":680,"Ġkontra":681,"raj":682,"Ġaldon":683,"ĠÄĿis":684,"Ġtem":685,"por":686,"tita":687,"Ġje":688,"kta":689,"ĠÄĿin":690,"tem":691,"Ġlingvo":692,"...":693,"Ġbe":694,"par":695,"Ġteks":696,"Ġkre":697,"Ġvor":698,"isto":699,"Ġesti":700,"Ġkomen":701,"gas":702,"tribu":703,"za":704,"ĠIn":705,"ulo":706,"Ġvo":707,"Ġser":708,"Ġ201":709,"ĠKaj":710,"tur":711,"vaj":712,"Ġaliaj":713,"Ġmor":714,"pu":715,"Ġpen":716,"ha":717,"ze":718,"Ġsek":719,"Ġfa":720,"ksi":721,"pro":722,"Ġpermes":723,"Ġkel":724,"ante":725,"amen":726,"ï¿":727,"krib":728,"ï¿½":729,"ina":730,"ĠkontraÅŃ":731,"ĠÄīef":732,"zon":733,"pre":734,"Ġneni":735,"ĠKi":736,"tos":737,"kci":738,"Ġfi":739,"ano":740,"gar":741,"moj":742,"Ġkomun":743,"Ġtran":744,"Ġparto":745,"kor":746,"Ġtri":747,"son":748,"Ġparo":749,"Ġ[":750,"Ġspe":751,"Ġjaroj":752,"ba":753,"umo":754,"anoj":755,"Ġfin":756,"Ġtie":757,"ite":758,"ĠeÄī":759,"ale":760,"Ġtiel":761,"erman":762,"antoj":763,"Ġam":764,"anta":765,"Ġter":766,"na":767,"Ġpos":768,"tre":769,"ejo":770,"Äµo":771,"pen":772,"Ġele":773,"uzi":774,"Ġ200":775,"et":776,"Ġ4":777,"vin":778,"ĠSed":779,"Ġkor":780,"goj":781,"tin":782,"ple":783,"Ġof":784,"Ġdeta":785,"von":786,"ĠâĢĵ":787,"acia":788,"Ġdispon":789,"ĠW":790,"Ġmia":791,"ĠSe":792,"ĠkondiÄī":793,"Ġsian":794,"bon":795,"cen":796,"Ġteksto":797,"ĠÄīiu":798,"Ġplen":799,"Ġro":800,"Ä¥":801,"zen":802,"istoj":803,"kul":804,"coj":805,"lando":806,"Ġba":807,"Ġdevas":808,"ĠKomun":809,"ĠÅ":810,"rea":811,"ÄĿi":812,"ling":813,"ĠKon":814,"Ġhomoj":815,"Ġci":816,"Ġmili":817,"Ġeb":818,"Ġ5":819,"Ġinf":820,"ali":821,"Ġekzis":822,"Ġmar":823,"var":824,"En":825,"dio":826,"dap":827,"Ġplu":828,"ĠPo":829,"ĠNi":830,"ĠkondiÄīoj":831,"ir":832,"kas":833,"Ġunua":834,"ÅŃro":835,"Äµoj":836,"ĠÄľi":837,"pl":838,"Ġkiun":839,"ĠZ":840,"Ġhis":841,"min":842,"turo":843,"ÄĿoj":844,"gani":845,"cep":846,"Äīe":847,"Ġkie":848,"Ġ18":849,"ener":850,"Ġpermesilo":851,"kom":852,"ĠinK":853,"gu":854,"Ġdetaloj":855,"Ġaper":856,"Ġtradu":857,"ĠVidu":858,"Ġdon":859,"Ġsig":860,"it":861,"volu":862,"ho":863,"Ġiom":864,"Ġ|":865,"Ġurbo":866,"Ġaplik":867,"igis":868,"ismo":869,"Ġpas":870,"Ġmultaj":871,"Ġdivers":872,"kan":873,"Sam":874,"ĠÂ«":875,"Ġtiun":876,"oje":877,"Ġlia":878,"Ġkio":879,"Ġpe":880,"Ġlin":881,"der":882,"pri":883,"Ġartiko":884,"ĠKrea":885,"ĠKomunaÄµo":886,"tribuite":887,"ting":888,"Ġnia":889,"taro":890,"kondiÄīe":891,"ud":892,"ĠMar":893,"omo":894,"Ġinfor":895,"Ġtrans":896,"Ġgranda":897,"Ġapar":898,"daptita":899,"Ġhel":900,"eo":901,"ier":902,"Ġjun":903,"Ġfon":904,"Ġfra":905,"Ġaldonaj":906,"ĠAtribuite":907,"SamkondiÄīe":908,"kondiÄīojn":909,"Ġdisponeblas":910,"tio":911,"Ġcer":912,"ĠNea":913,"kte":914,"ĠuzkondiÄīojn":915,"gio":916,"ĠNeadaptita":917,"Ġaplikeblas":918,"Ġna":919,"Ġmals":920,"Ġtrovi":921,"gon":922,"Ġkan":923,"Ġkompren":924,"cia":925,"Ġkla":926,"pli":927,"Ġjaro":928,"tern":929,"Ġafer":930,"Ġja":931,"Ġce":932,"eto":933,"åĮ":934,"ç¤":935,"Ġankor":936,"ç¤¼":937,"cis":938,"åĮħ":939,"Ġmondo":940,"ç¤¼åĮħ":941,"Ġtion":942,"âĢ¦":943,"ç¤¼åĮħç¤¼åĮħ":944,"Ġtute":945,"nu":946,"ami":947,"Ġlern":948,"Ġpov":949,"se":950,"Mi":951,"ĠÄīu":952,"ÄĪ":953,"Ġdiris":954,"ini":955,"Ġlon":956,"ĠRe":957,"19":958,"Ġpoli":959,"Ġins":960,"fa":961,"igo":962,"Ġposte":963,"poj":964,"ad":965,"ori":966,"Ġfun":967,"Ġmala":968,"elo":969,"Ġtiam":970,"Â»":971,"Ġju":972,"Ġintern":973,"Ġilin":974,"Ġkul":975,"ÄĿa":976,"Ġvin":977,"Ġrice":978,"Ġvoj":979,"Ġlu":980,"Ã¡":981,"fo":982,"kla":983,"Ġorgani":984,"Ġtamen":985,"Ġpub":986,"hi":987,"tika":988,"Ġren":989,"ĠâĢ¢":990,"ĠAl":991,"Ġiu":992,"ÄĿon":993,"âĢĶ":994,"Ġbone":995,"Ġestos":996,"ser":997,"iÄĿas":998,"ux":999,"bi":1000,"Ġang":1001,"Ġaten":1002,"tempe":1003,"eri":1004,"Ġrespon":1005,"ĠankoraÅŃ":1006,"Ġliber":1007,"eco":1008,"Ġkelkaj":1009,"Ġfil":1010,"tp":1011,"Ġvia":1012,"kces":1013,"Ġrila":1014,"lis":1015,"Ġtempo":1016,"Ġskrib":1017,"Ġsuper":1018,"Ġalia":1019,"Ġnova":1020,"ĠÄīir":1021,"rus":1022,"ĠÄĪi":1023,"wa":1024,"ĠÅĿan":1025,"Ġmulte":1026,"Ġdeman":1027,"Ġdan":1028,"ĠMa":1029,"Ġ6":1030,"tistoj":1031,"toro":1032,"eno":1033,"uo":1034,"Ġpartopren":1035,"vos":1036,"dojn":1037,"gran":1038,"Ġsa":1039,"Ġhistor":1040,"Ġprof":1041,"ĠÄīirkaÅŃ":1042,"Ġekzem":1043,"din":1044,"Ġad":1045,"Ġkonstru":1046,"Ġekster":1047,"Ġnor":1048,"ĠÄīiam":1049,"kam":1050,"he":1051,"Ġofte":1052,"Ġekzistas":1053,"Ġinteres":1054,"ĠloÄĿ":1055,"Ġide":1056,"Ġkri":1057,"anto":1058,"Ġsigni":1059,"Ġtuta":1060,"Ġspeci":1061,"Ã©":1062,"gita":1063,"uti":1064,"Ġmen":1065,"ask":1066,"itaj":1067,"bla":1068,"igas":1069,"Ġprogra":1070,"Ġlando":1071,"Ġhavis":1072,"Ġvar":1073,"Ġraj":1074,"ĠÅĿta":1075,"im":1076,"Ġrez":1077,"Ġplan":1078,"Ġpra":1079,"Ġpens":1080,"ĠdaÅŃ":1081,"Ġsan":1082,"Ġpres":1083,"ujo":1084,"Ġperson":1085,"zio":1086,"mis":1087,"Ġprop":1088,"be":1089,"tran":1090,"\".":1091,"reso":1092,"broj":1093,"spe":1094,"ĠPor":1095,"Ġindi":1096,"mas":1097,"ĠFran":1098,"Ġprezen":1099,"Ġsukces":1100,"labor":1101,"vado":1102,"Ġregis":1103,"Ġajn":1104,"Ġinstru":1105,"tigi":1106,"ine":1107,"Äīo":1108,"klu":1109,"Ġcen":1110,"fek":1111,"EA":1112,"acio":1113,"ĠPa":1114,"xi":1115,"ĠÄµ":1116,"igita":1117,"Ġdeci":1118,"Ġ7":1119,"gen":1120,"Ġgru":1121,"Ġvolas":1122,"foje":1123,"Ġkro":1124,"ĠIli":1125,"Ġvol":1126,"mar":1127,"Ġproksi":1128,"teco":1129,"Ġrigar":1130,"Ġpi":1131,"\",":1132,"vor":1133,"âĢľ":1134,"ĠEk":1135,"Ġofi":1136,"alo":1137,"ion":1138,"troj":1139,"ant":1140,"at":1141,"eli":1142,"gres":1143,"Ġkva":1144,"gn":1145,"maj":1146,"aÄµoj":1147,"inta":1148,"Ġ8":1149,"Ġmalf":1150,"Ġsiaj":1151,"Ġkol":1152,"Ġdev":1153,"Ġating":1154,"Ġvivo":1155,"Ġkap":1156,"kur":1157,"Ġnu":1158,"Ġpopo":1159,"Ġokazis":1160,"boj":1161,"kojn":1162,"Ġfari":1163,"Ġsol":1164,"Ġstu":1165,"ĠEÅŃro":1166,"Ġprodu":1167,"Ġbezon":1168,"sono":1169,"iste":1170,"feren":1171,"wave":1172,"tado":1173,"Ġsitu":1174,"Ġnov":1175,"Ġsufi":1176,"mul":1177,"ĠPro":1178,"Ġgerman":1179,"Ġami":1180,"sen":1181,"Ġregi":1182,"umen":1183,"Ġob":1184,"onoj":1185,"Ġkonsi":1186,"ĠAr":1187,"Ġ9":1188,"Ġplur":1189,"Ġdiversaj":1190,"mojn":1191,"zoj":1192,"Ġfran":1193,"ĠMon":1194,"vankam":1195,"Ġrenkon":1196,"Ġfo":1197,"Ġlingvoj":1198,"Ġkam":1199,"Ġop":1200,"alaj":1201,"tura":1202,"uro":1203,"Ġho":1204,"Ġsimp":1205,"ktoj":1206,"ĠÄľ":1207,"Ġneces":1208,"kra":1209,"ama":1210,"iÄĿo":1211,"ĠÄĪu":1212,"cioj":1213,"Ġtur":1214,"paro":1215,"ana":1216,"Ġï¿½":1217,"kajn":1218,"ĠNo":1219,"gado":1220,"kipe":1221,"ĠTio":1222,"danto":1223,"ec":1224,"Ġkur":1225,"greso":1226,"ena":1227,"Ġlandoj":1228,"ĠDio":1229,"Ġves":1230,"zor":1231,"kciden":1232,"Ġdezi":1233,"Ġsignif":1234,"ut":1235,"ĠâĢŀ":1236,"Ġkuti":1237,"lojn":1238,"Ġrapi":1239,"ataj":1240,"tera":1241,"tru":1242,"pas":1243,"eble":1244,"Ġ15":1245,"Ġkion":1246,"lor":1247,"ona":1248,"tejo":1249,"ĠSan":1250,"Ġenha":1251,"ĠPar":1252,"ĠKa":1253,"ere":1254,"ne":1255,"Ġge":1256,"sa":1257,".[":1258,"Ġkiujn":1259,"are":1260,"Ġnek":1261,"iero":1262,"Es":1263,"Ġmuzi":1264,"Ġpreci":1265,"cento":1266,"daÅŃ":1267,"gaj":1268,"Ġ199":1269,"itato":1270,"ler":1271,"ĠÅľ":1272,"ĠTiu":1273,"kado":1274,"ligi":1275,"br":1276,"Ġkies":1277,"rio":1278,"Ġeldon":1279,"tion":1280,"Ġsoci":1281,"caj":1282,"Ġkar":1283,"Ġartikolo":1284,"ĠMe":1285,"Ġkvar":1286,"ĠUEA":1287,"ebla":1288,"Ġvian":1289,"Ġfaris":1290,"Ġflu":1291,"ĠÅĿajn":1292,"Ġsimi":1293,"inio":1294,"ĠDo":1295,"itan":1296,"Ġhomo":1297,"Ġorganiz":1298,"Ġru":1299,"Ġmalpli":1300,"esto":1301,"Ġve":1302,"kt":1303,"Ġ10":1304,"vol":1305,"rojek":1306,"Ġnomo":1307,"ĠÃ":1308,"ĠUnu":1309,"Ġestus":1310,"Ġlas":1311,"Ġ17":1312,"Ġpropon":1313,"dita":1314,"Ġproble":1315,"Ġfami":1316,"Ġakcep":1317,"Ġfaci":1318,"ĠGerman":1319,"ĠDe":1320,"eloj":1321,"embro":1322,"Ġbona":1323,"ĠJa":1324,"ĠSo":1325,"Ġscias":1326,"Ġtia":1327,"Ġuni":1328,"titu":1329,"000":1330,"Äīi":1331,"ĠOni":1332,"tino":1333,"iloj":1334,"Ġtuj":1335,"Ġtut":1336,"KO":1337,"Ġangla":1338,"Ġfunkci":1339,"ĠÄĿener":1340,"Ġed":1341,"Ġpovus":1342,"aloj":1343,"veno":1344,"ĠAÅŃ":1345,"Ġgvi":1346,"ĠLe":1347,"Ġab":1348,"Ki":1349,"ĠJo":1350,"Ġsiajn":1351,"ĠMal":1352,"Ġmalgran":1353,"ĠpreskaÅŃ":1354,"ĠUni":1355,"Ġrakon":1356,"minis":1357,"Ġelek":1358,"amo":1359,"Ġespri":1360,"kso":1361,"ĠTamen":1362,"Ġprezi":1363,"diaÅŃ":1364,"ĠĠ":1365,"Ġkonsider":1366,"ang":1367,"tras":1368,"len":1369,"Ġvizi":1370,"Ġjarcento":1371,"Ġbil":1372,"ula":1373,"Ġorig":1374,"ĠÄĿus":1375,"ĠÄĿia":1376,"ĠPost":1377,"âĢĻ":1378,"kov":1379,"Ġscien":1380,"Ġekde":1381,"Ġties":1382,"Ġpovis":1383,"Ġuzi":1384,"eder":1385,"Ġjen":1386,"Ġto":1387,"ww":1388,"Ġekzemple":1389,"ĠDum":1390,"tisto":1391,"ĠRo":1392,"Ti":1393,"jek":1394,"Ġktp":1395,"mento":1396,"Ġbi":1397,"gx":1398,"Ġblo":1399,"Ġ16":1400,"Ġkole":1401,"Ġ12":1402,"tes":1403,"Ġprin":1404,"Ġdek":1405,"pis":1406,"Ġneniam":1407,"liko":1408,"Ġval":1409,"Ġbata":1410,"Ġfilo":1411,"Ġvir":1412,"teri":1413,"Ġfru":1414,"Ġsiste":1415,"ç¤¼åĮħç¤¼åĮħç¤¼åĮħç¤¼åĮħ":1416,"Ġfer":1417,"Ġ20":1418,"cer":1419,"Ġten":1420,"inoj":1421,"Ġevolu":1422,"Ġkura":1423,"Ġakti":1424,"pab":1425,"cas":1426,"bar":1427,"stataÅŃ":1428,"Ġkres":1429,"Ġoku":1430,"rita":1431,"Äµojn":1432,"vu":1433,"Ġnask":1434,"Ġmona":1435,"ĠtroviÄĿas":1436,"Ġflan":1437,"Ġhej":1438,"Ġpren":1439,"Ġsubten":1440,"tero":1441,"Ġestu":1442,"cion":1443,"majn":1444,"Ġim":1445,"Ġrezul":1446,"Ġpris":1447,"ĠÄĪe":1448,"th":1449,"panio":1450,"tum":1451,"konom":1452,"gus":1453,"tive":1454,"tante":1455,"lika":1456,"eroj":1457,"Ġ14":1458,"Ġtiom":1459,"Ġpu":1460,"Ġuzas":1461,"ÅĿi":1462,"Ġvere":1463,"ĠÅľi":1464,"dek":1465,"fri":1466,"vita":1467,"ĠInter":1468,"ĠSa":1469,"and":1470,"Ġesperanto":1471,"oroj":1472,"18":1473,"dia":1474,"ĠSi":1475,"sio":1476,"Ġspi":1477,"Ġnaci":1478,"uno":1479,"Ġsame":1480,"Ġ.":1481,"bur":1482,"Ġdua":1483,"zis":1484,"Ġ,":1485,"ĠBa":1486,"Ġdisku":1487,"lingva":1488,"Ġesperantistoj":1489,"Ġâ":1490,"elon":1491,"Ġlibro":1492,"ges":1493,"ÃŃ":1494,"Ġopini":1495,"inte":1496,"baÅŃ":1497,"ĠkaÅŃ":1498,"Ġuti":1499,"ĠDi":1500,"Ġpla":1501,"intaj":1502,"Ġaparten":1503,"Ġsper":1504,"Ġ13":1505,"Ġpublik":1506,"ĠJes":1507,"tik":1508,"Äīa":1509,"rek":1510,"Ġ/":1511,"KOKO":1512,"socio":1513,"teg":1514,"iÄĿi":1515,"Ġevi":1516,"lajn":1517,"una":1518,"umi":1519,"Ġinternacia":1520,"Ġprojek":1521,"Ġsama":1522,"antaj":1523,"ora":1524,"Ġdom":1525,"Ġdok":1526,"Ġneniu":1527,"zaÅŃ":1528,"Ġmalfer":1529,"Li":1530,"ĠÄīio":1531,"Ġkvankam":1532,"far":1533,"âĢĿ.":1534,"Ġvortoj":1535,"ÅĿo":1536,"Ġkomunumo":1537,"Ġpatr":1538,"ĠEl":1539,"Ġdif":1540,"dus":1541,"kipedio":1542,"fon":1543,"10":1544,"amenho":1545,"emo":1546,"Ġdiras":1547,"enta":1548,"ĠanstataÅŃ":1549,"ĠUnivers":1550,"Ġnin":1551,"Ġmalfaci":1552,"vio":1553,"ist":1554,"Ġdef":1555,"Ġamas":1556,"ord":1557,"Ġdisvol":1558,"ros":1559,"12":1560,"ck":1561,"Ġ'":1562,"Ġkara":1563,"Ġmaj":1564,"Ġvorto":1565,"Ġinklu":1566,"kisto":1567,"logio":1568,"ĠÄīiujn":1569,"Ġilia":1570,"Ġlingvon":1571,"Ġkondu":1572,"aÄĿ":1573,"Ġrus":1574,"ĠUsono":1575,"ĠCh":1576,"Ã³":1577,"Ġkontro":1578,"Ġstra":1579,"Ġdos":1580,"Ġespl":1581,"vojn":1582,"Ġfare":1583,"ĠSu":1584,"Ġvid":1585,"ume":1586,"nove":1587,"kvi":1588,"lito":1589,"ja":1590,"Ġmod":1591,"Ġvila":1592,"Ġafero":1593,"Ġsep":1594,"Ġvenis":1595,"lita":1596,"Ġrenkonti":1597,"Ġklas":1598,"Ġson":1599,"An":1600,"kton":1601,"mal":1602,"Ġler":1603,"ame":1604,"Ġofici":1605,"Ġkonf":1606,"ĠkvazaÅŃ":1607,"ĠBo":1608,"Ġbo":1609,"ÄĪi":1610,"Ġkomencis":1611,"Ġmis":1612,"].":1613,"Ġgrava":1614,"Ġaperis":1615,"tigis":1616,"logi":1617,"Ġdenove":1618,"Ġeblas":1619,"ĠPer":1620,"âĢĿ,":1621,"ĠLu":1622,"tema":1623,"kita":1624,"Ġaran":1625,"Ġklari":1626,"int":1627,"Ġtago":1628,"run":1629,"Ġpoliti":1630,"titaj":1631,"Ġgrand":1632,"Ġ198":1633,"Ġreg":1634,"Ġlasta":1635,"Ġmemor":1636,"risto":1637,"Ġus":1638,"peranto":1639,"era":1640,"Ġekonom":1641,"los":1642,"leks":1643,"gojn":1644,"estro":1645,"Ġkapab":1646,"alis":1647,"kos":1648,"Ġpatro":1649,"ĠKiam":1650,"ĠMo":1651,"flu":1652,"ĠEsperanton":1653,"Ġlaboro":1654,"tilo":1655,"Ġesper":1656,"ele":1657,"Ġloko":1658,"Ġreda":1659,"tiva":1660,"Ġmian":1661,"Ġrimar":1662,"Ġmalbon":1663,"ĠÅĿa":1664,"can":1665,"Ġden":1666,"Ġbu":1667,"ĠKro":1668,"ĠÂ»":1669,"skul":1670,"ene":1671,"pana":1672,"Ġkune":1673,"kuloj":1674,"gos":1675,"anu":1676,"ĠÄīefe":1677,"Ġ;":1678,"Ġhistorio":1679,"kio":1680,"Ġkunlabor":1681,"Ġtele":1682,"Ġniaj":1683,"ĠKo":1684,"Ġricevis":1685,"Ġeven":1686,"Ġmalno":1687,"Ġtradi":1688,"ioj":1689,"Ġalian":1690,"cojn":1691,"Ġkomple":1692,"ĠVikipedio":1693,"Ġiuj":1694,"pub":1695,"uni":1696,"dos":1697,"ĠRus":1698,"Ġversio":1699,"Ġ0":1700,"ĠZamenho":1701,"ktas":1702,"ĠambaÅŃ":1703,"Ġkrom":1704,"Ġprakti":1705,"Ġbal":1706,"Ġsistemo":1707,"nom":1708,"venis":1709,"Ġprofes":1710,"pozi":1711,"Ġkvin":1712,"Ġviv":1713,"ski":1714,"Ġsim":1715,"lia":1716,"'s":1717,"bron":1718,"Ġapud":1719,"ĠEÅŃropo":1720,"gia":1721,"ajne":1722,"Ġhon":1723,"Ġkal":1724,"Ġriver":1725,"ejoj":1726,"graf":1727,"ĠHo":1728,"paj":1729,"ĠGermanio":1730,"rem":1731,"Ġpoten":1732,"cx":1733,"stan":1734,"ore":1735,"Ġion":1736,"ĠDu":1737,"prezen":1738,"Ġmult":1739,"omen":1740,"Ġga":1741,"Ġ...":1742,"ĠNa":1743,"zas":1744,"In":1745,"Ġori":1746,"ĠÐ":1747,"ĠJu":1748,"Ġgrupo":1749,"ard":1750,"Vi":1751,"cern":1752,"telo":1753,"ĠTo":1754,"Ġkonsis":1755,"ĠIntern":1756,"Se":1757,"Ġrapide":1758,"Ġedz":1759,"urbo":1760,"Ġliaj":1761,"Ġcxi":1762,"ĠPol":1763,"ĠKiel":1764,"Ġ11":1765,"Ġfranca":1766,"Ġiam":1767,"Ġsal":1768,"Äµon":1769,"ĠHis":1770,"Ġvidis":1771,"Ġgrandan":1772,"Ni":1773,"Ġmond":1774,"Ġretejo":1775,"ak":1776,"Ġaki":1777,"Ġpluraj":1778,"Ġalta":1779,"Ġer":1780,"Ġgas":1781,"ES":1782,"Ġunivers":1783,"ĠHa":1784,"ĀĀ":1785,"Ġdor":1786,"ĠRa":1787,"menaÅŃ":1788,"Ġhav":1789,"Ġkomer":1790,"Ġcivi":1791,"Ġregiono":1792,"Ġfaras":1793,"peri":1794,"Ã¼":1795,"Ġdir":1796,"Ġaspe":1797,"ela":1798,"Ġdiri":1799,"Ġtemas":1800,"Ġgrandaj":1801,".\"":1802,"ĠIs":1803,"ĠEtern":1804,"Ġtiujn":1805,"torio":1806,"ĠhodiaÅŃ":1807,"Ġeni":1808,"ĠJen":1809,"tanta":1810,"Po":1811,"sek":1812,"ĠPri":1813,"Ġvidi":1814,"Ġefi":1815,"ĠPe":1816,"Ġmilito":1817,"ĠVer":1818,"ĠTa":1819,"Ġgermana":1820,"Ġkonser":1821,"Ġsignifas":1822,"ĠLaÅŃ":1823,"tono":1824,"Ġkris":1825,"Ġprovi":1826,"aran":1827,"Ġakvo":1828,"Ġokciden":1829,"long":1830,"Ġpun":1831,"Ġbri":1832,"Ġradi":1833,"tiÄĿis":1834,"val":1835,"Ġprecipe":1836,"ĠsufiÄīe":1837,"ĠKar":1838,"eg":1839,"Ġeli":1840,"Ġkelkajn":1841,"Ġret":1842,"jor":1843,"Ġkonata":1844,"kondu":1845,"Ġinten":1846,"Ġaliajn":1847,"ĠvoÄī":1848,"Ġokazas":1849,"plo":1850,"ura":1851,"Ġkomuni":1852,"Ġlitera":1853,"ĠEstas":1854,"tigas":1855,"ĠZamenhof":1856,"adon":1857,"Ġ197":1858,"flan":1859,"Ġrapor":1860,"fe":1861,"Ġon":1862,"Ġmil":1863,"Ġmas":1864,"depen":1865,"joj":1866,"qu":1867,"jara":1868,"parte":1869,"reta":1870,"Ġhun":1871,"Ġvide":1872,"kar":1873,"Ġefek":1874,"Ġmultajn":1875,"ulojn":1876,"gh":1877,"ÅĿan":1878,"vanta":1879,"Ġkoncern":1880,"dado":1881,"Ġinflu":1882,"ĠAm":1883,"Ġ194":1884,"Ġnovaj":1885,"Ġ193":1886,"Ġbezonas":1887,"Ġtemp":1888,"Ġcerte":1889,"ktado":1890,"Ġmez":1891,"Ġmenci":1892,"Ġsemajn":1893,"hel":1894,"pra":1895,"stra":1896,"Ġimp":1897,"Ġkongres":1898,"Ġpriskrib":1899,"Ġfla":1900,"ksa":1901,"tron":1902,"ĠfariÄĿis":1903,"Ġban":1904,"pos":1905,"ĠRi":1906,"tano":1907,"Ġmedi":1908,"Ġprefer":1909,"cien":1910,"nab":1911,"su":1912,"ĠEternulo":1913,"Ġcx":1914,"Ġdistri":1915,"AT":1916,"15":1917,"zer":1918,"into":1919,"tantoj":1920,"Ġnovan":1921,"zem":1922,"Ġteri":1923,"Ġinternaci":1924,"ĠRes":1925,"ĠPre":1926,"ulino":1927,"les":1928,"Ġkutime":1929,"antojn":1930,"ĠiÄĿis":1931,"Ġproksim":1932,"Ġio":1933,"ĠalmenaÅŃ":1934,"Ġreprezen":1935,"ÄĿojn":1936,"ĠÄīam":1937,"ĠaÅŃto":1938,"iga":1939,"Ġtagoj":1940,"Ġvirin":1941,"Ġideo":1942,"ĠJoh":1943,"blo":1944,"Ġkru":1945,"20":1946,"bio":1947,"Ġvesper":1948,"igitaj":1949,"joro":1950,"Ġmontri":1951,"ĠserÄī":1952,"rilo":1953,"Ġdec":1954,"Ġfoj":1955,"Ġrespe":1956,"Ġpere":1957,"17":1958,"Ġfen":1959,"ktis":1960,"Ġinfanoj":1961,"Ġpersonoj":1962,"Ġmalmul":1963,"inon":1964,"Ġgaze":1965,"ĠÄĿuste":1966,"Ġmiaj":1967,"ĠeÅŃro":1968,"Ġsimple":1969,"pula":1970,"Ġkomenci":1971,"Ġtial":1972,"ĠY":1973,"tanoj":1974,"Ġ?":1975,"iaj":1976,"ĠX":1977,"Ġunue":1978,"oma":1979,"Ġ196":1980,"dre":1981,"Ġses":1982,"ĠFrancio":1983,"Ġformo":1984,"proksi":1985,"ĠAnkaÅŃ":1986,"Ġanka":1987,"vidu":1988,"klo":1989,"//":1990,"id":1991,"Ġfacile":1992,"Ġfino":1993,"EJ":1994,"ttp":1995,"kuto":1996,"Por":1997,"Ġblan":1998,"Ġviza":1999,"ĠSek":2000,"gru":2001,"Ġzor":2002,"Ġnombro":2003,"Ġprofun":2004,"Ġ25":2005,"ĠFa":2006,"Ġbru":2007,"Ġordon":2008,"Ġvas":2009,"://":2010,"ĠÄĪinio":2011,"Ġ30":2012,"Ġtrovis":2013,"Ġelekti":2014,"Ġmembroj":2015,"ĠOr":2016,"tris":2017,"ts":2018,"Ġiliaj":2019,"Ġperio":2020,"Ġkarak":2021,"jon":2022,"lus":2023,"blio":2024,"tus":2025,"Ġsupo":2026,"dam":2027,"ome":2028,"lado":2029,"Ġprezidanto":2030,"Ġkial":2031,"Ġaferoj":2032,"aron":2033,"ĠAli":2034,"ĠNun":2035,"Ġdekla":2036,"Ġadminis":2037,"ie":2038,"rajn":2039,"Ġare":2040,"ER":2041,"Ġkontribu":2042,"Ġfine":2043,"ĠSankta":2044,"tigo":2045,"Ġtas":2046,"Ġpropra":2047,"Ġduon":2048,"Ġag":2049,"ĠÄīefa":2050,"Ġkultur":2051,"ĠaÅŃskul":2052,"Ġhavi":2053,"Ġmovado":2054,"Ġmontras":2055,"landa":2056,"ĠmanÄĿ":2057,"pun":2058,"Ġpopolo":2059,"Ġstari":2060,"blaj":2061,"ĠaÅŃtor":2062,"ov":2063,"soj":2064,"Ġdevus":2065,"Ġfamilio":2066,"ĠSin":2067,"dante":2068,"Ġtutan":2069,"Ġmur":2070,"Ġregistaro":2071,"Ġdevis":2072,"Ġinkluzi":2073,"11":2074,"Ġestr":2075,"Ġnig":2076,"âĢĵ":2077,"Ġparolas":2078,"aroj":2079,"Ġfir":2080,"Ġtek":2081,"ĠDan":2082,"Ġlonga":2083,"ĠKun":2084,"Ã¶":2085,"Ġdiferen":2086,"deco":2087,"Ġkos":2088,"ĠGo":2089,"pera":2090,"ĠInternacia":2091,"Ġkonta":2092,"Ġaperas":2093,"ÅĿis":2094,"Ġbaz":2095,"daÄµo":2096,"Ġvoja":2097,"Ġeston":2098,"tal":2099,"wi":2100,"mita":2101,"Ġlian":2102,"Ġmortis":2103,"bri":2104,"ĠÄĿoj":2105,"Ġurb":2106,"mem":2107,"Ġcelo":2108,"zono":2109,"leco":2110,"Ġata":2111,"Ġmorto":2112,"Ġarme":2113,"14":2114,"ĠÅĿtato":2115,"Ġnen":2116,"ulon":2117,"ato":2118,"Ġtito":2119,"ju":2120,"ĠreÄĿo":2121,"TO":2122,"Ġdomo":2123,"Ġnome":2124,"ĠSen":2125,"komen":2126,"esta":2127,"Ġnian":2128,"Ġprogramo":2129,"ĠCen":2130,"acioj":2131,"Ġsendepen":2132,"ĠÅĿia":2133,"Ġlonge":2134,"Ġkov":2135,"bra":2136,"Ġmalj":2137,"Ġdonis":2138,"dra":2139,"Ġprovin":2140,"str":2141,"Ġinfan":2142,"ÄĿaj":2143,"ista":2144,"Ġdecembro":2145,"Ġanta":2146,"Ġkiom":2147,"Ġbra":2148,"Ġuzata":2149,"orio":2150,"Ġfeli":2151,"Ġkompu":2152,"Ġras":2153,"via":2154,"Ġknab":2155,"org":2156,"poko":2157,"uma":2158,"tn":2159,"ĠPollando":2160,"ian":2161,"teno":2162,"'t":2163,"Ġdosier":2164,"Ġtiaj":2165,"ĠUn":2166,"16":2167,"Ġplibon":2168,"Ġ195":2169,"Ġsufer":2170,"ag":2171,"Ġlegi":2172,"vajn":2173,"įã":2174,"ĠaÄīe":2175,"oste":2176,"talo":2177,"ĠNor":2178,"ĠBri":2179,"com":2180,"Ġlim":2181,"Ġunuan":2182,"13":2183,"Ġprote":2184,"tere":2185,"Ġnomon":2186,"Ġregu":2187,"ĠBer":2188,"Ġ=":2189,"Ġmodern":2190,"lova":2191,"Ĩįã":2192,"est":2193,"Ġpru":2194,"skrib":2195,"ĠantaÅŃe":2196,"reto":2197,"ĠKan":2198,"Ġserio":2199,"Ġpopula":2200,"tala":2201,"Ġfu":2202,"ÂŃ":2203,"ĨįãĨįã":2204,"Ġfakte":2205,"Ġnum":2206,"dor":2207,"Ġaser":2208,"Ġprepar":2209,"eks":2210,"tia":2211,"Ġbir":2212,"Ġ24":2213,"Ġau":2214,"Ġfinan":2215,"publiko":2216,"Ġklo":2217,"mio":2218,"vuo":2219,"Ġmalgranda":2220,"Ġmes":2221,"umoj":2222,"Ġpovos":2223,"foj":2224,"kre":2225,"Ġligi":2226,"tel":2227,"Ġvidas":2228,"ĠJe":2229,"ĠBon":2230,"fra":2231,"201":2232,"velo":2233,"ĠÅĿanÄĿ":2234,"kade":2235,"Ġesplor":2236,"Tiu":2237,"kun":2238,".)":2239,"bas":2240,"www":2241,"zar":2242,"isma":2243,"Ġedu":2244,"ĠĠĠĠ":2245,"Ġviaj":2246,"ĠBi":2247,"ÅĿajne":2248,"Ġkongreso":2249,"gusto":2250,"mor":2251,"ĠÅĿin":2252,"ĠÄīion":2253,"ĠGran":2254,"Ġgener":2255,"Ġuzo":2256,"kistoj":2257,"ban":2258,"Ġ100":2259,"Ġfrem":2260,"ind":2261,"Ġtag":2262,"Sed":2263,"amaj":2264,"Ġlar":2265,"Ġobjek":2266,"Ġene":2267,"igu":2268,"Ġforlas":2269,"ĠLo":2270,"Ġtemo":2271,"Ġprele":2272,"Ġmembro":2273,"Ġis":2274,"Ġapartenas":2275,"trepren":2276,"isi":2277,"ĠtaÅŃ":2278,"ĠpreÄĿ":2279,"graÅŃ":2280,"Ġsamtempe":2281,"Ġroman":2282,"Ġdeziras":2283,"Ġsukcesis":2284,"dustri":2285,"ĠAntaÅŃ":2286,"ilon":2287,"Ġvojo":2288,"tun":2289,"Ð°":2290,"Post":2291,"blas":2292,"Ġmalsu":2293,"Esperanto":2294,"kin":2295,"ç¤¼åĮħç¤¼åĮħç¤¼åĮħç¤¼åĮħç¤¼åĮħç¤¼åĮħç¤¼åĮħç¤¼åĮħ":2296,"permes":2297,"--":2298,"Ġhal":2299,"Dum":2300,"ĠDa":2301,"Ġdire":2302,"ĠJesuo":2303,"Ġr":2304,"tar":2305,"Ġstre":2306,"Ġdisvas":2307,"ĠNov":2308,"Ġdivi":2309,"zemple":2310,"ĠÄĪar":2311,"ÅĤ":2312,"lezio":2313,"Ġrea":2314,"Ne":2315,"ĠTiam":2316,"ema":2317,"Ġeviden":2318,"IN":2319,"ÅĿa":2320,"Ġem":2321,"diÄĿis":2322,"venas":2323,"Ġforges":2324,"ĠÄĿenerale":2325,"lern":2326,"Ġokul":2327,"Kaj":2328,"Ġ192":2329,"vig":2330,"Ġas":2331,"kaze":2332,"ĠpaÄĿo":2333,"Ġmono":2334,"Ġsituas":2335,"Ġverko":2336,"'m":2337,"Ġfes":2338,"Ġsola":2339,"Ġnuna":2340,"Ð¾":2341,"Ġstran":2342,"dantoj":2343,"Ġrestis":2344,"ÄĿe":2345,"Ġrekon":2346,"ea":2347,"Ġkm":2348,"Ġkato":2349,"his":2350,"mokra":2351,"fine":2352,"Ġentu":2353,"mu":2354,"Ġlokon":2355,"Ġesperantis":2356,"ĠbaldaÅŃ":2357,"Ġpola":2358,"Ġklopo":2359,"ĠSer":2360,"dajn":2361,"ĠTial":2362,".âĢĿ":2363,"kato":2364,"umon":2365,"ĠBra":2366,"Ġdefen":2367,"flanke":2368,"Ġhttp":2369,"ligas":2370,"Ġkas":2371,"Ġapo":2372,"Ġmaniero":2373,"Ġia":2374,"taÄµo":2375,"Ġdecidis":2376,"Ġspiri":2377,"Ġparoli":2378,"Ġmalkov":2379,"Ġfamili":2380,"uman":2381,"anuaro":2382,"ĠFo":2383,"ĠÄīees":2384,"Ġunuaj":2385,"zan":2386,"ĠKongreso":2387,"Ġobser":2388,"Ġhor":2389,"iko":2390,"Ġmeto":2391,"Ġrif":2392,"ĠSur":2393,"Ġkelk":2394,"Ġega":2395,"Ġprinci":2396,"Ġfoje":2397,"grafio":2398,"Ġgravaj":2399,"Ġcir":2400,"Ġkli":2401,"Ġhomojn":2402,"tiÄĿo":2403,"aÄµojn":2404,"Ġverkoj":2405,"aÄµon":2406,"Ġagado":2407,"Ġdona":2408,"tigita":2409,"Ġenhavas":2410,"ktan":2411,"Ġchi":2412,"ĠEÅŃropa":2413,"Ġpozi":2414,"deks":2415,"ÄĿos":2416,"truk":2417,"Ġrime":2418,"mentoj":2419,"Ġpartoprenis":2420,"ez":2421,"Ġentrepren":2422,"Ġplenum":2423,"brojn":2424,"ĠdaÅŃre":2425,"Ġva":2426,"Ġofer":2427,"ph":2428,"Ġjarojn":2429,"Ġmallon":2430,"ĠDis":2431,"urn":2432,"ktobro":2433,"ĠHun":2434,"ign":2435,"Ġrestas":2436,"Ġfilozo":2437,"Ġtero":2438,"ent":2439,"Ġdonas":2440,"Ġfaj":2441,"bel":2442,"ĠTiel":2443,"eron":2444,"ĠdaÅŃri":2445,"gante":2446,"Ġkomenc":2447,"ĠKristo":2448,"laÅŃ":2449,"Ġkomenco":2450,"Ġ2016":2451,"Ġdes":2452,"Ġreli":2453,"trum":2454,"Åľ":2455,"ĠUK":2456,"ins":2457,"ĠTra":2458,"Ġtru":2459,"umentoj":2460,"AN":2461,"ĠpoÅĿ":2462,"ktojn":2463,"Ġnecesas":2464,"kribo":2465,"ĠBu":2466,"Ġjulio":2467,"alon":2468,"Ġkompar":2469,"ĠEsperanta":2470,"pens":2471,"Ġima":2472,"Ġaga":2473,"turi":2474,"taÄµoj":2475,"'d":2476,"Ġbela":2477,"Ġ2017":2478,"Ġvera":2479,"Ġiris":2480,"gle":2481,"KOKOKOKO":2482,"ure":2483,"Ġkrei":2484,"Ġtutmon":2485,"Ġvolis":2486,"Ġdisting":2487,"Ġokup":2488,"uri":2489,"Ġinvi":2490,"stro":2491,"Kon":2492,"Ġero":2493,"Ġpensas":2494,"ĠÄīefurbo":2495,"30":2496,"Ġprojekto":2497,"ÄĪu":2498,"Ġfavor":2499,"ili":2500,"Ġarb":2501,"Ġrest":2502,"ĠLiber":2503,"intoj":2504,"Al":2505,"Ġvenas":2506,"Ġdistrikto":2507,"Ġorigin":2508,"ĠLia":2509,"Ġkulturo":2510,"ĠÄĿu":2511,"Ġanon":2512,"Ġdepen":2513,"ĠIsra":2514,"Ġreali":2515,"Ġesperanta":2516,"Ġrete":2517,"arden":2518,"Ġnatur":2519,"Ġinformoj":2520,"Äīas":2521,"Ġindividu":2522,"Ġrajtas":2523,"Ġturn":2524,"ĠaÅŃtoro":2525,"Ġposed":2526,");":2527,"Ġgla":2528,"perio":2529,"Ġ190":2530,"tembro":2531,"Ġvalor":2532,"200":2533,"EJO":2534,"rante":2535,"Ġmer":2536,"Ġsocio":2537,"Ġple":2538,"Ġdetru":2539,"Äīoj":2540,"Ġmarto":2541,"Ġantik":2542,"iris":2543,"kcio":2544,"Ġw":2545,"ĠSch":2546,"Ġrilate":2547,"ĠVin":2548,"ĠTiuj":2549,"Ġiun":2550,"ty":2551,"teroj":2552,"cistoj":2553,"Ġ2010":2554,"Ġblogo":2555,"Ġkonas":2556,"lantoj":2557,"kitaj":2558,"Ġgen":2559,"ĠPoste":2560,"ĠMos":2561,"Ġnacia":2562,"ĠFor":2563,"pero":2564,"eblaj":2565,"Â°":2566,"mado":2567,"Ġgajn":2568,"Ġokuloj":2569,"trojn":2570,"Ã¤":2571,"Ġfal":2572,"ejon":2573,"Ġpersono":2574,"Ġch":2575,"Ġenkondu":2576,"ĠGra":2577,"Ġnenion":2578,"50":2579,"Ġamp":2580,"ĠBar":2581,"Ġdol":2582,"Ġjuna":2583,"lar":2584,"Ġgrave":2585,"gario":2586,"Ġaldonu":2587,"Ġjanuaro":2588,"ete":2589,"stitu":2590,"tivo":2591,"Ġlingva":2592,"Ġkonkur":2593,"Ġhelpi":2594,"Ġlaboris":2595,"ĠMan":2596,"Ġkvan":2597,"Ġ#":2598,"Ġreligi":2599,"bre":2600,"liber":2601,"Ġprogram":2602,"Ġmajo":2603,"ĠAfri":2604,"Ġvivon":2605,"ĠPli":2606,"Ðµ":2607,"Ġsor":2608,"ĠIa":2609,"kres":2610,"pojn":2611,"Dis":2612,"dono":2613,"Ġaso":2614,"Ġhoma":2615,"Ġfonton":2616,"Ġmalal":2617,"ĠÄµus":2618,"araj":2619,"Ä¥a":2620,"bliote":2621,"Ġran":2622,"cisto":2623,"Ġmilionoj":2624,"Pro":2625,"mig":2626,"ĠvilaÄĿo":2627,"libro":2628,"Ġvortojn":2629,"Ġproksime":2630,"Ġnomata":2631,"Ġproblemo":2632,"ĠÅĿajnas":2633,"Ġeten":2634,"zaj":2635,"Ġalt":2636,"Ġrivero":2637,"Ġnovembro":2638,"Ġplilong":2639,"Ġflor":2640,"tata":2641,"Ġfab":2642,"Ġokazos":2643,"Hel":2644,"iere":2645,"rinde":2646,"ker":2647,"Ġgx":2648,"omento":2649,"ika":2650,"ĠNu":2651,"Ġamikoj":2652,"Ġoktobro":2653,"Ġurboj":2654,"uso":2655,"Ġrevolu":2656,"je":2657,"kap":2658,"umento":2659,"kompren":2660,"tele":2661,"dento":2662,"Ġskribis":2663,"ebru":2664,"Ġnaj":2665,"Â».":2666,"estoj":2667,"Ġdirek":2668,"Ġstruk":2669,"Ġ!":2670,"Ġ22":2671,"Ġnepre":2672,"gara":2673,"ĠRusio":2674,"Ġbar":2675,"Ġ21":2676,"Ġklare":2677,"Ġnenio":2678,"Ġbele":2679,"vid":2680,"fte":2681,"Ġdifin":2682,"Ġdoni":2683,"ĠverÅĿajne":2684,"data":2685,"Ġamo":2686,"Ġmuziko":2687,"ciante":2688,"econ":2689,"ĠÄĿenerala":2690,"land":2691,"tiÄĿas":2692,"Ġsituacio":2693,"Ġkomprenas":2694,"ditaj":2695,"form":2696,"Ġdatum":2697,"Â»,":2698,"Ġaprilo":2699,"gno":2700,"ĠÄīes":2701,"ĠNur":2702,"Ġatingis":2703,"Ġlaboron":2704,"Ġaparte":2705,"ĠaÅŃgusto":2706,"ĠKu":2707,"][":2708,"Ġrekte":2709,"Ġmale":2710,"tina":2711,"Ġ2015":2712,"Ġvirinoj":2713,"ĠkaÅĿ":2714,"ordo":2715,"aso":2716,"Ġorigina":2717,"inter":2718,"Ġani":2719,"Ġperiodo":2720,"Ġproce":2721,"Ġvolon":2722,"damen":2723,"Ġindustri":2724,"Ġlerni":2725,"ĠCi":2726,"Ġ2018":2727,".,":2728,"Ġlong":2729,"ĠHispanio":2730,"milito":2731,"Ġjus":2732,"Ġpolitika":2733,"Ġsti":2734,"Ġfilmo":2735,"Ġrekomen":2736,"ĠnaskiÄĿis":2737,"Ġseks":2738,"Ġseptembro":2739,"Ġcentro":2740,"Ġvirino":2741,"Ġkristan":2742,"dro":2743,"jn":2744,"izo":2745,"vata":2746,"Ġgepa":2747,"Ġrespondis":2748,"Ġtrin":2749,"Ġnovajn":2750,"fab":2751,"Å¡":2752,"Ġdeks":2753,"ĠMul":2754,"Ġu":2755,"Ġprofi":2756,"kons":2757,"Ġoka":2758,"zia":2759,"Ġatingi":2760,"etoj":2761,"Ġthe":2762,"ence":2763,"ĠÄīiuta":2764,"ĠRespubliko":2765,"Ġseku":2766,"Ġbonan":2767,"Ġtraduko":2768,"kro":2769,"ĠMia":2770,"ĠBel":2771,"ĠTEJO":2772,"gip":2773,"Ġuzis":2774,"dejo":2775,"if":2776,"eriko":2777,"ĠSta":2778,"Ġalilingva":2779,"ĠOri":2780,"Ġusona":2781,"ÅĿta":2782,"Ġtraduku":2783,"Ġ50":2784,"gnos":2785,"Ġbel":2786,"Ġinformojn":2787,"Ġalvo":2788,"Ġflanko":2789,"Ġmalo":2790,"Ġ23":2791,"Ġekzamen":2792,"ligis":2793,"Ġdisvolvita":2794,"Ġpatrino":2795,"ĠÅĿab":2796,"ĠHel":2797,"Ġlastaj":2798,"sk":2799,"Ġartikoloj":2800,"Ġdemando":2801,"pla":2802,"uzeo":2803,"ĠRu":2804,"Ġfama":2805,"Ġricevi":2806,"ĠHer":2807,"Ġtekni":2808,"Ġparolis":2809,"tulo":2810,"ktoro":2811,"Ġgre":2812,"Ġjunio":2813,"traj":2814,"Ġtempon":2815,"Ġanali":2816,"Ġverkis":2817,"Ġkredas":2818,"ãģ":2819,"Ġkonsen":2820,"omoj":2821,"Ġcel":2822,"Ġdemokra":2823,"Ġparti":2824,"ĠloÄĿanta":2825,"Ġplilongigi":2826,"Ġeta":2827,"logia":2828,"Ġalpor":2829,"tiv":2830,"Helpu":2831,"Ġrevuo":2832,"Ġprezentas":2833,"Ġlokoj":2834,"Ġgrupoj":2835,"teli":2836,"tempa":2837,"au":2838,"Äījo":2839,"Ġkomuna":2840,"LI":2841,"Ġspa":2842,"âĪ":2843,"lantaÅŃ":2844,"LaÅŃ":2845,"ĠKel":2846,"Ġsamtema":2847,"Ġtria":2848,"Ġinstitu":2849,"Â«":2850,"baj":2851,"ĠSvis":2852,"Ġkapita":2853,"Ġkia":2854,"zojn":2855,"menciante":2856,"Ġron":2857,"ĠVar":2858,"Ġrusa":2859,"Ġdiversajn":2860,"Ġener":2861,"Ġkonsistas":2862,"ĠLing":2863,"ĠEsperant":2864,"zilo":2865,"Ġedzino":2866,"ĠpaÅĿ":2867,"Ġpostu":2868,"Ġege":2869,"gantoj":2870,"Ġmomento":2871,"Ġtrankvi":2872,"Ġforte":2873,"dida":2874,"ĠEU":2875,"ĠIta":2876,"pisko":2877,"toroj":2878,"Kiam":2879,"lino":2880,"ves":2881,"Ġ40":2882,"Ġsign":2883,"Ġsom":2884,"Ġmeze":2885,"Ġasocio":2886,"ciaj":2887,"Ġmalnova":2888,"eta":2889,"Ġfarita":2890,"igon":2891,"fero":2892,"ĠKrome":2893,"Ġloka":2894,"Ġreven":2895,"Ġmalami":2896,"Ġprovinco":2897,"Ġkonfi":2898,"Ġprogres":2899,"Ġekvi":2900,"ĠFin":2901,"end":2902,"Ġaux":2903,"terna":2904,"Ġpubli":2905,"IV":2906,"ĠTri":2907,"Ġhar":2908,"tecon":2909,"ĠPi":2910,"],":2911,"rapi":2912,"ĠTur":2913,"ebruaro":2914,"Ġminu":2915,"Ġsinjor":2916,"Diskuto":2917,"ĠriÄī":2918,"lute":2919,"Ġproksimume":2920,"Ek":2921,"ĀĀĀĀ":2922,"Ġher":2923,"Ġnorma":2924,"cejo":2925,"bin":2926,"Ġ28":2927,"Ġtrovas":2928,"Ġplena":2929,"ĠKol":2930,"ĠâĢĿ":2931,"Ġkorpo":2932,"Ġpromes":2933,"ĠBe":2934,"Ġpan":2935,"ĠÄĿiaj":2936,"ĠWi":2937,"temp":2938,"Ġgrande":2939,"Ġvali":2940,"tikaj":2941,"Ġelsta":2942,"multo":2943,"ĠKiu":2944,"jar":2945,"Ġkonten":2946,"ÅĿu":2947,"teks":2948,"Ġ2000":2949,"fin":2950,"xo":2951,"AS":2952,"ĠKor":2953,"Ġiden":2954,"Ġvivas":2955,"ĠAng":2956,"Ġstri":2957,"kol":2958,"adis":2959,"Ġkonsta":2960,"Ġperfek":2961,"ganto":2962,"ãĥ":2963,"berg":2964,"Ġpie":2965,"Ġsolda":2966,"ĠloÄĿas":2967,"ft":2968,"Ġini":2969,"Ð¸":2970,"Ġkateg":2971,"Ġliteraturo":2972,"Ġpropran":2973,"Ġteritorio":2974,"ĠFon":2975,"Ġeksci":2976,"Ġepoko":2977,"Ġlibroj":2978,"Ġmalaper":2979,"Ġlibera":2980,"ON":2981,"ĠloÄĿantoj":2982,"zita":2983,"Ġlisto":2984,"Ġ26":2985,"Äīis":2986,"Ġagnos":2987,"esperan":2988,"Ġviajn":2989,"Ġvenon":2990,"oris":2991,"ĠUniversitato":2992,"ĠEst":2993,"Ġkoncep":2994,"iÄĿos":2995,"fun":2996,"34":2997,"Ġmateri":2998,"âĪŀ":2999,"Ġ27":3000,"Ġmodi":3001,"Ġkompreni":3002,"eti":3003,"24":3004,"ĠIsraelo":3005,"ĠGe":3006,"ktaj":3007,"Ġvort":3008,"cie":3009,"Ġbonvolu":3010,"Ġapen":3011,"viÄĿis":3012,"ferenco":3013,"vano":3014,"Ġstabi":3015,"Ġpron":3016,"Ġmaten":3017,"ps":3018,"Ġgrama":3019,"ĠEble":3020,"ĠdanÄĿ":3021,"Ġsimpla":3022,"tismo":3023,"Ġ2008":3024,"uraj":3025,"Ġkona":3026,"fan":3027,"mb":3028,"Ġfeder":3029,"ĠSte":3030,"ĠÄīa":3031,"Ġhe":3032,"ĠTh":3033,"Ġtea":3034,"Ġkolekti":3035,"Ġverkon":3036,"ĠÄĪiuj":3037,"rado":3038,"ĠSam":3039,"Ġparla":3040,"ĠJun":3041,"ĠGa":3042,"Ġampleks":3043,"ĠAs":3044,"Ġarg":3045,"Ġopinias":3046,"ĠTie":3047,"vante":3048,"Ã¡n":3049,"Ġkoro":3050,"Ġkonvin":3051,"Ġleg":3052,"Ġiri":3053,"produ":3054,"Ġorien":3055,"Kiel":3056,"ĠTem":3057,"ture":3058,"Ġsocia":3059,"Ġmalfacile":3060,"ĠSAT":3061,"Ġforta":3062,"centoj":3063,"Ġhispana":3064,"ĠIm":3065,"ÄĿu":3066,"mata":3067,"Ġartikolon":3068,"Oni":3069,"Ġtien":3070,"emon":3071,"rila":3072,"Ġpartoj":3073,"ile":3074,"Ġstato":3075,"ben":3076,"Ġgar":3077,"uroj":3078,"ĠCo":3079,"Ġbab":3080,"mino":3081,"Ġresponde":3082,"ĠÅĿatas":3083,"laro":3084,"Ġand":3085,"kiel":3086,"Ġtagon":3087,"Ġesperantisto":3088,"Ġdosieroj":3089,"Ġimperi":3090,"ĠapenaÅŃ":3091,"teria":3092,"uza":3093,"rano":3094,"âĪŀâĪŀ":3095,"Ġiomete":3096,"legi":3097,"ĠQ":3098,"movado":3099,"Ġkreis":3100,"Ġuson":3101,"istem":3102,"Ġ2012":3103,"plen":3104,"87":3105,"ok":3106,"digi":3107,"gri":3108,"ĠÄĪiu":3109,"Äľ":3110,"ly":3111,"ompan":3112,"vali":3113,"Ġkompreneble":3114,"ĠUnio":3115,"Ġsciis":3116,"Ġvorton":3117,"teron":3118,"Ġpose":3119,"EN":3120,"Ġklu":3121,"Ġjes":3122,"Ġtian":3123,"22":3124,"Ġminis":3125,"Ġrajtoj":3126,"ĠAkade":3127,"Ġmaldeks":3128,"KU":3129,"Ġviro":3130,"Ġcelas":3131,"rigar":3132,"Ġmalproksi":3133,"ĠreÄĿ":3134,"kvo":3135,"Ġmalri":3136,"Ġfunkcias":3137,"Ġordin":3138,"burgo":3139,"ĠSinjoro":3140,"Ġpsi":3141,"inda":3142,"Ġkoncer":3143,"Ġsilen":3144,"ĠmalgraÅŃ":3145,"tanto":3146,"ĠUniversala":3147,"alisto":3148,"Ġbalo":3149,"Ġmaro":3150,"Ġbonaj":3151,"Ġtekstoj":3152,"ua":3153,"Ġstar":3154,"rojn":3155,"tantaj":3156,"ĠMaria":3157,"ĠSud":3158,"Ġparton":3159,"tista":3160,"viadi":3161,"Ġara":3162,"ĠÅĿton":3163,"ry":3164,"vel":3165,"Ġnuntempe":3166,"ĠJam":3167,"blan":3168,"Ġir":3169,"nam":3170,"Ġnes":3171,"Ġerotika":3172,"edio":3173,"Ġareo":3174,"Ġsendi":3175,"ĠmalantaÅŃ":3176,"grafi":3177,"25":3178,"Ġmaljun":3179,"zu":3180,"ĠBal":3181,"Ġmalfru":3182,"Ġinkluzive":3183,"Ġmu":3184,"Ġkandida":3185,"Ġfakto":3186,"Ġrela":3187,"ĠSal":3188,"Ġpartopreni":3189,"iro":3190,"ĠEkzemple":3191,"ĠJapanio":3192,"Ġhoro":3193,"Äį":3194,"Ġevoluo":3195,"Ġpublika":3196,"Ġmalvar":3197,"stin":3198,"Ġarki":3199,"ĠÃĹ":3200,"Ġpopoloj":3201,"Ġfirma":3202,"Unu":3203,"Ġsekve":3204,"bis":3205,"Ġdemandis":3206,"Ġmalpermes":3207,"Ġform":3208,"Ġaktu":3209,"Ġadministra":3210,"igos":3211,"Ġsab":3212,"Ġoficiala":3213,"tab":3214,"ĠÄĿen":3215,"Ġpensis":3216,"Ġgeo":3217,"Ġinicia":3218,"Ġmesa":3219,"Ġy":3220,"ĠItalio":3221,"Ġbran":3222,"ĠÅĿtatoj":3223,"Ġpaco":3224,"Ġmonatoj":3225,"punkto":3226,"taroj":3227,"longe":3228,"Ġ2011":3229,"Ġpartio":3230,"undo":3231,"Ġkontin":3232,"Ġtab":3233,"Ġstuden":3234,"cel":3235,"Ġkompon":3236,"Ġbatalo":3237,"che":3238,"ĠIz":3239,"Mal":3240,"Ġmalfacila":3241,"ĠdediÄī":3242,"Ġhere":3243,"domo":3244,"vido":3245,"iÄĿon":3246,"Ġprenis":3247,"ĠbedaÅŃ":3248,"Ġplene":3249,"23":3250,"):":3251,"landaj":3252,"Ġhi":3253,"Ġrolon":3254,"Ġunuo":3255,"Ġmenso":3256,"Ġforma":3257,"Ġ2009":3258,"jare":3259,"Ġcent":3260,"Ġpolitiko":3261,"Ġkomputi":3262,"alie":3263,"Ġtransi":3264,"Ġmonon":3265,"IS":3266,"Ð½":3267,"pozicio":3268,"Ġlum":3269,"Ġmova":3270,"De":3271,"Ġripe":3272,"acion":3273,"Ġnivelo":3274,"Ġmalhel":3275,"40":3276,"ĠGu":3277,"Kom":3278,"ĠLon":3279,"ĠBritio":3280,"rans":3281,"Ġet":3282,"Ġfebruaro":3283,"ĠSove":3284,"ĠleÄĿo":3285,"Ġversi":3286,"post":3287,"ĠCar":3288,"ĠkuÅĿ":3289,"ganta":3290,"tike":3291,"Ġvek":3292,"Ġsx":3293,"Ġregistri":3294,"fis":3295,"Ġ{":3296,"iÄĿintaj":3297,"Ġvizitis":3298,"Ġapro":3299,"Ġarmeo":3300,"Ġorgan":3301,"Jen":3302,"amoj":3303,"ktita":3304,"entoj":3305,"Ġmontris":3306,"ĠÄīiun":3307,"ĠÄµurn":3308,"Ġfrue":3309,"ĠSub":3310,"lono":3311,"Ġkomence":3312,"Ġnaturo":3313,"onon":3314,"ando":3315,"kle":3316,"Ġkrome":3317,"Ġuzado":3318,"arato":3319,"Ġsun":3320,"doni":3321,"Ġverkisto":3322,"vide":3323,"Ġnumero":3324,"Ġskribi":3325,"enoj":3326,"Ġdokumen":3327,"vino":3328,"Ġ2007":3329,"Ġoper":3330,"ĠÅĿablon":3331,"uzo":3332,"diÄĿas":3333,"Ġsendis":3334,"Ġ2014":3335,"Ġfizi":3336,"ĠKonsi":3337,"Ġspecioj":3338,"Ġdese":3339,"bal":3340,"Ġremem":3341,"'ve":3342,"AR":3343,"ĠNeni":3344,"ĠKial":3345,"Ġesperas":3346,"tek":3347,"Estas":3348,"Ġparol":3349,"Ġmankas":3350,"Ġrastrum":3351,"ĠAX":3352,"mos":3353,"Ġpreter":3354,"ĠSpi":3355,"Ġ189":3356,"Ġnatura":3357,"El":3358,"Ġteritor":3359,"Ġbildo":3360,"ĠAfriko":3361,"ÑĢ":3362,"ĠNeder":3363,"Ã½":3364,"Ġtaks":3365,"Ġprezentis":3366,"ÑĤ":3367,"ĠmaÅĿ":3368,"27":3369,"venon":3370,"ÄĿan":3371,"ĠÄľis":3372,"ĠRom":3373,"Ġrastrumeroj":3374,"tuloj":3375,"ularo":3376,"ska":3377,"isiono":3378,"Ġstrato":3379,"ĠEkde":3380,"Ġkapo":3381,"enon":3382,"strio":3383,"kulo":3384,"Ġricevas":3385,"Ġkarakteri":3386,"Ġ2006":3387,"Ġnekon":3388,"erio":3389,"Ġaver":3390,"Ġfinfine":3391,"Ġmomen":3392,"ĠHe":3393,"Ġ--":3394,"Ġproblemoj":3395,"Ġcentra":3396,"56":3397,"ĠEgip":3398,"reco":3399,"Ġz":3400,"ĠKvankam":3401,"Ġakompan":3402,"Ġhelpo":3403,"baroj":3404,"ĠloÄĿantaro":3405,"ilojn":3406,"dika":3407,"Ġlis":3408,"Ġmina":3409,"Ġsankta":3410,"mitaj":3411,"igx":3412,"Ġdank":3413,"ou":3414,"viÄī":3415,"Ġlaboras":3416,"plan":3417,"Ġinteresa":3418,"Ġlingvojn":3419,"Ġelekto":3420,"Ġentute":3421,"Ġmalfor":3422,"trino":3423,"ĠLin":3424,"ĠÅĿul":3425,"dar":3426,"Ġrevenis":3427,"Ġfoli":3428,"Ġsaman":3429,"iri":3430,"mia":3431,"ĠÄĿian":3432,"Ġgravas":3433,"Ġ2013":3434,"ĠÄľener":3435,"Ġvan":3436,"ĠGranda":3437,"pita":3438,"Ġblu":3439,"sti":3440,"ĠBen":3441,"pagan":3442,"landan":3443,"turoj":3444,"Ġrigardis":3445,"tul":3446,"Ġinsta":3447,"Ġduo":3448,"Ġgri":3449,"esperanto":3450,"forma":3451,"Ġhoroj":3452,"ĠMin":3453,"Ġpala":3454,"ell":3455,"Ġmalgrandaj":3456,"Ġlernejo":3457,"ĠeÅŃ":3458,"Ġsuda":3459,"Ġamiko":3460,"Ġkurso":3461,"ĠfiÅĿ":3462,"Ġbazi":3463,"Ġsubskrib":3464,"ĠNord":3465,"uba":3466,"Ñģ":3467,"cz":3468,"veco":3469,"ĠaÅŃdis":3470,"Ġestraro":3471,"up":3472,"Ġokaze":3473,"Ġtranspor":3474,"ĠEks":3475,"Ġkorek":3476,"Ġbibliote":3477,"lingvaj":3478,"ĠParizo":3479,"ĠTomo":3480,"Ġideoj":3481,"Ġates":3482,"fici":3483,"ĠJohano":3484,"Ġreci":3485,"ĠUr":3486,"Ġrezulto":3487,"ĠMem":3488,"ogle":3489,"Ġproponas":3490,"Ġdosiero":3491,"enco":3492,"LE":3493,"Ġviroj":3494,"80":3495,"daÄµoj":3496,"mer":3497,"Ġfam":3498,"lingvo":3499,"ĠJos":3500,"21":3501,"fes":3502,"zidanto":3503,"Ġpubliko":3504,"cajn":3505,"Ġenhavo":3506,"turon":3507,"TC":3508,"teraj":3509,"ys":3510,"ligo":3511,"tt":3512,"ãĤ":3513,"hu":3514,"Ġbio":3515,"Ġ000":3516,"ĠIKU":3517,"Ġrevi":3518,"ĠantaÅŃa":3519,"tempo":3520,"ĠFine":3521,"Ġimpres":3522,"ĠUN":3523,"Ġvortaro":3524,"ĠPas":3525,"Ġrilatoj":3526,"Ġparte":3527,"ÄĪe":3528,"Ġakiri":3529,"ĠEsperantistoj":3530,"ĠÄīefaj":3531,"parto":3532,"Mar":3533,"ĠÅĿajne":3534,"Ġinform":3535,"Ġskla":3536,"Ġsubite":3537,"Ġinsulo":3538,"ĠpaÄĿoj":3539,"Ġ2005":3540,"Ġmano":3541,"Ġsupre":3542,"dire":3543,"Ġmalmulte":3544,"Ġiras":3545,"ÅĿto":3546,"Ġradio":3547,"ĠHungario":3548,"Ġsekreta":3549,"Ä¥o":3550,"oron":3551,"ÄĿus":3552,"uron":3553,"Ġkomprenis":3554,"pio":3555,"Ġilian":3556,"Ġparola":3557,"Ġeventu":3558,"ciojn":3559,"Ġhispan":3560,"gajn":3561,"Ġpartoprenantoj":3562,"26":3563,"ya":3564,"Ġland":3565,"ĠPetro":3566,"ĠAleks":3567,"kura":3568,"zajn":3569,"Ġmanoj":3570,"ĠEÄī":3571,"Ġaldoni":3572,"Ġscen":3573,"Ġnomoj":3574,"Ġsimila":3575,"ĠloÄĿantojn":3576,"ĨĴ":3577,"Ġvetur":3578,"ebl":3579,"Ġaro":3580,"Ġben":3581,"vice":3582,"Ġdiskuto":3583,"Ġlernis":3584,"Ġkonklu":3585,"Ġkompa":3586,"Ġrespekti":3587,"preneble":3588,"Ġ29":3589,"Ġsubstan":3590,"zistas":3591,"zento":3592,"Ġdra":3593,"Ġmoderna":3594,"Ġvun":3595,"Ġaparta":3596,"Ġeldono":3597,"Ġtemoj":3598,"Ġinternaciaj":3599,"Ġspeciala":3600,"ĠKris":3601,"tuga":3602,"lante":3603,"ĠrenkontiÄĿo":3604,"Ġsurpri":3605,"Ġpied":3606,"vojo":3607,"Ġescep":3608,"Ġankau":3609,"terio":3610,"ĠIM":3611,"Ġurbon":3612,"ire":3613,"ĠPra":3614,"tebla":3615,"ĠVa":3616,"Ġ%":3617,"Ġnorda":3618,"ĠIzra":3619,"Ġfundamen":3620,"Asocio":3621,"Ġvivis":3622,"ktu":3623,"Ġlegis":3624,"Ġperfor":3625,"viÄĿo":3626,"ĠAsocio":3627,"Ġinterpre":3628,"Ġfrato":3629,"Ġpunkto":3630,"vena":3631,"Ġokcidenta":3632,"Ġforto":3633,"ĠCe":3634,"ĠWil":3635,"ĨįãĨįãĨįãĨįã":3636,"ĠTer":3637,"Ġkriti":3638,"65":3639,"ĠPlej":3640,"seks":3641,"Ġmort":3642,"Ġretpo":3643,"eca":3644,"mid":3645,"II":3646,"ĠÄĿarden":3647,"taron":3648,"arki":3649,"prenis":3650,"Ġ31":3651,"kcidenta":3652,"Ġkazo":3653,"Ġekzistis":3654,"ĠÄĪeÄ¥":3655,"ĠVarso":3656,"Ġmalsamaj":3657,"lovakio":3658,"Ġpoem":3659,"Ġnaciaj":3660,"ĠAd":3661,"Ġmondon":3662,"Ġekstre":3663,"ĠÄīina":3664,"Ġplurajn":3665,"Ġkunsi":3666,"lok":3667,"Ġpromen":3668,"hon":3669,"Mon":3670,"Ġagra":3671,"Ġlandon":3672,"Äīon":3673,"kolor":3674,"vange":3675,"cent":3676,"Ġadres":3677,"iÄĿinta":3678,"Ġhomaro":3679,"Ġris":3680,"Ġceloj":3681,"keco":3682,"cha":3683,"fen":3684,"Ġhistoria":3685,"Ġdun":3686,"Ġseksa":3687,"Ġmalsan":3688,"san":3689,"cialan":3690,"ĠKio":3691,"Ġvojon":3692,"Ġok":3693,"ĠVen":3694,"mpi":3695,"espon":3696,"Ġkampo":3697,"Ġefektive":3698,"Ġbildoj":3699,"ger":3700,"ĠVal":3701,"meo":3702,"Ġlibron":3703,"Ġuniversita":3704,"Ġduono":3705,"tari":3706,"Re":3707,"her":3708,"ĠAkademio":3709,"ĠEstis":3710,"stre":3711,"ani":3712,"Ġmeti":3713,"ingo":3714,"ĠIKUE":3715,"cor":3716,"ide":3717,"Ġnomas":3718,"formo":3719,"Ġlokaj":3720,"Ho":3721,"tiÄĿi":3722,"Ġmonto":3723,"Ġitala":3724,"Ġkultura":3725,"Ġelektis":3726,"Ġ&":3727,"ĠÂ·":3728,"Inter":3729,"Ġkv":3730,"ĠpreÄĿejo":3731,"ĠMor":3732,"alismo":3733,"ĠKata":3734,"Ġpoe":3735,"zitan":3736,"Ġregionoj":3737,"Ġdipl":3738,"Ġpotenco":3739,"Ġinterkon":3740,"Ġalb":3741,"komuni":3742,"danta":3743,"tiga":3744,"ĠFre":3745,"Ġnordo":3746,"ç¤¼åĮħç¤¼åĮħç¤¼åĮħç¤¼åĮħç¤¼åĮħç¤¼åĮħç¤¼åĮħç¤¼åĮħç¤¼åĮħç¤¼åĮħç¤¼åĮħç¤¼åĮħç¤¼åĮħç¤¼åĮħç¤¼åĮħç¤¼åĮħ":3747,"Ġinfano":3748,"Ġhejm":3749,"Ġpara":3750,"Ġkr":3751,"Ġbestoj":3752,"AntaÅŃ":3753,"Ġbur":3754,"Ġlok":3755,"Ġsupren":3756,"Ġinteralie":3757,"Ġscii":3758,"ÅŃtra":3759,"Ġrifuz":3760,"Ġstatu":3761,"Ġajna":3762,"Ġfabri":3763,"ploj":3764,"lanta":3765,"Ġtrov":3766,"ĠHar":3767,"Ġste":3768,"ĠBrazilo":3769,"cipo":3770,"ens":3771,"vole":3772,"ĠThe":3773,"Ġmateria":3774,"Ġtatu":3775,"igoj":3776,"Ġpremi":3777,"ĠkomenciÄĿis":3778,"Ġbas":3779,"Ġelsen":3780,"ĠâĨĴ":3781,"Äľi":3782,"Ġmortin":3783,"Ġlibere":3784,"38":3785,"vad":3786,"Ġ*":3787,"delo":3788,"Ġsupoz":3789,"60":3790,"Ġreligio":3791,"Ġsp":3792,"Ġinstruis":3793,"Ġmalbona":3794,"loro":3795,"Ġnokto":3796,"litaj":3797,"Ġhavos":3798,"ĠĠĠĠĠĠĠĠ":3799,"ĠCer":3800,"ĠNacia":3801,"28":3802,"Ġalvenis":3803,"Ġtravi":3804,"Ġamik":3805,"Ġuniversitato":3806,"ate":3807,"Ġstaris":3808,"fita":3809,"Ġsenco":3810,"gxo":3811,"logo":3812,"alu":3813,"Ġpostulas":3814,"Ġsinjoro":3815,"Ġkanto":3816,"Ġgxi":3817,"Ġpetas":3818,"Ġliver":3819,"Ġmondmilito":3820,"Ġfig":3821,"Ġkiaj":3822,"Ġekzemplo":3823,"29":3824,"Ġkoncen":3825,"ĠHen":3826,"Ġideon":3827,"ĠKelkaj":3828,"konstru":3829,"ĠJer":3830,"Ġstaras":3831,"Ġkapablas":3832,"vebla":3833,"Ġpastro":3834,"Ġtitolo":3835,"Ġtor":3836,"ĠâĢĺ":3837,"Do":3838,"Ġgh":3839,"ESTO":3840,"ekz":3841,"ĠPola":3842,"Ġvari":3843,"Ġkopi":3844,"ari":3845,"Ġsekvis":3846,"alan":3847,"Ġsh":3848,"Pri":3849,"Ġafi":3850,"ĠÄ¥":3851,"Ġtraj":3852,"Ġmiks":3853,"Ġfojon":3854,"fio":3855,"Ġpetis":3856,"Äīaj":3857,"Ġkil":3858,"Ġfiks":3859,"Ġplane":3860,"Ġkonataj":3861,"Ġ(\"":3862,"istemo":3863,"Ġtermin":3864,"porno":3865,"ĠMultaj":3866,"Ġdistan":3867,"ĠSE":3868,"Ġorienta":3869,"Ġgepatroj":3870,"Ġlumo":3871,"faj":3872,"istemoj":3873,"alajn":3874,"Ġsimbo":3875,"Ġgravan":3876,"Ġmarbor":3877,"Ġplejparte":3878,"ĠAra":3879,"dulo":3880,"Ġsendu":3881,"Ġreto":3882,"done":3883,"Ġpon":3884,"Ġprotes":3885,"Ġinterv":3886,"ĠJan":3887,"loÄĿ":3888,"Ġsignifo":3889,"Ġniajn":3890,"Ġom":3891,"Ġadap":3892,"Ġmallonga":3893,"Ġhelp":3894,"uste":3895,"Ġatribu":3896,"Ġnomita":3897,"Ġteamo":3898,"ĠIS":3899,"Ġmiajn":3900,"Ġhazar":3901,"33":3902,"Ġkvanto":3903,"kal":3904,"Ġatendas":3905,"burg":3906,"Ġsus":3907,"lum":3908,"Ġaviadi":3909,"Ġkresk":3910,"Ġdecido":3911,"Ġanim":3912,"Ġride":3913,"Ġbazo":3914,"Ġflug":3915,"Ġfonto":3916,"Ġsentas":3917,"Ġkategori":3918,"Ġpaci":3919,"kipedia":3920,"bata":3921,"Ġhomaj":3922,"Ġekonomia":3923,"Ġsole":3924,"Ġservo":3925,"Ġeniris":3926,"menta":3927,"Ġformoj":3928,"ĠKam":3929,"Ġkilome":3930,"ĠTre":3931,"ĸĳ":3932,"Ġsuno":3933,"loke":3934,"ulara":3935,"kuti":3936,"Ġmalliber":3937,"Ġeksplo":3938,"Ġgeed":3939,"Ġstabila":3940,"bert":3941,"ĠvoÄīdon":3942,"Ġbirdoj":3943,"oo":3944,"Ġisla":3945,"Ġsimilaj":3946,"ĠGoogle":3947,"Ġdio":3948,"Ġvidu":3949,"Nun":3950,"Ġ+":3951,"ĠLan":3952,"Ġnomis":3953,"Ġeklezio":3954,"Ġspeciale":3955,"Ġspor":3956,"kurso":3957,"Ġcerta":3958,"Ð¾Ð":3959,"ĠOrgani":3960,"ĠPIV":3961,"ĠOn":3962,"Ġmalrapi":3963,"Ġevidente":3964,"ĠScien":3965,"ĠnomiÄĿas":3966,"Ar":3967,"dovi":3968,"Ġarto":3969,"Ġesperant":3970,"Ġrilatas":3971,"Ġkalku":3972,"Ġprovis":3973,"ĠÄīambro":3974,"ĠBur":3975,"ĠFESTO":3976,"ÄĿen":3977,"igar":3978,"ĠÅĿanÄĿi":3979,"Ġteori":3980,"Ġakceptis":3981,"Ġplez":3982,"leto":3983,"plena":3984,"ĠNova":3985,"Ġekle":3986,"ligita":3987,"Ġproduktoj":3988,"Ġstilo":3989,"kva":3990,"Ġrecipro":3991,"Ġdefini":3992,"Ġkonfir":3993,"Ġnigra":3994,"!!":3995,"ĠÄīielo":3996,"ĠVil":3997,"lone":3998,"Ġkonsci":3999,"lav":4000,"ĠIr":4001,"ĠSoci":4002,"tara":4003,"net":4004,"Ġproksima":4005,"Ġsup":4006,"ĠÄ¤":4007,"Ġmanko":4008,"Ġkonfes":4009,"ĠPrin":4010,"Ġerar":4011,"VA":4012,"DE":4013,"Ġlabori":4014,"Ġepisko":4015,"Ã³n":4016,"inaj":4017,"ĠFun":4018,"kulturo":4019,"kalo":4020,"Ġtekston":4021,"ĠvojaÄĿ":4022,"Ġmetis":4023,"Ġsudo":4024,"Ġfaros":4025,"Ġkunveno":4026,"ĠAzio":4027,"bun":4028,"Ġmilit":4029,"ĠSve":4030,"tana":4031,"tenas":4032,"ĠNia":4033,"ĠDon":4034,"Ġtrajn":4035,"Ġpronon":4036,"gitaj":4037,"stron":4038,"ĠÅĿablonoj":4039,"pto":4040,"tigitaj":4041,"pola":4042,"Ġsentis":4043,"gal":4044,"ĠKanado":4045,"ĠvizaÄĿo":4046,"Äīam":4047,"Ġplimulto":4048,"Ġpolitikaj":4049,"ĠantaÅŃen":4050,"Ġhistori":4051,"Ġasocioj":4052,"Ġfoto":4053,"ila":4054,"ĠGre":4055,"ĠVla":4056,"paÄĿo":4057,"Ġdemandoj":4058,"fran":4059,"Ġinterna":4060,"70":4061,"Ġordo":4062,"ĠÄ´":4063,"Ġscienco":4064,"Ġenke":4065,"Ġ60":4066,"35":4067,"Ġreta":4068,"Ġsenpa":4069,"aniere":4070,"loko":4071,"ĠBul":4072,"Ġrimarkis":4073,"Ã¨":4074,"ĠDua":4075,"KOKOKOKOKOKOKOKO":4076,"Ġvic":4077,"baze":4078,"Ġabso":4079,"ĠMaro":4080,"Ġado":4081,"ĠCom":4082,"ĠâĢ¦":4083,"fiko":4084,"ĠEklezio":4085,"Ġdevenas":4086,"ĠmonaÄ¥":4087,"Ġpensi":4088,"Ġkapon":4089,"Ġlogi":4090,"Ġsalu":4091,"bable":4092,"Ġiel":4093,"Ġripo":4094,"Ġblanka":4095,"Ġkonstitu":4096,"Ġafri":4097,"Ġantikva":4098,"199":4099,"ese":4100,"get":4101,"fono":4102,"ĠPlone":4103,"ĠÄľia":4104,"ĠVir":4105,"Ġplibonigi":4106,"Ġminutoj":4107,"Ġalie":4108,"Ġsemajno":4109,"ĠVo":4110,"Ġaktiva":4111,"Ġorganizo":4112,"Ġfondita":4113,"No":4114,"wski":4115,"Ġuzantoj":4116,"ĠCentra":4117,"ĠPaÅŃ":4118,"ĠloÄĿis":4119,"Ġmedic":4120,"Ġsekva":4121,"ĠMeksi":4122,"Ġdudek":4123,"EL":4124,"tadon":4125,"Ġgazeto":4126,"Ġmalmultaj":4127,"Ġenme":4128,"Ġfesto":4129,"Ġuzataj":4130,"Ġ2004":4131,"Ġaktiv":4132,"Ġpropagan":4133,"Ġvivi":4134,"Ġprizor":4135,"Ġsove":4136,"Ġprezenti":4137,"XX":4138,"RO":4139,"ĠLas":4140,"Ġpriva":4141,"ĠÄīie":4142,"Ġmanier":4143,"Ġlinio":4144,"__":4145,"eton":4146,"ĠNederlando":4147,"\")":4148,"ĠVor":4149,"emaj":4150,"Ġspaco":4151,"ĠÄīas":4152,"Ġtrovos":4153,"miÄĿis":4154,"sur":4155,"Ġmovi":4156,"ĠpaÄĿon":4157,"ĠTe":4158,"ĠTu":4159,"ĠvoÄīo":4160,"Ġtelefon":4161,"Ġlingv":4162,"ĠUkra":4163,"04":4164,"Ġapli":4165,"igh":4166,"Ġjudoj":4167,"Ġfre":4168,"NU":4169,"ĠAÅŃstra":4170,"diÄĿo":4171,"Ġpordo":4172,"Ġjaron":4173,"fil":4174,"ĠnaÅŃ":4175,"sub":4176,"Ġprecize":4177,"Ġmatema":4178,"Ġrekla":4179,"ĠinterÅĿan":4180,"ĠFrancis":4181,"cado":4182,"Ġtim":4183,"kante":4184,"Ġdiale":4185,"Ġreferen":4186,"logiaj":4187,"kolo":4188,"ĠDom":4189,"Ġdesegn":4190,"Ġjarde":4191,"Ġaferojn":4192,"ĠIMG":4193,"jun":4194,"ĠKrom":4195,"ordin":4196,"Tio":4197,"Ġkler":4198,"ranta":4199,"Ġfilino":4200,"Ġrelative":4201,"que":4202,"Ġsociaj":4203,"glo":4204,"Ġeviti":4205,"ds":4206,"Ġgaran":4207,"Ġjarcentoj":4208,"Ġproponis":4209,"ĠKul":4210,"Ġsk":4211,"rom":4212,"nask":4213,"Ġpermesas":4214,"Ġfacila":4215,"gor":4216,"Ġsignifon":4217,"Ġmeri":4218,"estas":4219,"Ali":4220,"Ġankaux":4221,"Ġkreita":4222,"ÄĿaro":4223,"ĠCon":4224,"Ġfaru":4225,"ĠRen":4226,"vantaj":4227,"ĠaÄĿo":4228,"inde":4229,"Ġtransfor":4230,"onojn":4231,"Ġmedio":4232,"Ġelektita":4233,"ÅĿe":4234,"polo":4235,"Åľan":4236,"traÄµo":4237,"Ġtasko":4238,"Ġforlasis":4239,"Ġtransdon":4240,"Ġago":4241,"Ġhelpas":4242,"tle":4243,"ĠÅĿo":4244,"ĠÅĿar":4245,"Ġrigard":4246,"Ġarm":4247,"aten":4248,"ner":4249,"Ġalte":4250,"Ĩĳ":4251,"trado":4252,"Ġtagojn":4253,"??":4254,"Ġdevos":4255,"Ġprofesoro":4256,"estis":4257,"kodo":4258,"Ġavanta":4259,"Ġcxe":4260,"Ġvizitan":4261,"Ġkomita":4262,"Ġkonsideras":4263,"Ġfren":4264,"Ġesprimo":4265,"ĠSvislando":4266,"bol":4267,"erojn":4268,"tag":4269,"Ġproduktado":4270,"ksim":4271,"Ġskribas":4272,"ĠStu":4273,"karo":4274,"Ġcxiuj":4275,"vitaj":4276,"pres":4277,"Ġlerno":4278,"Per":4279,"ĠÄµe":4280,"Ġemo":4281,"Ġprefere":4282,"ĠorganizaÄµo":4283,"grupo":4284,"ĠCor":4285,"Ġrevolucio":4286,"ĠKe":4287,"Ġromano":4288,"Ġabun":4289,"kulp":4290,"tivoj":4291,"Ġstrate":4292,"Ġmetodo":4293,"Ġvig":4294,"ĠKion":4295,"Ġvidpunkto":4296,"naci":4297,"Ġprodukti":4298,"Ġdin":4299,"Ġspecio":4300,"ĠFili":4301,"ÅĻ":4302,"igni":4303,"Ġmonda":4304,"194":4305,"Ġmeta":4306,"Ġpil":4307,"ment":4308,"Ġperdis":4309,"ston":4310,"plu":4311,"Ġsubtenas":4312,"ĠPla":4313,"ĠKongres":4314,"Ġinformo":4315,"Ġnas":4316,"nova":4317,"Ġaero":4318,"dori":4319,"Ġhistorion":4320,"Ġekzempl":4321,"ĠFer":4322,"ĠeÅŃropa":4323,"Ġokazo":4324,"ĠUz":4325,"Ġrajton":4326,"Ġtr":4327,"zias":4328,"Ġoriginala":4329,"Ġneder":4330,"Ġrilato":4331,"Tamen":4332,"dr":4333,"Ġsoli":4334,"Ġanglan":4335,"Ġpropraj":4336,"para":4337,"31":4338,"UTC":4339,"tiri":4340,"Ġhumi":4341,"iÄĿu":4342,"use":4343,"Ġ35":4344,"Ġpek":4345,"Ġiliajn":4346,"Ġsekvas":4347,"Ġfederacia":4348,"han":4349,"unu":4350,"Ġservoj":4351,"ĠFakte":4352,"Ġhungar":4353,"Ġlatin":4354,"Ġrigardi":4355,"Ġekkon":4356,"Ġakiris":4357,"Ġduan":4358,"Ġspeco":4359,"ĠEsperantujo":4360,"IA":4361,"Mo":4362,"liÄĿis":4363,"Ġminim":4364,"Ġjunaj":4365,"ÄĿanta":4366,"Ġartikolojn":4367,"Ġsupra":4368,"Ġestab":4369,"poli":4370,"Ġkvali":4371,"Ġproblemojn":4372,"tivaj":4373,"line":4374,"Ġtenden":4375,"Ġdeklaris":4376,"Ġsimile":4377,"rako":4378,"âĨĳ":4379,"Ġkomencas":4380,"Ġarbo":4381,"Ġgrandajn":4382,"Ġmuni":4383,"Ġpoeto":4384,"ĠFeder":4385,"ll":4386,"sem":4387,"ĠLito":4388,"Ġaltaj":4389,"ET":4390,"ĠGad":4391,"Ġfondis":4392,"Ġaferon":4393,"we":4394,"ĠeÅŃropaj":4395,"Ġhungara":4396,"ĠLibera":4397,"ĠAÅŃstrio":4398,"Ġekzer":4399,"ĠLudovi":4400,"Ġstul":4401,"Äīu":4402,"Ġromp":4403,"ordina":4404,"ario":4405,"ĠKompreneble":4406,"ĠÄĿusta":4407,"arto":4408,"ĠÅĿtu":4409,"ĠPan":4410,"ĠVia":4411,"Ġtiajn":4412,"lendaj":4413,"Ġapartenis":4414,"Ġvenos":4415,"Ġkomunikado":4416,"Ġ2001":4417,"ste":4418,"Ġhero":4419,"ÅĦ":4420,"Ġservis":4421,"ĠGeor":4422,"sed":4423,"Ġopor":4424,"Ġlibrojn":4425,"Ġrenkontis":4426,"konstan":4427,"iuj":4428,"Ġbul":4429,"ĠEo":4430,"Ġkondam":4431,"EK":4432,"tato":4433,"Ġmemsta":4434,"Ġmonato":4435,"Ġpatrolita":4436,"aja":4437,"Ġsimilas":4438,"Ġdia":4439,"ĠDek":4440,"Ġpardon":4441,"Ġinven":4442,"terojn":4443,"Ġjapana":4444,"ria":4445,"ĠIJ":4446,"Ġrevu":4447,"ĠUnuiÄĿintaj":4448,"36":4449,"Ġner":4450,"Ġkonstruita":4451,"Ġlito":4452,"Ġeko":4453,"ĠUson":4454,"Ġcifer":4455,"ÅľanÄĿoj":4456,"];":4457,"ĠTero":4458,"Ġgrun":4459,"Ġdatumoj":4460,"pel":4461,"kiloj":4462,"Ġmaterialo":4463,"Ġdistribu":4464,"Ġdependas":4465,"gata":4466,"kosmo":4467,"ĠEr":4468,"traÄµoj":4469,"Ġrakonto":4470,"Ġtaj":4471,"Jes":4472,"Ġindikas":4473,"Ġkontrolendaj":4474,"ciklo":4475,"valo":4476,"gion":4477,"tional":4478,"bil":4479,"Ġklin":4480,"Ġlingvis":4481,"dy":4482,"Ġpopulara":4483,"nlando":4484,"ĠKos":4485,"Ġligita":4486,"Ġanimo":4487,"Ġmirin":4488,"Ġghi":4489,"ulis":4490,"Ġproces":4491,"Ġakcepti":4492,"Ġfajro":4493,"Ġinstr":4494,"tivalo":4495,"Ġtrakta":4496,"Ġnomi":4497,"Ġeventoj":4498,"OR":4499,"ĠÅĿanÄĿoj":4500,"ĠAmi":4501,"ĠHon":4502,"Ġkoloni":4503,"meto":4504,"bara":4505,"tic":4506,"Ġebligas":4507,"Ġtrejn":4508,"Ġsoldatoj":4509,"Ġsekre":4510,"Le":4511,"ĠneÅŃtra":4512,"ismaj":4513,"igante":4514,"Ġkreas":4515,"Ġkorespon":4516,"ĠnaskiÄĿ":4517,"kus":4518,"Ġetern":4519,"Ġjapan":4520,"tuno":4521,"Ġneniel":4522,"ĠKonsilio":4523,"!\"":4524,"ĠTom":4525,"ĠAt":4526,"ordi":4527,"Ġapu":4528,"Ġscienca":4529,"har":4530,"Ġredu":4531,"Ġkunven":4532,"Ġkompare":4533,"kiu":4534,"Ġsango":4535,"tikan":4536,"Ġfron":4537,"esa":4538,"ĠKore":4539,"ĠUnua":4540,"kaÄµo":4541,"Esperan":4542,"Ġblin":4543,"Ġmus":4544,"ĠreÄĿi":4545,"Ġklaso":4546,"Ġdezer":4547,"erotika":4548,"Ġopinio":4549,"leg":4550,"ue":4551,"eme":4552,"Ġurba":4553,"Ġjunuloj":4554,"ĠVarsovio":4555,"ĠAliaj":4556,"ĠGi":4557,"ĠÅĿajnis":4558,"Ġesprimi":4559,"ĠNacioj":4560,"Ġtermino":4561,"Ġmanif":4562,"Ġkvi":4563,"Ġeksperi":4564,"ĠPartio":4565,"lap":4566,"bulo":4567,"Ġstudentoj":4568,"eso":4569,"ĠTut":4570,"kime":4571,"Ġuzita":4572,"ĠÅĿipo":4573,"Ġfide":4574,"Ġneniun":4575,"Ġpublikigis":4576,"ajo":4577,"ĠGadget":4578,"uran":4579,"Ġposedas":4580,"32":4581,"cho":4582,"Ġokulojn":4583,"ĠEd":4584,"ilkosmo":4585,"Ġhelpis":4586,"Ġfrazo":4587,"Ġdel":4588,"Ġref":4589,"emble":4590,"Ġtradicia":4591,"Ġedukado":4592,"ĠAleksand":4593,"ï»":4594,"Ġadmi":4595,"Ġaktive":4596,"Ġallo":4597,"nabo":4598,"Ġtutmonda":4599,"ĠÅĿip":4600,"Ġreguloj":4601,"kapab":4602,"ld":4603,"Ġsever":4604,"Ġludis":4605,"?âĢĿ":4606,"ente":4607,"Ġludi":4608,"ĠÄľenerala":4609,"Ġrespond":4610,"Ġkantoj":4611,"skij":4612,"braj":4613,"Ġprezento":4614,"Ġkredo":4615,"Ġmanon":4616,"Ġargumen":4617,"Ġregado":4618,"Ġveturi":4619,"Ġsve":4620,"ï»¿":4621,"Ġbrus":4622,"Ġinterparo":4623,"Ġklasi":4624,"damento":4625,"Ġreala":4626,"ĠGermana":4627,"So":4628,"Ġkomunumoj":4629,"kola":4630,"Ġoficiale":4631,"Ġtraduki":4632,"turaj":4633,"ĠMartin":4634,"Ġviziti":4635,"ĠKas":4636,"Ġprobable":4637,"ĠAndre":4638,"landoj":4639,"Ġevento":4640,"nio":4641,"Ġgus":4642,"ĠfariÄĿas":4643,"tinoj":4644,"Ġkonsek":4645,"Ġtatuaj":4646,"manÄĿo":4647,"duloj":4648,"ĠvojaÄĿo":4649,"Ã¢":4650,"ģ£":4651,"ĠInf":4652,"Ġkontroli":4653,"bru":4654,"Ġlatina":4655,"tegorio":4656,"Ġalterna":4657,"kadon":4658,"37":4659,"eja":4660,"ĠImperio":4661,"Äīan":4662,"ĠKubo":4663,"Ġche":4664,"Ġtablo":4665,"Ġkolon":4666,"zitaj":4667,"Ġinstruado":4668,"Ġestonteco":4669,"varo":4670,"Ġlasi":4671,"Ġvero":4672,"sto":4673,"Ġkonven":4674,"gadon":4675,"Ġrezer":4676,"radi":4677,"Kun":4678,"vela":4679,"Ġlaboristoj":4680,"Ġsurbaze":4681,"sojn":4682,"ĠDavid":4683,"Ġkatoli":4684,"zy":4685,"Ġlegas":4686,"gy":4687,"lion":4688,"Ġspirito":4689,"Ġcele":4690,"Ġfalis":4691,"bono":4692,"Ġtend":4693,"Ġmalsam":4694,"Ġbrita":4695,"Ġreprodu":4696,"ĠFra":4697,"Ġkonstrui":4698,"Ġhonor":4699,"ĠMas":4700,"Ġpaf":4701,"Ġlernejoj":4702,"Ġ70":4703,"ĠtroviÄĿis":4704,"Ġvespero":4705,"Ġniv":4706,"Ġfak":4707,"Ġ80":4708,"teto":4709,"Ġcivitanoj":4710,"Ġmalaperis":4711,"ï¼":4712,"ĠJohn":4713,"ĠPatro":4714,"antan":4715,"Ġinstruisto":4716,"Ġsekcio":4717,"Ġkunlaboro":4718,"Ġ)":4719,"78":4720,"lano":4721,"traÅŃ":4722,"Ġformon":4723,"Ġ1990":4724,"aÄĿo":4725,"Ġedzo":4726,"ĠaÅŃtorita":4727,"ley":4728,"Ġkampan":4729,"faco":4730,"kipedi":4731,"Ġkadre":4732,"atan":4733,"Ġcirkonstan":4734,"Ġ188":4735,"Ġian":4736,"Ġintele":4737,"Ġekonomio":4738,"ismon":4739,"Ġlimo":4740,"ÅĿas":4741,"ĠÄīiutage":4742,"Ġmallong":4743,"Ġkonservi":4744,"Ġludo":4745,"Ġrigardas":4746,"formoj":4747,"estroj":4748,"bojn":4749,"Åľi":4750,"Ġaer":4751,"lingvan":4752,"Ġsuges":4753,"ĠLudoviko":4754,"hor":4755,"deno":4756,"Ġpol":4757,"Ġkunme":4758,"Ġdirante":4759,"ĠMoskvo":4760,"gramo":4761,"ĠÅĿat":4762,"alest":4763,"Ġ2002":4764,"Ġtekno":4765,"Ġkelkfoje":4766,"39":4767,"Ġpritra":4768,"Ġsid":4769,"Ġpale":4770,"ĠSpiri":4771,"Ġmalnovaj":4772,"ĠVol":4773,"op":4774,"Ġinspi":4775,"Ġentuzias":4776,"ĀĀĀĀĀĀĀĀ":4777,"Ġekzisto":4778,"Ka":4779,"ĠaranÄĿo":4780,"ĠEle":4781,"cipe":4782,"48":4783,"perni":4784,"uto":4785,"Ġbro":4786,"Ġsova":4787,"Ġat":4788,"ken":4789,"ĠkaÅŃzis":4790,"tataj":4791,"Ãº":4792,"Ðº":4793,"Ġvikti":4794,"Ġpreni":4795,"Ġfing":4796,"Ġpagi":4797,"Ġmodelo":4798,"vanto":4799,"kula":4800,"Ġkredi":4801,"Ġâģ£":4802,"Ġsamaj":4803,"Ġpropono":4804,"Ġantaux":4805,"diskuto":4806,"Ġkampar":4807,"',":4808,"Ġfrua":4809,"ĠSlovakio":4810,"Ġgreka":4811,"ik":4812,"Ġmemoras":4813,"liz":4814,"Bon":4815,"Ġdanke":4816,"Ġrimark":4817,"Ġmorti":4818,"omon":4819,"Ġkonstruado":4820,"Ġkoordina":4821,"sch":4822,"Ġfos":4823,"Ġnura":4824,"Ġpersona":4825,"dol":4826,"Ġutila":4827,"Ġtempera":4828,"usale":4829,"Ġelementoj":4830,"Ġsukceso":4831,"Ġprogramon":4832,"08":4833,"SC":4834,"ĠBonvolu":4835,"Ġrimedoj":4836,"ĠCivi":4837,"Ġpsiko":4838,"ses":4839,"ĉĊ":4840,"teran":4841,"Ġlevi":4842,"Ġludas":4843,"troni":4844,"nov":4845,"Ġinterkonsen":4846,"ĠkonstruaÄµo":4847,"Ġdiman":4848,"ĠÅĿtata":4849,"Ġepi":4850,"Ġliteroj":4851,"Ġebl":4852,"nes":4853,"kaÄµoj":4854,"ĠserÄīi":4855,"Ġceteraj":4856,"ĠNeniu":4857,"ĠEÅŃ":4858,"Pa":4859,"Ġkonvers":4860,"Ġsperto":4861,"ĠKal":4862,"simi":4863,"Ġcxar":4864,"Ġvasta":4865,"iz":4866,"Ġservi":4867,"ĠIns":4868,"Ġpersek":4869,"ĠTion":4870,"Ġefektiv":4871,"german":4872,"Ġkongru":4873,"tm":4874,"Ġliajn":4875,"Ko":4876,"TT":4877,"ĠPu":4878,"preni":4879,"Ġordonis":4880,"und":4881,"gano":4882,"Ġ500":4883,"arko":4884,"ĠOs":4885,"Ġhum":4886,"Ġfina":4887,"Ġakvon":4888,"Ġato":4889,"Ġdomon":4890,"Ġnajbar":4891,"Ġprojektoj":4892,"Ġsidis":4893,"ill":4894,"proksim":4895,"Ġfas":4896,"ĠLabor":4897,"ĠAmeriko":4898,"**":4899,"komun":4900,"Ġhejmo":4901,"bl":4902,"ÄĿejo":4903,"Ġproponi":4904,"Ġsupozas":4905,"Ra":4906,"Ġfervoj":4907,"Ġplenumi":4908,"trankvi":4909,"anon":4910,"ĠInstitu":4911,"Ġevange":4912,"ficejo":4913,"ieraÅŃ":4914,"Ġkreskis":4915,"umis":4916,"Ġgvidis":4917,"del":4918,"ĠKomitato":4919,"ÅĿton":4920,"Ġkompli":4921,"Ġasertas":4922,"iganta":4923,"Ġprogramoj":4924,"ujon":4925,"Ġlingvaj":4926,"pere":4927,"lingve":4928,"Ġfortoj":4929,"zioj":4930,"toso":4931,"âĢľ.":4932,"Ġsistemon":4933,"Ġforigi":4934,"ðŁ":4935,"ardo":4936,"Ġmalkon":4937,"Ġgaranti":4938,"taÄµojn":4939,"Ġdirektoro":4940,"ritaj":4941,"ĠRomo":4942,"Ġtal":4943,"Ma":4944,"Ġlernado":4945,"bera":4946,"Ĥ¬":4947,"Ġdama":4948,"puti":4949,"Ġmuzeo":4950,"lanto":4951,"jet":4952,"stu":4953,"igado":4954,"Ġdifini":4955,"Ġpreferas":4956,"mato":4957,"Â²":4958,"Ġkatolika":4959,"Ġarbaro":4960,"ĠAÅŃstralio":4961,"ĠSovetun":4962,"Ġpal":4963,"Ġgajnis":4964,"kata":4965,"milo":4966,"Ġprezidento":4967,"Ġpriskribo":4968,"Ġkra":4969,"Ġvaloro":4970,"ida":4971,"Ġteo":4972,"Ġbonven":4973,"ministro":4974,"Ġmalalta":4975,"Ġpopol":4976,"Ġknabo":4977,"ĠÅĿiaj":4978,"Ġinformon":4979,"Ġvaria":4980,"ff":4981,"ĠTemas":4982,"Ä´":4983,"ÅĤa":4984,"scien":4985,"Ġestro":4986,"ĠPl":4987,"Ġresti":4988,"rich":4989,"Ġsubteni":4990,"ĠJerusale":4991,"cu":4992,"oras":4993,"ĠUnue":4994,"alojn":4995,"75":4996,"Ġmanojn":4997,"Ġrakontis":4998,"ajnas":4999,"noj":5000,"Ġkonsul":5001,"ny":5002,"Ġklara":5003,"?\"":5004,"ÄĿita":5005,"Ġvizito":5006,"tagme":5007,"fos":5008,"Ġbom":5009,"distoj":5010,"ĠUkrainio":5011,"orita":5012,"aspe":5013,"Ġkvalito":5014,"grafia":5015,"ĠGNU":5016,"ĠSpe":5017,"Ġlernantoj":5018,"Ġtraduk":5019,"Ġ2003":5020,"ĠÎ":5021,"Ġalfab":5022,"ĠKre":5023,"ĠEsperantista":5024,"kcioj":5025,"ĠMond":5026,"ĠPaÅŃlo":5027,"ÃĤ":5028,"Ġobe":5029,"Ġrolo":5030,"EF":5031,"Ġfaritaj":5032,"ham":5033,"ilis":5034,"Ġpovu":5035,"ĠSekve":5036,"Ġnecesa":5037,"Ġblog":5038,"Ġemfa":5039,"68":5040,"teksto":5041,"Ġesen":5042,"Ġvarme":5043,"Ġrakontas":5044,"49":5045,"Ð»":5046,"Ġproblemon":5047,"Ġmuzik":5048,"Ġeventuale":5049,"05":5050,"uris":5051,"Ġdiru":5052,",\"":5053,"Ã¸":5054,"Ġsocialis":5055,"Ġsekso":5056,"tedra":5057,"Ġideojn":5058,".:":5059,"Ġtom":5060,"Ġdatre":5061,"Ġbordo":5062,"zion":5063,"posto":5064,"Ġgermanaj":5065,"organi":5066,"Ġbildon":5067,"ĠkuraÄĿ":5068,"45":5069,"rejo":5070,"Ġdemandon":5071,"tz":5072,"kluzi":5073,"Ġsalaj":5074,"ĠFi":5075,"dona":5076,"Ġelspe":5077,"Ġobjekto":5078,"Ġmetro":5079,"66":5080,"Ġares":5081,"cian":5082,"dataj":5083,"Ġnacioj":5084,"ev":5085,"Ġbelaj":5086,"ĠSil":5087,"ĠSuda":5088,"tadis":5089,"estr":5090,"ĠTaj":5091,"Ġklarigi":5092,"saj":5093,"Ġmalfeli":5094,"Ġkastelo":5095,"kloj":5096,"Ġetoso":5097,"Ġlago":5098,"Ġkapti":5099,"09":5100,"kimedia":5101,"likto":5102,"....":5103,"ĠParla":5104,"ĠTrans":5105,"Ġarte":5106,"jan":5107,"Ġski":5108,"Ġwww":5109,"Ġpenso":5110,"ĠaÄīeti":5111,"Â®":5112,"Ġofen":5113,"Ġkonek":5114,"ĠNorda":5115,"Ġsubjek":5116,"ĠHan":5117,"Ġteorio":5118,"Ġforpas":5119,"Ġaspekto":5120,"Ġdifino":5121,"Ġstranga":5122,"dumo":5123,"ego":5124,"Ġkursoj":5125,"Ġfilmoj":5126,"trio":5127,"nun":5128,"granda":5129,"Ġnukle":5130,"Ġgrandega":5131,"emokra":5132,"ÄĿinta":5133,"ĠBan":5134,"Ġdemand":5135,"fron":5136,"Ġfan":5137,"umado":5138,"kejo":5139,"Ġestrar":5140,"Ġsube":5141,"ĠRadio":5142,"zonoj":5143,"spekti":5144,"ĠaÅŃd":5145,"ĠLingvo":5146,"lun":5147,"Ġizo":5148,"riko":5149,"digis":5150,"Ġvento":5151,"Ġaldonis":5152,"Ġscio":5153,"06":5154,"Nu":5155,"Ġprokla":5156,"Fran":5157,"maniere":5158,"Ġeliris":5159,"gel":5160,"ald":5161,"Ġflugi":5162,"berto":5163,"ĠaÅŃtoma":5164,"Ġverda":5165,"Ġkonsideri":5166,"Ġrekta":5167,"LID":5168,"Ġchar":5169,"pornografio":5170,"Ġagri":5171,"Ġanarki":5172,"Ġpuri":5173,"Ġprilabor":5174,"Ġtradicio":5175,"Ġtrapas":5176,"Ġfratoj":5177,"Ġkonsentas":5178,"kel":5179,"ĠSovetunio":5180,"Ġgo":5181,"pado":5182,"Ġpartopreno":5183,"Ã§":5184,"Äµe":5185,"ĠFolio":5186,"Ġgermanoj":5187,"lioj":5188,"Ġkomputilo":5189,"tago":5190,"ers":5191,"Ġmaltrankvi":5192,"fgan":5193,"fas":5194,"Ġcon":5195,"Ġstrukturo":5196,"Ġdeparte":5197,"Ġsemajnoj":5198,"Ġraporto":5199,"ĠBelgio":5200,",âĢĿ":5201,"ĠVoj":5202,"ĠÅĿian":5203,"uze":5204,"Ġpeto":5205,"Ġkonsiderata":5206,"Ġprofunde":5207,"Ġlongaj":5208,"Ġorto":5209,"Ġmeza":5210,"Ġkoncerna":5211,"ĠBlan":5212,"ĠaÅŃskulti":5213,"intan":5214,"Ġfunkcio":5215,"ĠJor":5216,"Ġco":5217,"Ġinterreto":5218,"tastro":5219,"tig":5220,"ĠMonda":5221,"Ġunun":5222,"glute":5223,"disto":5224,"Äīismo":5225,"vÃ¡":5226,"Ġkazoj":5227,"Ġornam":5228,"ĠiÄĿas":5229,"Ġlernas":5230,"Ġlasis":5231,"ĠDia":5232,"Ġfinis":5233,"ĠÅĿanÄĿo":5234,"Ġmetroj":5235,"daÅŃrinde":5236,"ĠRos":5237,"ĠKomisiono":5238,"Ġfiloj":5239,"Ġprodukta":5240,"Ġinfluo":5241,"ĠPoli":5242,"embleo":5243,"ktor":5244,"Ġindustrio":5245,"Ġplenkres":5246,"keto":5247,"ĠleÄĿ":5248,"Ġkomerco":5249,"Pre":5250,"Ġletero":5251,"klas":5252,"ĠAnton":5253,"Ġunuafoje":5254,"Ġsent":5255,"Ġkolor":5256,"bli":5257,"vorte":5258,"ĠES":5259,"ĠSem":5260,"maniero":5261,"ministra":5262,"RA":5263,"Ġpasis":5264,"ĠChar":5265,"Ġinternacian":5266,"Ġdeba":5267,"igra":5268,"Ġsolvo":5269,"leo":5270,"Ġstudis":5271,"}}":5272,"ĠserÄīas":5273,"VALID":5274,"ĠBona":5275,"ĠCas":5276,"Ġmalsano":5277,"âĢľ,":5278,"angle":5279,"âĪŀâĪŀâĪŀâĪŀ":5280,"Ġama":5281,"peten":5282,"mili":5283,"Ġlau":5284,"ĠTro":5285,"Ġdeziris":5286,"Ġkonkre":5287,"Ġlibereco":5288,"centro":5289,"Ġkondukis":5290,"Ili":5291,"ĠBarato":5292,"Sur":5293,"regis":5294,"Ġree":5295,"mame":5296,"Ġskan":5297,"Ġenergio":5298,"ĠHam":5299,"Ġekskur":5300,"Ġnacio":5301,"kcep":5302,"Ġstatis":5303,"vineo":5304,"Ġprovo":5305,"ubile":5306,"Ġkonk":5307,"Ġsil":5308,"Ġpublikigita":5309,"tempaj":5310,"Ġeki":5311,"Ġdokumentoj":5312,"Ġpura":5313,"Ġvul":5314,"ĠMad":5315,"ito":5316,"ĠsufiÄīas":5317,"Ġlegantoj":5318,"irkaÅŃ":5319,"kole":5320,"Ġorganizado":5321,"ĠCentro":5322,"Ġfilozofio":5323,"ĠÄīapi":5324,"ĠCetere":5325,"ÅĿoj":5326,"Ġkreskas":5327,"ÃŃn":5328,"Ġtempoj":5329,"des":5330,"Ġkoti":5331,"Ġspecialan":5332,"Ġaltan":5333,"dinto":5334,"Ġplia":5335,"Ġmalbone":5336,"muzi":5337,"Äīuro":5338,"Ġvolo":5339,"AnkaÅŃ":5340,"Ġredaktoro":5341,"Ġiama":5342,"naÅŃ":5343,"Ġsistemoj":5344,"ĠriÄīa":5345,"ef":5346,"Ġrespondo":5347,"ĠEkzistas":5348,"ÄīiÄīo":5349,"Ġrifu":5350,"veblas":5351,"tikon":5352,"Ġebla":5353,"Ġkomitato":5354,"amikoj":5355,"Ġsekretario":5356,"Ġkresko":5357,"ĠBerlino":5358,"ĠFinnlando":5359,"Äīer":5360,"Ġpartn":5361,"Ġusonaj":5362,"Ġaven":5363,"Ġprocezo":5364,"Ġalven":5365,"Ġfirmao":5366,"!âĢĿ":5367,"TE":5368,"Ġvideo":5369,"ĠCa":5370,"Ġatendis":5371,"Ġdomoj":5372,"ĠKarlo":5373,"ĠÅĿlos":5374,"lecon":5375,"Ġatenton":5376,"Ġlud":5377,"Ġekstera":5378,"ĠmanÄĿi":5379,"eblan":5380,"Ġsolvi":5381,"Ġton":5382,"Ġsude":5383,"ĠfraÅŃ":5384,"Ġsekvaj":5385,"Ġrespondi":5386,"Ġministro":5387,"Ġglor":5388,"kultura":5389,"Ġrajtojn":5390,"Ġprivata":5391,"Ġpapo":5392,"Ġmira":5393,"Ġ1980":5394,"Ġfamilioj":5395,"takto":5396,"Ġsendube":5397,"Ġdirekto":5398,"Ekde":5399,"IM":5400,"ĠpoÅĿt":5401,"Ġbor":5402,"ĠDos":5403,"LA":5404,"tivan":5405,"ĠHin":5406,"Ġkontakto":5407,"Ġpaper":5408,"Ġbaza":5409,"Ġie":5410,"ĠKri":5411,"akti":5412,"Ġtradukis":5413,"sal":5414,"mante":5415,"gxis":5416,"Ġsinsek":5417,"bus":5418,"Ġ45":5419,"Ġtipo":5420,"dano":5421,"Ġbonajn":5422,"Ġhejmen":5423,"ĠLondono":5424,"hal":5425,"ĠPalest":5426,"ĠKato":5427,"ĠÄīiujare":5428,"Ġfotoj":5429,"ong":5430,"prezidanto":5431,"ich":5432,"Ġokazon":5433,"dinda":5434,"fluti":5435,"Ġfri":5436,"teni":5437,"Ġpeti":5438,"ĠJar":5439,"keo":5440,"Ġklubo":5441,"kras":5442,"lau":5443,"Ġhelpon":5444,"Ġvaste":5445,"peto":5446,"iojn":5447,"tage":5448,"faci":5449,"Ġuzante":5450,"Ġplantoj":5451,"Ġparko":5452,"Ġsuspe":5453,"Ġbrazi":5454,"Ġakade":5455,"elojn":5456,"Ġbud":5457,"Ġmuro":5458,"Ġrapida":5459,"Ġforiris":5460,"tigon":5461,"pelo":5462,"tnas":5463,"Ġkonver":5464,"Ġtiama":5465,"Ġmalsupren":5466,"pernity":5467,"44":5468,"ĠâĢķ":5469,"Ġfontoj":5470,"Ġpolico":5471,"tradu":5472,"ĠVinilkosmo":5473,"ĠÄĿisda":5474,"Ġakceptas":5475,"INVALID":5476,"Ġkodo":5477,"ĠOrienta":5478,"Ġsubpre":5479,"Ġkomerca":5480,"ĠMedi":5481,"Ġpolaj":5482,"ajno":5483,"menton":5484,"landanoj":5485,"59":5486,"alistoj":5487,"Ġplifor":5488,"ĠUS":5489,"ĠSvedio":5490,"Ġteror":5491,"Ġkoncepto":5492,"Ġdispu":5493,"Ġbazita":5494,"Ġbus":5495,"TA":5496,"Ġnombron":5497,"tinda":5498,"ĠBab":5499,"Ġeldonita":5500,"Ġregule":5501,"gro":5502,"Ġparen":5503,"ĠIrlando":5504,"Ġprincipo":5505,"Ġkialoj":5506,"Ġita":5507,"Ġkatal":5508,"ink":5509,"ĠÄĪio":5510,"Ġsekvan":5511,"ĠfiniÄĿis":5512,"Ġmerka":5513,"Ġregas":5514,"Ġ90":5515,"sko":5516,"Ġuzon":5517,"Ġreligia":5518,"ÅĿuti":5519,"Ġbiblioteko":5520,"Ġfortika":5521,"usta":5522,"ĠBro":5523,"Ġpliaj":5524,"vero":5525,"Ġ---":5526,"Ġkred":5527,"UN":5528,"Ġanoj":5529,"ĠArgen":5530,"letoj":5531,"Ġsento":5532,"Ġtradukoj":5533,"Ġmall":5534,"Ġarboj":5535,"Ġpartioj":5536,"PL":5537,"ĠCerte":5538,"emi":5539,"Ġfort":5540,"Ġatingas":5541,"elonge":5542,"Ġdiferenco":5543,"ÄĪar":5544,"Ġregno":5545,"Mia":5546,"gaÅŃ":5547,"Ġkron":5548,"nalo":5549,"antaÅŃ":5550,"pensi":5551,"sistemo":5552,"Ġdeter":5553,"Ġastron":5554,"ÄĿeni":5555,"bir":5556,"vaÄµoj":5557,"46":5558,"ĠEdu":5559,"pol":5560,"Ġimperiestro":5561,"Ġsto":5562,"teo":5563,"ĠantaÅŃaj":5564,"Ġintereso":5565,"Ġkompanio":5566,"Ġalu":5567,"umas":5568,"Ġkombin":5569,"Ġverkita":5570,"giono":5571,"Ġhavu":5572,"ĠIzrael":5573,"Ġkonflik":5574,"Ġserioze":5575,"Ġmalofte":5576,"vetur":5577,"tim":5578,"Ġmiloj":5579,"198":5580,"nis":5581,"Ġdisde":5582,"Ġokazi":5583,"ĠTia":5584,"Ġpartojn":5585,"Je":5586,"79":5587,"igno":5588,"ĠbaziÄĿas":5589,"Ġstaci":5590,"gre":5591,"Ġlaux":5592,"tian":5593,"Ġmarbordo":5594,"Ġsigno":5595,"Ġvenonta":5596,"ster":5597,"Ġbr":5598,"nomo":5599,"Ġligno":5600,"ĠEsperantis":5601,"kcidento":5602,"Ġdeven":5603,"inojn":5604,"ĠTele":5605,"romp":5606,"Ġsubteno":5607,"Sa":5608,"eraj":5609,"picx":5610,"NM":5611,"Ġiru":5612,"55":5613,"Ġarbaroj":5614,"Ġcetere":5615,"ĠaÅŃtoroj":5616,"ĠLitovio":5617,"Ġenspe":5618,"Ġnorde":5619,"Ġmalrapide":5620,"Ġorganizi":5621,"Ġstan":5622,"ÄĪiuj":5623,"Ġbirdo":5624,"Ġtranslok":5625,"Ġkoncerne":5626,"Ġkonstante":5627,"ĠBir":5628,"ĠFri":5629,"Ġkatastro":5630,"zolu":5631,"ĠdaÅŃris":5632,"sper":5633,"cido":5634,"Ġpersone":5635,"ĠhaÅŃ":5636,"Ġposta":5637,"Ġjardekoj":5638,"ĠaliÄĿis":5639,"set":5640,"ĠruÄĿa":5641,"Su":5642,"Ġporde":5643,"Ġdialo":5644,"Ġrestor":5645,"Ġmalhe":5646,"ira":5647,"ĠsufiÄī":5648,"ido":5649,"Å¾":5650,"dinte":5651,"Ġiujn":5652,"Ġvenkis":5653,"Libera":5654,"ĠEsperantisto":5655,"panoj":5656,"Ja":5657,"Ġadop":5658,"ima":5659,"naskiÄĿis":5660,"cy":5661,"Ġneo":5662,"ĠGer":5663,"mir":5664,"Ġfenestro":5665,"Ġligo":5666,"ziaj":5667,"Ġamaskomuni":5668,"omeno":5669,"Ġpac":5670,"07":5671,"Ġprovas":5672,"fal":5673,"anton":5674,"Ġpej":5675,"bran":5676,"aciaj":5677,"Ġsukcese":5678,"Ġparlamento":5679,"Ġhipo":5680,"gulo":5681,"bab":5682,"Ġsendepende":5683,"Ġreen":5684,"ĠPres":5685,"Ġokazinta":5686,"mpo":5687,"Ġtradukado":5688,"Ġmalsukces":5689,"...]":5690,"Ġdifinita":5691,"Mul":5692,"ĠIJK":5693,"Ġtera":5694,"belo":5695,"Ġprezo":5696,"Ġlongan":5697,"lingvis":5698,"Ġinteli":5699,"Ġprofunda":5700,"bano":5701,"Äīero":5702,"ĠâĤ¬":5703,"Ġhezi":5704,"kau":5705,"Ġparolantoj":5706,"Ġmatene":5707,"Ġpet":5708,"Ta":5709,"Ġkonferenco":5710,"ksoj":5711,"cs":5712,"iras":5713,"farita":5714,"mentojn":5715,"Ġkonis":5716,"Ġkutima":5717,"rum":5718,"Ġlast":5719,"ĠÄīeval":5720,"Ġjuda":5721,"Ġopinion":5722,"kismo":5723,"Ġbre":5724,"Ġsvis":5725,"ĠaÅŃton":5726,"Ġapartaj":5727,"Ġkuracisto":5728,"til":5729,"ĠCol":5730,"Ġkonsekven":5731,"laroj":5732,"tie":5733,"Ġkonstruis":5734,"Ġimperio":5735,"ĠBuda":5736,"time":5737,"ĠNew":5738,"Ġekstere":5739,"ĠMala":5740,"Ġfloroj":5741,"Ġakuz":5742,"Ġdekstra":5743,"Ġkvartalo":5744,"Ġkulturoj":5745,"æľ":5746,"vaÄµo":5747,"Ġmaksim":5748,"Ġaspektas":5749,"Ġ1970":5750,"Ġplanedo":5751,"ekzemple":5752,"52":5753,"Ġorganizoj":5754,"sin":5755,"Ġsemin":5756,"Ġmales":5757,"LO":5758,"Ġkoncernas":5759,"Ġpiedoj":5760,"ktitaj":5761,"ÄĪiu":5762,"AM":5763,"lara":5764,"Ġformas":5765,"Ġhomon":5766,"buo":5767,"ĠAnglio":5768,"Ġate":5769,"ðŁĺ":5770,"tora":5771,"ĠÅĿtat":5772,"ĠTor":5773,"Ġdonita":5774,"90":5775,"ĠGrek":5776,"aux":5777,"Ġinstitucioj":5778,"lismo":5779,"ameriko":5780,"Pli":5781,"Ġemin":5782,"iki":5783,"Ġemas":5784,"Ġgaj":5785,"Ġdisvolvi":5786,"ĠLen":5787,"Ġlimigita":5788,"Ġkialo":5789,"Ġregion":5790,"Ġbatal":5791,"ĠpaÅŃ":5792,"Ġretro":5793,"ĠMer":5794,"ĠII":5795,"Ġlastan":5796,"Ġrecen":5797,"Ġvidos":5798,"Ġpers":5799,"Ġpretas":5800,"Ġvenko":5801,"bita":5802,"Ġpul":5803,"Ġpilgri":5804,"instru":5805,"Ġkolekto":5806,"ĠOkcidenta":5807,"Ġfremdaj":5808,"libroj":5809,"ĠBre":5810,"Ġrenov":5811,"pin":5812,"Ġaliflanke":5813,"ĠaliÄĿ":5814,"Am":5815,"Ġapero":5816,"ĠÅĿatus":5817,"anojn":5818,"72":5819,"Ġdokumento":5820,"ĠbedaÅŃrinde":5821,"Ġagoj":5822,"ĠAu":5823,"Ġsxi":5824,"Ġinteg":5825,"ĠÄĪina":5826,"Ġpovo":5827,"viden":5828,"Ġreprezentas":5829,"ĠmalÅĿ":5830,"ĠKategorio":5831,"hat":5832,"servo":5833,"ĠVene":5834,"Ġfut":5835,"ĠVe":5836,"Ġdankas":5837,"ĠMuzeo":5838,"Ġveni":5839,"malpli":5840,"book":5841,"Ġskulp":5842,"Ġkontras":5843,"Ġgub":5844,"Ġgravajn":5845,"vajo":5846,"Ġflanke":5847,"Ġtekstojn":5848,"Ġliston":5849,"baro":5850,"Ġpercep":5851,"ĠTago":5852,"Ġoportun":5853,"Gran":5854,"ĠOl":5855,"iu":5856,"zaÄµoj":5857,"ieron":5858,"forme":5859,"Ġmaljuna":5860,"Montri":5861,"Ġrilatojn":5862,"Ġdistingi":5863,"http":5864,"ĠvizaÄĿ":5865,"Ġatendi":5866,"Ġgxin":5867,"ĠÄīeestis":5868,"Dan":5869,"porto":5870,"hr":5871,"Ġmid":5872,"ĠDemokra":5873,"koraÅŃ":5874,"Ġprinco":5875,"ĠaÄīetis":5876,"ĠinaÅŃ":5877,"bicio":5878,"Ġvolonte":5879,"INVALIDINVALID":5880,"Ġkonfuz":5881,"Ġmezo":5882,"Ġricevos":5883,"ĠÅĿanÄĿis":5884,"Ġklasika":5885,"Ġkonflikto":5886,"ãĢ":5887,"Ġkampoj":5888,"Ġkristana":5889,"fika":5890,"ĠkonstruaÄµoj":5891,"vil":5892,"ĠFeli":5893,"Ġhelpos":5894,"ligitaj":5895,"gna":5896,"Ġprun":5897,"ÅĿon":5898,"Ġdemokratio":5899,"Ġpredi":5900,"ejojn":5901,"Ġslova":5902,"igaj":5903,"Ġmalka":5904,"Ġscipo":5905,"Ġkantis":5906,"Kvankam":5907,"Ġ300":5908,"ablono":5909,"Ġabon":5910,"Ġtimo":5911,"Ġkompeten":5912,"Ġdifek":5913,"Ġrapid":5914,"Ġeniri":5915,"Ġintervju":5916,"ĠSame":5917,"cita":5918,"Ġbes":5919,"konsento":5920,"Ġsekureco":5921,"Ø§":5922,"cele":5923,"ĠOficejo":5924,"ĠMeksiko":5925,"Ġkver":5926,"Ġespero":5927,"dt":5928,"Ġkoman":5929,"Ġterura":5930,"fu":5931,"plej":5932,"ĠrenkontiÄĿoj":5933,"Ġkvara":5934,"Ġuzu":5935,"ĠAnjo":5936,"Ġinfanojn":5937,"ĠLiaj":5938,"Ġdemandojn":5939,"Ġmalkovris":5940,"AÅŃ":5941,"fino":5942,"Ġverkojn":5943,"Ġkanta":5944,"Ġrezultoj":5945,"76":5946,"Ġkoler":5947,"port":5948,"ĠÄīeÄ¥a":5949,"az":5950,"Ġentenas":5951,"ĠLern":5952,"kilo":5953,"...)":5954,"Ġinteresaj":5955,"ĠÅĿer":5956,"ĠGar":5957,"Ġuzanto":5958,"Ġagadon":5959,"pedi":5960,"54":5961,"pabla":5962,"Ġsituacion":5963,"Gla":5964,"IO":5965,"Ġdecidi":5966,"Ġmemoro":5967,"Ġperspekti":5968,"Ġspekta":5969,"Ġedzi":5970,"Ġpraktiko":5971,"Ã±":5972,"ĠkaÅŃzo":5973,"Ġperseku":5974,"âĢ¦]":5975,"Ġhejme":5976,"Ġklarigas":5977,"Trans":5978,"Ġoriente":5979,"Ġtelevi":5980,"Ġalbumo":5981,"ung":5982,"Ġkredis":5983,"kanto":5984,"Ġanti":5985,"ĠHu":5986,"ÄĽ":5987,"dago":5988,"ĠLA":5989,"Ġpligran":5990,"ĠÃª":5991,"ĠFilo":5992,"Ġamuz":5993,"parolantoj":5994,"Ġhazarde":5995,"Ġradikoj":5996,"Ġvon":5997,"dal":5998,"ĠleÄĿoj":5999,"ĠVan":6000,"ĠIrano":6001,"Ġreprezentantoj":6002,"digo":6003,"Ġelmon":6004,"Ġder":6005,"Ġbezonis":6006,"hom":6007,"Ġkvadra":6008,"Ġpermesis":6009,"Ġlun":6010,"Ġtoler":6011,"Ġinteligen":6012,"Ġsopi":6013,"Ġstudi":6014,"ĠJohan":6015,"Ġmalfrue":6016,"non":6017,"Â´":6018,"Ġtimas":6019,"deo":6020,"Ġentreprenoj":6021,"Ġlegen":6022,"Ġrespondas":6023,"Ġsimbol":6024,"IR":6025,"Ġsidejo":6026,"mano":6027,"Ġdistanco":6028,"zino":6029,"Ġeldi":6030,"lande":6031,"Ġelektro":6032,"feroj":6033,"voje":6034,"ĠtaÅŃga":6035,"Ġteg":6036,"cal":6037,"listo":6038,"Ġeldonis":6039,"Ġzono":6040,"Ġdonos":6041,"Ġportas":6042,"TM":6043,"Ġparame":6044,"ĠSh":6045,"ĠaÅŃdi":6046,"Ġcelon":6047,"Ġpreta":6048,"Ġdiskon":6049,"Ġoriginalo":6050,"ĠEuro":6051,"ĠKie":6052,"Ġrespektive":6053,"Ġvespere":6054,"tedralo":6055,"amon":6056,"Ġregn":6057,"Ġvarma":6058,"proble":6059,"ĠruÄĿ":6060,"Ġdemandi":6061,"Ġmalgrandan":6062,"ĠAle":6063,"Ġpublike":6064,"ĠÄµur":6065,"pole":6066,"Ġproprajn":6067,"klin":6068,"ĠAb":6069,"ĠÄīia":6070,"Ġkaptis":6071,"Ġvege":6072,"Äĩ":6073,"ĠÄīiutaga":6074,"cin":6075,"Ġdisponebla":6076,"ĠHodiaÅŃ":6077,"monda":6078,"Ġlandli":6079,"tujo":6080,"Ġalportis":6081,"Ġgej":6082,"EE":6083,"liam":6084,"ĠWal":6085,"rojekto":6086,"Ġdro":6087,"ĠPara":6088,"aluton":6089,"Ġpejza":6090,"gin":6091,"Ġstudo":6092,"Ġknabino":6093,"58":6094,"Ġdiab":6095,"ĠFar":6096,"Ġflankoj":6097,"tona":6098,"Ġmulto":6099,"Ġgvidanto":6100,"Ġsimbolo":6101,"ĠmalÄĿoj":6102,"Ġkomunan":6103,"Ġprav":6104,"ĠKolom":6105,"jojn":6106,"Ġdenas":6107,"Ġrestos":6108,"ĠkaÅŃzas":6109,"Ġkondukas":6110,"uzaiko":6111,"Ġcm":6112,"Ġgeedzi":6113,"Ġservas":6114,"Ġstarigis":6115,"ity":6116,"Ġmuzikon":6117,"Ġinvitas":6118,"Ġsomero":6119,"emonio":6120,"Ġnomojn":6121,"Ġpriskribas":6122,"Ġjena":6123,"Afri":6124,"Ġsekv":6125,"Ġprodukto":6126,"Ġteritorioj":6127,"gantaj":6128,"Ġsendependa":6129,"igxis":6130,"clap":6131,"Ġprefi":6132,"ĠKontakto":6133,"ĠMez":6134,"Ġprofesia":6135,"Ġmenciita":6136,"taga":6137,"paco":6138,"Ġvojoj":6139,"yle":6140,"Ġsavi":6141,"Ġsciencistoj":6142,"42":6143,"ĨįãĨįãĨįãĨįãĨįãĨįãĨįãĨįã":6144,"Ġopiniis":6145,"Ġfro":6146,"Ġbelan":6147,"Ġinkluzivas":6148,"Ġanoncis":6149,"deble":6150,"ĠHom":6151,"ĠMilito":6152,"Ġfrazoj":6153,"03":6154,"Ġfamaj":6155,"ĠRuman":6156,"ĠTiun":6157,"Ġeksterlandaj":6158,"ĠBudape":6159,"Ġmalfermis":6160,"tiaj":6161,"Ġmiz":6162,"Ġlign":6163,"99":6164,"Ġforgesis":6165,"ĠÅĿpar":6166,"Ġkore":6167,"Ġnormala":6168,"Ġsamide":6169,"Ġnuntempa":6170,"bado":6171,"Ġnee":6172,"Ġpasinta":6173,"57":6174,"Ġbesto":6175,"Ġkomfor":6176,"Ġsankt":6177,"47":6178,"ÅĿt":6179,"Ġdeziro":6180,"ĠÄĪeÄ¥io":6181,"Ġdikta":6182,"ĠWe":6183,"fr":6184,"kribu":6185,"Ġinstrui":6186,"Ġprovizor":6187,"Ġzorg":6188,"ĠSpirito":6189,"Ġorganizis":6190,"Ġportuga":6191,"Ġdemandas":6192,"Ġenhavon":6193,"ui":6194,"uli":6195,"igata":6196,"ĠsaÄĿ":6197,"Ġkonsentis":6198,"deko":6199,"Ġokcidente":6200,"Ġkoncerto":6201,"Ġversion":6202,"Ġ36":6203,"ĠMedia":6204,"Ġepo":6205,"Ġnego":6206,"53":6207,"ĠÂ©":6208,"ĠFu":6209,"Ġvalidas":6210,"Ġcirkonstancoj":6211,"Ġfe":6212,"ĠelÅĿu":6213,"ĠBj":6214,"ĠmorgaÅŃ":6215,"Ġnecese":6216,"!)":6217,"Ġstratoj":6218,"Ġligitaj":6219,"Ġentrepreno":6220,"Ġsinjorino":6221,"âĢŀ":6222,"aÄĿe":6223,"erna":6224,"Ġsukcesa":6225,"enato":6226,"Ġinkludas":6227,"Ġderi":6228,"esti":6229,"41":6230,"ĠMari":6231,"Ġmalproksime":6232,"Sek":6233,"Ġskribita":6234,"Ġelektroni":6235,"ĠJean":6236,"endaro":6237,"loven":6238,"Ġplano":6239,"Ġilus":6240,"Ġeblecon":6241,"Ġhistoriaj":6242,"let":6243,"dilo":6244,"ĠMalgraÅŃ":6245,"Ġpraktike":6246,"Ġaktuala":6247,"Ba":6248,"Ġdelonge":6249,"ĠHelpo":6250,"skribo":6251,"urojn":6252,"Ġeltro":6253,"Ġinsuloj":6254,"vorto":6255,"Ġkoncentri":6256,"Ġkonson":6257,"Ġplus":6258,"Ġekkri":6259,"Ġreligiaj":6260,"ç¤¼åĮħç¤¼åĮħç¤¼åĮħç¤¼åĮħç¤¼åĮħç¤¼åĮħç¤¼åĮħç¤¼åĮħç¤¼åĮħç¤¼åĮħç¤¼åĮħç¤¼åĮħç¤¼åĮħç¤¼åĮħç¤¼åĮħç¤¼åĮħç¤¼åĮħç¤¼åĮħç¤¼åĮħç¤¼åĮħç¤¼åĮħç¤¼åĮħç¤¼åĮħç¤¼åĮħç¤¼åĮħç¤¼åĮħç¤¼åĮħç¤¼åĮħç¤¼åĮħç¤¼åĮħç¤¼åĮħç¤¼åĮħ":6261,"lava":6262,"ĠEstr":6263,"iÄĿanta":6264,"Ġkontakti":6265,"Ġversioj":6266,"Ġdemon":6267,"cebook":6268,"hol":6269,"Ġprelego":6270,"pr":6271,"Ġkien":6272,"hibicio":6273,"ĠdaÅŃras":6274,"Ġtomb":6275,"Ġilo":6276,"Ġtavo":6277,"Ġsekvi":6278,"kanta":6279,"verso":6280,"ä¸":6281,"ĠLis":6282,"Ġinstan":6283,"Ġklarigis":6284,"ĠÄĿardeno":6285,"Ġrajto":6286,"Ġ1920":6287,"Ã¹":6288,"Ġdetale":6289,"ĠvilaÄĿ":6290,"yn":6291,"ÄĿado":6292,"ĠGal":6293,"orizon":6294,"Ġtalen":6295,"ĠBor":6296,"Ġgvidantoj":6297,"kru":6298,"Ġreale":6299,"penha":6300,"Ġech":6301,"Ġrezolu":6302,"Ġverbo":6303,"lernejo":6304,"Ġakci":6305,"ĠSankt":6306,"Ġpripens":6307,"ĠMarta":6308,"ĠAlia":6309,"Ġeksteraj":6310,"logion":6311,"fre":6312,"parolo":6313,"Ġ1960":6314,"ĠDanio":6315,"Ġ(=":6316,"Ġobjektoj":6317,"Ġdrin":6318,"Ġkrizo":6319,"insulo":6320,"ĠStan":6321,"Ġfinanca":6322,"dri":6323,"astio":6324,"Ġmerkato":6325,"Äīita":6326,"Ġfrukto":6327,"Ġ1992":6328,"zumo":6329,"Ġiros":6330,"ÅĤaw":6331,"Ġvalo":6332,"Ġmembrojn":6333,"Ġmilita":6334,"Ġtradiciaj":6335,"ĠParlamento":6336,"meti":6337,"Ġgenro":6338,"Ġ32":6339,"Ġsimpa":6340,"ĠsenÄī":6341,"Ġekzemploj":6342,"ĠBil":6343,"ith":6344,"pus":6345,"ĠvizaÄĿon":6346,"ĠArgentino":6347,"tologio":6348,"ĠDSC":6349,"ĠIuj":6350,"Ġurbeto":6351,"Ġmetodoj":6352,"Ġoperaci":6353,"Ġpoemoj":6354,"Ġplenan":6355,"Ġinstruistoj":6356,"43":6357,"lingvoj":6358,"dom":6359,"cher":6360,"Ġgeamikoj":6361,"Ġrespubliko":6362,"Ġpartoprenas":6363,"ĠantaÅŃvi":6364,"Ġ1999":6365,"ĠAma":6366,"Ġokupis":6367,"Ġrememor":6368,"ege":6369,"Ġetn":6370,"Ġeksplu":6371,"Ġabsolu":6372,"esko":6373,"Ġgrav":6374,"Ġteron":6375,"Ġpostulis":6376,"02":6377,"manoj":6378,"Ġellabor":6379,"Ġsimplaj":6380,"Ġfanta":6381,"Ġkreado":6382,"gumi":6383,"Ġheb":6384,"ĠInstituto":6385,"KK":6386,"iÄĿoj":6387,"tenon":6388,"Ġkompleta":6389,"Ġmodernaj":6390,"Ġporno":6391,"deknaÅŃ":6392,"Ġanalizo":6393,"Ġperfi":6394,"Ġvolus":6395,"ĠVirg":6396,"damo":6397,"juo":6398,"sol":6399,"Ġrobo":6400,"Ġvaloron":6401,"Ġcertigi":6402,"ĠAmeri":6403,"ĠReÄĿ":6404,"Ġaperos":6405,"GlaÄīero":6406,"Ġdetermin":6407,"Ġ48":6408,"Ġregistrita":6409,"Ġsano":6410,"Ġportis":6411,"Ġretejon":6412,"ÄĿante":6413,"Ġmetas":6414,"ĠÄīesis":6415,"Ġamon":6416,"Ġverki":6417,"Ġpopola":6418,"Ġhavus":6419,"Ġnenia":6420,"Ġpublikaj":6421,"âĸĳ":6422,"lantaj":6423,"ĠVieno":6424,"Sen":6425,"Wiki":6426,"Ġrezign":6427,"1234":6428,"esulino":6429,"Ġretpa":6430,"ĠRaj":6431,"Ġpersonojn":6432,"Ġnega":6433,"Ġhid":6434,"ĠMis":6435,"Ġradiko":6436,"Ġfenomeno":6437,"dezi":6438,"lanoj":6439,"Jam":6440,"Saluton":6441,"Ġinterne":6442,"Ġprinc":6443,"Ġcom":6444,"Ġpastroj":6445,"geno":6446,"ketoj":6447,"ĠÅĿir":6448,"ĠkaÅŃz":6449,"Ġalko":6450,"ĠLigo":6451,"Ġsekure":6452,"Pe":6453,"Ġnere":6454,"danÄĿ":6455,"ĠKongo":6456,"Ġbildojn":6457,"Ġkristanoj":6458,"Ġgazetoj":6459,"123456":6460,"Äģ":6461,"haveno":6462,"Ġesprimas":6463,"Ä¥i":6464,"Ġejo":6465,"Ġjare":6466,"Ġgrado":6467,"Ġ1995":6468,"Ġfruaj":6469,"kino":6470,"ĠWa":6471,"Ġkoloro":6472,"8765":6473,"deknaÅŃi":6474,".âĢľ":6475,"Ġfremd":6476,"ĠFlor":6477,"ĠinteresiÄĿas":6478,"Ġaraba":6479,"pru":6480,"taloj":6481,"Ġkonkurso":6482,"pil":6483,"ksio":6484,"ĠÅĿata":6485,"ĠÄīeÄ¥":6486,"Ġlukto":6487,"ĠPortuga":6488,"Ġkaraktero":6489,"dato":6490,"Ġleteron":6491,"balo":6492,"Ġklar":6493,"doro":6494,"fia":6495,"dantaj":6496,"vortoj":6497,"ĠDankon":6498,"ĠMadri":6499,"Ġdankon":6500,"Ġblankaj":6501,"Ġmontr":6502,"ĠfariÄĿi":6503,"Ġefiko":6504,"vadon":6505,"Ġakv":6506,"trejo":6507,"ĠKonstitu":6508,"Ġkapablo":6509,"Ġkunsido":6510,"Ġ×":6511,"Ġpinto":6512,"Ġkonker":6513,"Ġtaskon":6514,"Ġdatreveno":6515,"Ġsorto":6516,"EU":6517,"ĠFil":6518,"Ġparlamen":6519,"Ġ1991":6520,"paci":6521,"debla":6522,"Kel":6523,"Ġukra":6524,"ĠÄĿojo":6525,"Ġ1998":6526,"Ġesprimis":6527,"nas":6528,"naÄµo":6529,"Ġagi":6530,"teloj":6531,"igan":6532,"Ġplum":6533,"ĠWor":6534,"Ġrekonstru":6535,"ksaj":6536,"Ġretejoj":6537,"74":6538,"Ġmiliton":6539,"Ġadministran":6540,"inan":6541,"cri":6542,"Si":6543,"Ġporna":6544,"Ġmortigi":6545,"Ġrefor":6546,"ĠmanÄĿas":6547,"ĠBud":6548,"\").":6549,"akte":6550,"ĠSim":6551,"Ġjubile":6552,"Ġcertaj":6553,"PER":6554,"Ġetaj":6555,"Ġoficejo":6556,"ĠJako":6557,"ĠNorve":6558,"ĠBrita":6559,"Ġpasi":6560,"ĠKroa":6561,"ult":6562,"Ġtrafi":6563,"Ġindiki":6564,"stri":6565,"Ġintencas":6566,"Ġkomb":6567,"ĠVjet":6568,"Ġricev":6569,"Ġrigardo":6570,"ĠMoseo":6571,"Ġelstara":6572,"Ãª":6573,"Ġgim":6574,"emoj":6575,"Ġ[...]":6576,"kuris":6577,"ĠAmbaÅŃ":6578,"Ġfilozofi":6579,"Ġmaterialoj":6580,"tori":6581,"Ġtrafis":6582,"Ġlicen":6583,"Ġokazoj":6584,"ĠVes":6585,"kie":6586,"ĠLibro":6587,"Ġeksterordin":6588,"Ġprenas":6589,"Ġcert":6590,"Ġprojekton":6591,"Ġdepartemento":6592,"mons":6593,"ĠAnti":6594,"Ġvarm":6595,"moni":6596,"ĠÄīefministro":6597,"63":6598,"Ġspertis":6599,"ĠtaÅŃgas":6600,"Ġrifuzis":6601,"ĠPala":6602,"Ġgrandeco":6603,"ĠFranca":6604,"Ġekspozicio":6605,"galo":6606,"Tra":6607,"ĠEston":6608,"tagmeze":6609,"tito":6610,"dadon":6611,"Ġleganto":6612,"Ling":6613,"ĠStra":6614,"Ġrakontoj":6615,"Ġprincipoj":6616,"ĠWilliam":6617,"ĠPalestino":6618,"Ġegal":6619,"lejo":6620,"Ġsul":6621,"ĠreÄĿis":6622,"Ġbono":6623,"Ġebleco":6624,"oso":6625,"Ġsencon":6626,"Ð²":6627,"ĠRigar":6628,"Ġmankis":6629,"funkci":6630,"Ġvizitantoj":6631,"Ġareoj":6632,"erni":6633,"Ġful":6634,"mana":6635,"ĠnovaÄµoj":6636,"Ġsukcesas":6637,"spi":6638,"citaj":6639,"ĠÅł":6640,"anÄĿ":6641,"ĠSt":6642,"ĠÅľablono":6643,"okaze":6644,"telon":6645,"Ġkompan":6646,"Ġ33":6647,"Ġmuzika":6648,"Ġ1993":6649,"61":6650,"ĠKen":6651,"Ġmiliar":6652,"Ġpreten":6653,"Jo":6654,"ĠPopola":6655,"Ġrimedojn":6656,"Ġkulturaj":6657,"lip":6658,"Ġpropri":6659,"Ġset":6660,"67":6661,"Di":6662,"Ġ38":6663,"Ġplurfoje":6664,"Ġkonduto":6665,"Ġfavore":6666,"libron":6667,"Ġarbar":6668,"Ġrespondon":6669,"sor":6670,"wn":6671,"BI":6672,"Ġlimoj":6673,"kia":6674,"kanoj":6675,"Ġadreso":6676,"Ġesprim":6677,"Ġredakti":6678,"wikipedia":6679,"ĠinÄĿeni":6680,"Ġparale":6681,"Ġludoj":6682,"ĠorganizaÄµoj":6683,"taraj":6684,"Ġlev":6685,"Ġliteratura":6686,"Ġordinara":6687,"france":6688,"ĠGol":6689,"tinte":6690,"ĠDistribu":6691,"ving":6692,"Ġchiuj":6693,"ĠKatalun":6694,"ĠKomunejo":6695,"Ġjuro":6696,"ĠÄĪeÄ¥a":6697,"Kore":6698,"Ñĥ":6699,"ĠMaj":6700,"ĠdaÅŃrigis":6701,"Ġkomencantoj":6702,"ĠJunulara":6703,"alistoko":6704,"ĠaÅŃtomate":6705,"atas":6706,"Ġalti":6707,"Ġekvidis":6708,"Ġmaldekstra":6709,"ĠeÅŃroj":6710,"Ġdiploma":6711,"ĠRumanio":6712,"Ġrezis":6713,"Ġx":6714,"Ġos":6715,"Ġinterre":6716,"Ġsuferis":6717,"ĠBiblio":6718,"Ġenga":6719,"ĠFrancisko":6720,"ĠTon":6721,"Ġkaf":6722,"Ġ150":6723,"ĠAleksandro":6724,"digita":6725,"sion":6726,"Ġinstruas":6727,"LEI":6728,"Ġlokojn":6729,"ĠPeter":6730,"Ġspecifa":6731,"Ġantau":6732,"Ġtenis":6733,"ĠZam":6734,"Ġpozicio":6735,"inteco":6736,"Ġpovi":6737,"Ġmontoj":6738,"Ġmortigis":6739,"Ġesperantista":6740,"Ġagadoj":6741,"Ġteatro":6742,"ĠaliÄĿi":6743,"Ġâĸĳ":6744,"Ġâĸĳâĸĳ":6745,"Ġkonci":6746,"Ġekha":6747,"Ġrimarkin":6748,"enc":6749,"stata":6750,"Ġsinteno":6751,"Ġkoron":6752,"Ġmalfermita":6753,"ĠaranÄĿoj":6754,"Ġlib":6755,"Ġmalpu":6756,"ĠkuÅĿas":6757,"Ġkomplete":6758,"ĠHal":6759,"metis":6760,"Ġenkonduko":6761,"anco":6762,"digas":6763,"ĠTeks":6764,"ĠDE":6765,"ĠRej":6766,"ĠÂ».":6767,"ĠkomenciÄĿas":6768,"trikto":6769,"itajn":6770,"Ġmallar":6771,"Ġbrak":6772,"tejoj":6773,"Ġhavebla":6774,"Ġvokis":6775,"Ġturnis":6776,"gli":6777,"Ġteni":6778,"Ġtemon":6779,"gvi":6780,"Ġdezir":6781,"nombraj":6782,"kson":6783,",[":6784,"Ġrikol":6785,"ĠLitera":6786,"Ġekspozi":6787,"fina":6788,"ĠPA":6789,"ĠParto":6790,"ĠTar":6791,"Ġfratino":6792,"sekso":6793,"trita":6794,"veblaj":6795,"menio":6796,"Ġstatus":6797,"tenoj":6798,"ĠGru":6799,"ĠOli":6800,"ĠTan":6801,"71":6802,"Ġsing":6803,"Ġvivanta":6804,"Ġnomataj":6805,"angla":6806,"Ġspertoj":6807,"Ġnature":6808,"stroj":6809,"ĠFrank":6810,"-)":6811,"orado":6812,"Ġajnan":6813,"ÅĿtatoj":6814,"ĠRuÄĿa":6815,"ĠĠĠĠĠĠĠĠĠĠĠĠĠĠĠĠ":6816,"ÄĻ":6817,"tila":6818,"este":6819,"Ġtemperaturo":6820,"Ġ1945":6821,"Ġatako":6822,"ĠBedaÅŃrinde":6823,"DO":6824,"Ġekestis":6825,"Ġtridek":6826,"Ġimpli":6827,"linio":6828,"ĠÄĿojas":6829,"ĠlarÄĿa":6830,"ĠmesaÄĿo":6831,"eman":6832,"tenis":6833,"ĠBos":6834,"Ġhorojn":6835,"ĠfeliÄīa":6836,"hen":6837,"Ġforton":6838,"lubo":6839,"ĠKantono":6840,"Ġimagi":6841,"Ġviva":6842,"Ġmiri":6843,"Äīeco":6844,"ĠhodiaÅŃa":6845,"Äīambro":6846,"ĠÄīeesto":6847,"ĠmanÄĿo":6848,"Ġangulo":6849,"Ġkonstruo":6850,"Ġfojo":6851,"htm":6852,"tinta":6853,"Ġprelegoj":6854,"Ġneaten":6855,"blioteko":6856,"Ġunika":6857,"Ġmencio":6858,"ise":6859,"ĠstaÄĿo":6860,"Ġfervor":6861,"Ġreveni":6862,"ĠGrekio":6863,"Ro":6864,"kara":6865,"Ġlitero":6866,"ĠkontraÅŃsta":6867,"ĠDosiero":6868,"Ġvico":6869,"premi":6870,"Ġadjek":6871,"Ġgu":6872,"chen":6873,"Ġfrancaj":6874,"Ġnederlanda":6875,"eston":6876,"Ġdiros":6877,"Ġapartan":6878,"Ġtelevido":6879,"Ġokcidento":6880,"tuna":6881,"Ġripro":6882,"progra":6883,"grand":6884,"Ġhotelo":6885,"ĠRon":6886,"Ġtradukon":6887,"ĠMinis":6888,"ĠBr":6889,"Ġgrup":6890,"Ġpraktika":6891,"hard":6892,"Ġrealigi":6893,"ospita":6894,"Ġantikvaj":6895,"ige":6896,"inga":6897,"Ġorganizita":6898,"ĠnaskiÄĿo":6899,"ĠvoÄīoj":6900,"ĠDes":6901,"Ġbonfar":6902,"Ġtromp":6903,"ĠVerda":6904,"KOKOKOKOKOKOKOKOKOKOKOKOKOKOKOKO":6905,"CO":6906,"Nia":6907,"Ġnenian":6908,"Ġsocialismo":6909,"esperanta":6910,"Ñı":6911,"lig":6912,"Ġaldonas":6913,"Me":6914,"ffi":6915,"Ġinformi":6916,"Ġprogramaro":6917,"mm":6918,"Ġtemplo":6919,"ĠGri":6920,"ĠVortaro":6921,"oraj":6922,"Ġartistoj":6923,"Ġepiskopo":6924,"ĠMondmilito":6925,"ÅĿipo":6926,"Ġvideblas":6927,"ĠLand":6928,"ĠGro":6929,"Ġveran":6930,"ĠTTT":6931,"Ġdissen":6932,"Ġesperantaj":6933,"Ġbonega":6934,"xoj":6935,"dina":6936,"pt":6937,"cik":6938,"Ġglu":6939,"Ġkonstanta":6940,"Ġapara":6941,"Ġkorpon":6942,"Ġkategorio":6943,"Ver":6944,"bleco":6945,"ĠvilaÄĿoj":6946,"Ġnaturaj":6947,"Ġverkistoj":6948,"ĠdaÅŃr":6949,"ĠdisvolviÄĿo":6950,"ĠPrezidanto":6951,"Ġpensoj":6952,"Ġfurio":6953,"Ġmunicipo":6954,"ĠSinjor":6955,"Ġponto":6956,"tela":6957,"Ġinves":6958,"ĠFondumo":6959,"Ġprov":6960,"ĠWar":6961,"Ġpalaco":6962,"Ġfako":6963,"Äľis":6964,"lov":6965,"Ġinsek":6966,"Ġplanas":6967,"Ġmalamikoj":6968,"Ġkilometrojn":6969,"ĠEli":6970,"ĠKroatio":6971,"ĠSom":6972,"ĠPapo":6973,"51":6974,"US":6975,"niko":6976,"formaj":6977,"ĠTurkio":6978,"ĠestiÄĿis":6979,"Ġ1994":6980,"Ġfortan":6981,"Ġmapo":6982,"Ġmask":6983,"Ġproto":6984,"kono":6985,"ĠÅĿanÄĿojn":6986,"Ġeben":6987,"Ġfrancan":6988,"Ġperfekta":6989,"kluzive":6990,"ĠMediaWiki":6991,"ernio":6992,"Ġkompreno":6993,"Lo":6994,"Ġdioj":6995,"Ġplue":6996,"Ġfrene":6997,"Ġora":6998,"Ġoficialaj":6999,"ÄĿantaj":7000,"ĠBern":7001,"Ġlevis":7002,"ĠBah":7003,"ĠGPL":7004,"Ġpoezio":7005,"Ġsupera":7006,"Ġprezidan":7007,"Ġtutmonde":7008,"kosta":7009,"umojn":7010,"uja":7011,"ĠÂĹ":7012,"Ġkurson":7013,"Ġefika":7014,"Ġegale":7015,"Ġcelis":7016,"unda":7017,"Ġkavali":7018,"chi":7019,"ĠÄĿui":7020,"Ġblua":7021,"ĠCx":7022,"ĠHispana":7023,"Ġpriskribi":7024,"ĠserÄīo":7025,"kaux":7026,"tonoj":7027,"Ġpasigis":7028,"Ġvidebla":7029,"Ġenergi":7030,"Ġkovri":7031,"Ġgeneralo":7032,"sam":7033,"ĠKru":7034,"ĠKaro":7035,"ĠlaÅŃle":7036,"Ġjusteco":7037,"ĠPrago":7038,"tantan":7039,"ĠBas":7040,"ĠDion":7041,"ceano":7042,"Ġsveda":7043,"Ġbla":7044,"Ġ34":7045,"Ġ39":7046,"grafiaj":7047,"Ġdeveno":7048,"uling":7049,"osa":7050,"puro":7051,"Ġampleksa":7052,"kolora":7053,"Ð´":7054,"ĠMol":7055,"Ġkomentoj":7056,"legis":7057,"ĠAten":7058,"Ġnombroj":7059,"Ġ1930":7060,"64":7061,"Ġ00":7062,"dioj":7063,"ĠPek":7064,"tuÅĿ":7065,"Ġnokte":7066,"lata":7067,"Ġrespub":7068,"Ġproduktas":7069,"Ġkosmo":7070,"ÅĿte":7071,"Ġrekomendas":7072,"Ġsimilan":7073,"zado":7074,"Ġregistaroj":7075,"ĠreÄĿimo":7076,"Ġecx":7077,"Ġdelika":7078,"Ġpotencon":7079,"Ġsenpage":7080,"uel":7081,"ĠPlu":7082,"Ġserv":7083,"ĠPrivata":7084,"wiki":7085,"Ġkilometroj":7086,"Ġjunulo":7087,"Ġ1997":7088,"terioj":7089,"ÃŃa":7090,"Ġcivitan":7091,"Ġtribun":7092,"Ġmilitoj":7093,"car":7094,"tumo":7095,"Ġmalakcep":7096,"Ġinfana":7097,"Ġkir":7098,"ĠMun":7099,"Ġindividuoj":7100,"Ġgramatiko":7101,"Ġpart":7102,"Ġvaloroj":7103,"Ġtransform":7104,"Ġperforto":7105,"ĠFundamento":7106,"Ġhas":7107,"Ġkongresoj":7108,"ĠWikimedia":7109,"Be":7110,"Ġvers":7111,"fiki":7112,"Ġrit":7113,"ligen":7114,"vantoj":7115,"ĠArmeo":7116,"ĠInterna":7117,"ĠÄīambr":7118,"ĠÄµetis":7119,"Ġveron":7120,"ĠÄĿuis":7121,"Ġpromesis":7122,"ĠUzanto":7123,"ĠGvineo":7124,"Ġoro":7125,"permesilo":7126,"Ġmoment":7127,"Ġiloj":7128,"Ġperdi":7129,"ille":7130,"Ġebli":7131,"ĠPakis":7132,"tristo":7133,"ip":7134,"prin":7135,"âĹ":7136,"ose":7137,"Ġekzek":7138,"blis":7139,"ĠKvin":7140,"Ġverk":7141,"Ġleci":7142,"ĠAnna":7143,"Ġfunkciis":7144,"duso":7145,"ĠmesaÄĿ":7146,"vigo":7147,"Ġpin":7148,"Ġpeza":7149,"Ġuniversala":7150,"mono":7151,"Ġul":7152,"taÄµon":7153,"rez":7154,"eld":7155,"Ġkulp":7156,"Ġsono":7157,"ĠKonstan":7158,"Ġprezentita":7159,"ĠKopenha":7160,"Ġarmiloj":7161,"77":7162,"Ġhelpan":7163,"ĠUsona":7164,"Ġunufoje":7165,"Ġsubven":7166,"Ġstarigi":7167,"demokra":7168,"Ġ1910":7169,"ĠChi":7170,"Ġinforma":7171,"Ġagrabla":7172,"Ġmalmo":7173,"Ġregulo":7174,"Ġfirme":7175,"Ġgeneracioj":7176,"Ġstacidomo":7177,"69":7178,"Ġmek":7179,"Ġpersonaj":7180,"ĠPaul":7181,"Ġ1989":7182,"Ġpacon":7183,"Ġscienc":7184,"Ġmetrojn":7185,"Ġkamara":7186,"ĠFilip":7187,"turn":7188,"Ġfaktoj":7189,"Ġnigraj":7190,"celi":7191,"ĠHol":7192,"bser":7193,"ĠadiaÅŃ":7194,"Ġtun":7195,"Ġinteresoj":7196,"ĠMen":7197,"ĠpaÅĿo":7198,"paroj":7199,"ĠNikola":7200,"Kial":7201,"Ġtrajtoj":7202,"NA":7203,"Ġkuba":7204,"iso":7205,"ĠEgiptio":7206,"Ġmirinda":7207,"Ġbild":7208,"Ġelektas":7209,"Ġrezultojn":7210,"Ġklopodis":7211,"Ġaviadilo":7212,"uk":7213,"Ġofta":7214,"Ġpasintaj":7215,"Ġkontribuis":7216,"blajn":7217,"Ġpoemo":7218,"Ġmalkres":7219,"ĠÄĮ":7220,"krimin":7221,"provi":7222,"Ġstudoj":7223,"vadministra":7224,"Ġ<":7225,"Ġhorizon":7226,"Ġmencias":7227,"vadoro":7228,"pajn":7229,"Ġmat":7230,"62":7231,"Ġalteco":7232,"Ġdisko":7233,"Ġenhavadministra":7234,"agren":7235,"Ã¡r":7236,"lie":7237,"kot":7238,"Ġkalkul":7239,"Ġrimedo":7240,"73":7241,"tiÄĿon":7242,"fur":7243,"Ġpremo":7244,"Ġstacio":7245,"ĠRevolu":7246,"Ġspecialaj":7247,"ĠÃ¦":7248,"Ġsubtenon":7249,"Ġnokt":7250,"ĠtuÅĿ":7251,"pp":7252,"tonon":7253,"ĠCha":7254,"ĠÅĿatis":7255,"Ġununura":7256,"Na":7257,"mala":7258,"ejmo":7259,"ĠKomence":7260,"Ġmilionojn":7261,"Ġgrupon":7262,"Ġgrundo":7263,"Ġ1996":7264,"Ġrilaton":7265,"hoj":7266,"Ġhaltis":7267,"ĠdaÅŃrigi":7268,"Ġtrajno":7269,"Ġtombo":7270,"Ġkub":7271,"ĠdisÄīi":7272,"Ġtradukita":7273,"tigu":7274,"Ġign":7275,"ĠPen":7276,"tute":7277,"Ġprepari":7278,"menko":7279,"Ġkonsistigas":7280,"ĠAsembleo":7281,"Ġkoordinatoj":7282,"mil":7283,"ĠiÄĿi":7284,"Ġmalfermi":7285,"ky":7286,"ganoj":7287,"grupoj":7288,"filo":7289,"Ġmalamiko":7290,"grade":7291,"Ġtitolon":7292,"ĠSto":7293,"Ġsteloj":7294,"ĠAfgan":7295,"dadis":7296,"Ġkana":7297,"Ġgita":7298,"ĠDistribuata":7299,"Fine":7300,"Ġesence":7301,"Ġinformis":7302,"ĠInterreto":7303,"gvajo":7304,"Ġpolitikan":7305,"Ġregulojn":7306,"Ġgeneracio":7307,"ĠPortugalio":7308,"glu":7309,"amas":7310,"ĠJoze":7311,"ĠfeliÄī":7312,"bia":7313,"è¡":7314,"Ġdolaroj":7315,"Ġeraro":7316,"IC":7317,"ĠMuzaiko":7318,"tula":7319,"prote":7320,"Ġamaso":7321,"Ġprotekti":7322,"ĠhieraÅŃ":7323,"ĠKur":7324,"Ġ55":7325,"Ã©s":7326,"Ġproponon":7327,"Ġoriento":7328,"Ġunuopaj":7329,"Ġvidpun":7330,"Ġfranc":7331,"ĠEsperantaj":7332,"noma":7333,"Kio":7334,"kovri":7335,"Ġsalono":7336,"Ġmalvarma":7337,"idoj":7338,"ĠOfte":7339,"Ġbelega":7340,"ls":7341,"aÅŃri":7342,"Ġnormale":7343,"ĠViki":7344,"ĠZe":7345,"ĠNuntempe":7346,"TV":7347,"hn":7348,"Ġdezajn":7349,"ĠÅĿanÄĿiÄĿis":7350,"Ġenmig":7351,"trata":7352,"Ġflago":7353,"Ġposedanto":7354,"Ġvio":7355,"Ġretiri":7356,"dejoj":7357,"BN":7358,"âĢ²":7359,"Ġmontaro":7360,"Ġfotojn":7361,"Ġvetero":7362,"rekven":7363,"ĠIMGP":7364,"Ġmanifesta":7365,"peris":7366,"Ġpropor":7367,"Ġkomis":7368,"ĠDar":7369,"Ġformi":7370,"Ġatente":7371,"ĠILEI":7372,"Ġdiskuti":7373,"Ġblank":7374,"Ġsuferas":7375,"Ġgxis":7376,"ĠRevuo":7377,"Ġdirekti":7378,"Ġkonstatis":7379,"Ġmovadon":7380,"RE":7381,"Ġnove":7382,"ĠÅĿancon":7383,"Ġestonta":7384,"Tre":7385,"Ġjur":7386,"Ġsincer":7387,"Ġabsolute":7388,"ĠRenkon":7389,"Ġniveloj":7390,"ĠSamtempe":7391,"ĠKoreio":7392,"teblaj":7393,"ĠKatalunio":7394,"ws":7395,"tinon":7396,"parolis":7397,"Ġarkitek":7398,"Ġtalk":7399,"tren":7400,"tivon":7401,"Ġekspli":7402,"Ġbezono":7403,"gua":7404,"'.":7405,"uis":7406,"Ġprokras":7407,"Ġtemis":7408,"ĠVladi":7409,"Ġdefendi":7410,"oria":7411,"ĠListo":7412,"Ġlaboroj":7413,"ĠSon":7414,"ĠKatolika":7415,"ĠKolombio":7416,"Ġpoloj":7417,"Ġfenomen":7418,"Ġ1950":7419,"Cen":7420,"Ġinvers":7421,"Ġnub":7422,"Ġindas":7423,"Ġparolado":7424,"fla":7425,"lic":7426,"Ġpordon":7427,"ĠNiÄĿ":7428,"Ġlanda":7429,"Ġeblis":7430,"Ġkontrolo":7431,"Ġraporton":7432,"Ġkontinento":7433,"ĠÄĪeÄ¥os":7434,"Ġsens":7435,"Ġkian":7436,"ĠKara":7437,"Ġtiutempe":7438,"Ġpasinteco":7439,"ĠÂ»,":7440,"aÄĿa":7441,"ĠmalÄĿus":7442,"Ġmalferma":7443,"ss":7444,"Ġsenti":7445,"Ġmulton":7446,"ĠbuÅĿo":7447,"ĠetendiÄĿas":7448,"AJ":7449,"Ġmizer":7450,"Ġelekton":7451,"enio":7452,"Ġfortaj":7453,"Ġgras":7454,"umita":7455,"Ġeblon":7456,"ĠMondo":7457,"Ġgastoj":7458,"Ġserioza":7459,"ĠCam":7460,"ĠRobert":7461,"Ġsupozeble":7462,"ĠÅĿu":7463,"ĠmesaÄĿon":7464,"entaj":7465,"Ġvel":7466,"Ġalveno":7467,"dajxo":7468,"Ġnekre":7469,"Ã¼n":7470,"Ġraportis":7471,"uld":7472,"emoni":7473,"Ġsignoj":7474,"ĠEDE":7475,"Ġtrian":7476,"hem":7477,"plik":7478,"Ġmalven":7479,"poka":7480,"Ġkomisiono":7481,"Ġrid":7482,"ĠlaÅŃlonge":7483,"cht":7484,"ĠCommons":7485,"ingen":7486,"ĠFern":7487,"Ġorigine":7488,"ebo":7489,"ĠSirio":7490,"Ġbezonoj":7491,"timo":7492,"ĠCivito":7493,"Ġagen":7494,"ĠÄīer":7495,"Ġinterrila":7496,"Ġdoktor":7497,"Ġekonomiaj":7498,"____":7499,"Ġ37":7500,"Ġ||":7501,"ĠinaÅŃgu":7502,"Ġhin":7503,"Ġhuman":7504,"Ġmaga":7505,"Ġflugo":7506,"Ġplenumas":7507,"win":7508,"orus":7509,"Ġjud":7510,"Ġeraroj":7511,"Ġgren":7512,"cos":7513,"Ġkontraux":7514,"miloj":7515,"kcidente":7516,"ĠNovjor":7517,"Ġapliki":7518,"ĠaÄī":7519,"ted":7520,"donis":7521,"Ġart":7522,"Ġspirita":7523,"koloj":7524,"cienco":7525,"ot":7526,"Ã¼r":7527,"play":7528,"Sub":7529,"Ġdume":7530,"Ġfremda":7531,"ĠTek":7532,"landon":7533,"Ġsuk":7534,"Ġpedago":7535,"AL":7536,"Ġagas":7537,"Ġestante":7538,"Ġigis":7539,"Ġriveroj":7540,"Ġkomuniki":7541,"Ġtaskoj":7542,"\"),":7543,"ĠIu":7544,"Ġfido":7545,"reative":7546,"ĠDok":7547,"Ġliter":7548,"ĠLegu":7549,"Ġdoktoro":7550,"trajn":7551,"Ġspecoj":7552,"Nov":7553,"tiloj":7554,"ĠPon":7555,"uskri":7556,"fir":7557,"Ġsudori":7558,"Ġfolioj":7559,"Par":7560,"ji":7561,"Ġpord":7562,"veturi":7563,"ĠloÄĿejo":7564,"Ġasertis":7565,"Ġsku":7566,"Ġsidas":7567,"Ġforigo":7568,"Ġkoni":7569,"Ġplimul":7570,"Ġfrenez":7571,"Ġakademi":7572,"ulinoj":7573,"Gra":7574,"Ġpolitikistoj":7575,"ĠModulo":7576,"Äīar":7577,"ĠKr":7578,"Ġinterkonsento":7579,"Ġ600":7580,"ANTO":7581,"tetoj":7582,"Ġglo":7583,"ĠIrako":7584,"Ġkostas":7585,"Ġlernej":7586,"Ġsolen":7587,"Ġelpens":7588,"Ġtrezor":7589,"ĠÄīiel":7590,"Ġsciencaj":7591,"Ġcxu":7592,"Ġkontribui":7593,"ÅĿajn":7594,"ĠUnesko":7595,"Ġ{\\":7596,"Ġkalkuli":7597,"ander":7598,"Ġstelo":7599,"Ġmelo":7600,"Ġdefendo":7601,"For":7602,"Ġske":7603,"ĠserÄīis":7604,"istaj":7605,"palo":7606,"wicz":7607,"ktanto":7608,"Ġbier":7609,"ĠSz":7610,"duro":7611,"ĠChris":7612,"Ġkampanjo":7613,"Ġpur":7614,"mez":7615,"Ġveraj":7616,"Ġturo":7617,"ĠaÅŃtomo":7618,"Ġmalof":7619,"ĠSocieto":7620,"98":7621,"Ġnelonge":7622,"voja":7623,"Ġpravas":7624,"Ġescepte":7625,"Or":7626,"mile":7627,"ĠHor":7628,"aba":7629,"Ġcxiu":7630,"IL":7631,"Ġkrim":7632,"Ġmuroj":7633,"Ã³w":7634,"Ġkandidatoj":7635,"ĠGaza":7636,"Ġorgano":7637,"rigi":7638,"ĠEK":7639,"Ġherb":7640,"Ġaktivuloj":7641,"nor":7642,"wer":7643,"Ġspon":7644,"dite":7645,"Ġsamseks":7646,"Ġprovizi":7647,"ĠtranÄī":7648,"Ġjunulara":7649,"ball":7650,"ĠBudapeÅĿto":7651,"Ġnutra":7652,"æľĪ":7653,"Ġskribo":7654,"ĠParo":7655,"Ġproksimaj":7656,"Ġakceptita":7657,"Ġjenaj":7658,"Ġfem":7659,"viÄĿas":7660,"Ġtiele":7661,"ĠNobel":7662,"Ġopinioj":7663,"ĠstreÄī":7664,"Ġ42":7665,"veturis":7666,"guloj":7667,"Ġsurfaco":7668,"Ġkovras":7669,"tego":7670,"Ġdefinition":7671,"The":7672,"Ġsuver":7673,"Ġ~":7674,"Ġtroveblas":7675,"Ġeksciis":7676,"kl":7677,"Multaj":7678,"âĢī":7679,"ĠUsti":7680,"Ġesplori":7681,"ĠTutmonda":7682,"ktantoj":7683,"gula":7684,"Ãł":7685,"mann":7686,"Ã¶r":7687,"ksem":7688,"Ġamaskomunikiloj":7689,"Ġmarks":7690,"Ġsankte":7691,"ĠKopenhago":7692,"feron":7693,"Ġnunaj":7694,"Ġceremonio":7695,"Ġpereis":7696,"Ġforlasi":7697,"ankaÅŃ":7698,"erno":7699,"ĠÄĿiajn":7700,"Ġklasoj":7701,"zaÄµo":7702,"Ġnulo":7703,"Ġefike":7704,"ĠFree":7705,"Ġsumo":7706,"Ġmir":7707,"ĠSaint":7708,"Ġsubskribis":7709,"ĠLor":7710,"acian":7711,"lina":7712,"canoj":7713,"Ġeterna":7714,"pata":7715,"ktato":7716,"ecaj":7717,"Ġnekonata":7718,"ug":7719,"ĠSuper":7720,"Ġidoj":7721,"Ġmapoj":7722,"Ġlinioj":7723,"sign":7724,"Ġrestari":7725,"plenaj":7726,"andar":7727,"Ġutilas":7728,"fto":7729,"âĢİ":7730,"gataj":7731,"Ġmoder":7732,"dav":7733,"ĠHit":7734,"venoj":7735,"Ġsamkiel":7736,"pud":7737,"Ġaspekton":7738,"Ġkulturon":7739,"Ġbabi":7740,"manta":7741,"Ġ49":7742,"ecan":7743,"entojn":7744,"Ġano":7745,"dekso":7746,"Ġkelke":7747,"Ġbazaj":7748,"Ġklopodas":7749,"ĠrifuÄĿ":7750,"Ha":7751,"Ġflank":7752,"Ġdonu":7753,"Ġhundo":7754,"by":7755,"Ġnigr":7756,"Ġhttps":7757,"Ġghin":7758,"ĠVjetnam":7759,"Ġplaco":7760,"ĠJesu":7761,"89":7762,"ĠÅĿto":7763,"Ġlegado":7764,"Ã£":7765,"Ġrigardon":7766,"ĠMadrido":7767,"Î±":7768,"ĠSol":7769,"vir":7770,"usz":7771,"donio":7772,"Ġinsul":7773,"Ġpotenca":7774,"Ġpalestin":7775,"ismoj":7776,"Ġgig":7777,"ĠtaÄī":7778,"Ġesperantan":7779,"Ġ400":7780,"Ġinformas":7781,"Ġkapitalismo":7782,"ĠFederacio":7783,"Ġigas":7784,"Ġforgesu":7785,"UR":7786,"Ġmuze":7787,"Ġalfron":7788,"ĠjuÄĿis":7789,"Ġimpreson":7790,"Du":7791,"Ġavi":7792,"ĠKD":7793,"Ġkadro":7794,"Ġterur":7795,"ÇĶ":7796,"rata":7797,"ĠKia":7798,"Ġdato":7799,"Ġpioni":7800,"Ġkurs":7801,"ĠmontriÄĿis":7802,"Ġaperi":7803,"Ġpunktoj":7804,"ĠEkonom":7805,"Ġgli":7806,"Ġesperante":7807,"Tiuj":7808,"Ġdekli":7809,"Ġekonomi":7810,"Ģè":7811,"logoj":7812,"Ġliberaj":7813,"Ġutili":7814,"Ġminimume":7815,"Ġdormo":7816,"ĠFacebook":7817,"Ġ01":7818,"Ġdiskutoj":7819,"Ġdezerto":7820,"MO":7821,"Ġelemento":7822,"Ä¥io":7823,"Kro":7824,"rinte":7825,"Ġsubtenis":7826,"Ġpliajn":7827,"ĠKir":7828,"piskopo":7829,"ĠPakistano":7830,"ĠteÄ¥":7831,"Ġeksa":7832,"Ġfojojn":7833,"pia":7834,"ĠAnt":7835,"Ġstrange":7836,"ĠVere":7837,"Ġnordori":7838,"Ġorganizas":7839,"Ġsele":7840,"ĠelÅĿuti":7841,"Ġforumo":7842,"Ġreligioj":7843,"Ġmam":7844,"Ġfilon":7845,"ĠmaÅĿino":7846,"HodiaÅŃ":7847,"ĠÄīagren":7848,"Ġgol":7849,"erika":7850,"Ġrefle":7851,"Ġmontran":7852,"Ġvestoj":7853,"Ġgasti":7854,"ĠneÄĿo":7855,"Ġkolo":7856,"ĠÄīefo":7857,"Ġvarias":7858,"ĠKana":7859,"ĠMes":7860,"Ġdiverseco":7861,"gne":7862,"Ġamikojn":7863,"Ġrakont":7864,"ĠaranÄĿi":7865,"Eble":7866,"German":7867,"ĠBrus":7868,"ĠGab":7869,"Ġbezonata":7870,"ĠUrbo":7871,"Ġaplika":7872,"Ġteknologio":7873,"Koreio":7874,"atoj":7875,"pion":7876,"Ġlaborista":7877,"Ġtrio":7878,"Poste":7879,"Ġafab":7880,"Ġmonatojn":7881,"Ġpolitikisto":7882,"ĠMale":7883,"ĠBus":7884,"Ġkuir":7885,"Ġpopolon":7886,"Ġradika":7887,"ĠÄīambron":7888,"ms":7889,"rantaj":7890,"Ġlastatempe":7891,"Ġtrupoj":7892,"Ġkonstitucio":7893,"omas":7894,"Ġlandaj":7895,"ĠNeces":7896,"Ġtereno":7897,"Ġsituanta":7898,"videbla":7899,"Ġhelpe":7900,"Ġasoci":7901,"Ġbrusto":7902,"xis":7903,"Ġfestivalo":7904,"lima":7905,"Ġkunteksto":7906,"Ġfier":7907,"Ġesploro":7908,"ĠTradu":7909,"Ð¼":7910,"Ġkunpor":7911,"ĠNom":7912,"ĠÅĿil":7913,"Kiu":7914,"ĠokupiÄĿas":7915,"gma":7916,"grafo":7917,"Ġesplorado":7918,"ĠBulgario":7919,"Ġmalle":7920,"ĠMark":7921,"Ġesploroj":7922,"Ġmenciis":7923,"ĠNorvegio":7924,"ĠreÄĿa":7925,"ĠAIS":7926,"kore":7927,"fektive":7928,"Ġkonsideris":7929,"Ġkin":7930,"ĠKonferenco":7931,"ĠRegis":7932,"Ġviktimoj":7933,"ÄĿintaj":7934,"Ġokupas":7935,"reda":7936,"Ġkvanton":7937,"ĠEstraro":7938,"nur":7939,"Ġmikro":7940,"Ġmemstare":7941,"ĠRam":7942,"Ġorganiza":7943,"Ġmallonge":7944,"Ġveturis":7945,".-":7946,"Ce":7947,"Ġfleks":7948,"laude":7949,"Ġsila":7950,"Ġsindika":7951,"Ġkunlabori":7952,"Ġplenumis":7953,"voro":7954,"diono":7955,"Ġenketoj":7956,"Uni":7957,"ĠaÅŃdas":7958,"ĠKontraÅŃ":7959,"ĠZa":7960,"tions":7961,"Ġadapti":7962,"Ġplezuro":7963,"ĠkuÅĿis":7964,"kcia":7965,"Ġekzist":7966,"ĠanstataÅŃe":7967,"Ġprovizas":7968,"Ġyou":7969,"istojn":7970,"ĠFranc":7971,"Ġkoloroj":7972,"Ġgermanan":7973,"Ġevoluon":7974,"plon":7975,"ĠpaÅĿoj":7976,"disku":7977,"sona":7978,"flor":7979,"dion":7980,"tria":7981,"Ġvok":7982,"ĠbranÄīo":7983,"ĺĩ":7984,"art":7985,"ĠJES":7986,"Ġcivili":7987,"ardeno":7988,"Ġmaterialon":7989,"undoj":7990,"Ġkamp":7991,"ĠAliflanke":7992,"Ġargumentoj":7993,"adi":7994,"ĠEx":7995,"Ġarta":7996,"Ġbatali":7997,"ime":7998,"tikajn":7999,"ĠTuj":8000,"ĠGor":8001,"Ġkritiko":8002,"antajn":8003,"Äµa":8004,"tuo":8005,"Ġdisvastigi":8006,"Ġintervjuo":8007,"88":8008,"Ġdelegi":8009,"Ġrekom":8010,"ĀĀĀĀĀĀĀĀĀĀĀĀĀĀĀĀ":8011,"Ġportugala":8012,"OS":8013,"feli":8014,"ÑĮ":8015,"rup":8016,"lavo":8017,"tipo":8018,"Ġfrun":8019,"Ġtrakti":8020,"Ġevoluis":8021,"Ġliteratur":8022,"Ġkatolikaj":8023,"ĠanÄĿ":8024,"Ġtaksi":8025,"Ġdecidas":8026,"ct":8027,"Ġvino":8028,"Ġmos":8029,"Ġretum":8030,"Ġjene":8031,"Ġfilozofo":8032,"AP":8033,"zil":8034,"Ã¡s":8035,"Ġisra":8036,"Ġpene":8037,"ĠÄľuste":8038,"Ġdestin":8039,"Ġzorgas":8040,"ĠISBN":8041,"è¡Ģè":8042,"ĠSep":8043,"Ġbazon":8044,"Ġorganizantoj":8045,"Ġesperantistojn":8046,"Ġmodifi":8047,"Ġ{{":8048,"ĺĩæľĪ":8049,"è¡ĢèĺĩæľĪ":8050,"ĠFal":8051,"Ġkantas":8052,"ðŁĺ¨":8053,"EM":8054,"valoj":8055,"prenas":8056,"Ġplejparto":8057,"ĠOkaz":8058,"df":8059,"Ġ44":8060,"Ven":8061,"kiÄĿis":8062,"kongreso":8063,"Ġfinna":8064,"rigardis":8065,".).":8066,"trans":8067,"ĠÄīapitro":8068,"Ġinterese":8069,"Ġregula":8070,"fru":8071,"berio":8072,"Ġprofesiaj":8073,"Ġmenciitaj":8074,"Ġoli":8075,"Ġsendas":8076,"ĠAndreo":8077,"ĠUstimenko":8078,"ary":8079,"Ġhim":8080,"Ġplat":8081,"Ġklimato":8082,"Ġvapor":8083,"ðŁĺ¨ðŁĺ¨":8084,"Ġmalgaj":8085,"ĠmalriÄī":8086,"ficiala":8087,"Ġdecidoj":8088,"Ġinfluon":8089,"Ġiniciato":8090,"setti":8091,"vadis":8092,"Ġrub":8093,"vigi":8094,"Ġintereson":8095,"petalo":8096,"Ġunuajn":8097,"Ġvendre":8098,"Ġebligis":8099,"ÅĿtato":8100,"Ġatmos":8101,"ĠJordan":8102,"Ġekkriis":8103,"Ġ]":8104,"Ġkis":8105,"Ġprogreso":8106,"Ġruin":8107,"Ġmalsamajn":8108,"tikoj":8109,"Ġsimil":8110,"Ġkataluna":8111,"bul":8112,"divi":8113,"Ġglute":8114,"Ġplor":8115,"Ġneceso":8116,"tto":8117,"style":8118,"Ġfono":8119,"ferm":8120,"rinda":8121,"ÄĿadis":8122,"Ġprintempo":8123,"Ġoriginalan":8124,"Ġtimis":8125,"Ġdufoje":8126,"Ġpostaj":8127,"ciklope":8128,"ĠBla":8129,"soci":8130,"bona":8131,"Ġintencis":8132,"Ġchu":8133,"ĠÄµurnalisto":8134,"Ġalfabeto":8135,"ctor":8136,"Ġdefi":8137,"Ġgene":8138,"ĠaÅŃtuno":8139,"Ġfias":8140,"Ġproponoj":8141,"jaro":8142,"Ñĭ":8143,"ĠsenÄīese":8144,"yo":8145,"Ġpse":8146,"Ġangle":8147,"-,":8148,"ÅĽ":8149,"Ġfeti":8150,"Ġfori":8151,"ĠKiom":8152,"Ġmalsanoj":8153,"falo":8154,"Ġdecidon":8155,"Ġrespekto":8156,"Ġelektitaj":8157,"2015":8158,"Sh":8159,"bris":8160,"Ġtan":8161,"Ġforigita":8162,"Ġfondinto":8163,"ĠJulio":8164,"Ġmeritas":8165,"xon":8166,"ĠMu":8167,"Ġplian":8168,"Ġ1987":8169,"gebla":8170,"kvali":8171,"Ġdenun":8172,"cus":8173,"tikolo":8174,"Ġrakonti":8175,"Ġvalora":8176,"Ġordono":8177,"Ġuniversitatoj":8178,"lantaro":8179,"mun":8180,"tte":8181,"Ġintertra":8182,"bela":8183,"Ġï»¿":8184,"uras":8185,"ĠKali":8186,"ĠSloven":8187,"ĠPaci":8188,"lanko":8189,"Ġdiskrimin":8190,"Ġrab":8191,"ĠSimp":8192,"Ġglaci":8193,"vara":8194,"Ġsentoj":8195,"ĠleviÄĿis":8196,"Ġnuda":8197,"Ġproduktis":8198,"joroj":8199,"tima":8200,"ĠJon":8201,"Ġinformado":8202,"ĠaÅŃtomata":8203,"ln":8204,"Ġsud":8205,"lasta":8206,"ĠIzraeli":8207,"Ġkriis":8208,"Ġit":8209,"ĠiÄĿos":8210,"Ġprocentoj":8211,"laso":8212,"Ġsocieto":8213,"Ġmalbonaj":8214,"Ġkonsil":8215,"Ġprofesi":8216,"ĠVenezu":8217,"ĠSar":8218,"Ġkorp":8219,"Ġdana":8220,"Ġekzameno":8221,"dosi":8222,"lori":8223,"mus":8224,"Ġpremis":8225,"Ġribelo":8226,"ĠÂ°":8227,"ĠIom":8228,"Ġkonscio":8229,"ĠIndone":8230,"Ġfrag":8231,"Ġkalendaro":8232,"ĠHungara":8233,"Ġreveno":8234,"Ġvenu":8235,"ĠAnkoraÅŃ":8236,"Ġturni":8237,"Ġrondo":8238,"ĠNigra":8239,"Ġnai":8240,"Ġkantojn":8241,"Ġbrazila":8242,"spaco":8243,"Ġlig":8244,"rajta":8245,"Ġinteresajn":8246,"fem":8247,"Ġmanuskri":8248,"Ġmastrum":8249,"ĠLes":8250,"ĠCreative":8251,"Ġfakuloj":8252,"Ġ47":8253,"nia":8254,"ÃŁ":8255,"Ġinfek":8256,"ĠÅŃ":8257,"ĠÄīinaj":8258,"Ġbiero":8259,"ĠÅľan":8260,"ĠBea":8261,"ĠÄīarto":8262,"Ġmodif":8263,"Ġdinastio":8264,"ĠMicha":8265,"ÅĦski":8266,"radis":8267,"cias":8268,"ĠEri":8269,"Ġposteno":8270,"Ġreprezentanto":8271,"ĠretpoÅĿton":8272,"bek":8273,"Ġ[âĢ¦]":8274,"bach":8275,"ĠplaÄīas":8276,"Ġdorso":8277,"Ġkongreson":8278,"Kion":8279,"eu":8280,"itoj":8281,"ĠmanÄĿis":8282,"Ġkutimo":8283,"Ġmiskompren":8284,"Ġmallumo":8285,"kvar":8286,"Ġdiser":8287,"metas":8288,"Ġpapero":8289,"Ġvintro":8290,"Ġmortinta":8291,"84":8292,"ĠKla":8293,"rajto":8294,"Ġvortaroj":8295,"hou":8296,"lamo":8297,"Ġtrankvile":8298,"Ġmanieroj":8299,"piÄīo":8300,"ĠEkz":8301,"Ġpatron":8302,"ĠHenriko":8303,"Ġortodo":8304,"ĠAntonio":8305,"è¡ĢèĺĩæľĪè¡ĢèĺĩæľĪ":8306,"Ġambas":8307,"ĠÄµet":8308,"Ġligiloj":8309,"Ġdiplom":8310,"ĠAnticipo":8311,"Ġento":8312,"Ġmembr":8313,"Ġkosto":8314,"Bo":8315,"Ġgal":8316,"Ġsuben":8317,"fratoj":8318,"Ġrestoracio":8319,"fona":8320,"Ġlegu":8321,"à¤":8322,"Ġperfekte":8323,"Kar":8324,"Ġkonferen":8325,"Ġinteresas":8326,"Ġstud":8327,"Ġgimna":8328,"foro":8329,"Ġadvo":8330,"Ġkutim":8331,"Ġaspektoj":8332,"Ġetos":8333,"alisma":8334,"Ġpreparis":8335,"Ġdepende":8336,"ĠdanÄĿero":8337,"DF":8338,"ĠDen":8339,"Ġromia":8340,"Ġpluvo":8341,"Ġprenu":8342,"ĠWiki":8343,"Ġenskrib":8344,"Komen":8345,"Ġpentristo":8346,"ĠBaldaÅŃ":8347,"cere":8348,"wit":8349,"display":8350,"Ġhaveno":8351,"torioj":8352,"Ġtenas":8353,"Ġklientoj":8354,"rilate":8355,"fami":8356,"Tiel":8357,"cerdo":8358,"gni":8359,"Ġferi":8360,"Ġtekniko":8361,"ĠOndo":8362,"ork":8363,"Ġformojn":8364,"Ġkarakteron":8365,"Ġcelojn":8366,"Jun":8367,"Ġrealo":8368,"Ġrigi":8369,"Ġpenis":8370,"ĠvojaÄĿis":8371,"vidente":8372,"ĠÅĿtono":8373,"Ġripar":8374,"ĠfariÄĿos":8375,"Ġindividuaj":8376,"ĠdediÄīita":8377,"ĠPub":8378,"mantoj":8379,"Ġgazetaro":8380,"92":8381,"Ġprole":8382,"emp":8383,"ĠpaÄĿojn":8384,"Ġkongresanoj":8385,"Ġtrejnado":8386,"Ġepizo":8387,"500":8388,"ĠNE":8389,"Ġkonservas":8390,"supra":8391,"uda":8392,"ĠInstru":8393,"ederacio":8394,"ĠfeliÄīo":8395,"ĠneÅŃtrala":8396,"Ġ_":8397,"Ġbol":8398,"piÄīoj":8399,"Ġdecid":8400,"Ġmame":8401,"daÄµon":8402,"Ġ1919":8403,"nudaÄµo":8404,"umenta":8405,"Ġsvisa":8406,"Ġaf":8407,"ĠBata":8408,"iÄĿante":8409,"nive":8410,"Ġeldonejo":8411,"Vidu":8412,"Ġkapitalo":8413,"Ġevangelio":8414,"num":8415,"ĠMil":8416,"Ġavan":8417,"Ġkadav":8418,"Ġeksta":8419,"tigoj":8420,"donu":8421,"Ġfoton":8422,"Ġvest":8423,"Ġorigino":8424,"kordo":8425,"Ġfirm":8426,"Kongreso":8427,"displaystyle":8428,"Ġmet":8429,"Ġrol":8430,"Ġsilento":8431,"tene":8432,"Ġpozicion":8433,"Ġmovadoj":8434,"Ġfiguro":8435,"dres":8436,"ĠBela":8437,"ĠAnstataÅŃ":8438,"Ġoficistoj":8439,"aton":8440,"ĠPrus":8441,"ĠkontraÅŃdi":8442,"Ġjusta":8443,"San":8444,"Ġtum":8445,"Ġvikipedi":8446,"Ġcerbo":8447,"ĠGermanujo":8448,"Ġdomin":8449,"Åĳ":8450,"cip":8451,"ĠGeo":8452,"Ġkreo":8453,"bato":8454,"Ġkvindek":8455,"cii":8456,"komer":8457,"ĠRich":8458,"Ġaku":8459,"Ġfortojn":8460,"Ġekspedi":8461,"Ġkanton":8462,"adoj":8463,"klaku":8464,"Ġoficialan":8465,"Ġregiona":8466,"Ġpolitikon":8467,"Ġmalnovan":8468,"Ġdorm":8469,"Ġkonserva":8470,"ĠÅĿablono":8471,"Ġegip":8472,"turojn":8473,"Ġkomunaj":8474,"ĠLeon":8475,"hej":8476,"ĠØ":8477,"laÄµoj":8478,"Ġ43":8479,"Ġsperton":8480,"Ġdirekte":8481,"ĠKristnas":8482,"ĠVlaÄījo":8483,"Ġhospita":8484,"ĠMongo":8485,"Ġregulaj":8486,"datum":8487,"Ġkunordi":8488,"Ġkapabla":8489,"Ġkongresa":8490,"ĠGeorge":8491,"Ġprivi":8492,"Ġatento":8493,"Ġnord":8494,"Ġligilon":8495,"Ġ1905":8496,"Ġstrategi":8497,"listoj":8498,"Ġgro":8499,"Ġpago":8500,"Ġdonaco":8501,"Ġkreskanta":8502,"Sin":8503,"tatoj":8504,"Ġaktor":8505,"Ġfilmon":8506,"Ġdifinas":8507,"Ġinstitucio":8508,"Ġaposto":8509,"Ġfamilia":8510,"logie":8511,"Ġdolor":8512,"Ġeka":8513,"Ġprosper":8514,"Ġsenmo":8515,"Ġcertas":8516,"Ġsukcesos":8517,"Ġimpon":8518,"Ġedzin":8519,"ĠVjetnamio":8520,"BC":8521,"vy":8522,"laÄµo":8523,"Ġlaci":8524,"Äīojn":8525,"Ġmontro":8526,"Ġlingvan":8527,"Ġtrej":8528,"Ġknabinoj":8529,"arth":8530,"gaze":8531,"ĠBiblioteko":8532,"Ġrando":8533,"Ġmodifita":8534,"Ġpel":8535,"ĠOS":8536,"Ġpasint":8537,"Ġnajbaraj":8538,"ĠKons":8539,"ÅŃropa":8540,"Ġtiamaniere":8541,"Ġaspektis":8542,"gla":8543,"Ġkonsum":8544,"Ġcentoj":8545,"zerbaj":8546,"poni":8547,"forto":8548,"Ġfakul":8549,"Ġkomunum":8550,"Ġegalas":8551,"cki":8552,"ĠkaÅŃzoj":8553,"fluo":8554,"Ġgejun":8555,"Krom":8556,"eran":8557,"Ġmorton":8558,"Ġrenvers":8559,"ÂĶ":8560,"Ġdungi":8561,"Ġkomisi":8562,"Ġgvid":8563,"ĠpornaÄµo":8564,"Ġ(...)":8565,"ĠerotikaÄµo":8566,"entis":8567,"Ġkost":8568,"temaj":8569,"Neni":8570,"gs":8571,"omio":8572,"Ġportre":8573,"ĠdanÄĿera":8574,"Ġanstata":8575,"Ġkemi":8576,"ternacia":8577,"Ġspecife":8578,"Ġfunkcioj":8579,"Ġkruc":8580,"Ġatakoj":8581,"Ġrevizi":8582,"Ġkvina":8583,"ĠEstonio":8584,"Alia":8585,"Ġhan":8586,"ĠaÅŃstra":8587,"ĠarÄĿ":8588,"Ġaldone":8589,"Ġfidin":8590,"Ġsukceson":8591,"Ġinsis":8592,"ĠAtlan":8593,"Ġagrikulturo":8594,"ĠâĢİ":8595,"nivelo":8596,"Ġari":8597,"heim":8598,"Ġelsendo":8599,"His":8600,"Ġfrekven":8601,"Ġsezono":8602,"lulo":8603,"ĠÄĪirkaÅŃ":8604,"ksitaj":8605,"utime":8606,"Ġrekompen":8607,"klon":8608,"ketojn":8609,"Ġkontrau":8610,"ĠVenezuelo":8611,"Ġtraktas":8612,"Ġkontribuoj":8613,"Ġjara":8614,"Ġkomercaj":8615,"Ġreciproke":8616,"XXX":8617,"zberg":8618,"igus":8619,"ĠEspero":8620,"ice":8621,"anaj":8622,"Ġfuneb":8623,"Ġelektra":8624,"ĠRoter":8625,"Ġslo":8626,"Ġ46":8627,"feti":8628,"Ġkristanaj":8629,"ĠVas":8630,"Ġpasas":8631,"nuda":8632,"Ġprovincoj":8633,"Ġgraveco":8634,"Ġdevi":8635,"Ġpolu":8636,"ĠAbra":8637,"Ġaparato":8638,"Ġsonas":8639,"tve":8640,"temo":8641,"rina":8642,"Ġmalkovri":8643,"Ġkreinto":8644,"Ġpermesi":8645,"Ġpropr":8646,"Ġlasas":8647,"ĠTogo":8648,"Ġpastr":8649,"Ġhidro":8650,"Î¿":8651,"mane":8652,"ĠSpeci":8653,"ĠHindio":8654,"ĠAfganio":8655,"ptoj":8656,"maÅĿ":8657,"chel":8658,"ĠPoz":8659,"Kelkaj":8660,"ĠÅĿipoj":8661,"gxon":8662,"Ġatakis":8663,"ĠScienca":8664,"Ġtage":8665,"Ġbongus":8666,"Ġalkoho":8667,"EG":8668,"Ġporti":8669,"denta":8670,"ĠokazaÄµoj":8671,"Ġenirejo":8672,"miks":8673,"Ġkomputiloj":8674,"Ġmalforta":8675,"has":8676,"alt":8677,"ĠFab":8678,"Ġdetalojn":8679,"ojo":8680,"Ġsateli":8681,"ĠaÅŃskultis":8682,"Ekzistas":8683,"Ġsurfa":8684,"Ġservojn":8685,"Ġ41":8686,"Ġflughaveno":8687,"intajn":8688,"poten":8689,"grado":8690,"ktata":8691,"ĠToki":8692,"ĠheredaÄµo":8693,"bjek":8694,"Ġformor":8695,"iÄĿinte":8696,"Tiam":8697,"Ġgajni":8698,"Ġsupr":8699,"Ġpropagando":8700,"Äħ":8701,"ĠIN":8702,"Ġimpos":8703,"Ġarkite":8704,"RI":8705,"Ġsensen":8706,"Ġkorto":8707,"Ġofice":8708,"ĠLuksem":8709,"Ġinvitis":8710,"Ġmalpe":8711,"Ġsidi":8712,"ĠLat":8713,"Ġkanti":8714,"Ġpriskribis":8715,"Ġpruvi":8716,"Ġmalaltaj":8717,"Ġmezepoko":8718,"Ġkonstati":8719,"Ġfur":8720,"ĠmallaÅŃ":8721,"Ġverkas":8722,"ĠjuÄĿ":8723,"Ġsonor":8724,"gosla":8725,"----":8726,"dul":8727,"fano":8728,"koti":8729,"kursoj":8730,"ĠNapole":8731,"Ġmencii":8732,"ĠPrinco":8733,"Ġvegeta":8734,"Ġdimen":8735,"Ġtertre":8736,"amori":8737,"Ġtatuajes":8738,"moro":8739,"Ġnep":8740,"pugo":8741,"belulino":8742,"ĠTraktato":8743,"Ġsubstre":8744,"ronon":8745,"ĠdaÅŃro":8746,"Ġkursojn":8747,"Ġdonacoj":8748,"Ġmani":8749,"Ġfervojo":8750,"Ġ1940":8751,"ATO":8752,"Ġdiferenci":8753,"Ġfinon":8754,"ĠRajtoj":8755,"Ã¦":8756,"ĠAp":8757,"Ġ1917":8758,"ĠNepalo":8759,"Ġpublikigas":8760,"ĠvoÄīon":8761,"kr":8762,"kum":8763,"gram":8764,"Ġbien":8765,"Ġpure":8766,"wo":8767,"Ġ1000":8768,"ĠUl":8769,"Ġpag":8770,"Ġefikon":8771,"ĠriÄīaj":8772,"vna":8773,"cico":8774,"pova":8775,"Ġring":8776,"Ġkapitalis":8777,"ĠFundamen":8778,"Ġrigardu":8779,"Ġvenontaj":8780,"ED":8781,"Ze":8782,"Ġskato":8783,"deman":8784,"Ġmalsama":8785,"Ġatend":8786,"Ġpreciz":8787,"talino":8788,"Ġparadi":8789,"ĠVirgulino":8790,"fonoj":8791,"Ġjunularo":8792,"Ġofertas":8793,"cata":8794,"mamo":8795,"ĠnovaÄµo":8796,"Ġkapabloj":8797,"Ġ1948":8798,"Ġharmoni":8799,"ĠAngla":8800,"ktulo":8801,"ward":8802,"Ġalproksim":8803,"ĠAdam":8804,"Ġmateno":8805,"ĠÄľene":8806,"Ġdiferencoj":8807,"dorf":8808,"ĠTeo":8809,"ĠBis":8810,"Ġplejmulto":8811,"Ġkorid":8812,"Ġareon":8813,"ĠNovjorko":8814,"hx":8815,"Ġgi":8816,"Ġperdo":8817,"Ġleteroj":8818,"Ġnajbara":8819,"kantoj":8820,"Ġkatedralo":8821,"sider":8822,"Ġdekstre":8823,"Ġrevuon":8824,"jaran":8825,"urs":8826,"Ġnekuti":8827,"Ġsuba":8828,"vario":8829,"Ġinfluis":8830,"ĠreÄĿino":8831,"Ġkomponisto":8832,"atajn":8833,"bras":8834,"yd":8835,"ĠKra":8836,"Ġfilm":8837,"TI":8838,"mamoj":8839,"ĠaÄĿa":8840,"leton":8841,"Ġmalbono":8842,"Ġforpe":8843,"Ġligilo":8844,"ĠfetiÄīismo":8845,"sis":8846,"Ñĩ":8847,"ĠMus":8848,"Ġ1918":8849,"Ġkolom":8850,"ĠÅľia":8851,"kaco":8852,"Ġbun":8853,"Ġsciencoj":8854,"Ġparolata":8855,"peci":8856,"Ġ800":8857,"Ġabomen":8858,"Ġmalfrua":8859,"85":8860,"cicoj":8861,"ĠTokio":8862,"Ġmastro":8863,"Ġdensa":8864,"Ġgenu":8865,"ĠQu":8866,"ĠJosÃ©":8867,"Las":8868,"cero":8869,"Ġesta":8870,"ĠNiko":8871,"Ġnacian":8872,"Ġklima":8873,"gluteoj":8874,"pugoj":8875,"vinte":8876,"oriento":8877,"ekshibicio":8878,"gluteo":8879,"mamego":8880,"mamegoj":8881,"civi":8882,"pitaj":8883,"Ġdiskut":8884,"Ġinternaciajn":8885,"95":8886,"Ġå":8887,"gener":8888,"Ġrubri":8889,"Ġreciproka":8890,"Ġbudh":8891,"ĠÄµurnalo":8892,"erotismo":8893,"Ġkomune":8894,"Ġbap":8895,"Ġinternaj":8896,"))":8897,"kokri":8898,"Ġekrano":8899,"jeviÄī":8900,"ĠJose":8901,"zerbajÄĿ":8902,"Ġetike":8903,"deto":8904,"ĠRevolucio":8905,"Ġtradukisto":8906,"Ġpeko":8907,"Ġjunulino":8908,"ĠBjalistoko":8909,"html":8910,"Ġfunkcion":8911,"Ġproviz":8912,"ĠBone":8913,"ĠGener":8914,"pono":8915,"toria":8916,"Ġsubjekto":8917,"Ġgvidas":8918,"logian":8919,"Ġsamajn":8920,"zeno":8921,"ĠpasaÄĿ":8922,"Ġpopularaj":8923,"Ġdisvasti":8924,"Ġproceso":8925,"Ġneevi":8926,"ĠPekino":8927,"fetiÄīismo":8928,"daro":8929,"tiu":8930,"Ġfum":8931,"lokoj":8932,"celist":8933,"midzi":8934,"ĠInfanoj":8935,"Ġaci":8936,"Ġsenton":8937,"Ġesprimoj":8938,"Ġmalferm":8939,"ĠIzraelidoj":8940,"elli":8941,"Ġ1939":8942,"tabuo":8943,"ĠBran":8944,"Äīiesulino":8945,"ĠWorld":8946,"OJ":8947,"langumi":8948,"Ġplie":8949,"dentoj":8950,"Ġeblaj":8951,"âĢĻ,":8952,"ques":8953,"seksumi":8954,"midzo":8955,"midzumo":8956,"sesdeknaÅŃi":8957,"Ġlernu":8958,"Ġbataloj":8959,"ĠInternational":8960,"83":8961,"sia":8962,"Ġilu":8963,"Ġdentoj":8964,"SS":8965,"osto":8966,"Ġtemojn":8967,"zeco":8968,"Ġkulti":8969,"Ġuzadon":8970,"kano":8971,"ĠDomo":8972,"Ġoftaj":8973,"Ġokulo":8974,"Ġpotenc":8975,"ÅĤo":8976,"Ġkristanismo":8977,"Ġkompi":8978,"Ġpublikigi":8979,"Ġtradicie":8980,"Ġmaleb":8981,"zito":8982,"ĠIvan":8983,"ĠFes":8984,"ĠMag":8985,"think":8986,"tegori":8987,"dismo":8988,"Ġstrukturoj":8989,"Lu":8990,"Ġplua":8991,"ĠaranÄĿis":8992,"Ġrezulton":8993,"Ġefekti":8994,"ĠbranÄīoj":8995,"Ġkatastrofo":8996,"])":8997,"ĠSoma":8998,"Ġpira":8999,"Ġkonsistis":9000,"Ġkongresejo":9001,"Ġresan":9002,"ĠIlia":9003,"Ġkolektis":9004,"ciis":9005,"ĠÄĿem":9006,"ont":9007,"Ġskalo":9008,"ĠlanÄīis":9009,"Ġgepatra":9010,"ciklopedio":9011,"dino":9012,"zaro":9013,"Ġmaluti":9014,"ĠFla":9015,"Ġstaton":9016,"Ġsolvon":9017,"Ġhered":9018,"Ġaliron":9019,"Ġartisto":9020,"Ġaldono":9021,"Ġeblo":9022,"Ġsacerdo":9023,"Ġrigardante":9024,"Ġenhavis":9025,"Ġkomunik":9026,"retario":9027,"ĠmanÄĿaÄµo":9028,"ters":9029,"Ġunuso":9030,"siko":9031,"Ġterminojn":9032,"Ġnivelon":9033,"Estis":9034,"Ġerarojn":9035,"ute":9036,"tiro":9037,"kes":9038,"titan":9039,"ĠindiÄĿ":9040,"Ġ$":9041,"Ġese":9042,"logis":9043,"Ġnegle":9044,"ĠDec":9045,"Ġmonumento":9046,"Ġfakton":9047,"Ġromi":9048,"Ġindiko":9049,"Ġamikeco":9050,"Ġripoz":9051,"ĠIndi":9052,"Ġelektoj":9053,"amik":9054,"Komun":9055,"ĠTute":9056,"ville":9057,"ĠfondiÄĿis":9058,"ĠPrezi":9059,"Ġpremion":9060,"Ġredukti":9061,"Ġpricelist":9062,"Ġimper":9063,"Ġinstancoj":9064,"ĠIndonezio":9065,"Ġvivantaj":9066,"tuala":9067,"ĠpaÄĿaro":9068,"Ġkrimo":9069,"Ġklarigo":9070,"ĠÄĿuas":9071,"Ġplenkreskuloj":9072,"AE":9073,"eba":9074,"Ġesperanton":9075,"ĠChu":9076,"2005":9077,"Ġenergion":9078,"ĠpseÅŃ":9079,"Ġunueco":9080,"Ġesting":9081,"Ġjunula":9082,"Ġdeputi":9083,"Ġribel":9084,"Ġokcidentaj":9085,"Afriko":9086,"raÅŃ":9087,"kunsi":9088,"jam":9089,"Ġmilitis":9090,"Ġfrat":9091,"Ġekzemplon":9092,"Ġpreciza":9093,"omente":9094,"Ġliberan":9095,"Ġkaptitaj":9096,"Ġ1968":9097,"Ġtransformi":9098,"Ġdevo":9099,"log":9100,"tantojn":9101,"Ġcar":9102,"ĠCO":9103,"ĠÄīirkaÅŃaÄµo":9104,"Ġfruktoj":9105,"Ġlernolibro":9106,"tantajn":9107,"profun":9108,"ĠKarl":9109,"ĠSerbio":9110,"ĠSor":9111,"Ġfajr":9112,"Ġenkondukis":9113,"rey":9114,"Ġeska":9115,"ĠHum":9116,"Ġmara":9117,"ponon":9118,"Ġtaksas":9119,"Ġfek":9120,"Ġlibr":9121,"Ġkomenca":9122,"Ġdanc":9123,"ght":9124,"lim":9125,"arado":9126,"Ġfilme":9127,"ĠÄĿust":9128,"Ġhipote":9129,"Ġfanto":9130,"ĠIII":9131,"Ġtatuaje":9132,"ism":9133,"Ġprezoj":9134,"vinco":9135,"Ġrilataj":9136,"turado":9137,"Ġdialogo":9138,"TML":9139,"ĠRoterdamo":9140,"ction":9141,"my":9142,"Ġdest":9143,"Ġligoj":9144,"Ġvesto":9145,"EI":9146,"keno":9147,"ĠEven":9148,"Ġsendita":9149,"Ġkvaza":9150,"dareco":9151,"veni":9152,"Ġmalagra":9153,"Ġmalproksima":9154,"Ġrevuoj":9155,"kiuj":9156,"Ġvidin":9157,"ĠEsperantan":9158,"Ġmunici":9159,"Ġintegri":9160,"Ġankorau":9161,"Ġkvardek":9162,"Ġkapablis":9163,"opini":9164,"Ġsocialisma":9165,"Ġinci":9166,"ĠEvange":9167,"âĢ¢":9168,"Ġmov":9169,"Ġkant":9170,"Ġvastan":9171,"ktante":9172,"Ġcigar":9173,"ĠHerzberg":9174,"omi":9175,"ĠCX":9176,"ĠmonaÄ¥ejo":9177,"Ġkondamn":9178,"Pol":9179,"tifi":9180,"rana":9181,"Ġalire":9182,"ĠÅĿtataj":9183,"2014":9184,"Ġmatematiko":9185,"Ġimi":9186,"ĠAN":9187,"cezo":9188,"Ġinteresan":9189,"Ġadministrado":9190,"Ġtransdonis":9191,"Ġavo":9192,"dok":9193,"Ġesploris":9194,"Ġkliento":9195,"Ġtendaro":9196,"ĠMora":9197,"iÄĿus":9198,"Ġaliloke":9199,"Ã£o":9200,"Nur":9201,"Pas":9202,"kongres":9203,"ĠBrun":9204,"ludo":9205,"Ġmekan":9206,"Plej":9207,"Ġsla":9208,"rantoj":9209,"Ġpartoprenos":9210,"Ġamike":9211,"Ġdivido":9212,"cke":9213,"Ġekzisti":9214,"Ġstudento":9215,"intojn":9216,"olk":9217,"Ġrestado":9218,"ĠHistorio":9219,"Ġmallongaj":9220,"Ġkolonioj":9221,"ĠRigardu":9222,".),":9223,"ĠÄĿeneralan":9224,"Ġgravecon":9225,"ĠlaÅŃte":9226,"Ġklarigojn":9227,"ĠIslando":9228,"Ġurbe":9229,"Ġgrafi":9230,"uth":9231,"Ġ1932":9232,"Ġindustria":9233,"Ġincen":9234,"Ġarbi":9235,"Ġpagas":9236,"Ġ:)":9237,"Ġkaraj":9238,"Ġmiliardoj":9239,"one":9240,"Ġpole":9241,"Ġaron":9242,"Ġakcen":9243,"Ġnormo":9244,"igitan":9245,"Ġterminoj":9246,"Ġpano":9247,"Ġpentris":9248,"favor":9249,"Ġnecesaj":9250,"Ġbrun":9251,"Ġsubme":9252,"Ġ1988":9253,"lego":9254,"ĠEtio":9255,"Ġ75":9256,"komunumo":9257,"liÄĿas":9258,"vejo":9259,"kana":9260,"Ġpiedi":9261,"tigos":9262,"Man":9263,"Ġklopodoj":9264,"ĠNikolao":9265,"Ġbuti":9266,"Ġverdaj":9267,"ĠokazaÄµo":9268,"Ġkompletigi":9269,"Ð¾Ð²":9270,"Ġhungaroj":9271,"mara":9272,"Î¹":9273,"ĠnomiÄĿis":9274,"karto":9275,"Ġelstaraj":9276,"Ġkomplika":9277,"Ġsenes":9278,"Ġkonsento":9279,"Ġmali":9280,"Ġtrankvila":9281,"Ġformato":9282,"ĠSeb":9283,"Ġdika":9284,"ĠGlo":9285,"Ġprezentado":9286,"laboro":9287,"ĠvojaÄĿi":9288,"ĠfiniÄĿas":9289,"Ġkanalo":9290,"Ġrenkontas":9291,"Ġdirite":9292,"Ġfizika":9293,"mur":9294,"poro":9295,"Ġliterojn":9296,"Ġinterkompren":9297,"Ġmastr":9298,"ĠThomas":9299,"Ġestraranoj":9300,"Ġgejunuloj":9301,"iza":9302,"ĠenloÄĿ":9303,"Ġdubas":9304,"fort":9305,"stacio":9306,"Ġceter":9307,"Ġregistaron":9308,"Ġabsur":9309,"Ġvizitas":9310,"ĠRomia":9311,"Ġduobla":9312,"ilvan":9313,"ĠGub":9314,"peno":9315,"ĠKomunumo":9316,"Ġ54":9317,"eblajn":9318,"ĠHispan":9319,"ĠlarÄĿ":9320,"Ġvigla":9321,"Ġeterne":9322,"mena":9323,"periodo":9324,"????":9325,"hl":9326,"tein":9327,"ĠAus":9328,"Ġgrafo":9329,"Ġpensojn":9330,"Ġkapablon":9331,"Ġfrazon":9332,"?)":9333,"Ġgor":9334,"Ġmaldi":9335,"Ġkomunismo":9336,"Ġamis":9337,"ĠDomini":9338,"PS":9339,"Ġino":9340,"daÅŃro":9341,"konto":9342,"mila":9343,"Ġturistoj":9344,"Ġsocian":9345,"Ġinfluas":9346,"94":9347,"edo":9348,"lero":9349,"Ġ52":9350,"Ġakcept":9351,"Ġgrandparte":9352,"Ġprotekto":9353,"lovaka":9354,"Ġpreterpas":9355,"Ġkonscias":9356,"picxo":9357,"ĠMichael":9358,"scen":9359,"Ġ>":9360,"enda":9361,"Ġges":9362,"Ġkomento":9363,"Ġtreege":9364,"puÅĿ":9365,"Ġparolo":9366,"gxas":9367,"Ġkus":9368,"ciajn":9369,"Ġtuto":9370,"Ġmalsanu":9371,"Ġdistriktoj":9372,"ĠSekure":9373,"Ġrom":9374,"Ġgvido":9375,"Ġurbestro":9376,"Ġhorlo":9377,"ĠLingva":9378,"PA":9379,"Ġfloro":9380,"ĠPal":9381,"Ġlandojn":9382,"Ġsinde":9383,"nudajxo":9384,"ĠJac":9385,"Ġegaleco":9386,"Ġmaldekstre":9387,"Ġestrarano":9388,"picxoj":9389,"geto":9390,"ĠGrupo":9391,"fro":9392,"Ġade":9393,"ĠKrako":9394,"Ġ1986":9395,"Ġekzamenon":9396,"Ġsimboloj":9397,"tigojn":9398,"ĠZag":9399,"Ġfenestroj":9400,"Ġfirmaoj":9401,"Cetere":9402,"Ã´":9403,"Ġalin":9404,"Ġ58":9405,"Ġaktivaj":9406,"Ġkontaktoj":9407,"ĠAfrika":9408,"lian":9409,"Ġopera":9410,"Ġ250":9411,"Ġnesu":9412,"Ġigi":9413,"ujoj":9414,"medi":9415,"ĠÄĪilio":9416,"ĠBarcel":9417,"hara":9418,"Ġzorge":9419,"ĠMalaj":9420,"Ġaliro":9421,"Ġhoman":9422,"Ġdisponas":9423,"ĠaÅŃtomob":9424,"Ġkern":9425,"ĠestaÄµo":9426,"ĠAlban":9427,"Ġofic":9428,"ĠmesaÄĿojn":9429,"Ġlakto":9430,"indaj":9431,"Ġmontrata":9432,"gadis":9433,"Ġpublikigo":9434,"nome":9435,"ĠokupiÄĿis":9436,"hun":9437,"Ġtipa":9438,"Ġelti":9439,"puta":9440,"Ġfakoj":9441,"Ġplanto":9442,"Ġmemorigas":9443,"Ġligilojn":9444,"lernis":9445,"Ġteknika":9446,"Ġentomb":9447,"Ġtropi":9448,"Ġlasu":9449,"Ġharoj":9450,"partoj":9451,"Ġbatalis":9452,"ĠMuzi":9453,"toron":9454,"Ġekspor":9455,"Ġokazigis":9456,"enerale":9457,"Ġlastajn":9458,"Ġmajstro":9459,"ktajn":9460,"ĠLud":9461,"ĠFlu":9462,"mond":9463,"Ġsinoni":9464,"Ġlabora":9465,"PERANTO":9466,"zoro":9467,"Ġdifinitaj":9468,"ĠSlovenio":9469,"sel":9470,"riÄī":9471,"ĠStalino":9472,"Ġsendependeco":9473,"Unue":9474,"stein":9475,"IT":9476,"dejon":9477,"Ġdeziron":9478,"Ġciviliz":9479,"Ġbanko":9480,"plor":9481,"Ġaspi":9482,"Ġmanieron":9483,"Ġefektiva":9484,"ach":9485,"oritato":9486,"vivo":9487,"Ġutiligi":9488,"Ġorganoj":9489,"ĠCorsetti":9490,"Ġmej":9491,"Ġplanoj":9492,"ĠPeruo":9493,"Ġdonacis":9494,"Ġeroj":9495,"mao":9496,"Ġfermita":9497,"ÅĿing":9498,"Ġpripensi":9499,"Ġbonkor":9500,"ĠhaÅŃto":9501,"Ġsamideanoj":9502,"Ġsekcioj":9503,"Ġkuris":9504,"ĠDemokratia":9505,"CH":9506,"Ġpostuloj":9507,"Ġrusaj":9508,"ĠGrand":9509,"ĠJerusalem":9510,"ĠKonstitucio":9511,"Ġpartoprenon":9512,"Ġedzinon":9513,"dero":9514,"naj":9515,"ĠKing":9516,"Ġpostulo":9517,"Ġimpor":9518,"Ġscenejo":9519,"Ġsoj":9520,"ligon":9521,"ĠSinga":9522,"Ġakor":9523,"litera":9524,"ĠLegi":9525,"Ġtendenco":9526,"indi":9527,"ĠAzerbajÄĿ":9528,"usa":9529,"nivela":9530,"hav":9531,"Ġ51":9532,"Ġ1933":9533,"vilo":9534,"Ġvendi":9535,"Ġvortaron":9536,"kultur":9537,"ney":9538,"Ġrevenas":9539,"ĠEarth":9540,"Ġligas":9541,"miro":9542,"Ġekzistantaj":9543,"ĠÄīambroj":9544,"Ġprivataj":9545,"Ġejoj":9546,"Ġfalo":9547,"Ġesprimon":9548,"Ġrevenos":9549,"Ġmortintoj":9550,"KA":9551,"Kara":9552,"devena":9553,"ĠelÄīer":9554,"Ġpostenon":9555,"Ġakre":9556,"Ġondoj":9557,"Ġsablo":9558,"Ġskribu":9559,"Ġpovon":9560,"Ġflava":9561,"igataj":9562,"ĠAldone":9563,"ĠrenkontiÄĿis":9564,"Ġrimarkas":9565,"ĠlingvaÄµo":9566,"Ġkomitatanoj":9567,"Cer":9568,"ĠJus":9569,"Ġlegan":9570,"Ġekscii":9571,"blu":9572,"elsen":9573,"ĠGon":9574,"ĠGas":9575,"stato":9576,"Ġfondo":9577,"Ġvaloras":9578,"Ġgeografia":9579,"oman":9580,"Ġvenki":9581,"profi":9582,"ĠReÄĿo":9583,"logioj":9584,"ĠFinfine":9585,"ĠJames":9586,"Ġmont":9587,"Ġekvival":9588,"Ġmalhelpas":9589,"sson":9590,"uc":9591,"Ġstel":9592,"Ġmalkla":9593,"Ġfara":9594,"Ġkandidato":9595,"Ġlumon":9596,"Ġmonar":9597,"Ġindiferen":9598,"inten":9599,"ralo":9600,"Ġpostula":9601,"simp":9602,"Ġtrovita":9603,"ĠHavano":9604,"Ġdialektoj":9605,"LU":9606,"Î½":9607,"ĠEm":9608,"Ġgloro":9609,"Ġcan":9610,"Ġsekvanta":9611,"Ġkutimaj":9612,"Ġagor":9613,"Ġvane":9614,"ĠEblas":9615,"Ġaktoro":9616,"Ġfazo":9617,"Ġfini":9618,"Ġembar":9619,"ID":9620,"ĠÏ":9621,"Ġpes":9622,"lilo":9623,"viva":9624,"Ġsincere":9625,"cepte":9626,"Ġklaku":9627,"bili":9628,"ĠArmenio":9629,"amenhof":9630,"Ġdense":9631,"Ġnumeron":9632,"Ġbrul":9633,"Krome":9634,"Ġpom":9635,"Ġfr":9636,"Ġfros":9637,"ĠSun":9638,"ĠMel":9639,"emuloj":9640,"Ġfian":9641,"Ġfluas":9642,"Ġuniverso":9643,"Ġdatumojn":9644,"ĠfreÅĿ":9645,"Ġstrategio":9646,"Centro":9647,"tigante":9648,"ĠBoli":9649,"ĠJerusalemo":9650,"Ø§Ù":9651,"Ġtravivis":9652,"monio":9653,"ĠTiaj":9654,"Ġekzistanta":9655,"Ġjeto":9656,"Ġfaden":9657,"Ġebligi":9658,"Ġrenkont":9659,"Ġpruvas":9660,"kunveno":9661,"Ġduling":9662,"ĠCez":9663,"ĠkondiÄīojn":9664,"ĠLeo":9665,"Ġleterojn":9666,"Ġbonege":9667,"ĠmaÅĿin":9668,"Usono":9669,"ĠAla":9670,"dela":9671,"decon":9672,"ĠMac":9673,"blog":9674,"Ġtaskojn":9675,"Ġrideto":9676,"Ġtelefonvo":9677,"peco":9678,"Ġdiligen":9679,"ĠAlÄĿ":9680,"Ġdeviga":9681,"Ġfacil":9682,"Ġindividuo":9683,"Ġpordego":9684,"Ġrok":9685,"Ġtradukas":9686,"Ġakcepto":9687,"Ġrango":9688,"ĠHitler":9689,"taks":9690,"Ġjc":9691,"Ġekiris":9692,"Ġturmen":9693,"Ġenkonduki":9694,"Ġkonstatas":9695,"Ġguberni":9696,"Ġlit":9697,"igojn":9698,"ĠClaude":9699,"Ġskriba":9700,"Ġador":9701,"Ġmultfoje":9702,"ĠHans":9703,"ĠBoris":9704,"ĠVis":9705,"ĠLibano":9706,"Ġfundamento":9707,"droj":9708,"kesto":9709,"Ġheli":9710,"ĠkondiÄīo":9711,"pozicioj":9712,"Ġgrandegan":9713,"ĠTesta":9714,"ĠpreÄĿo":9715,"Ġpezo":9716,"ĠindiÄĿen":9717,"Ġ1985":9718,"ĠTais":9719,"ĠÄľenerale":9720,"ĠBlanka":9721,"Ġenigi":9722,"Ġido":9723,"Ġluno":9724,"Ġagon":9725,"Ġmalsimi":9726,"Ġkolero":9727,"Ġ1944":9728,"Ġsenpaga":9729,"DR":9730,"lejoj":9731,"Ġsana":9732,"ĠreÄĿlando":9733,"ĠSomalio":9734,"ic":9735,"ĠlaÅŃeble":9736,"Ġsimilajn":9737,"ĠXian":9738,"ĠantaÅŃan":9739,"centa":9740,"ĠmarÅĿ":9741,"ĠnovaÄµojn":9742,"Ġ1967":9743,"Ġurbaj":9744,"Ġdividi":9745,"Ġombro":9746,"Ġetoson":9747,"Ġmalver":9748,"zonon":9749,"Ġgefratoj":9750,"ĠKulturo":9751,"To":9752,"Ġreago":9753,"Ġteritorion":9754,"Ge":9755,"yer":9756,"Ġsving":9757,"Ġperdas":9758,"Ġinterromp":9759,"âĪŀâĪŀâĪŀâĪŀâĪŀâĪŀâĪŀâĪŀ":9760,"ĠEta":9761,"ettes":9762,"ĠAÅŃgusto":9763,"ĠMaroko":9764,"isman":9765,"ĠRio":9766,"Ġfaka":9767,"Ġsituacioj":9768,"nombra":9769,"ĠÄīeestas":9770,"Ġprogrameroj":9771,"ĠFilipinoj":9772,"ĠJaro":9773,"Ġkromaj":9774,"Ġkurac":9775,"Ġbando":9776,"Ġordinaraj":9777,"Ġmalgrandajn":9778,"Ġdividita":9779,"Ġevidenta":9780,"ĠCharles":9781,"muziko":9782,"Fon":9783,"leri":9784,"lev":9785,"Ġmig":9786,"Ġesperantlingva":9787,"ĠInsuloj":9788,"ĠÄľenevo":9789,"ĠBet":9790,"ĠVivo":9791,"ĠAndr":9792,"Ġinstruo":9793,"Ġgvidi":9794,"Ġopiniojn":9795,"Ġintenco":9796,"beloj":9797,"ĠJud":9798,"ĠÅľtato":9799,"Tem":9800,"ĠTrin":9801,"Ġintera":9802,"Ġunuflanke":9803,"ĠJas":9804,"Dankon":9805,"Ġlerte":9806,"Ġatestas":9807,"ĠPom":9808,"ĠNAS":9809,"Ġmorala":9810,"Ġ59":9811,"kantaj":9812,"ĠServo":9813,"ĠÄĪeÄ¥oslovakio":9814,"Ġsendependaj":9815,"lingvanoj":9816,"espri":9817,"Ġnuan":9818,"Ã¶n":9819,"Ġsilent":9820,"86":9821,"pta":9822,"Ġanalo":9823,"ĠKomer":9824,"ktadon":9825,"Ġjura":9826,"Ġeniras":9827,"Fin":9828,"tilon":9829,"ĠKat":9830,"Ġlecion":9831,"ĠRusia":9832,"Ġkunvenoj":9833,"Soci":9834,"Share":9835,"Ġtransprenis":9836,"ĠMalfer":9837,"Ġ1977":9838,"ĠOriento":9839,"liÄĿo":9840,"Ġsocial":9841,"Ġstrukturon":9842,"Ġanimon":9843,"\";":9844,"Hun":9845,"wil":9846,"inK":9847,"ĠHomoj":9848,"ĠÅľajnas":9849,"Ġkonduki":9850,"Ġeliri":9851,"Ġnumeroj":9852,"tarojn":9853,"Ġrestu":9854,"ĠValen":9855,"daÄµojn":9856,"Ġgermane":9857,"Ġkonkreta":9858,"LS":9859,"zam":9860,"Ġarkeo":9861,"Ġekskurso":9862,"ĠZuri":9863,"Ġkonvink":9864,"ĠbroÅĿ":9865,"Radio":9866,"fojn":9867,"Ġtradukojn":9868,"ĠParko":9869,"Ġabstra":9870,"ĠSaksio":9871,"Ġfidela":9872,"deÅĿo":9873,"Ġelparo":9874,"say":9875,"Ġuniversitata":9876,"ĠProjekto":9877,"Ġkompro":9878,"imar":9879,"Ġanimaloj":9880,"tivajn":9881,"ĠAuld":9882,"kuro":9883,"ĠÂĸ":9884,"Ġdonacon":9885,"ĠpoÅĿtkodo":9886,"!...":9887,"dum":9888,"rad":9889,"Ġbest":9890,"Ġpod":9891,"mesa":9892,"Ġsimplan":9893,"Ġvicprezidanto":9894,"Ġscipovas":9895,"raÄµo":9896,"Ġelmig":9897,"ĠCan":9898,"Ġproponita":9899,"ĠAntar":9900,"Ġvaroj":9901,"ftvaro":9902,"Äįek":9903,"Ġliberecon":9904,"ĠplaÄīis":9905,"ĠVilhel":9906,"Ligo":9907,"pur":9908,"Ġsamnoma":9909,"ĠPoÅĿt":9910,"ĠÅĿanÄĿas":9911,"Ġrapideco":9912,"Ġekzamenoj":9913,"Ġalvenas":9914,"gilo":9915,"Ġribe":9916,"rektoro":9917,"ghis":9918,"ĠSalom":9919,"corde":9920,"Ġdefinitive":9921,"ĠFilipo":9922,"Ġecoj":9923,"Ġape":9924,"ĠLatin":9925,"ĠRegno":9926,"ĠengaÄĿ":9927,"kovrilaj":9928,"100":9929,"RAT":9930,"Ġinoj":9931,"Ġ1914":9932,"anao":9933,"ĠNatur":9934,"Ġdiablo":9935,"Ġrego":9936,"Ġ53":9937,"ĠMovado":9938,"Ġkunlaborantoj":9939,"Ġposedis":9940,"Ġnekompren":9941,"prezi":9942,"Ġster":9943,"arojn":9944,"vola":9945,"turilo":9946,"Ġebri":9947,"logiajn":9948,"Ġknaboj":9949,"Ġastero":9950,"Ġwith":9951,"Ġ#?":9952,"danÄĿer":9953,"Ġprivilegi":9954,"Ġintertempe":9955,"vinta":9956,"ĠMeze":9957,"sky":9958,"ilejo":9959,"Ġlandlimo":9960,"Ġekzi":9961,"haus":9962,"ĠMalnova":9963,"Ġfamilion":9964,"Ġtransiris":9965,"Ġislama":9966,"ĠTajvano":9967,"Ġperspektivo":9968,"Pres":9969,"Ð¹":9970,"ret":9971,"Ġvenk":9972,"Ġhonoro":9973,"Ġkovrita":9974,"91":9975,"lari":9976,"Ġsiavice":9977,"Ġekonomian":9978,"Ġminutojn":9979,"Ġtras":9980,"Ġkoin":9981,"Ġplanon":9982,"Ġtota":9983,"ĠdediÄīis":9984,"Ġkategorioj":9985,"Lia":9986,"elaj":9987,"Ġkerno":9988,"ĠreÄĿoj":9989,"Ġprovoj":9990,"ĠTea":9991,"Ġsinte":9992,"hava":9993,"Ġmalhelpi":9994,"Ġaprobis":9995,"dun":9996,"Ġport":9997,"Ġkuire":9998,"enove":9999,"Ġnecesajn":10000,"ĠSocia":10001,"Ġfunkciado":10002,"ĠvojaÄĿoj":10003,"lernejoj":10004,"Ġusonanoj":10005,"ĠHenri":10006,"Ġkompanioj":10007,"ĠZagre":10008,"Ġfeb":10009,"ĠFoje":10010,"Ġformis":10011,"Ġkuri":10012,"Ġ57":10013,"ĠAlberto":10014,"Ġindividua":10015,"Zelando":10016,"Ori":10017,"ĠfiÅĿkap":10018,"Alike":10019,"cro":10020,"dern":10021,"Ġaltaro":10022,"Ġeksklu":10023,"Ġkomputila":10024,"Ġseminario":10025,"ShareAlike":10026,"CE":10027,"lao":10028,"igiloj":10029,"plano":10030,"Ġfaman":10031,"Ġmalliberejo":10032,"klino":10033,"teble":10034,"meno":10035,"klubo":10036,"ĠOrganizaÄµoj":10037,"ĠDokumentoj":10038,"ii":10039,"tico":10040,"ĠGam":10041,"Ġsklavoj":10042,"kamen":10043,"Ġtipoj":10044,"Ġ56":10045,"umena":10046,"ĠdeÄµ":10047,"Ġprocen":10048,"Ġdirus":10049,"Ġsenlabor":10050,"olingo":10051,"ĠMarko":10052,"ĠPaco":10053,"ĠaÅŃtoritatoj":10054,"Ġkonfliktoj":10055,"Ġmeksi":10056,"Ġfraz":10057,"ĠJapan":10058,"Ġrezultas":10059,"Ġspertojn":10060,"Ġ1979":10061,"ĠtranslokiÄĿis":10062,"Ġdevenis":10063,"ierre":10064,"Ġbruo":10065,"Kompreneble":10066,"ĠAzerbajÄĿano":10067,"97":10068,"Ġenre":10069,"ĠFaj":10070,"Ġkonversacio":10071,"Ġforpasis":10072,"Ġmalhela":10073,"filoj":10074,"Ġperd":10075,"ĠHi":10076,"Ġsuperas":10077,"Ġkarto":10078,"inario":10079,"tite":10080,"Ġrevo":10081,"ĠAk":10082,"Ġbondezi":10083,"Ġaperinta":10084,"Ġdeklaras":10085,"Ġtombejo":10086,"ye":10087,"ĠApri":10088,"Ġgratu":10089,"ĠForumo":10090,"Ġregionaj":10091,"äº":10092,"ranto":10093,"Ġkonservis":10094,"esperantistoj":10095,"Ġhistoriisto":10096,"Ġbron":10097,"Ġleksi":10098,"Ġbrila":10099,"ĠAntver":10100,"cino":10101,"âĶ":10102,"Ġdisdon":10103,"Ġtam":10104,"Ġcerb":10105,"Ġkomprenebla":10106,"Ġtelevid":10107,"Ġvolontuloj":10108,"ĠBosnio":10109,"Ġthat":10110,"Ġ:-)":10111,"Ġprave":10112,"tegia":10113,"Ġmalfermo":10114,"Ġtrink":10115,"jes":10116,"Ġenig":10117,"olon":10118,"Ġkritika":10119,"Ġrakonton":10120,"farado":10121,"Ġmultnombraj":10122,"Ġalloga":10123,"ĠPluraj":10124,"lekto":10125,"ĠMc":10126,"Ġmalgra":10127,"ĠOrganizo":10128,"maro":10129,"Ġdevon":10130,"Ġmm":10131,"Ġesperon":10132,"Ġbril":10133,"Ġtransporto":10134,"Ġstatuto":10135,"Ġjo":10136,"Ġservon":10137,"Ġbaga":10138,"ĠdaÅŃra":10139,"ÄĿantoj":10140,"Ġresto":10141,"marko":10142,"Ġrum":10143,"kapablo":10144,"ĠBruselo":10145,"Ġafa":10146,"ĠProfes":10147,"ĠVerÅĿajne":10148,"Ġkatolikoj":10149,"muloj":10150,"Å¼":10151,"Ġvizita":10152,"Ġoran":10153,"Ġbeleco":10154,"ĠÄµa":10155,"Ġkonvinki":10156,"ega":10157,"festo":10158,"tulojn":10159,"ĠKlubo":10160,"vat":10161,"ĠFettes":10162,"paÄµo":10163,"Ġkaver":10164,"mentaj":10165,"Ġamuzi":10166,"Ġplanedoj":10167,"war":10168,"emajn":10169,"ĠUru":10170,"Ġgraf":10171,"Ġviando":10172,"Ġkuraci":10173,"Ġdoloro":10174,"ĠSingapuro":10175,"Ä«":10176,"Ġdras":10177,"Ġvendis":10178,"ĠrenkontiÄĿon":10179,"Ġeksplodis":10180,"Ġmedicino":10181,"kipedion":10182,"tikisto":10183,"Ġkorup":10184,"Ġstudado":10185,"Ġplial":10186,"Ġaktiveco":10187,"ĠDiskuto":10188,"AB":10189,"mith":10190,"Ġakra":10191,"Ġkurio":10192,"ĠMont":10193,"Ġpozitiva":10194,"Ġrealigo":10195,"dolf":10196,"ĠStanis":10197,"Ġnesto":10198,"Ġhier":10199,"Ġmalsupre":10200,"ĠdisvastiÄĿis":10201,"Ġidenteco":10202,"VD":10203,"tter":10204,"Ġpilo":10205,"Ġenor":10206,"Ġkomunistoj":10207,"ĠfeliÄīe":10208,"Ġagnoskas":10209,"Ġgusto":10210,"ĠPreskaÅŃ":10211,"Ġabsoluta":10212,"ĠTogolando":10213,"ĠRed":10214,"Ġtradicioj":10215,"Ġinternacie":10216,"Ġalportas":10217,"ĠÅĿatata":10218,"Ġsonoj":10219,"ĠLar":10220,"ĠEfektive":10221,"âĢĳ":10222,"Ġpapa":10223,"centra":10224,"Ġpensado":10225,"Ġkruco":10226,"Ġseka":10227,"malo":10228,"Ġroz":10229,"jariÄĿo":10230,"Ġapuda":10231,"germana":10232,"Karaj":10233,"Ġplas":10234,"estron":10235,"ĠMiaj":10236,"Ġkamparo":10237,"Ġ1908":10238,"Ġdialekto":10239,"OM":10240,"nan":10241,"Ġund":10242,"Ġtraktado":10243,"Ġfalas":10244,"ĠJuan":10245,"Ġalvoko":10246,"kolon":10247,"cego":10248,"Ġnocio":10249,"Ġvarmo":10250,"Ġpopulacio":10251,"iel":10252,"ware":10253,"Ġagis":10254,"Äīen":10255,"Ġfero":10256,"ĠÄīevaloj":10257,"Ġrusoj":10258,"ĠMediteran":10259,"sx":10260,"Ġlipoj":10261,"pilo":10262,"bazo":10263,"Ġpriskribita":10264,"ĠaÅŃtoritato":10265,"Ġdetruis":10266,"ĠKle":10267,"ĠÄľin":10268,"ĠsorÄī":10269,"ĠEkster":10270,"ĠVaÅĿing":10271,"Ġdron":10272,"stina":10273,"ĠparoÄ¥":10274,"Ġuzitaj":10275,"''":10276,"viv":10277,"dekaj":10278,"ĠWin":10279,"Ġ65":10280,"Ġaserto":10281,"96":10282,"Ġshi":10283,"cir":10284,"ighis":10285,"ĠTol":10286,"ĠRek":10287,"Ġverkado":10288,"ĠmalriÄīaj":10289,"Ġdokumenton":10290,"Ġdokumentojn":10291,"ÑģÑĤ":10292,"nik":10293,"Ġtrafiko":10294,"Ġtrium":10295,"Ġnaskita":10296,"ĠÅĿtonoj":10297,"Ġ@":10298,"ĠMaÅŃri":10299,"dad":10300,"Ġromanoj":10301,"Ġkonkuren":10302,"UNK":10303,"ĠneÄĿ":10304,"Ġelementojn":10305,"Ã©r":10306,"ĠJapana":10307,"Ġ1976":10308,"ep":10309,"Ġulo":10310,"teblas":10311,"Ġbord":10312,"ĠPr":10313,"Ġnomitaj":10314,"ĠpentraÄµoj":10315,"profita":10316,"ĠSvisio":10317,"!!!":10318,"ĠreÄĿisoro":10319,"Ġghis":10320,"emor":10321,"patrino":10322,"respon":10323,"parta":10324,"ĠEkzem":10325,"ĠÃł":10326,"Ġblogon":10327,"Ġ1982":10328,"Ġraportoj":10329,"Ġekstrema":10330,"Ġatribui":10331,"ĠGil":10332,"Ġgrandio":10333,"Ġfrazojn":10334,"Ġrifuzas":10335,"Ġkategorion":10336,"Ġlogiko":10337,"ĠPie":10338,"Ġbalan":10339,"Ġ120":10340,"ĠkonatiÄĿis":10341,"etojn":10342,"Ġqu":10343,"Ġenlanda":10344,"ĠKvar":10345,"osta":10346,"Ġpagis":10347,"historio":10348,"gono":10349,"sh":10350,"tine":10351,"Ġeblos":10352,"Ġspecifaj":10353,"Ġregionon":10354,"Ġspite":10355,"ĠKartve":10356,"Ġarbus":10357,"ĠÄµurnalistoj":10358,"Ġkonforme":10359,"ĠTeri":10360,"ĠLago":10361,"ĠtuÅĿas":10362,"Ġoriginale":10363,"ĠKongresoj":10364,"ada":10365,"Ġpr":10366,"ÄĿeto":10367,"piro":10368,"Ġakuza":10369,"Ġfinita":10370,"ĠbedaÅŃras":10371,"ĠÄĪam":10372,"komple":10373,"Ġmalamo":10374,"Ġenvi":10375,"Ġfle":10376,"Ġreformo":10377,"Ġserpen":10378,"fluas":10379,"late":10380,"kataj":10381,"Ġvivoj":10382,"ĠkaÅĿi":10383,"ĠkontraÅŃa":10384,"Ġoft":10385,"jaroj":10386,"koto":10387,"pane":10388,"ĠÄīefan":10389,"parol":10390,"Ġ1978":10391,"ĠKultura":10392,"Ġartefarita":10393,"Peter":10394,"Ġeo":10395,"Ġdeko":10396,"ĠMajo":10397,"ĠVian":10398,"Ġdevigis":10399,"Ġordinare":10400,"Ġkvaliton":10401,"kvankam":10402,"ĠaÄµoj":10403,"ÄĿinte":10404,"Ġnokton":10405,"ĠnovaÄµ":10406,"Ġkarno":10407,"Ġpriskriba":10408,"ĠBelorus":10409,"eldon":10410,"Ġbv":10411,"Ġelektu":10412,"ĠLiteratura":10413,"Ġetan":10414,"teca":10415,"Ġtelefonvokoj":10416,"Ġtesta":10417,"Ġfora":10418,"Ġfunkcii":10419,"ĠHai":10420,"Ġunuavice":10421,"lla":10422,"ĠAR":10423,"Ġpermesiloj":10424,"Ġtradukitaj":10425,"ĠMontri":10426,"ĠMalajzio":10427,"jaraj":10428,"zes":10429,"Ġrezon":10430,"ĠProjek":10431,"porta":10432,"ĠWol":10433,"Ġplenigis":10434,"Ġprogramojn":10435,"tekni":10436,"riÄĿis":10437,"ĠaÅŃten":10438,"ĠKim":10439,"ebleco":10440,"press":10441,"Fakte":10442,"Ġfakaj":10443,"ĠinteresiÄĿis":10444,"Ġ1983":10445,"ĠÅĿanÄĿiÄĿas":10446,"Ġlimojn":10447,"vila":10448,"Ġforiri":10449,"programo":10450,"mals":10451,"Ġ1984":10452,"ĠHazar":10453,"Ġstrebas":10454,"Ġrevolucia":10455,"beto":10456,"Ġvira":10457,"Ġvikipedio":10458,"ĠDor":10459,"Ġkapi":10460,"Ġminer":10461,"Ġtrinki":10462,"Ġalvokon":10463,"Ġsingar":10464,"amaso":10465,"Ġovo":10466,"ĠNek":10467,"oniko":10468,"pie":10469,"Ġekziston":10470,"Ġoriginalaj":10471,"ĠTurk":10472,"Ġkrono":10473,"tonio":10474,"preno":10475,"Ġambi":10476,"fig":10477,"uan":10478,"Ġex":10479,"Ġestroj":10480,"Ġrektan":10481,"ĠÅĿte":10482,"vej":10483,"Ġpermeso":10484,"ĠetaÄĿo":10485,"Ġregistritaj":10486,"ç¤¼åĮħç¤¼åĮħç¤¼åĮħç¤¼åĮħç¤¼åĮħç¤¼åĮħç¤¼åĮħç¤¼åĮħç¤¼åĮħç¤¼åĮħç¤¼åĮħç¤¼åĮħç¤¼åĮħç¤¼åĮħç¤¼åĮħç¤¼åĮħç¤¼åĮħç¤¼åĮħç¤¼åĮħç¤¼åĮħç¤¼åĮħç¤¼åĮħç¤¼åĮħç¤¼åĮħç¤¼åĮħç¤¼åĮħç¤¼åĮħç¤¼åĮħç¤¼åĮħç¤¼åĮħç¤¼åĮħç¤¼åĮħç¤¼åĮħç¤¼åĮħç¤¼åĮħç¤¼åĮħç¤¼åĮħç¤¼åĮħç¤¼åĮħç¤¼åĮħç¤¼åĮħç¤¼åĮħç¤¼åĮħç¤¼åĮħç¤¼åĮħç¤¼åĮħç¤¼åĮħç¤¼åĮħç¤¼åĮħç¤¼åĮħç¤¼åĮħç¤¼åĮħç¤¼åĮħç¤¼åĮħç¤¼åĮħç¤¼åĮħç¤¼åĮħç¤¼åĮħç¤¼åĮħç¤¼åĮħç¤¼åĮħç¤¼åĮħç¤¼åĮħç¤¼åĮħ":10487,"uta":10488,"uton":10489,"zin":10490,"Ġaltran":10491,"ĠSier":10492,"ford":10493,"Ġ1887":10494,"ĠÅľa":10495,"Ġfinancaj":10496,"Ġkontenta":10497,"ĠpejzaÄĿo":10498,"ĠJozefo":10499,"adas":10500,"all":10501,"Ġgvidan":10502,"ĠLatvio":10503,"Ġekva":10504,"Ġprem":10505,"ĠFR":10506,"Ġrespondeco":10507,"ĠfiÅĿoj":10508,"Ġkonkeris":10509,"ĠNapoleono":10510,"liga":10511,"Ġtrun":10512,"Ġkemia":10513,"ĠMika":10514,"Ġkorea":10515,"Ã©n":10516,"Ġkutimas":10517,"Ġoperacio":10518,"ĠFrancujo":10519,"liaj":10520,"Ġenter":10521,"peton":10522,"ĠRenato":10523,"ĠkontraÅŃas":10524,"ĠReÄĿa":10525,"burga":10526,"Ġ1975":10527,"Ġkarakteriza":10528,"ĠsovaÄĿ":10529,"here":10530,"Ġesenco":10531,"Ġretoj":10532,"umaj":10533,"struk":10534,"ĠMonto":10535,"ĠtagmanÄĿo":10536,"ĠpoÅĿtele":10537,"Ġ##":10538,"ÏĤ":10539,"Ġsavo":10540,"ĠmembroÅĿtatoj":10541,"Eni":10542,"ĠKaÅŃ":10543,"renkon":10544,"Ġrespondoj":10545,"Ġesperantistaj":10546,"ĠRichard":10547,"iston":10548,"ĠDel":10549,"ĠHTML":10550,"Ġzorgi":10551,"Ġpiedo":10552,"Ġekspluata":10553,"Ġaparatoj":10554,"Ġdezajno":10555,"ĠKalifor":10556,"PIV":10557,"jono":10558,"tagon":10559,"ĠPh":10560,"ĠPlan":10561,"Ġkab":10562,"zanio":10563,"Ġnajbaroj":10564,"ilvanio":10565,"kris":10566,"Å¬":10567,"Ġque":10568,"Ġkino":10569,"Ġpostlas":10570,"Ġkamarado":10571,"Ġkoordinatojn":10572,"ĠBarcelono":10573,"âĢķ":10574,"dez":10575,"ĠIl":10576,"ÅŃropaj":10577,"ĠZim":10578,"Internacia":10579,"ĠDistrikto":10580,"koloraj":10581,"ĠFederacia":10582,"ĠKva":10583,"ĠPDF":10584,"Ġeblecoj":10585,"Ġ1938":10586,"Ġpanon":10587,"93":10588,"ĠkontraÅŃle":10589,"Ġceremoni":10590,"Ġankoraux":10591,"Ġpolitike":10592,"Ġdig":10593,"ĠpaÄĿ":10594,"pano":10595,"Ġinstigis":10596,"Ġkonstruitaj":10597,"Ġproponojn":10598,"ĠRusa":10599,"Ġmaljunulo":10600,"Nova":10601,"Ġinvado":10602,"ĠSab":10603,"Ġsufo":10604,"Ġkonsiloj":10605,"Ġtransdoni":10606,"Ġdetrui":10607,"ĠReÄĿlando":10608,"Ġfondi":10609,"ĠsaÄĿa":10610,"Ġ1956":10611,"Ġ1922":10612,"Ġobservi":10613,"****":10614,"ĠSia":10615,"Ġcivila":10616,"ĠmontriÄĿas":10617,"Ġfundamenta":10618,"Ġstatuo":10619,"tintaj":10620,"Ġturismo":10621,"Ġjapanaj":10622,"Ġkantado":10623,"Ġtren":10624,"Ġkomencan":10625,"Ġterure":10626,"ĠMarkso":10627,"ĠruÄĿaj":10628,"Ġvagon":10629,"Ġrisko":10630,"Ġesenca":10631,"Ġ(âĢľ":10632,"ĠAg":10633,"poz":10634,"verbo":10635,"Ġmole":10636,"tinto":10637,"Ġanglalingva":10638,"Ġradikojn":10639,"ĠAmazon":10640,"isa":10641,"Ġoleo":10642,"ĠEsper":10643,"Ġlernejon":10644,"Ġkontribuo":10645,"Ġdiferencas":10646,"komence":10647,"ĠretpoÅĿta":10648,"Ġtraktato":10649,"Ġdebato":10650,"82":10651,"gedio":10652,"ĠsenÅĿan":10653,"ĠÄīefur":10654,"Ġnormoj":10655,"Ġprofundan":10656,"Ġkontribuas":10657,"fing":10658,"Ġkapelo":10659,"Ġmalsato":10660,"ĠMax":10661,"Ġsukcesaj":10662,"Ġobservis":10663,"ĠNecesas":10664,"suba":10665,"tanio":10666,"Ġinterreta":10667,"oldo":10668,"vojoj":10669,"Ġbelajn":10670,"Ġcxiam":10671,"Ġ1974":10672,"Ur":10673,"tea":10674,"Ġelvo":10675,"Ġkoncernaj":10676,"Ġ1931":10677,"Ġtitoloj":10678,"Ġanalizi":10679,"igxas":10680,"ĠKrakovo":10681,"illo":10682,"ĠGla":10683,"Ġmovo":10684,"Ġmalsek":10685,"goro":10686,"Ġsie":10687,"ĠLibroj":10688,"ĠkaÅŃzi":10689,"Ġkunlaboron":10690,"Ġduonon":10691,"Ġrezolucio":10692,"Â·":10693,"Ġpripen":10694,").[":10695,"Ġduoninsulo":10696,"Ġmontrante":10697,"orgio":10698,"Ġtono":10699,"estra":10700,"kampo":10701,"Ġatingebla":10702,"Ġ1949":10703,"Ġmaljus":10704,"Ġekstreme":10705,"\"-":10706,"ĠSkrib":10707,"kse":10708,"ĠHeb":10709,"Ġpatroj":10710,"ube":10711,"Ġkreitaj":10712,"Ġliberigi":10713,"Ġsolena":10714,"Ġkonsiderataj":10715,"Ġrusan":10716,"ĠaranÄĿ":10717,"Ġteatra":10718,"Ġinterlingvis":10719,"Ġeksi":10720,"Ġnorve":10721,"Ġturka":10722,"Ġkares":10723,"ĠDuolingo":10724,"Ġmedioj":10725,"Ġescepto":10726,"Ġhebrea":10727,"dron":10728,"tulon":10729,"Ġsistem":10730,"enton":10731,"Ġlikvi":10732,"ĠAlpoj":10733,"Ã³r":10734,"Ġpraktiki":10735,"Ġrespondec":10736,"ĠFestivalo":10737,"08765":10738,"Pl":10739,"uf":10740,"Ġreganto":10741,"Ġpolus":10742,"kedo":10743,"Ġ1981":10744,"Ġfavora":10745,"Ġspacon":10746,"ĠEgiptujo":10747,"Ġafrikaj":10748,"Ġnaskis":10749,"Ġunusola":10750,"xojn":10751,"radon":10752,"Ġneniuj":10753,"ĠÅĿtaton":10754,"Ġmuzikistoj":10755,"Ġkomerc":10756,"kalku":10757,"Ġmedicina":10758,"ppe":10759,"the":10760,"kaÄµojn":10761,"ĠSri":10762,"Ġmotoro":10763,"Ġlernanto":10764,"Ġsignifis":10765,"Ġkuracistoj":10766,"Ġaktivis":10767,"cxo":10768,"ĠPetr":10769,"Ġ1936":10770,"ĠOnline":10771,"Ġambasad":10772,"Ġskol":10773,"Ġvido":10774,"ÅĿar":10775,"Ġsurvoje":10776,"Ġleter":10777,"enojn":10778,"dalo":10779,"ĠaplaÅŃ":10780,"ĠOra":10781,"Ġscivole":10782,"antaro":10783,"Ġfrakas":10784,"ĠaÅŃskult":10785,"ĠStalin":10786,"Ġnuklea":10787,"Ġprefijo":10788,"Ġsala":10789,"umeno":10790,"Ġpromo":10791,"ĠPUNK":10792,"Ġhavante":10793,"ĠlanÄīita":10794,"Ġlongo":10795,"ĠSian":10796,"ĠmanÄĿaÄµoj":10797,"ĠGram":10798,"Ġpafmor":10799,"Ġarkitekturo":10800,"Ġminorita":10801,"Ġsciigis":10802,"Ġdeklaro":10803,"ĠBarbara":10804,"ĠGeorgo":10805,"OL":10806,"Ġby":10807,"ĠJugosla":10808,"Ġtrankvil":10809,"Ġkamparanoj":10810,"Ġbonvenaj":10811,"ĠAntverpeno":10812,"Ġalmen":10813,"Ġreak":10814,"ĠRoman":10815,"Ġfiksita":10816,"Ġrezignis":10817,"Ġnemal":10818,"ĠLos":10819,"vito":10820,"Ġunuj":10821,"manier":10822,"Ġapude":10823,"glis":10824,"likon":10825,"uspe":10826,"gale":10827,"Ġmotivoj":10828,"Ġmortas":10829,"orienta":10830,"ĠmalfacilaÄµoj":10831,"Ġtavolo":10832,"Eks":10833,"ladon":10834,"Ġdanco":10835,"Ġatingo":10836,"Ġmalfermitaj":10837,"Ġegala":10838,"RATIA":10839,"ĠIam":10840,"Ġhavanta":10841,"ĠkontraÅŃe":10842,"ĠmalriÄīa":10843,"ĠDomino":10844,"Ġoma":10845,"Ġacido":10846,"diko":10847,"pioj":10848,"Ġpaca":10849,"Ġorn":10850,"Ġnunan":10851,"Ġimag":10852,"Ġgramatika":10853,"ĠinterÅĿanÄĿo":10854,"csay":10855,"zul":10856,"testro":10857,"Ġpoetoj":10858,"kondiÄīoj":10859,"ĠInformoj":10860,"Ġhistorie":10861,"gxoj":10862,"Ġkruroj":10863,"Ġkongrua":10864,"lom":10865,"Ġmalplen":10866,"Ġmalplena":10867,"versaj":10868,"Ġkolegoj":10869,"Ġmedikamen":10870,"Ġvirinojn":10871,"Ġideologio":10872,"Ġdisvastigo":10873,"ĠGaze":10874,"Ġfingroj":10875,"IRRATIA":10876,"ĨįãĨįãĨįãĨįãĨįãĨįãĨįãĨįãĨįãĨįãĨįãĨįãĨįãĨįãĨįãĨįã":10877,"ĠPUNKIRRATIA":10878,"gvo":10879,"kron":10880,"Ġakri":10881,"Ġbaro":10882,"Ġheg":10883,"poloj":10884,"Ġpostul":10885,"ĠÄĿustan":10886,"Ġhejma":10887,"Ġprelegis":10888,"ĠMongolio":10889,"DA":10890,"à´":10891,"Ġsupro":10892,"anov":10893,"ĠTajlando":10894,"datumoj":10895,"Ġinstin":10896,"varm":10897,"Ġludantoj":10898,"Ġfluo":10899,"Ġbiblio":10900,"jaraÄĿa":10901,"Ġ1934":10902,"ĠKartvelio":10903,"Ä±":10904,"cilio":10905,"ĠleÄĿon":10906,"ĠpentraÄµo":10907,"cxe":10908,"vus":10909,"Ġca":10910,"Ġdors":10911,"Ġondo":10912,"Ġpruvis":10913,"2018":10914,"Ġchiu":10915,"/,":10916,"projek":10917,"×Ļ":10918,"Ġflus":10919,"ĠIdo":10920,"Ġdub":10921,"Ġatingos":10922,"Ġprofund":10923,"Ġarkitekto":10924,"lapu":10925,"zila":10926,"Ġkui":10927,"Ġmiliono":10928,"erikaj":10929,"Ġrezigni":10930,"ovo":10931,"Ã¥":10932,"istino":10933,"ĠAS":10934,"Ġsepa":10935,"ĠTE":10936,"ĠaÅŃg":10937,"Ġverkaro":10938,"Ġapre":10939,"dintoj":10940,"Ġtelefono":10941,"Ġalvokoj":10942,"ÄĪefa":10943,"Univers":10944,"kvin":10945,"limo":10946,"Ġmagi":10947,"lingvajn":10948,"ĠÃģ":10949,"Ġferm":10950,"ĠretpaÄĿo":10951,"ĠÅĿtel":10952,"Ġpatrio":10953,"Ġkomenton":10954,"penna":10955,"Ġstudas":10956,"Ġ1947":10957,"Ġsemajnojn":10958,"Ġformale":10959,"Ġkongruas":10960,"Ð³":10961,"ĠBlu":10962,"menoj":10963,"ĠMezoriento":10964,"sci":10965,"Ġmito":10966,"Ġbak":10967,"enerala":10968,"ĠsufiÄīa":10969,"Ġarmeon":10970,"Ġdividas":10971,"Ġpostuli":10972,"Ġinstali":10973,"Ġmun":10974,"Ġvosto":10975,"Ġakum":10976,"ĠInc":10977,"Ġkompletan":10978,"Ġsubstantivo":10979,"timis":10980,"Ġvivan":10981,"Ġplis":10982,"ÄĿitaj":10983,"Ġjunan":10984,"Ġfrancoj":10985,"Ġkamaradoj":10986,"Ġnea":10987,"ĠInvers":10988,"Ġhodia":10989,"ĠVojo":10990,"Ġhebre":10991,"Ġadministranto":10992,"ĠKer":10993,"Ġeklezioj":10994,"Ġinklin":10995,"ĠKalo":10996,"paÄĿon":10997,"Ġkontrakto":10998,"Ġplanis":10999,"Ġkovris":11000,"Ġprononco":11001,"patr":11002,"ĠbuÅĿ":11003,"Ġintence":11004,"Ġkono":11005,"dua":11006,"Ġapliko":11007,"Ġlegadon":11008,"Ġelekt":11009,"Ġbaze":11010,"Ġetno":11011,"Ġekskursoj":11012,"Voj":11013,"Ġamata":11014,"ĠPlen":11015,"ĠTj":11016,"Ġmultan":11017,"ĠOceano":11018,"Ġokazigi":11019,"Ġeksterlande":11020,"istemon":11021,"Ġfunkciojn":11022,"certo":11023,"Ġkompari":11024,"ĠdanÄĿer":11025,"Ġkluboj":11026,"ĠHenry":11027,"inf":11028,"ceo":11029,"Ġpretaj":11030,"Ġ1912":11031,"Ġtrovitaj":11032,"Ġkapt":11033,"unua":11034,"ĠSkot":11035,"Ġpriorita":11036,"ĠCla":11037,"Ġnavig":11038,"ĠAÅŃtuno":11039,"Ġgasto":11040,"Ġmezepoka":11041,"ĠfreÅĿa":11042,"Ġciferoj":11043,"Ġdistribui":11044,"ĠaÅŃda":11045,"ktos":11046,"gramoj":11047,"Ġebloj":11048,"Ġdirektis":11049,"ĠNeniam":11050,"ÑĢÐ°":11051,"Ġhispanaj":11052,"Ġheroo":11053,"ĠEtiopio":11054,"Ġsuna":11055,"tioj":11056,"letojn":11057,"Ġprezentitaj":11058,"Ġjenajn":11059,"ĠÄĪef":11060,"Ġplejo":11061,"grafion":11062,"Ġtrar":11063,"ĠEsperantistojn":11064,"Ġtegmento":11065,"sistemoj":11066,"cite":11067,"Ġreputa":11068,"ĠSeulo":11069,"Ġstrat":11070,"Ġonline":11071,"Ġfiziko":11072,"Ġsubstanco":11073,"Ġafrika":11074,"ï¼ģ":11075,"Ġpornografio":11076,"ĠAlbanio":11077,"bala":11078,"patro":11079,"Ġparolos":11080,"Ġcetera":11081,"ĠÄĪiam":11082,"Ġvizit":11083,"Ġprofito":11084,"Ġtribunalo":11085,"feliÄī":11086,"ĠSho":11087,"ĠJuna":11088,"Ġkantisto":11089,"Ġkunlaboris":11090,"ĠYou":11091,"Ġraso":11092,"Ġforgesi":11093,"Ġ1928":11094,"Ġkotizo":11095,"hum":11096,"ĠendanÄĿer":11097,"Ġsena":11098,"Ġrajt":11099,"Ġdistrikta":11100,"Ġ1969":11101,"Ġsugestas":11102,"ĠFried":11103,"Bra":11104,"Tri":11105,"enz":11106,"Ġorel":11107,"Ġkortu":11108,"Ġ1921":11109,"ĠBolivio":11110,"Ri":11111,"iÄĿantaj":11112,"ĠWord":11113,"Ġmalvarme":11114,"Ġfiguroj":11115,"Ġkonfirmis":11116,"ĠfortikaÄµo":11117,"ĠBangla":11118,"Ġsciu":11119,"Ġpluaj":11120,"Ġargumento":11121,"Ġeuro":11122,"Ġpremio":11123,"mpis":11124,"Ġ1973":11125,"ĠevidentiÄĿis":11126,"Ġartefar":11127,"INVALIDINVALIDINVALIDINVALID":11128,"asa":11129,"els":11130,"ĠAgen":11131,"dustrio":11132,"ĠVilhelmo":11133,"veloj":11134,"inia":11135,"ĠSp":11136,"ild":11137,"manieron":11138,"ĠJi":11139,"ĠLicen":11140,"ĠKaza":11141,"Ġutilaj":11142,"Ġstrang":11143,"Ġkatalun":11144,"âĢ³":11145,"ĠArki":11146,"Ġzorgis":11147,"Ġsovetia":11148,"ĠTanzanio":11149,"haro":11150,"Ġaj":11151,"Ġabo":11152,"ĠSha":11153,"ĠDra":11154,"Ġlokan":11155,"Ġmaturi":11156,"ĠTies":11157,"Ġscion":11158,"ĠKondiÄī":11159,"Ġturisma":11160,"Ġkonduk":11161,"tekstoj":11162,"ĠeÅŃrojn":11163,"Ser":11164,"Ġburo":11165,"Ġtes":11166,"Ġpermeson":11167,"Ġkutimoj":11168,"Ġinfanon":11169,"Ġadreson":11170,"ĠJakob":11171,"regiono":11172,"Ġregantoj":11173,"ĠIst":11174,"Ġforigis":11175,"ĠÄīarma":11176,"Ġmaron":11177,"Ġplibonigo":11178,"Ġ1907":11179,"Ġamikino":11180,"Ġtrajtojn":11181,"Ġinstrumen":11182,"lizab":11183,"kestro":11184,"ĠKutime":11185,"Ġodor":11186,"ĠMian":11187,"Ġadmon":11188,"lot":11189,"Ġtipe":11190,"ksig":11191,"Ġvertika":11192,"dent":11193,"korp":11194,"Ġmalpura":11195,"vigis":11196,"lat":11197,"Ġinte":11198,"ĠDer":11199,"ĠIpernity":11200,"cela":11201,"Ġmonteto":11202,"Ġdue":11203,"Ġamika":11204,"Ġkostoj":11205,"Ġtitolita":11206,"Ġmetodon":11207,"Ġpritraktas":11208,"Ġflugiloj":11209,"gho":11210,"pom":11211,"Ġvitro":11212,"ĠSV":11213,"ĠGron":11214,"Ġamuza":11215,"Ġsignifa":11216,"Ġdiskutis":11217,"posed":11218,"ĠAlÄĿerio":11219,"Ġelef":11220,"briÄĿi":11221,"Ġstrioj":11222,"ĠFonduso":11223,"ood":11224,"Ġekkoni":11225,"germane":11226,"ĠTokiponon":11227,"hÃ¡":11228,"well":11229,"Ġprimi":11230,"ĠMili":11231,"Ġsolaj":11232,"ĠplaÄī":11233,"Ġ1929":11234,"Ġsoldato":11235,"Ġenmeti":11236,"Ġlicencitaj":11237,"Komunejo":11238,"Ġkonto":11239,"ĠÄīevalo":11240,"ther":11241,"Ġsonon":11242,"ĠFreder":11243,"Ġsoveta":11244,"Ġfaktoroj":11245,"Ġalproksi":11246,"Ġhaj":11247,"dimen":11248,"ĠSene":11249,"ĠMeto":11250,"Ġfarus":11251,"ĠtuÅĿis":11252,"ĠbonÅĿan":11253,"Ġekskluzive":11254,"folio":11255,"Ġspertas":11256,"Ġmaso":11257,"Ġhundoj":11258,"Ġdosieruja":11259,"Ġsekura":11260,"Ġrespondecas":11261,"Ġpoezi":11262,"ĠPaÄĿo":11263,"Ġnecesis":11264,"Ġbazan":11265,"Ġ1906":11266,"Ġuto":11267,"Ġmaksimume":11268,"dreso":11269,"ĠOkcidento":11270,"respe":11271,"ĠÅľtata":11272,"Ġjenan":11273,"Ġurbojn":11274,"Ġmalkonten":11275,"xas":11276,"Ġmirinde":11277,"ĠBandar":11278,"Ġkafo":11279,"ĠNico":11280,"Ġatenti":11281,"Ġsanktaj":11282,"Ġvolumo":11283,"Ġpugo":11284,"Ġparametron":11285,"vÃ¡n":11286,"Ġserion":11287,"Ġprezent":11288,"ĠZamenhofa":11289,"Ġkonsistanta":11290,"ĠRespon":11291,"Ġstarigas":11292,"cegovino":11293,"ĠÄīiaj":11294,"ĠGva":11295,"Ġsalut":11296,"Ġarmea":11297,"Ġgriza":11298,"ĠInsulo":11299,"ĠKis":11300,"pose":11301,"mea":11302,"edro":11303,"rinta":11304,"ĠOlimpi":11305,"ert":11306,"oran":11307,"Ġrecep":11308,"nikov":11309,"Ġmemori":11310,"ĠÄīeesti":11311,"czy":11312,"ticle":11313,"ĠdisÄīiploj":11314,"signi":11315,"Ġlimas":11316,"Ġjuraj":11317,"Ġpros":11318,"ildo":11319,"Ġfals":11320,"Ġbelulino":11321,"Ġgubernio":11322,"kler":11323,"Ã«":11324,"Ġagres":11325,"Ġkonvena":11326,"ĠStel":11327,"ĠÄīiela":11328,"ĠfaÅĿ":11329,"Ġsavis":11330,"Ġmurdis":11331,"Ġ1959":11332,"ĠBerno":11333,"krom":11334,"ew":11335,"erto":11336,"ĠIvano":11337,"Ġalporti":11338,"Ġakompanis":11339,"Ġtumul":11340,"Zamenhof":11341,"tena":11342,"Ġatent":11343,"Ġprojektojn":11344,"nomon":11345,"IP":11346,"Ġkonso":11347,"oseo":11348,"ĠEsperantilo":11349,"Ġfilmojn":11350,"Ġoficisto":11351,"lerni":11352,"Ġmalbonan":11353,"ighas":11354,"ĠNASA":11355,"opera":11356,"tejon":11357,"ĠTen":11358,"ĠÅĿve":11359,"eblo":11360,"Ġekstra":11361,"Ġroko":11362,"Ġhonora":11363,"Ġkonceptoj":11364,"Ġmalpermesis":11365,"ĠNordameriko":11366,"Ġ###":11367,"Ġoce":11368,"Ġ101":11369,"ĠNask":11370,"Ġaliuloj":11371,"ĠSvisa":11372,"Ġaltru":11373,"Ġperdita":11374,"Ġkapri":11375,"bula":11376,"hoo":11377,"Ġmalsana":11378,"Ġkritik":11379,"ĠedziÄĿis":11380,"81":11381,"ago":11382,"yl":11383,"ĠÄīeloj":11384,"Ġkonfor":11385,"ĠÅĿal":11386,"Ġsufikso":11387,"Ġliveras":11388,"Ġetimo":11389,"ĠSuno":11390,"ĠleÄĿojn":11391,"igitajn":11392,"Ġhelpu":11393,"antino":11394,"Ġbezonon":11395,"Ġsomera":11396,"\":":11397,"Ġdekoj":11398,"Ġalmo":11399,"Ġplenaj":11400,"Ġdonaci":11401,"Ġsuperre":11402,"Ġsav":11403,"Ġdecidojn":11404,"Ġvideblaj":11405,"ĠÅľanh":11406,"?...":11407,"Est":11408,"indas":11409,"povo":11410,"ĠLibio":11411,"Ġnuntempaj":11412,"Ġparolu":11413,"Ġskribitaj":11414,"Ġredakcio":11415,"ĠvojaÄĿon":11416,"ÅĿutita":11417,"ĠBuller":11418,"ĠNiÄĿerio":11419,"Îµ":11420,"Ġvag":11421,"Ġreal":11422,"Ġanoni":11423,"Ġpublikigitaj":11424,"flanka":11425,"Ġpiedojn":11426,"Ïģ":11427,"Ġidio":11428,"Ġlimon":11429,"zelo":11430,"Ġkulturan":11431,"ĠAntaÅŃa":11432,"Ġfesti":11433,"Ġvekis":11434,"Ġpoemojn":11435,"aper":11436,"tablo":11437,"Ġdeka":11438,"ĠNas":11439,"Ġvendo":11440,"ĠDoc":11441,"Ġvirinon":11442,"Ġestontaj":11443,"ekzamen":11444,"ÐĶ":11445,"Ġza":11446,"Ġrepa":11447,"ĠLapenna":11448,"tenojn":11449,"Ġsend":11450,"Ġgrupojn":11451,"Ġestonte":11452,"ĠImperi":11453,"Ġekzempleroj":11454,"Ġakcidento":11455,"Ġeksterordinara":11456,"ĠRenkontiÄĿo":11457,"zel":11458,"ĠestaÄµoj":11459,"Ġelpa":11460,"ĠIT":11461,"Ġpublikan":11462,"Ġsesa":11463,"ĠStefan":11464,"Ġkopii":11465,"ĠafiÅĿo":11466,"ĠTekstoj":11467,"Ġkodon":11468,"Ġplanita":11469,"Ġobjektojn":11470,"Ġmalkovro":11471,"Ġ1909":11472,"Ġbibliotekoj":11473,"Ġsevera":11474,"Ġterorismo":11475,"Komence":11476,"Ġnesufi":11477,"'re":11478,"ÂĿ":11479,"Ñľ":11480,"Ġdepon":11481,"Ġinva":11482,"Ġuzebla":11483,"Ġregistris":11484,"ĠKazi":11485,"unuo":11486,"ĠMON":11487,"ĠMona":11488,"ĠSekva":11489,"Ġbazajn":11490,"ĠPrusio":11491,"ĠZuriko":11492,"klojn":11493,"vaÄµojn":11494,"Ġekzakte":11495,"tindaj":11496,"Ġrilatajn":11497,"Ġkuracis":11498,"Ġsperta":11499,"Ġaspekt":11500,"ĠPlie":11501,"Ġsignojn":11502,"ĠvoÄīdonado":11503,"ĠDeklara":11504,"ĠLuksemburgo":11505,"ĠEvidente":11506,"pot":11507,"Ġhalo":11508,"Ġcertan":11509,"Ġprincipojn":11510,"Ġminaco":11511,"Ġsevere":11512,"ĠLam":11513,"aÅŃl":11514,"Ġkaze":11515,"Ġtrano":11516,"Ġinternan":11517,"Ġinstituto":11518,"Ġfanfar":11519,"Ġseminar":11520,"Ġping":11521,"ĠNiaj":11522,"Ġrezisto":11523,"Ġpersonon":11524,"Tial":11525,"Ġrusia":11526,"Ġesperantistaro":11527,"Ġdefendas":11528,"Ġokupita":11529,"Ġinstrumentoj":11530,"Ġtertremo":11531,"ĠAni":11532,"Ġkunvenis":11533,"ĠDol":11534,"fizi":11535,"ĠEngel":11536,"Ġfruktojn":11537,"Ġmalfacilaj":11538,"Ġfamilianoj":11539,"ĠpoÅĿto":11540,"ĠkaÅĿas":11541,"Ġdemokratia":11542,"Ġbalotoj":11543,"guage":11544,"Ġskolo":11545,"Ġbrem":11546,"ĠVikipedia":11547,"Ġtriboj":11548,"Ġapogis":11549,"Ġmallongan":11550,"ĠdolÄī":11551,"Ġetendis":11552,"Ġbabilejo":11553,"ĠBurundo":11554,"Don":11555,"ilu":11556,"tivojn":11557,"ĠAmo":11558,"facon":11559,"Ġ1941":11560,"ĠÄīeestantoj":11561,"Ġmizero":11562,"MA":11563,"ktanta":11564,"Ð·":11565,"stria":11566,"Ġ1900":11567,"Ġmetita":11568,"ĠPreparoj":11569,"ĠEstu":11570,"ĠLasta":11571,"ĠSmith":11572,"ĠunuiÄĿo":11573,"fera":11574,"Ġmetio":11575,"Ġbritaj":11576,"pÃ©":11577,"ĠÙ":11578,"Ġverboj":11579,"Ġdetruita":11580,"kapablon":11581,"çļ":11582,"nomoj":11583,"Ġprincipe":11584,"Ġmomenton":11585,"ĠTonkin":11586,"Ġprovos":11587,"Ġmulti":11588,"Ġbieno":11589,"Ġpolitikajn":11590,"Ġrespondecon":11591,"Ġligon":11592,"ĠeldonaÄµoj":11593,"ĠvilaÄĿon":11594,"Ġesperis":11595,"Ġkoncepton":11596,"Ġleciono":11597,"Ġfarante":11598,"mondo":11599,"Ġkonfuzi":11600,"tat":11601,"roc":11602,"Ġovojn":11603,"aleco":11604,"ĠÄĿeneralaj":11605,"Esperanta":11606,"Ġbuso":11607,"Ġglas":11608,"Ġgradoj":11609,"ĠloÄĿata":11610,"ĠEkvadoro":11611,"Ġakiras":11612,"talogo":11613,"2016":11614,"Ġagojn":11615,"Ġrompi":11616,"Ġlerneja":11617,"bs":11618,"Ø±":11619,"ĠSel":11620,"tualaj":11621,"Ġsocioj":11622,"portoj":11623,"ĠHungar":11624,"Ġglavo":11625,"Ġdirekton":11626,"ĠMemor":11627,"Ju":11628,"ĠSara":11629,"kontro":11630,"Ġracia":11631,"Ġsiatempe":11632,"Ġhistorian":11633,"âĢĻ.":11634,"Ġmalnovajn":11635,"Ġreligion":11636,"Ġlingvistiko":11637,"ĠOsmo":11638,"domoj":11639,"Ġzo":11640,"Ġera":11641,"ĠÄīo":11642,"ĠShi":11643,"ĠItala":11644,"ĠGali":11645,"Ġtroa":11646,"Ġkredon":11647,"Ġtribo":11648,"ĠserÄīado":11649,"rajtoj":11650,"ĠMat":11651,"Ġdormi":11652,"Ġraportas":11653,"Ġ1942":11654,"Ġoportuna":11655,"ĠUrugvajo":11656,"Ġadek":11657,"Ġsektoro":11658,"Ġspecialajn":11659,"Ġflankon":11660,"ĠPermes":11661,"Ġgast":11662,"Ġplibone":11663,"Ġ1923":11664,"ĠÄĿenti":11665,"Ġneatendite":11666,"Ġdemis":11667,"ĠâĢĻ":11668,"ĠBron":11669,"Ġhavigi":11670,"Ġvirina":11671,"Ġstarigo":11672,"ĠSerÄīi":11673,"On":11674,"ĠKipro":11675,"Ã¡h":11676,"ĠMay":11677,"Ġrimarki":11678,"Ġstrikte":11679,"Ġrememoris":11680,"Ġkonkludo":11681,"Ġresta":11682,"Ġtransformas":11683,"ĠdimanÄīo":11684,"Ġsalajro":11685,"Ġpartnero":11686,"ä»":11687,"aciojn":11688,"ĠHej":11689,"mejo":11690,"Ġlega":11691,"Ġeblus":11692,"Ġpeco":11693,"Ġklarigoj":11694,"Institu":11695,"Ġsabato":11696,"Ã¨re":11697,"ĠKalocsay":11698,"HA":11699,"dge":11700,"Ġbezonos":11701,"Ġsociala":11702,"Ġmodeloj":11703,"Ġteknikaj":11704,"ĠBanko":11705,"kfoje":11706,"Ġkriterioj":11707,"Ġintenc":11708,"Ġbazitan":11709,"Ġimago":11710,"Ġdistingas":11711,"jev":11712,"ĠEvangelio":11713,"PR":11714,"banoj":11715,"Ġspri":11716,"enaj":11717,"Ġhela":11718,"ĠGanao":11719,"propri":11720,"irka":11721,"Ġjudaj":11722,"Ġprofilon":11723,"Ġpruvo":11724,"Ġrekonis":11725,"Ġspiriton":11726,"ĠSilfer":11727,"babvo":11728,"ĠMunkeno":11729,"kil":11730,"titajn":11731,"Ġenka":11732,"Ġkuketojn":11733,"Ġkomunikadon":11734,"Ġlongajn":11735,"KOKOKOKOKOKOKOKOKOKOKOKOKOKOKOKOKOKOKOKOKOKOKOKOKOKOKOKOKOKOKOKO":11736,"arch":11737,"losi":11738,"ditan":11739,"bergo":11740,"Ġmilitistoj":11741,"Ġinstigi":11742,"ĠSudano":11743,"ĠPlena":11744,"Ġkoinci":11745,"Ġsenli":11746,"Ġsanktan":11747,"ĠLevi":11748,"ĠLouis":11749,"Ġbara":11750,"ĠantaÅŃdi":11751,"Ġsanktuloj":11752,"daux":11753,"Ġlingvajn":11754,"Ġmotor":11755,"ĠkreiÄĿis":11756,"Ġfrapis":11757,"bitaj":11758,"Ġpresti":11759,"Ġvizitoj":11760,"Ġ1946":11761,"ĠpreÄĿejoj":11762,"ĠTria":11763,"âĹĭ":11764,"Ġpolemi":11765,"Ġinv":11766,"Ġneniom":11767,"Ġvestojn":11768,"Bonvolu":11769,"Rila":11770,"info":11771,"ase":11772,"ĠManu":11773,"Ġdise":11774,"Ġ64":11775,"Ġasembleo":11776,"Ġeklezia":11777,"Ġbestojn":11778,"Junularo":11779,"ĠJoseph":11780,"titoj":11781,"Ġmalhon":11782,"milita":11783,"Ġduko":11784,"linioj":11785,"Ġcivitano":11786,"php":11787,"MalgraÅŃ":11788,"ĠPalaco":11789,"mapo":11790,"Ġ1911":11791,"ktataj":11792,"Ġsupraj":11793,"dikto":11794,"Ġgala":11795,"geco":11796,"Ġbeko":11797,"Ġsignife":11798,"ĠSendepen":11799,"Ġ1958":11800,"Ġkoncentrejo":11801,"Ġaviadiloj":11802,"Ġhezitu":11803,"ao":11804,"ĠApud":11805,"pek":11806,"Ġpapi":11807,"Ġvendas":11808,"mini":11809,"Ġproduktita":11810,"Ġdoktrino":11811,"Ġmontrita":11812,"Ġmomentoj":11813,"Sta":11814,"Ġboj":11815,"ĠÄīian":11816,"ĠVera":11817,"aÅŃde":11818,"ĠEntute":11819,"Ġkomunista":11820,"Ġpetro":11821,"ĠÅĿanÄĿon":11822,"ĠXi":11823,"ĠÅĿtuparo":11824,"ĠAugus":11825,"ĠMinisterio":11826,"aÅŃa":11827,"materi":11828,"fido":11829,"Ġmagis":11830,"ĠZo":11831,"Ġludanto":11832,"ĠKarolo":11833,"lekso":11834,"dagas":11835,"Ġespereble":11836,"ĠPrecipe":11837,"finan":11838,"Ġtabelo":11839,"Pollando":11840,"Ġkran":11841,"Ġdevoj":11842,"Ġsenkom":11843,"Ġnot":11844,"Ġnobe":11845,"Ġsupozis":11846,"Ġstrangaj":11847,"Ġkoncertoj":11848,"Ġestablis":11849,"Ġparencoj":11850,"Ġole":11851,"mpro":11852,"rinoj":11853,"Ġsekvo":11854,"Ġnafto":11855,"Ġfrance":11856,"Ġkolekton":11857,"ĠHazarda":11858,"ĠKondiÄīoj":11859,"ĠJudoj":11860,"Ġbankoj":11861,"digitaj":11862,"ĠKenjo":11863,"kampan":11864,"Ġkarbon":11865,"Ġaboni":11866,"Ġkapitano":11867,"Ġspektaklo":11868,"Ġstatuso":11869,"Societo":11870,"Ġaltajn":11871,"kaÄµon":11872,"Ġreganta":11873,"trin":11874,"Ġkomentojn":11875,"uokaze":11876,"Ġbrako":11877,"Nuntempe":11878,"ETV":11879,"ĠrifuÄĿintoj":11880,"tajpu":11881,"Ġkunvi":11882,"ĠBele":11883,"kcion":11884,"Ġkolum":11885,"Ġfermis":11886,"Ġmalnov":11887,"Ġ1937":11888,"supre":11889,"Ġmalaperas":11890,"Ġmemstara":11891,"ĠKonstantino":11892,"ĠJugoslavio":11893,"Go":11894,"gun":11895,"Âĵ":11896,"Ġela":11897,"Ġpanta":11898,"Ġsko":11899,"tiel":11900,"alta":11901,"Ġkonjek":11902,"ÅĿir":11903,"vatorio":11904,"petoj":11905,"ket":11906,"Ġracio":11907,"pare":11908,"ĠMargar":11909,"amiko":11910,"way":11911,"Ġsimpl":11912,"Ġfacilan":11913,"Ġvideble":11914,"Ġstatuson":11915,"Rus":11916,"Ġemis":11917,"Ġdam":11918,"likoj":11919,"vataj":11920,"Ġsubit":11921,"ĠrestaÄµoj":11922,"Kie":11923,"Ġâĸ":11924,"ĠaranÄĿon":11925,"ĠÐ¿":11926,"ĠeÅŃropanoj":11927,"Ġpanor":11928,"ĠKambo":11929,"Ġgustum":11930,"Ġkomision":11931,"gmail":11932,"hing":11933,"anier":11934,"Äīado":11935,"kir":11936,"Ġkredantoj":11937,"Ġfidas":11938,"Ġatmosfero":11939,"Jor":11940,"enca":11941,"Ġparoj":11942,"Ġtrovig":11943,"tikoloj":11944,"Ġfaktojn":11945,"Ġplenumo":11946,"Ġinstigas":11947,"Ġproduktojn":11948,"ĠDume":11949,"cript":11950,"Ġmontros":11951,"ĠBelorusio":11952,"ĠSkotlando":11953,"Ġsupozi":11954,"pic":11955,"Ġpecoj":11956,"Ġsuperflu":11957,"Ġkariero":11958,"Ġsemajnon":11959,"Ġasertoj":11960,"ĠUNES":11961,"Ġfantas":11962,"ĠZimbabvo":11963,"Ġdete":11964,"tilio":11965,"Ġnedi":11966,"ĠSenato":11967,"uzis":11968,"Ġkelka":11969,"ĠWit":11970,"Ġpreferis":11971,"Ġ1966":11972,"ĠdaÅŃrigas":11973,"Ġkontinentoj":11974,"Ġpreterlas":11975,"Ġinstrumento":11976,"Ġproprieto":11977,"Ġekhavis":11978,"Vo":11979,"kaÅĿ":11980,"ust":11981,"aÅŃto":11982,"golo":11983,"Ġtragedio":11984,"Ã¡l":11985,"ĠDiego":11986,"Ġzorgo":11987,"Ġsilente":11988,"KE":11989,"Ð¿":11990,"ans":11991,"Ġmaldika":11992,"Ġkunigi":11993,"ĠTiele":11994,"Ġsintenon":11995,"Ġamba":11996,"ette":11997,"ĠÅĿanco":11998,"Ġsocion":11999,"ĠsonÄĿo":12000,"Ġmalkovrita":12001,"Ġanonci":12002,"ÐµÐ½":12003,"pelis":12004,"Ġelektronika":12005,"Ġjudojn":12006,"xu":12007,"Ġmamoj":12008,"dozo":12009,"ĠpreÄĿi":12010,"Ġaperigis":12011,"Ġurbocentro":12012,"Ġinteresojn":12013,"Ġsciencisto":12014,"ĠKari":12015,"Ġimplik":12016,"Ġrekonas":12017,"Ġkunsidoj":12018,"ĠLernejo":12019,"dur":12020,"Ġrele":12021,"ĠElizab":12022,"Ġalimaniere":12023,"kaja":12024,"Ġkodoj":12025,"havas":12026,"Ġplanko":12027,"Ġ99":12028,"ĠDie":12029,"Ġkristnas":12030,"ĠvespermanÄĿo":12031,"Ġlarmoj":12032,"Ġestablita":12033,"Hejmo":12034,"falis":12035,"rintoj":12036,"tintoj":12037,"Ġindikis":12038,"Ġordonojn":12039,"phy":12040,"ĠBenino":12041,"ĠArabio":12042,"Ġlegendo":12043,"Ġkg":12044,"old":12045,"Ġspeciali":12046,"Ġlogika":12047,"ĠÄĿoje":12048,"Ġpriju":12049,"Ġhomamaso":12050,"Ġrezultis":12051,"Ġmalfermas":12052,"Ġamasoj":12053,"Ġkomandanto":12054,"Ġkafejo":12055,"ĠBangladeÅĿo":12056,"!Â»":12057,"ĠSci":12058,"Ġokci":12059,"tanaj":12060,"vera":12061,"Ġpafi":12062,"Ġpapera":12063,"vojaÄĿ":12064,"ĠAlta":12065,"ĠâĪ":12066,"ĠlarÄĿe":12067,"Ġefektivigi":12068,"Ġfervoja":12069,"arbo":12070,"ess":12071,"ĠItal":12072,"ĠViaj":12073,"vinoj":12074,"Ġkonstruas":12075,"vortaro":12076,"Ġkonsonantoj":12077,"zambi":12078,"LY":12079,"pala":12080,"ĠNovaj":12081,"Ġmezuro":12082,"Ġfojfoje":12083,"Ġchiam":12084,"Ġmaljunuloj":12085,"ĠKosovo":12086,"Ġklasifi":12087,"Ġkontraste":12088,"ĠgeedziÄĿo":12089,"ĠVladimir":12090,"ĠBru":12091,"Ġfortik":12092,"Ġkorpoj":12093,"ĠtransloÄĿ":12094,"Ġvinber":12095,"ĠKune":12096,"Ġgeografiaj":12097,"ĠAir":12098,"socia":12099,"Ġposttagmeze":12100,"Ġkovritaj":12101,"mina":12102,"ĠAri":12103,"Ġspekti":12104,"ÅĿima":12105,"Ġ1925":12106,"Ġfajron":12107,"Ġfutbalo":12108,"ĠLisbono":12109,"ĠKy":12110,"kodi":12111,"ĠAaron":12112,"Ġmalre":12113,"Ġmagn":12114,"ĠRegiono":12115,"Ġatentigis":12116,"Ġeksterlandanoj":12117,"multaj":12118,"ĠUniversity":12119,"Ġmalbonon":12120,"Ġeksperimen":12121,"âĹĭâĹĭ":12122,"Ġoreloj":12123,"dinta":12124,"Ġeldoni":12125,"Ġliteraturon":12126,"ÅĿanÄĿ":12127,"Ġsporto":12128,"Ġskemo":12129,"xe":12130,"ĠMur":12131,"Ġkontakton":12132,"Ġpalestinanoj":12133,"estaj":12134,"Ġmiras":12135,"mezo":12136,"Ġpentr":12137,"Ġkomunisma":12138,"Ä¥an":12139,"ĠmalfermiÄĿis":12140,"kondukis":12141,"Ġapogi":12142,"Ġkorekti":12143,"ĠSimple":12144,"Federacio":12145,"ĠÄĿer":12146,"ĠRemo":12147,"Ġlitova":12148,"Ġitalaj":12149,"king":12150,"Ġkomplik":12151,"Ġkonscien":12152,"Tiun":12153,"Ġmezuri":12154,"Eniru":12155,"diÄĿi":12156,"Ġmiris":12157,"ĠEsperante":12158,"bezon":12159,"Ġdiskuton":12160,"Ġbotan":12161,"ĠfuÄĿis":12162,"batalo":12163,"ffice":12164,"tegorioj":12165,"gha":12166,"rime":12167,"ĠKab":12168,"ĠStran":12169,"ĠPÃ©":12170,"Ġdisponigas":12171,"ĠNikara":12172,"Ġrapido":12173,"Ġaktivas":12174,"Ġidentigi":12175,"Ġcifereca":12176,"Ġtrapasi":12177,"Ġilojn":12178,"ĠFlori":12179,"ĠBavario":12180,"Ġamasa":12181,"ĠVerduloj":12182,"ĠSekretario":12183,"Ġdiferencon":12184,"ĠtaÅŃgan":12185,"Ġaraboj":12186,"ĠGramTrans":12187,"Ġaltern":12188,"dube":12189,"Ġverkitaj":12190,"ĠraÅŃ":12191,"Ġsolan":12192,"Ġkontrolon":12193,"ÅĿanÄĿo":12194,"Ġ1962":12195,"Ġmurdo":12196,"Ligiloj":12197,"Ġlitur":12198,"Ġgaja":12199,"ziÄĿis":12200,"ĠFut":12201,"Ġmortos":12202,"ĠUnuiÄĿo":12203,"ĠebenaÄµo":12204,"dk":12205,"Ġkomparo":12206,"celo":12207,"Ġsentojn":12208,"kuri":12209,"ĠAndal":12210,"Ġidealoj":12211,"Ġprogramado":12212,"Ġpreskrib":12213,"Ġsignifoj":12214,"Ġampleksan":12215,"ĠVarsovia":12216,"tebr":12217,"Ġregxo":12218,"ĠHab":12219,"pari":12220,"Ġkolektas":12221,"Ġmajus":12222,"Ġanonco":12223,"ĠKalifornio":12224,"Bi":12225,"ktro":12226,"ĠFesto":12227,"ekdo":12228,"Ġliberigis":12229,"Ġrigardata":12230,"ĠSiberio":12231,"ĠanstataÅŃigi":12232,"ĠIsla":12233,"tempan":12234,"Ġsolidareco":12235,"ĠTuni":12236,"Ġplivas":12237,"Ġtraf":12238,"Ġsanktulo":12239,"Ġstilon":12240,"kvanto":12241,"lumo":12242,"Ġmuz":12243,"Ġripozi":12244,"ĠJem":12245,"Ġkorte":12246,"Äīefe":12247,"Ġdomojn":12248,"Ġgarantias":12249,"facil":12250,"EÄī":12251,"ĠriÄīe":12252,"veturo":12253,"Ġgvidado":12254,"Ġ240":12255,"Ġ1927":12256,"Ġlegebla":12257,"ĠISO":12258,"tadoj":12259,"todo":12260,"peo":12261,"ekde":12262,"tropo":12263,"Ġuzos":12264,"Ġmortigas":12265,"Ġtotala":12266,"Ġ1972":12267,"ĠKamer":12268,"Francio":12269,"SA":12270,"Ġrekor":12271,"ĠRub":12272,"Ġles":12273,"prezento":12274,"Ġkomunumon":12275,"sone":12276,"ĠSupra":12277,"Ġstarigita":12278,"upr":12279,"Ch":12280,"ĠÄīem":12281,"Ġvirus":12282,"Ġlen":12283,"Ġekis":12284,"Ġfali":12285,"Ġbicik":12286,"ĠSudo":12287,"Ġmisio":12288,"Ġblankan":12289,"kompreneble":12290,"ĠHercegovino":12291,"ĠJosef":12292,"Ġlecionoj":12293,"ajnis":12294,"Ġpriparo":12295,"ĠTV":12296,"Ġmondaj":12297,"ĠOb":12298,"ĠÅģ":12299,"ĠPatrino":12300,"Ġabrup":12301,"Ġboato":12302,"ĠTag":12303,"sukces":12304,"Ġstatistiko":12305,"Ġdestinita":12306,"fama":12307,"pento":12308,"Ġorden":12309,"Ġnecesan":12310,"Ġflugas":12311,"Ġmemoru":12312,"ĠÐ²":12313,"2010":12314,"Ġmalsupra":12315,"Ġstimu":12316,"ĠUzbek":12317,"Ġfronto":12318,"tale":12319,"regi":12320,"ĠMeso":12321,"ĠaÅŃtoj":12322,"verko":12323,"ĠÐĶ":12324,"konduko":12325,"ĠKongreson":12326,"ĠJordanio":12327,"gana":12328,"Ġdog":12329,"portis":12330,"ĠÃī":12331,"andro":12332,"Ġpotencoj":12333,"Ġveturas":12334,"Ġepiskopoj":12335,"esan":12336,"ĠSva":12337,"ĠGen":12338,"Ġpotenci":12339,"Ġatak":12340,"Ġ1924":12341,"Ġjardeko":12342,"CC":12343,"Ġies":12344,"pez":12345,"Ġekparolis":12346,"Ġkoroj":12347,"Ġankora":12348,"Ġsangon":12349,"Ġalvokis":12350,"Ġhispanan":12351,"III":12352,"Ġtrajto":12353,"ĠEduardo":12354,"ĠVaÅĿingtono":12355,"tl":12356,"Ġ`":12357,"inamo":12358,"Ġnefor":12359,"Ġgento":12360,"Ġkompleksa":12361,"Ġvesperon":12362,"Ġgardi":12363,"Ġatesto":12364,"ĠDocumenta":12365,"ciÃ³n":12366,"demo":12367,"aÅŃskul":12368,"ĠHomo":12369,"Ġkiamaniere":12370,"ĠÄīefro":12371,"ĠRein":12372,"Ġpersonan":12373,"ĠBach":12374,"Ġeventon":12375,"Ġnaturon":12376,"ĠAkademi":12377,"ĠFrancisco":12378,"Ġdenaska":12379,"nar":12380,"sas":12381,"wig":12382,"rigis":12383,"Ġvigle":12384,"Ġlimigi":12385,"Ġmaljunaj":12386,"ĠformiÄĿis":12387,"Ġfabriko":12388,"ĠJohann":12389,"Ġfolk":12390,"gue":12391,"Ġprofeto":12392,"vitavy":12393,"Ġdosierojn":12394,"ort":12395,"Ġregadon":12396,"tisma":12397,"ÅĿin":12398,"ĠMadagas":12399,"Ġkruela":12400,"ĠÄīap":12401,"Ġtransiro":12402,"Ġplejofte":12403,"Land":12404,"cl":12405,"iam":12406,"Ġsfero":12407,"Ġaldonita":12408,"Ġrespondojn":12409,"kostaj":12410,"publik":12411,"Ġvesperman":12412,"Ġkomencos":12413,"Ġagnoskis":12414,"ĠÄĿenas":12415,"Ġmomente":12416,"Ġteorion":12417,"ĠBatalo":12418,"Ad":12419,"homa":12420,"mova":12421,"ĠFebruaro":12422,"prenantoj":12423,"longa":12424,"Ġkielo":12425,"ĠStatu":12426,"Ġreprodukti":12427,"VI":12428,"ĠaÄĿ":12429,"ĠNan":12430,"ĠAndro":12431,"Ġminuto":12432,"Tago":12433,"Ġafable":12434,"Ġsume":12435,"librojn":12436,"perfek":12437,"Ġsenkul":12438,"Ġsenuti":12439,"Ġklavar":12440,"ĠKvinpetalo":12441,"Ġflo":12442,"kadis":12443,"vala":12444,"ĠBene":12445,"Ġfarata":12446,"Ġkaco":12447,"Ġcerteco":12448,"Ġkreskon":12449,"Ġmilda":12450,"ĠYo":12451,"ĠPoÅĿtkodo":12452,"Ġvidante":12453,"Ġoksig":12454,"ĠAÄ¥":12455,"Ġnad":12456,"ĠPatri":12457,"Ġevoluas":12458,"ĠSufi":12459,"ĠbuÄĿeto":12460,"ĠZamTV":12461,"Ġpodkas":12462,"ĠHaitio":12463,"edoj":12464,"Ġ\\":12465,"Ġsino":12466,"Ġalkuti":12467,"Ġil":12468,"Ġviron":12469,"lantojn":12470,"ĠHas":12471,"Ġsciante":12472,"Ġ1965":12473,"Ġapogo":12474,"ĠMolda":12475,"Ġekzeku":12476,"ap":12477,"Ġgeni":12478,"Ġsendos":12479,"Ġrilat":12480,"Ġmodesta":12481,"Ġ1954":12482,"fred":12483,"ĠinÄĿeniero":12484,"Pra":12485,"Ġpuno":12486,"Ġmalfavor":12487,"ĠHA":12488,"Ġnomumita":12489,"...\"":12490,"Ġspegu":12491,"Ġmarko":12492,"komo":12493,"Ġ1964":12494,"ĠMikaelo":12495,"kli":12496,"ĠÅĿtor":12497,"lana":12498,"reno":12499,"Ġmetu":12500,"Ġanglaj":12501,"Ġrajtis":12502,"ĠSimile":12503,"2012":12504,"mpa":12505,"ËĨ":12506,"åı":12507,"une":12508,"ĠNami":12509,"iado":12510,"Ġarti":12511,"Ġklaran":12512,"Ġpersonajn":12513,"egro":12514,"ĠfuÅĿ":12515,"ĠkaÅĿita":12516,"ĠCxu":12517,"gr":12518,"ledo":12519,"Ġvivos":12520,"Ġmigran":12521,"Ġlikva":12522,"ĠTel":12523,"Ġkatoj":12524,"Ġsociajn":12525,"Ġrakontojn":12526,"Ġrezulte":12527,"Ġ1971":12528,"Ġimperiismo":12529,"Ġarabaj":12530,"Ġtaksis":12531,"Ã§o":12532,"dreson":12533,"grandaj":12534,"ĠMonato":12535,"Ġfotilo":12536,"Ġflanken":12537,"Ġduone":12538,"Ġfalsa":12539,"ĠBalta":12540,"ping":12541,"inujo":12542,"ĠLigoj":12543,"ĠAL":12544,"dec":12545,"kies":12546,"Ġkonsilas":12547,"alista":12548,"membroj":12549,"Ġalvokas":12550,"Ġrond":12551,"Ġvenont":12552,"Ġhistoriistoj":12553,"Ġaba":12554,"Ġellas":12555,"trop":12556,"ĠantaÅŃju":12557,"orgaÅŃ":12558,"ĠBerlin":12559,"Ġemble":12560,"landano":12561,"Ġstulta":12562,"Ġnuboj":12563,"Nor":12564,"ÂĹ":12565,"teko":12566,"ĠTal":12567,"ĠBol":12568,"uzio":12569,"ekzis":12570,"Ġlernadon":12571,"Ġliberigita":12572,"multe":12573,"Ġ1963":12574,"Ġfestoj":12575,"2004":12576,"ĠpaÅĿojn":12577,"ĠposedaÄµo":12578,"çļĦ":12579,"aÄī":12580,"pti":12581,"organo":12582,"ĠKem":12583,"Ġkunfan":12584,"vanoj":12585,"Ġpermesinto":12586,"Ġpraktikaj":12587,"iguel":12588,"ĠWikipedia":12589,"Ġagrable":12590,"Ġfemin":12591,"yi":12592,"ĠGr":12593,"Ġrolas":12594,"Ġeraron":12595,"ghas":12596,"ĠDiser":12597,"Ġherbo":12598,"Ġfundamentaj":12599,"Ġaludas":12600,"ebro":12601,"Ġgraco":12602,"Ġ1957":12603,"Ġtrum":12604,"Ab":12605,"Via":12606,"vuloj":12607,"Ġcind":12608,"Ġsurloke":12609,"Ġ62":12610,"Ġeksteren":12611,"Ġdevigas":12612,"ĠBohem":12613,"Ġprofesie":12614,"ĠkonatiÄĿi":12615,"Ġsimpati":12616,"Rim":12617,"Ġial":12618,"Ġgard":12619,"Ġgiganta":12620,"vico":12621,"ĠIF":12622,"Ġeklo":12623,"geo":12624,"Ġfilinon":12625,"Ġkompleks":12626,"Ġkovrilo":12627,"Ġprincipon":12628,"ĠAlex":12629,"ĠindiÄĿenaj":12630,"Ġmamo":12631,"Ġintri":12632,"Ġkuna":12633,"Ġformita":12634,"Ġorgen":12635,"turno":12636,"ĠBour":12637,"insuloj":12638,"ĠNikaragvo":12639,")[":12640,"Ġalto":12641,"Ġtabuo":12642,"ktejo":12643,"Ġeldonon":12644,"Ġfaciligi":12645,"Ġestontecon":12646,"Ġnaturan":12647,"Ġvenontan":12648,"Ġsurprizo":12649,"Ġproklamis":12650,"ĠNomspaco":12651,"EP":12652,"vina":12653,"Ġæ":12654,"viÄĩ":12655,"ĠParis":12656,"Ġvundi":12657,"Ġfenomenoj":12658,"Ele":12659,"Ġlai":12660,"Ġkunvenon":12661,"Ġforvi":12662,"Ġpenson":12663,"ĠÅ½":12664,"Ġkunlaboras":12665,"benaÄµo":12666,"iujn":12667,"Ġpsikologio":12668,"Ġstandar":12669,"Ġekstaris":12670,"ĠDocumentation":12671,"Ġvis":12672,"ĠloÄĿi":12673,"ches":12674,"Ġoficiroj":12675,"Ġnumer":12676,"Ġsomer":12677,"Ġagnoski":12678,"derna":12679,"Ġhelpa":12680,"strato":12681,"Ġgazeton":12682,"Ġhalt":12683,"Ġeminenta":12684,"Ġslovaka":12685,"ciÄĿis":12686,"Ġrekt":12687,"ĠAktu":12688,"Ġmalvas":12689,"Ġinterno":12690,"keton":12691,"Ġventro":12692,"ĠKatedralo":12693,"Ġdens":12694,"Ġsesio":12695,"Ġklopodo":12696,"Ġmalpermesita":12697,"Ġkvieta":12698,"Ġtrapasis":12699,"manto":12700,"ĠAnta":12701,"ĠKomunista":12702,"Ġsang":12703,"Ġsituo":12704,"ĠÄīefepiskopo":12705,"Ġlimigoj":12706,"ĠArabaj":12707,"Peterburgo":12708,"Ga":12709,"Ð±":12710,"ĠMembro":12711,"Ġnaciismo":12712,"Instru":12713,"Ġeliras":12714,"BA":12715,"Ġks":12716,"Ġlige":12717,"ĠPierre":12718,"Ġfarm":12719,"gando":12720,"ĠMilano":12721,"Ġ1961":12722,"Ġbrakoj":12723,"Ġmalvarm":12724,"oku":12725,"tiÄĿoj":12726,"Ġalparo":12727,"ĠSvitavy":12728,"Ġgel":12729,"Ġpete":12730,"Ġkontaktojn":12731,"2011":12732,"Ġsupoziganta":12733,"Ġsalutas":12734,"ĠKorea":12735,"Ġoperaciumo":12736,"ĠWikiTrans":12737,"km":12738,"Ġtris":12739,"Ġligna":12740,"Ġgamo":12741,"initaj":12742,"Ġobsta":12743,"ĠpuÅĿ":12744,"Ġcxiujn":12745,"Ġisraela":12746,"garo":12747,"dit":12748,"ĠDr":12749,"tenegro":12750,"Ġ1901":12751,"ĠRezul":12752,"Ġforlasas":12753,"ĠAntaÅŃe":12754,"Ġsorton":12755,"Åį":12756,"kao":12757,"Ġtapi":12758,"Ġnobel":12759,"Ġscioj":12760,"Ġplenigi":12761,"Ġpartoprenantojn":12762,"ĠUnion":12763,"ĠRoy":12764,"Ġprezentos":12765,"Ġritmo":12766,"Certe":12767,"Gvineo":12768,"ey":12769,"even":12770,"Ġaeron":12771,"low":12772,"ĠMed":12773,"ĠRad":12774,"fere":12775,"Ġnomatan":12776,"ĠÄīuro":12777,"serio":12778,"Ġpreparas":12779,"Ġrondoj":12780,"Ġenspezoj":12781,"ĠAbraham":12782,"wald":12783,"inen":12784,"Ġredon":12785,"âĢĺ":12786,"osaÅŃ":12787,"Ġprelegon":12788,"ĠmaÅĿinoj":12789,"ĠaveraÄĿa":12790,"Ġpekoj":12791,"ĠbolÅĿe":12792,"Ġekspedicio":12793,"alto":12794,"Ġreton":12795,"ĠPhi":12796,"buro":12797,"Ġaktivado":12798,"friko":12799,"Ġeniro":12800,"Ġ1953":12801,"Ġpublikon":12802,"Ġkompromis":12803,"emis":12804,"ement":12805,"ĠGuj":12806,"vere":12807,"danoj":12808,"Ġlaste":12809,"Ġmaterialojn":12810,"Ġteorioj":12811,"Ġtrono":12812,"Ġsolid":12813,"aktiva":12814,"Ġrimarkinda":12815,"undation":12816,"DL":12817,"Ġpolan":12818,"ĠÄīies":12819,"tube":12820,"Ġspecif":12821,"Ġsolvoj":12822,"Ġveter":12823,"Ġ1926":12824,"Ġasis":12825,"ĠButano":12826,"Ġvalorojn":12827,"2009":12828,"ĠPanamo":12829,"ĠFuku":12830,"pris":12831,"ĠEmir":12832,"Ġsuperis":12833,"ĠMalsupra":12834,"skultu":12835,"Ġmensogo":12836,"Ġetnaj":12837,"CA":12838,"eÄī":12839,"Ġá":12840,"Ġovoj":12841,"ĠVI":12842,"verboj":12843,"meco":12844,"Ġvendejoj":12845,"lingvon":12846,"Ġmilitaj":12847,"Ġatentigas":12848,"Ġbatalon":12849,"Ġriveron":12850,"Ġbrilis":12851,"Ġagadojn":12852,"ÅĻÃŃ":12853,"Ä¥ivo":12854,"ĠinaÅŃguro":12855,"Okaz":12856,"UEA":12857,"ĠÑģ":12858,"elj":12859,"ÅĿtono":12860,"ĠApo":12861,"Ġpend":12862,"Ġorient":12863,"Ġperiodoj":12864,"ĠaÅŃskultas":12865,"ĠOrganizaÄµo":12866,"ĠaÅŃtonom":12867,"Fun":12868,"MS":12869,"ropo":12870,"ÅŃten":12871,"kop":12872,"bolo":12873,"Ġhomajn":12874,"ados":12875,"Ġgeome":12876,"strate":12877,"tradukoj":12878,",,":12879,"ÃĦ":12880,"Ġindul":12881,"ranoj":12882,"duo":12883,"laja":12884,"Ġkomprenon":12885,"Ġliberigo":12886,"Ġridetis":12887,"ĠSrilanko":12888,"Î»":12889,"Ġipernity":12890,"Ġsekundoj":12891,"ĠÅľtu":12892,"certe":12893,"Ġdekomence":12894,"ĠLando":12895,"ĠÄīefajn":12896,"ĠReda":12897,"ĠmalriÄīeco":12898,"Ġaktualaj":12899,"ĠUSD":12900,"ĠneÅŃ":12901,"ĠkaÅĿis":12902,"Ġkonscienco":12903,"Ġbatis":12904,"Ġmarnivelo":12905,"komputi":12906,"Ġvojojn":12907,"Ġkuras":12908,"ĠAleksander":12909,"ĠomaÄĿe":12910,"Ġukraina":12911,"armeo":12912,"Ġ1913":12913,"Ġpatri":12914,"ĠdatiÄĿas":12915,"Ġbonon":12916,"Ġmorta":12917,"ĠWind":12918,"Ġatentu":12919,"ĠÅĿtalo":12920,"ĠMontenegro":12921,"Ġfokus":12922,"Ġamase":12923,"Ġintensa":12924,"kvalita":12925,"Ġpolvo":12926,"[âĢ¦]":12927,"Ġenam":12928,"ĠTr":12929,"ĠforÄµe":12930,"Ġkuiri":12931,"irkaux":12932,"Ġpresita":12933,"Ġpatrinon":12934,"Ġgaso":12935,"foja":12936,"ĠJorge":12937,"Ġdistingivoj":12938,"nacia":12939,"Ġtimu":12940,"ĠLub":12941,"Ġpatrujo":12942,"Ġkomercistoj":12943,"ĠFoundation":12944,"Ġprofiti":12945,"Ġkvalifi":12946,"ĠMadagaskaro":12947,"Ami":12948,"gxi":12949,"Ġsinta":12950,"Ġspegulo":12951,"temalo":12952,"Ġislamanoj":12953,"Ġslovakoj":12954,"Is":12955,"Ġitin":12956,"Ġportu":12957,"kontraÅŃ":12958,"ĠFami":12959,"Ġnotoj":12960,"Ġfrap":12961,"Ġ95":12962,"Ġsalon":12963,"Ġdormis":12964,"Ġpreparita":12965,"Ġreaki":12966,"Ġgrandegaj":12967,"Ġintelekt":12968,"Ġcivilizo":12969,"familio":12970,"Ġenkorp":12971,"ĠNata":12972,"Ġmank":12973,"Ġhavigis":12974,"Ġregularo":12975,"ĠEstus":12976,"Ġekkonis":12977,"'ll":12978,"Kan":12979,"mulo":12980,"Ġpret":12981,"ĠJamaj":12982,"Ġapartajn":12983,"Ġkaptas":12984,"Ġinflui":12985,"Ġkritikis":12986,"tj":12987,"ÏĦ":12988,"Ġlagoj":12989,"Ġreferenco":12990,"paron":12991,"Ġinsu":12992,"Ġspeciojn":12993,"Ġveturo":12994,"ĠGolfo":12995,"ĠSekureco":12996,"ĠKazaÄ¥io":12997,"ĠSS":12998,"konkurso":12999,"ĠVizito":13000,"aligo":13001,"Ġrilata":13002,"Ġ700":13003,"ĠMalgranda":13004,"flugis":13005,"Ġordinar":13006,"Ġbalotado":13007,"Ġhip":13008,"ĠavantaÄĿojn":13009,"ĠKongresa":13010,"Ġarestita":13011,"ĠWalter":13012,"ĠĠĠĠĠĠĠĠĠĠĠĠĠĠĠĠĠĠĠĠĠĠĠĠĠĠĠĠĠĠĠĠ":13013,"HO":13014,"TU":13015,"Ġteamoj":13016,"Ġsekvon":13017,"prokras":13018,"Ġkontrolis":13019,"birdoj":13020,"od":13021,"Ġasek":13022,"lokon":13023,"Ġreform":13024,"Ġkonspi":13025,"ĠKomita":13026,"ĠjuÄĿo":13027,"Ġdonac":13028,"Ġinvito":13029,"ĠpaÅĿon":13030,"Ġeventuala":13031,"fara":13032,"Ġkilo":13033,"Ġopozi":13034,"ĠFS":13035,"prenu":13036,"ĠEnlanda":13037,"Ġpeton":13038,"Ġgvidata":13039,"Ġprenita":13040,"ĠJuven":13041,"Ġnigran":13042,"ĠdolÄīa":13043,"Ġnervo":13044,"wis":13045,"ĠStre":13046,"Ġkunpre":13047,"Ġkompen":13048,"noto":13049,"ĠcitaÄµo":13050,"Ġsignifojn":13051,"Ġadresoj":13052,"Ġkalkulas":13053,"Ġmembraro":13054,"ĠvidindaÄµoj":13055,"feld":13056,"sz":13057,"Ġlibre":13058,"terno":13059,"Ġnenie":13060,"ĠMarx":13061,"daÅŃra":13062,"ĠXXX":13063,"ĠperiodaÄµoj":13064,"ĠParagvajo":13065,"Ġhimno":13066,"tigado":13067,"Ġopozicio":13068,"ĠPio":13069,"ĠTam":13070,"Ġanglo":13071,"Ġesploristoj":13072,"ĠIsraelon":13073,"Ġinverse":13074,"tavo":13075,"ĠÄīinoj":13076,"ĠCis":13077,"Ã©e":13078,"Ġoptim":13079,"Ġvidvino":13080,"Ġkapablojn":13081,"INA":13082,"Ġseksumi":13083,"Ġrealeco":13084,"Ġmalvenko":13085,"Ġtrejna":13086,"Kvin":13087,"toma":13088,"ĠDas":13089,"ĠÅĿipon":13090,"ĠWas":13091,"ĠPortalo":13092,"Ġhaltigi":13093,"Ġegalaj":13094,"Ġaprobita":13095,"Ġkategoriigi":13096,"dema":13097,"Ġhaven":13098,"ĠPapu":13099,"ĠJoMo":13100,"ĠBoc":13101,"Ġdentojn":13102,"Ġbaloto":13103,"ĠVatikan":13104,"Ġreprodukta":13105,"Ġtelevida":13106,"Ġprovizora":13107,"Ġprovizore":13108,"Te":13109,"tov":13110,"ĠStar":13111,"ĠlaÅŃdire":13112,"Ġmotivo":13113,"Ġparolante":13114,"Ġkortego":13115,"Ġkomprenos":13116,"Ġcetero":13117,"ĠÅĿtatan":13118,"ĠRobin":13119,"Ġgrandska":13120,"Ġeksplodo":13121,"ĠsovaÄĿa":13122,"Ġviktimo":13123,"Granda":13124,"Ġrubriko":13125,"Her":13126,"tistojn":13127,"ĠHil":13128,"Ġsignifi":13129,"Ġamason":13130,"tinato":13131,"interes":13132,"ĠteatraÄµo":13133,"Ġripeti":13134,"ĠinformiÄĿi":13135,"Ġpromeni":13136,"Ġpalpe":13137,"birdo":13138,"ĠmalÄĿusta":13139,"bes":13140,"peranta":13141,"Ġdiino":13142,"treto":13143,"Ġmalapro":13144,"Ġmalavanta":13145,"Ġmasak":13146,"2013":13147,"Ġhoron":13148,"Ġeklezi":13149,"dn":13150,"tagoj":13151,"Ġastro":13152,"Ġakces":13153,"Ġfinas":13154,"ĠFranco":13155,"ĠDank":13156,"ĠtaÅŃgaj":13157,"Ġsomere":13158,"Ġterminon":13159,"==":13160,"fado":13161,"ĠsidiÄĿis":13162,"oling":13163,"Ġordeno":13164,"Ġaldonan":13165,"bat":13166,"ales":13167,"Ġredaktor":13168,"Ġobservas":13169,"Ġcirklo":13170,"breco":13171,"ĠSamuel":13172,"Ġlibero":13173,"ĠCXar":13174,"EÅŃro":13175,"Ġiaj":13176,"ernak":13177,"speci":13178,"Ġbici":13179,"Ġlerta":13180,"ĠmesaÄĿoj":13181,"Ġmalhelpis":13182,"×ķ":13183,"Ġ).":13184,"tabulo":13185,"ĠAristo":13186,"ĠseÄĿo":13187,"madon":13188,"Ġtaba":13189,"ktiko":13190,"Ġemeri":13191,"Ġklientojn":13192,"telitaj":13193,"ĠFernando":13194,"ĠJemeno":13195,"\"?":13196,"ÅĿojn":13197,"precipe":13198,"Ġfidel":13199,"Ġbrile":13200,"Ġamplekso":13201,"Ġgramatikaj":13202,"ĠmallarÄĿa":13203,"litan":13204,"Ġber":13205,"Ġsime":13206,"vet":13207,"ĠChe":13208,"Ġrapidan":13209,"ĠÃ¸":13210,"Ġmodelon":13211,"Ġredaktis":13212,"Ġesploras":13213,"2006":13214,"Ġbulteno":13215,"Ġornamita":13216,"Ġsinsekvaj":13217,"Ġbabilado":13218,"Ġeseo":13219,"giaj":13220,"cker":13221,"ĠmanÄĿaÄµon":13222,"Ġorientaj":13223,"rigard":13224,"Ġsekretari":13225,"Ġkroni":13226,"Ameriko":13227,"Instituto":13228,"ĠMoldavio":13229,"Klubo":13230,"ĠGÃ¶":13231,"Ġnocioj":13232,"Ġpez":13233,"Ġprenos":13234,"ĠfeliÄīon":13235,"Ġapog":13236,"Ġprezidanton":13237,"bero":13238,"ril":13239,"Ġakvoj":13240,"Ġfontojn":13241,"Ġfundo":13242,"Ġfilojn":13243,"Ġkonservado":13244,"ĠFondaÄµo":13245,"Ġsabate":13246,"Ġbaston":13247,"ĠTransilvanio":13248,"Ġnukleaj":13249,"kolekto":13250,"Ġgelern":13251,"Venon":13252,"cka":13253,"ĠMy":13254,"Ġprovu":13255,"ĠBeli":13256,"ĠUgando":13257,"Ġnotis":13258,"Ġkroata":13259,"Ġfluti":13260,"Ġimpreso":13261,"ĠokupiÄĿi":13262,"Ġembaras":13263,"ĠFriedrich":13264,"BO":13265,"sat":13266,"inkluzive":13267,"ĠAh":13268,"ajna":13269,"Ġdik":13270,"Ġmodo":13271,"Ġioma":13272,"Ġludon":13273,"ĠvoÄīdono":13274,"ĠKruco":13275,"ĀĀĀĀĀĀĀĀĀĀĀĀĀĀĀĀĀĀĀĀĀĀĀĀĀĀĀĀĀĀĀĀ":13276,"ĠBandarQ":13277,"VE":13278,"cina":13279,"okaz":13280,"Ġbeb":13281,"Ġpolojn":13282,"ĠFron":13283,"Ġsenar":13284,"kion":13285,"nica":13286,"Ġatentigi":13287,"kontra":13288,"Ġminus":13289,"Ġrenkonto":13290,"Ġpraktikas":13291,"Ġordonon":13292,"ĠvojaÄĿas":13293,"Ġparlamenta":13294,"ĠSalvadoro":13295,"ĠPlaco":13296,"ĠErn":13297,"Ġsuveren":13298,"AC":13299,"Ġfia":13300,"ranko":13301,"lub":13302,"ĠÄĪa":13303,"grada":13304,"Ġvokas":13305,"Ġmortigita":13306,"ĠMalantaÅŃ":13307,"Ġpian":13308,"vortojn":13309,"ĠÐ½":13310,"ĠInternacian":13311,"Ġefikas":13312,"ĠTaÄĿi":13313,"ĠCentr":13314,"Ġ1955":13315,"Ġrekoni":13316,"ĠGronlando":13317,"ĠGvatemalo":13318,"iva":13319,"pdf":13320,"xa":13321,"Ġtir":13322,"Ġpreven":13323,"Ġkampon":13324,"tune":13325,"Ġvalidi":13326,"Ġunuopa":13327,"Ġinstruistino":13328,"ĠBonaero":13329,"Ġpafmortigis":13330,"grun":13331,"enkov":13332,"ĠVikimedia":13333,"Ġkomencon":13334,"Ġmisi":13335,"ĠaranÄĿita":13336,"Ġintense":13337,"Ã¤n":13338,"ĠLink":13339,"Ġesceptoj":13340,"Ġkomunumaro":13341,"fel":13342,"gine":13343,"horo":13344,"ĠKura":13345,"ĠEEU":13346,"Ġkredeble":13347,"Ġfiki":13348,"Ġ1943":13349,"Ġarmilojn":13350,"Ġtrarigar":13351,"Ġburokra":13352,"ĠJamajko":13353,"Fo":13354,"haÅŃ":13355,"nuna":13356,"ĠLKK":13357,"igajn":13358,"ĠAmen":13359,"vistoj":13360,"âĢĿ)":13361,"Ġseriozaj":13362,"frato":13363,"Ġformala":13364,"ight":13365,"Ġfronte":13366,"Script":13367,"sing":13368,"kapabla":13369,"Ġvent":13370,"ÄĿadon":13371,"ĠNatura":13372,"Ġdormas":13373,"Ġdosieron":13374,"2008":13375,"ĠESPERANTO":13376,"Ġfekun":13377,"ÛĮ":13378,"ĠMiguel":13379,"ĠAtribu":13380,"Ġpersa":13381,"ĠDenove":13382,"Ġvendejo":13383,"ĠAngolo":13384,"Ġlinion":13385,"Ġplanlingvo":13386,"Ġkapablaj":13387,"ĠMozambi":13388,"ĠMoskva":13389,"Ġetendi":13390,"Ġvalida":13391,"Ġeksperimento":13392,"ĠKastelo":13393,"ĠFrankfur":13394,"ipernity":13395,"usence":13396,"deci":13397,"Ġtrotu":13398,"Ġlango":13399,"ĠIndekso":13400,"Ġvokalo":13401,"Ġamori":13402,"Ġparoladoj":13403,"Ġenketo":13404,"Ġtendencoj":13405,"ĠTeatro":13406,"ĠKamboÄĿo":13407,"Ġvivaj":13408,"profes":13409,"eth":13410,"Ġnaz":13411,"Ġmalsame":13412,"ĠGiorgio":13413,"ËĪ":13414,"vivis":13415,"matiko":13416,"tropi":13417,"Ġmultege":13418,"ĠSaharo":13419,"ĠRivero":13420,"Ġdetruo":13421,"Ġagnoskita":13422,"Ġgriz":13423,"Ġbordoj":13424,"ĠJacques":13425,"Bal":13426,"zek":13427,"Ġira":13428,"ĠCal":13429,"Ġtraktis":13430,"ĠMichel":13431,"pura":13432,"Ġcitas":13433,"Ġveturilo":13434,"Ġapogas":13435,"tikedoj":13436,"ĠvariaÄµoj":13437,"Ġkonkretaj":13438,"Ġâĸº":13439,"Con":13440,"Ġego":13441,"Ġretaj":13442,"ĠmalÅĿa":13443,"ĠLau":13444,"Ġparado":13445,"Ġorbi":13446,"ĠOpen":13447,"Ġfidinda":13448,"ĠÅ¬":13449,"Ġdeziroj":13450,"Ġmuzikisto":13451,"Ġredak":13452,"Ġcxirkaux":13453,"Ġdefendis":13454,"ĠTradi":13455,"ĠÄīesigi":13456,"produktado":13457,"Ġnekonataj":13458,"ĠAmiko":13459,"Ġakura":13460,"Ġrealaj":13461,"rankvi":13462,"Ġkoli":13463,"ĠÄīiuokaze":13464,"Ġcentroj":13465,"Ġkart":13466,"Ġ024":13467,"Ġprofundo":13468,"ĠHelsin":13469,"Da":13470,"bos":13471,"Ġenu":13472,"ĠAsi":13473,"Ġelfos":13474,"Ġpresi":13475,"ĠarÄ¥":13476,"ĠOto":13477,"âĢĿ).":13478,"Ġtriono":13479,"Ġkantono":13480,"Ġplanojn":13481,"Ġdistingo":13482,"ĠManif":13483,"Afrika":13484,"ðŁĺ¨ðŁĺ¨ðŁĺ¨ðŁĺ¨":13485,"Sem":13486,"ding":13487,"ĠBras":13488,"Ġekri":13489,"mpoj":13490,"Ġevoluigi":13491,"Ġefikoj":13492,"Ð¾ÑĢ":13493,"Ġscenoj":13494,"ĠKrimeo":13495,"ĠmalriÄīuloj":13496,"Ġdiskriminacio":13497,"witter":13498,"300":13499,"eoj":13500,"Ġazen":13501,"Ġaliris":13502,"Ġekshibicio":13503,"Ġaldonante":13504,"Ġpronomo":13505,"ĠVenu":13506,"Ġsalutis":13507,"Ġavangar":13508,"ĠTrini":13509,"%,":13510,"sulo":13511,"Ġoceano":13512,"defen":13513,"ĠkontraÅŃbata":13514,"ĠUnuiÄĿinta":13515,"Ġsceno":13516,"ĠmoviÄĿas":13517,"Ġabunde":13518,"beno":13519,"cc":13520,"signo":13521,"Ġtimig":13522,"Ġkunvo":13523,"Ġkoali":13524,"Ġpentra":13525,"Ġplendis":13526,"Ġdanki":13527,"ĠRuslando":13528,"Ġcivil":13529,"proksime":13530,"Ġposedantoj":13531,"Ġakompanas":13532,"tariko":13533,"Ġatom":13534,"Ġastronomo":13535,"Ġhospitalo":13536,"hausen":13537,"âĢĭ":13538,"Ġekspon":13539,"ĠMarie":13540,"Ġtiamaj":13541,"ĠÄīirkaÅŃe":13542,"Ġeventojn":13543,"Ġimpul":13544,"ĠBahÃ¡":13545,"Ġvokaloj":13546,"ĠÄµazo":13547,"ĠNamibio":13548,"ĠMozambiko":13549,"%.":13550,"EO":13551,"TR":13552,"Ġadaptita":13553,"Ġligojn":13554,"ĠMÃ¼":13555,"ĠIsa":13556,"Ġhave":13557,"erne":13558,"Ġcicoj":13559,"ĠPatr":13560,"vorton":13561,"Ġhejmon":13562,"ÅĿip":13563,"ãģ®":13564,"ĠfianÄī":13565,"ĠSenegalo":13566,"ĠTunizio":13567,"aki":13568,"sche":13569,"uch":13570,"vd":13571,"ĠEL":13572,"emia":13573,"tudo":13574,"ĠIV":13575,"Ġpeno":13576,"ĠfinaÄµo":13577,"treo":13578,"Ġmuzikaj":13579,"Ġonklo":13580,"Ġmallongigo":13581,"Ġmidzi":13582,"TER":13583,"onaj":13584,"eng":13585,"diro":13586,"ĠarÄĿen":13587,"Ġsinjoroj":13588,"Ġsinago":13589,"Ġcico":13590,"Kiom":13591,"farejo":13592,"Ġiamaj":13593,"Ġ1952":13594,"ĠmiksaÄµo":13595,"ĠfraÅŃl":13596,"ĠSinjorino":13597,"tien":13598,"omojn":13599,"Ġpaten":13600,"Ġkonstern":13601,"laboris":13602,"Ġvestita":13603,"brun":13604,"Ġesprimojn":13605,"ĠkaÅŃzita":13606,"ĠdimanÄīe":13607,"ĠDeklaracio":13608,"hora":13609,"Ġdispar":13610,"gala":13611,"Ġmetalo":13612,"kulturaj":13613,"Ġkulpas":13614,"Ġcenz":13615,"Ġnaciajn":13616,"Ġmistera":13617,"Ġpotencaj":13618,"ĠÐ¡":13619,"ĠPreÄĿejo":13620,"ĠDanke":13621,"Ġkovr":13622,"Ġdonitaj":13623,"ĠRuando":13624,"Ġadoles":13625,"Neniu":13626,"Ġtutaj":13627,"ĠVic":13628,"Ġfidon":13629,"sonaj":13630,"gitan":13631,"Ġmemoron":13632,"Ġfingro":13633,"Ġsekaj":13634,"ĠNenio":13635,"iÄĿadis":13636,"ĠFe":13637,"ĠHero":13638,"Ġdubo":13639,"Ġnokta":13640,"ruse":13641,"Ġpugoj":13642,"Ġprofesio":13643,"cerne":13644,"Ġprizono":13645,"vec":13646,"pago":13647,"Ġkabin":13648,"toraj":13649,"Ġkrimoj":13650,"Ġasocion":13651,"ĠKolon":13652,"ĠEdukado":13653,"ĠaÄīet":13654,"ĠIstvÃ¡n":13655,"ĠKameruno":13656,"Ġkomi":13657,"Ġteoria":13658,"ĠCy":13659,"Ġargen":13660,"ĠÅĿiajn":13661,"Ġmarki":13662,"ĠSimon":13663,"Ġsilentis":13664,"Ġparoladon":13665,"ĠavantaÄĿo":13666,"Ġekzemplojn":13667,"Ġrompis":13668,"Ġfulmo":13669,"Ġkondamnita":13670,"ĠJuventus":13671,"VV":13672,"ombo":13673,"ĠIma":13674,"Ġinterple":13675,"Ġpretigi":13676,"caya":13677,"Ġscivo":13678,"Ġkurb":13679,"Ġflugis":13680,"Ġsubtenantoj":13681,"Ġeduk":13682,"ĠKortumo":13683,"Ġampleksas":13684,"ĠMembroj":13685,"ĠMembriÄĿi":13686,"ĠretpoÅĿ":13687,"ĠKostariko":13688,"scienca":13689,"Ġspontan":13690,"Äīilo":13691,"Ġperi":13692,"Ġekfunkci":13693,"ĠaliÄĿo":13694,"Ġfaroj":13695,"ĠKonser":13696,"Ġjuneco":13697,"Ġkonsiderante":13698,"ÅĿipoj":13699,"Ġtagman":13700,"politiko":13701,"Ġerao":13702,"nojn":13703,"mataj":13704,"tritaj":13705,"ĠÂĵ":13706,"Ġparolanto":13707,"Ġkaptita":13708,"Ġ130":13709,"Ġelektos":13710,"ells":13711,"ĠTrinidado":13712,"Dio":13713,"tacio":13714,"Ġnepra":13715,"vaScript":13716,"ĠriÄīeco":13717,"Ġblogoj":13718,"ĠDaniel":13719,"Ġmerkre":13720,"Ġbabili":13721,"ĠHonduro":13722,"Ġviolon":13723,"Ġgluteoj":13724,"ĠUzbekio":13725,"ĠEmirlandoj":13726,"eria":13727,"entan":13728,"Ġalkla":13729,"ĠÄīiesulino":13730,"paÅĿ":13731,"nologio":13732,"Ġlegos":13733,"Ġoficiro":13734,"Ġtabl":13735,"Ġkondamni":13736,"Ġemfazas":13737,"Ġjubileo":13738,"Aten":13739,"tch":13740,"Ġiz":13741,"ĠSES":13742,"Ġnovelo":13743,"Ġvenigis":13744,"Ġciklo":13745,"hien":13746,"ĠpiÄīo":13747,"Ġspertaj":13748,"Ġmondmapo":13749,"Ġanoncas":13750,"Ġrevoluci":13751,"Ġfroma":13752,"Ġmalsanulejo":13753,"Ġmed":13754,"Ġfest":13755,"ĠGvi":13756,"Ġtrafas":13757,"Ġraba":13758,"Ġfaktoro":13759,"Ġdezirus":13760,"ĠÃ¢":13761,"Ġesploristo":13762,"Ġrul":13763,"Ġgarantii":13764,"Ġgluteo":13765,"ĠTestamento":13766,"cxi":13767,"Ġoj":13768,"lataj":13769,"Ġdepost":13770,"ĠKER":13771,"deven":13772,"vendejo":13773,"ĠAlbert":13774,"ĠMak":13775,"ĠFrancaj":13776,"Ġimpost":13777,"valor":13778,"Ġarmeoj":13779,"Ġobjekton":13780,"ĠSovetio":13781,"Ġrespektivaj":13782,"ĠProjekta":13783,"Pala":13784,"iden":13785,"muni":13786,"ofici":13787,"ĠLaoso":13788,"ĠIru":13789,"Ġridin":13790,"beria":13791,"Ġkokri":13792,"Ġkomenti":13793,"Ġformulo":13794,"Ġ1890":13795,"Ġsinsekvo":13796,"Ġfantazi":13797,"kiewicz":13798,"ĠteÄ¥ni":13799,"gg":13800,"ĠCho":13801,"Ġmetal":13802,"Ġsuperrigar":13803,"ĠloÄĿloko":13804,"Ġspecifita":13805,"tigata":13806,"ĠKastilio":13807,"Ġkolonio":13808,"IF":13809,"urboj":13810,"ĠSanta":13811,"ĠÄīielon":13812,"Ġpiano":13813,"ĠToba":13814,"Ġokulvi":13815,"Ġteritoriojn":13816,"Ġherooj":13817,"ĠJakobo":13818,"Ġdekor":13819,"ÄĿajn":13820,"dir":13821,"ĠAkvo":13822,"Ġunuoj":13823,"male":13824,"Ġkoloron":13825,"Ġmonaton":13826,"Ġredakt":13827,"Ġhonore":13828,"Ġerojn":13829,"ãĥ¼":13830,"ĠÄīeÄ¥aj":13831,"Ġinsektoj":13832,"Ġkonvenas":13833,"Ġsuden":13834,"ĠpaÅĿis":13835,"ĠOber":13836,"pante":13837,"Ġerotismo":13838,"Ġelstaras":13839,"Ġshang":13840,"Ġvizitantojn":13841,"Ġkapitula":13842,"revolu":13843,"Ġvoje":13844,"ĠÄīeno":13845,"esio":13846,"Ġina":13847,"tradi":13848,"distrikto":13849,"Ġmembri":13850,"Ġsakra":13851,"ĠPortala":13852,"Ġaserti":13853,"Ġvaloraj":13854,"ĠStefano":13855,"Ġkavalir":13856,"ĠmatÄīo":13857,"indan":13858,"Ġelpe":13859,"Ġeklernis":13860,"Ġsalo":13861,"Ġregistara":13862,"Ġinstruadon":13863,"ĠDuon":13864,"Ġliteraturaj":13865,"ĠOrdeno":13866,"Ġpacientoj":13867,"Ġtrajnoj":13868,"Ġentuziasmo":13869,"Ġjuris":13870,"Ġprogno":13871,"Ġlos":13872,"ĠOficiala":13873,"likan":13874,"ĠsufiÄīan":13875,"Ġhoneste":13876,"akcep":13877,"ĠRapi":13878,"Ġepokoj":13879,"Ġmuzeon":13880,"Teks":13881,"Ġetajn":13882,"ining":13883,"tiÄĿu":13884,"datigita":13885,"ÄĿataj":13886,"Ġgefiloj":13887,"Ġkonsideru":13888,"ĠKole":13889,"Ġkalum":13890,"ĠTopic":13891,"Ġromanon":13892,"Ġpanjo":13893,"Ġmalsukcesis":13894,"ĠMajstro":13895,"ĠKirgi":13896,"Sankta":13897,"ĠInversigu":13898,"foni":13899,"Ġnoto":13900,"ĠViktor":13901,"ĠOkciden":13902,"Ġforgesas":13903,"Ġspirit":13904,"Ã¡ndez":13905,"Ġtabernak":13906,"Ġmalrapida":13907,"ĠSciencoj":13908,"ĠMeksika":13909,"Ġlingvisto":13910,"Ġmidzo":13911,"Ġadvokato":13912,"neto":13913,"ĠMir":13914,"ĠPovas":13915,"foli":13916,"ĠpiÄīoj":13917,"ĠnudaÄµo":13918,"ĠÃĦ":13919,"Ġrespektas":13920,"Ġfestis":13921,"ĠOkazis":13922,"ĠItalujo":13923,"ghi":13924,"wska":13925,"teton":13926,"Ġdie":13927,"ĠOk":13928,"centon":13929,"Ġmarkita":13930,"Ġeksterlando":13931,"Ġutilajn":13932,"ĠsesdeknaÅŃi":13933,"Ġripozo":13934,"SO":13935,"Ġenkar":13936,"Ġkiajn":13937,"ĠreÄĿon":13938,"Ġgek":13939,"dantojn":13940,"Ġlangumi":13941,"Ġbat":13942,"ĠMalio":13943,"Ġevitas":13944,"Ġhonesta":13945,"Ġcirku":13946,"Ġimagas":13947,"Ġkalkulis":13948,"Ġplimulton":13949,"Ġmamego":13950,"Ġmamegoj":13951,".âĢĶ":13952,"jen":13953,"Ġbebo":13954,"Äµaro":13955,"ĠFara":13956,"paca":13957,"ĠTian":13958,"Ġtrem":13959,"plene":13960,"Ġvariaj":13961,"ĠSebas":13962,"ianoj":13963,"Ġale":13964,"rigo":13965,"peras":13966,"ĠPren":13967,"ĠDub":13968,"ĠIvo":13969,"bordo":13970,"Ġdevigita":13971,"ĠArto":13972,"Ġscience":13973,"Ġbatalas":13974,"ĠVersio":13975,"ĠYork":13976,"ĠLong":13977,"Ġliveri":13978,"________":13979,"Vir":13980,"feto":13981,"likaj":13982,"ĠÄīin":13983,"deta":13984,"konata":13985,"Ġmankon":13986,"Ġpolic":13987,"Ġfilmeto":13988,"ĠdaÅŃros":13989,"Ġkroman":13990,"Ġ85":13991,"Ġkonsilio":13992,"Ð°Ð½":13993,"Ġmalpermesas":13994,"Ġagrablan":13995,"tta":13996,"Ġsum":13997,"pov":13998,"ĠFis":13999,"ĠGDR":14000,"Ġsankti":14001,"Ġeldonoj":14002,"ĠLeono":14003,"Ġataki":14004,"ĠLondon":14005,"Ġlingvistoj":14006,"ĠJesuon":14007,"tica":14008,"ĠKE":14009,"ĠfariÄĿu":14010,"Ġnobla":14011,"Ġnorm":14012,"Ġunikan":14013,"Ġbutonon":14014,"scienco":14015,"Ġmidzumo":14016,"Ġafabla":14017,"Ġkuirejo":14018,"KI":14019,"Kre":14020,"Ġneri":14021,"ludoj":14022,"ĠhavaÄµo":14023,"parton":14024,"Ġvolu":14025,"etz":14026,"orie":14027,"Ġeksterlanda":14028,"Ġnubo":14029,"Ġraportojn":14030,"ĠserÄīante":14031,"ĠFoiro":14032,"ĠKuvaj":14033,"ĠJung":14034,"Ġokazonta":14035,"ĠdevenaÄµon":14036,"Ġneologis":14037,"lovskij":14038,"tti":14039,"Ġ^":14040,"Ġrezi":14041,"Ġarticle":14042,"Ġpenas":14043,"ĠProdu":14044,"brajn":14045,"Ġkardina":14046,"Ġ1935":14047,"Ġkarakterizas":14048,"Ġekstrem":14049,"Ġplezur":14050,"ĠHomaj":14051,"tiÄĿos":14052,"ast":14053,"Ġnepo":14054,"percaya":14055,"Ġgeno":14056,"uss":14057,"ĠGand":14058,"Ġkata":14059,"Ġkadu":14060,"Ġmaterio":14061,"rastruk":14062,"Ġrenask":14063,"Ġkroma":14064,"ĠaÅŃskultu":14065,"ĠSerge":14066,"Ġrimedon":14067,"esoto":14068,"ĠPolitiko":14069,"ĠPacifiko":14070,"dego":14071,"ĠÅĿpru":14072,"gantan":14073,"Ġvenen":14074,"Ġkodojn":14075,"burgio":14076,"ĠSupera":14077,"Ġminacas":14078,"Tag":14079,"wan":14080,"ĠApen":14081,"Ġsemoj":14082,"rue":14083,"ĠaÅŃdiÄĿis":14084,"ĠVila":14085,"Ġraci":14086,"ĠAlmenaÅŃ":14087,"cks":14088,"ÄĿisto":14089,"Ġteroris":14090,"Ġpartoprenanto":14091,"Ġbezonataj":14092,"Ġbov":14093,"ĠvoÄīdoni":14094,"Ġtrinkis":14095,"ĠLenin":14096,"forta":14097,"Ġdetala":14098,"titudo":14099,"ĠSauda":14100,"ĠLuis":14101,"intus":14102,"Ġ;)":14103,"Ġreprezentis":14104,"Ã¤r":14105,"ĠKultur":14106,"Ġmiraklo":14107,"Sinjoro":14108,"pton":14109,"Ġeste":14110,"ĠKub":14111,"ĠFind":14112,"Äīef":14113,"ĠMario":14114,"Ġfraton":14115,"Ġsciencan":14116,"ĠbuÄĿe":14117,"Ġkunlabore":14118,"Ġvastaj":14119,"ĠSudameriko":14120,"index":14121,"Ġsendependecon":14122,"ãĢĤ":14123,"Ġaus":14124,"Ġkonce":14125,"ĠÄĿerman":14126,"mantaj":14127,"Ġbonvena":14128,"ĠAna":14129,"Ġatingita":14130,"Ġknabon":14131,"Ġmetodojn":14132,"radik":14133,"ĠVojaÄĿo":14134,"Ġfilozofiaj":14135,"ĠGujano":14136,"Ġzonoj":14137,"Ġmalplej":14138,"Ġpertur":14139,"pec":14140,"Ġforbru":14141,"Tie":14142,"Ġutiligas":14143,"fonto":14144,"ĠNaturo":14145,"ĠFakoj":14146,"ĠburÄĿa":14147,"Ġreklamo":14148,"ĠFrakcioj":14149,"Ġbruna":14150,"Ġgratulas":14151,"Kri":14152,"Speci":14153,"Ġ..":14154,"Ġsumon":14155,"lir":14156,"Ġpensu":14157,"ĠUniversita":14158,"bando":14159,"interfaco":14160,"ĠvoÄīdonis":14161,"Ġintelekta":14162,"ĠFeliÄīe":14163,"Ġkami":14164,"iner":14165,"Ġai":14166,"Ġenten":14167,"Ġnevidebla":14168,"Ġkapa":14169,"Ġokazu":14170,"Ġindign":14171,"Ġ978":14172,"ĠÄµurnaloj":14173,"Ġlernolibroj":14174,"ĠSemajno":14175,"ĠChristian":14176,"ĠGubernio":14177,"VojaÄĿo":14178,"ukso":14179,"ĠsaÅŃ":14180,"cigo":14181,"esanco":14182,"Ġmitologio":14183,"ĠAzor":14184,"Ġsubskribo":14185,"ĠestiÄĿas":14186,"Ġbritoj":14187,"INO":14188,"Ekzemple":14189,"Ġposedo":14190,"Ġteorie":14191,"Ġkombino":14192,"ĠPapuo":14193,"Ġestanta":14194,"Ġens":14195,"Ġneesperan":14196,"ĠDoro":14197,"Ġaliigas":14198,"cadon":14199,"Ġtiea":14200,"ĠÅ»":14201,"ĠMaksi":14202,"neÅŃtra":14203,"ĠÄĿojis":14204,"Ġkvadrataj":14205,"è¡ĢèĺĩæľĪè¡ĢèĺĩæľĪè¡ĢèĺĩæľĪè¡ĢèĺĩæľĪ":14206,"Ġguberniestro":14207,"mel":14208,"Ġq":14209,"Äµenkov":14210,"ĠÅĿaÅŃ":14211,"ĠNATO":14212,"gaÄµo":14213,"Ġversoj":14214,"ĠKiuj":14215,"Ġdispono":14216,"ceno":14217,"cenco":14218,"Ġdonante":14219,"ĠEÅŃropaj":14220,"Ġerare":14221,"Ġaprobo":14222,"Ġaktivulo":14223,"ĠfraÅŃlino":14224,"Ġnegoco":14225,"ĠZambio":14226,"Ġgitaro":14227,"rho":14228,"lema":14229,"ĠLF":14230,"Ġkonton":14231,"ĠBala":14232,"illa":14233,"Ġlokajn":14234,"Ġsuperi":14235,"Ġvarmarko":14236,"Ġprava":14237,"Ġreagoj":14238,"Ġrealigis":14239,"Ġgrekaj":14240,"ĠPiron":14241,"Ġkonversaci":14242,"Ġblazono":14243,"Ġalkoholo":14244,"ĠÅľanhajo":14245,"blon":14246,"ciita":14247,"tuko":14248,"Ġ72":14249,"Ġkonsidero":14250,"Ġ1500":14251,"Ġvidpunktoj":14252,"Ġimpostoj":14253,"liÄĿi":14254,"reo":14255,"ĠHere":14256,"Ġ1915":14257,"Ġpavi":14258,"Ġposttagme":14259,"Ġcertigas":14260,"Ġerara":14261,"Ġestraron":14262,"Ġdifinis":14263,"ĠAmerican":14264,"ĠKristnasko":14265,"klandoj":14266,"landajn":14267,"Ġrabo":14268,"ksido":14269,"ĠKonstru":14270,"Ġcilin":14271,"Ġfone":14272,"ĠAlt":14273,"Ġmultekosta":14274,"ect":14275,"ĠÄĪefe":14276,"Ġkunlaborado":14277,"ĠTopo":14278,"ĠBonvenon":14279,"Ġfilozofia":14280,"Ġkomputilon":14281,"ÑģÐº":14282,"ac":14283,"Ġfana":14284,"Ġnekla":14285,
[...]
