#version: 0.2 - Trained by `huggingface/tokenizers`
0 0
Ã Ħ
1 1
Ã ¡
3 2
5 6
7 2
3 8
1 2
3 9
5 4
7 9
5 2
3 4
3 6
1 6
5 8
7 6
5 9
3 0
5 0
1 4
1 0
1 9
7 8
7 4
7 0
1 8
Ġ =
Ã ĥ
2 0
ð ¡
ð ¢
ð £
ð ¤
ð ¥
ð ¦
ð §
ð ¨
ð ©
ð ł
ð «
2 9
ð ª
8 0
6 6
4 0
8 9
4 9
A A
ð ¬
6 0
2 2
C E
C D
F B
6 9
C B
4 4
č Ċ
A B
F E
F D
1 3
8 8
1 5
1 7
A E
9 0
3 5
A D
6 2
4 2
3 7
Ã¡ Ä
6 8
Ã ª
4 8
D B
7 5
F C
E E
3 3
ð Ĺ
9 9
A C
5 5
6 4
D D
7 7
2 8
F F
B B
Â ª
C C
E B
e n
2 4
E D
F A
3 1
e d
5 7
8 2
4 6
Ġ Ã
Ãª Ä
E C
B D
0 9
c a
2 6
5 3
A F
8 4
7 3
Ġ Ġ
5 1
8 6
7 1
Â ¡
e c
i n
ð ĺ
E F
e a
E A
Ġ a
Ġ t
e r
00 00
C A
Ãĥ Âª
C F
9 2
o n
9 8
9 4
ÃĥÂª ÃĦ
d a
e f
Ġ Ä
9 6
B E
Ġ Â
0 8
D F
0 4
B C
D E
0 6
0 2
Ã ¢
d b
D A
B F
D C
B A
f a
d e
b a
c c
ð Ĳ
6 3
6 7
4 5
s g
6 5
M sg
â Ĺ
2 7
Ä ł
8 7
8 5
f f
e b
2 5
4 3
2 3
âĹ Į
4 1
8 3
c b
9 3
6 1
9 5
Ã ł
4 7
d d
2 1
f b
9 7
o r
t i
c e
0 5
0 7
8 1
0 1
a a
0 3
9 1
Ã ¯
b b
e s
d f
£ Ä
c f
Â ´
ð Ŀ
e e
M D
L en
d c
a b
Ġt h
Â °
a l
Â µ
Â ¶
Ãĥ Ä
Ä ¹
Ġ c
Ã £Ä
0000 0000
Ä ®
Â ±
r a
ð ĳ
ð Ĵ
Ġ s
f c
Â £
Ġ p
a c
Â º
Â ¬
b e
ĠĠ ĠĠ
Â ¦
Â ¨
b f
Â ¢
Â ¯
i s
a f
Å ĥ
Â ¤
Ġ o
Â ½
Â ®
Â ²
ð ĵ
Â ¥
Â ¾
b c
Â §
a d
Ġ ÃĦ
Â ©
f d
Ġ in
c d
Â ¸
Ä¹ Ä®
b d
Â ³
f e
Ġth e
a e
i t
Â ·
r e
Ġ ÃªÄ
Â ¹
ð ĸ
Ġ Ãĥ
d i
Â »
Â ¼
Ġ m
Ġ Ã¡Ä
r o
ð ¯
Â «
a t
00 0
a n
Å Ĥ
Ã¢ Ä¹Ä®
ħ Ä
en t
Ġa n
S H
19 1
Ġo f
Ġ Ã¡
ti on
Ġ e
Ġ f
l a
Â ¿
Ġ n
Å Ģ
72 8
i c
Ġ w
in g
Ã Ĥ
00000000 00000000
Ġ 6
âĹĮ à
2 12
o l
Å ģ
Ġ r
Ġ 1
39 3
ð Ķ
Ã ħÄ
a s
o u
10 20
29 2
u m
10 11
50 60
13 14
i on
Ġ 2
70 80
30 40
15 16
Ġ 7
000 1020
Ġ 3
0001020 3040
00010203040 5060
17 18
000102030405060 7080
0001020304050607080 90
u n
Ġ P
1011 12
101112 1314
1011121314 1516
ĠÃ ¢
10111213141516 1718
101112131415161718 191
ð ŀ
Ġ 5
Ġ ÃĥÂªÃĦ
l e
r i
Ä µ
ĠÃ ¯
s e
Ġ 4
Ġ 8
s t
ĠĠĠĠ ĠĠĠĠ
Ä §
Ġt o
4 14
Ġ d
Ġ de
Ä ¦
Ġ C
76 8
- -
ĠÃ °
p y
o m
6 16
Ġ b
Ġ l
8 49
78 8
Ã¡Ä ©
Ġ v
a r
t er
Ã¡Ä ¨
Ġ i
h e
59 5
42 52
Ġ 9
Ġan d
Ġc on
Ġ A
Ã¡Ä §
ĠÃ ł
ec t
8 18
âĹĮ á
Ä ¤
4 11
SH A
Ġ di
37 38
31 32
Ġ SHA
22 32
Ã¡Ä ¦
Ġ *
79 7
Ġ 0
69 6
33 34
2 56
â Ģ
76 0
l l
9 19
5 54
38 4
20 212
Ä ¢
6 44
20212 2232
5 12
35 36
202122232 4252
Ġ (
2021222324252 62
202122232425262 728
202122232425262728 292
Ä £
Ä ²
Ä ´
l g
56 0
Ã£Ä §
e y
30 3132
303132 3334
Ä ¨
70 9
AA lg
SH AAlg
3031323334 3536
30313233343536 3738
303132333435363738 393
Ä º
Ä ¥
Ä ¶
1 38
Ä ª
79 2
t a
ĠÃ Ĥ
7 11
m ent
Ġ Ãª
Ä ³
Ä ©
3 56
Ä ¸
Ġ T
Ä Ń
t o
Ä ·
16 1
70 8
ra y
Ġ or
Ä ¾
39 9
3 12
5 58
5 74
Ã¢Ä¹Ä® Ãł
h as
Ä ¬
1 72
7 00
t h
79 9
0000000000000000 0000000000000000
Ã Ĭ
Ä »
ÃĦ Âµ
36 0
50 8
r ray
50 9
Ä «
Ä ¿
Ä ½
Ã Ĳ
52 8
Ġ F
38 9
79 8
52 0
89 8
3 30
7 19
56 9
52 4
3 58
5 34
7 16
Ä ¼
59 9
Ä ¯
78 2
CB B
59 8
76 9
4 54
2 00
1 32
7 34
38 0
e t
Ä °
5 56
b j
Ã ī
ĠP y
Ã¡ Âµ
3 39
it h
Ä ±
2 19
52 6
3 19
6 11
52 9
70 4
5 36
3 00
50 2
7 54
79 0
78 9
i ca
AA B
78 6
Ġ u
Ġ ÃĥÄ
22 4
16 4
5 39
1 54
3 72
3 32
74 6
1 58
7 58
CD F
k ey
3 14
5 59
36 2
CE B
1 59
30 9
FD E
5 11
52 2
1 34
3 59
7 32
30 8
3 54
5 10
7 56
bj ect
v e
36 8
AA D
6 18
AA C
3 38
C FE
3 34
6 34
á ¸
á ¹
has h
7 12
CD D
5 72
E FB
32 0
6 56
á º
CE E
1 56
1 74
á »
5 18
4 00
8 66
Ġ is
1 00
Ġp er
30 4
7 72
FD D
3 10
3 11
7 39
7 14
19 0
E AE
ÃĦ Âº
7 18
36 9
8 58
16 9
7 10
3 76
3 18
l y
Ġ B
78 0
6 32
7 74
B DD
3 79
7 50
A FB
s ion
5 00
Ã Ń
5 14
Ġ D
Ġ h
Ġ I
CE D
CD B
3 74
AA E
6 12
a g
2 14
4 18
2 11
Ã ķ
AB E
2 70
4 49
6 00
i l
Ã İ
1 76
Ġ g
54 0
7 36
AD C
4 66
4 58
Ġ E
17 5
78 5
2 69
CE A
AD D
2 29
8 72
FD F
AB B
6 58
8 59
6 72
1 30
A rray
38 2
s i
u t
Ġ L
Ġa l
1 39
2 34
4 69
6 14
7 70
B DB
CE F
5 76
6 40
4 89
u r
5 16
5 50
D FB
m o
54 7
CD C
4 74
8 29
q u
A FE
p er
Ġw ith
4 60
8 80
D DB
CB E
AC C
CB F
5 79
â ²
Ġf or
2 88
4 76
6 50
7 76
ê Ŀ
Ġ ca
9 56
Ġ 11
FF F
4 22
38 8
2 48
4 16
AB C
7 79
8 34
FD C
2 74
5 30
F FE
1 79
1 70
2 58
2 68
6 79
Ã ĳ
â °
CD E
37 7
6 76
4 10
â ±
3 78
AE D
E DB
2 66
CD A
FD A
8 74
D EE
AE C
6 10
FC A
6 59
9 72
3 16
C FB
CE C
5 32
8 10
AA A
6 80
á ´
54 9
FD B
4 32
6 39
7 52
8 11
Ġ N
ou r
8 14
9 74
2 18
3 36
Ġ S
24 34
4 56
4 50
D EB
ĠÃ¢ Ä¹Ä®
2 89
8 12
9 11
Ã£Ä ¥
3 50
6 20
9 89
á ¼
FC F
1 36
3 70
6 29
6 49
1 50
6 88
CB C
7 30
o g
FC C
4 72
4 40
9 18
E FE
AE B
6 89
8 36
8 20
â ´
2 32
4 29
8 19
AC F
EC A
2 76
2 80
5 19
8 39
4 12
6 22
7 59
á ¶
Ġ 16
9 40
3 52
44 54
35 7
AD B
9 36
CB D
2 79
2 49
AB A
á ¾
ÃĦ Âª
ÃĦ Åĥ
Ġc o
2 72
AC A
5 70
6 74
7 38
9 88
á µ
64 74
Ġp ro
8 40
i d
5 52
8 32
9 66
Ġde l
5 78
1 78
4 62
á ı
4 20
0 76
0 50
0 18
6 54
8 70
15 7
ĠÃ £Ä
8 89
9 49
Ã ı
Ġ un
FB C
13 7
Ġ y
CB A
AB D
8 38
8 22
FB B
Ã¡Ä ±
4 38
E BB
0 20
4 39
i m
Ġ be
AD E
is t
0 32
0 99
Ã£Ä ¤
Ġn e
AE F
6 38
ï ½
db b
8 68
a ti
r ea
15 1
Äł Äł
0 16
0 60
2 20
8 00
Ġ 10
DD E
B EE
O bject
51 52
ÃĤ Âº
0 66
4 88
8 78
9 34
9 44
r es
z ion
ã Ģ
ã ĥ
Ġ 12
15 5
AD F
57 58
á Ħ
á ħ
á Ĩ
á ĩ
ã ħ
ï º
0 58
2 16
40 414
FB D
ê Ļ
AB F
4 78
9 00
i g
54 55
AA F
2 39
4 19
9 12
ï ¾
ÃħÄ ¢
0 19
9 10
9 68
0 74
0 80
0 44
4 52
á ½
ã ģ
849 4
40414 2434
6 70
ic en
2 38
2 54
2 40
9 38
ê ļ
Ġ re
-- --
0 90
2 50
9 69
0 39
2 62
4 79
c h
CC A
4 80
5 38
6 78
v er
404142434 4454
2 59
2 30
2 44
8 54
8 60
9 22
0 11
0 72
35 5
Ġ 18
FB A
9 60
o t
FB F
0 69
4 34
4 68
9 58
4041424344454 6474
ï »
2 36
8 16
8 44
DB E
9 76
B FE
Ġ 14
AD A
CC C
CC F
0 10
D FE
7 78
8 79
9 20
37 1
77 1
Ġs t
40414243444546474 8494
0 79
F CE
4 36
9 32
E DD
ã Ĥ
AE A
0 49
9 28
Ã Ĩ
2 10
9 39
9 29
â ĵ
Ġ M
13 3
56 5
8 42
9 14
9 70
al t
ÃħÄ £
1 52
0 12
6 42
à ¤
Ġ [
6 19
9 82
ÃŃ Åģ
8 48
B FD
B EB
50 5152
DB F
26 36
4 70
9 79
2 52
C CB
o w
6 17
56 66
505152 53
0 89
ê ŀ
0 88
8 69
u l
E AC
30 3
Ġt ra
es t
â Ħ
Ġ 19
6 75
8 56
á ĥ
50515253 5455
8 52
A CE
à ´
505152535455 56
0 52
0 29
0 42
6 36
S alt
FF A
V al
Ġ it
9 90
D AB
F AD
á Ĥ
í Ł
34 1
35 3
55 7
ED C
ED F
â ³
71 72
Ġth at
50515253545556 5758
á İ
ĠPy Array
7 75
E CD
Ã °
59 4
2 42
8 50
0 56
0 40
2 60
54 5
13 5
EC F
Salt Val
505152535455565758 595
F AC
p p
FE C
0 14
B CC
E AA
a m
6 48
à ²
Ġa s
0 62
á ¿
0 70
C CE
à ¶
âĹĮ ðĳ
8 30
à °
ï Ń
60 616
4 64
6 52
9 16
9 80
A CB
B AE
15 3
EB E
73 74
9 59
B CB
á Ī
á ĳ
á Ĵ
á ĵ
á Ķ
á ķ
á ĸ
á Ĺ
á ĺ
ê ¢
ê Ģ
ê ģ
ê Ĥ
ê ĥ
ê Ħ
ê ħ
ê Ĩ
ê ĩ
ê Ī
ê ī
ê Ĭ
ê ĭ
ê Į
ê į
ê İ
ê ı
ê Ĳ
ê ĳ
ê Ķ
ê ķ
ê ĸ
ê Ĺ
ï °
ï ±
ï ²
ï ³
ED E
0 28
4 30
9 62
d ed
6 30
á Ĳ
Ġ on
Ã¡Ä ¤
ê ¦
ê ª
ï ´
8 76
9 78
b cb
á Ļ
54 6
75 76
BB A
60616 2636
0 34
8 62
Ã Ķ
17 3
E AB
à ª
Ġ O
606162636 46
2 78
F AB
F FC
a tion
ï ¶
33 1
8 64
F AE
17 7
37 5
BD E
ê Ń
54 2
EE D
2 64
D FC
ĠÃ ħÄ
9 48
B FF
C FC
a ba
or k
60616263646 5666
5 75
B FB
á Į
ê ľ
FA F
es s
C AD
D CB
00 6
58 0
5 13
9 42
606162636465666 768
F CB
o p
56 7
ĠĠĠĠĠĠĠĠ ĠĠĠĠĠĠĠĠ
: :
t e
32 4
0 22
B AB
á ¦
á Ģ
á ĭ
â ·
ï ®
icen se
9 46
B FC
à ¦
0 59
B CD
C AC
E CE
EE E
âĢ Ļ
606162636465666768 696
74 3
77 78
l i
á ļ
11 7
13 1
EB D
ef f
Ã£Ä £
ã Ħ
8 55
A FD
C CD
C AB
FE D
0 54
2 37
8 24
B EF
C AF
D AE
10 4
66 9
Ã¡Ä °
EE A
4 59
D AA
DB A
BB B
BD F
FE B
Ġm a
9 54
9 30
E FF
á ¨
DD A
zion e
8 28
E FD
d er
75 7
EB F
âĹĮà ¾
D CC
FE E
0 38
4 35
6 55
i r
á ¢
ð Ľ
Ġ la
39 7
50 5
70 7172
60 8
37 3
âĢ ĵ
g i
á ī
á Ĭ
Ġ G
89 7
48 58
DB B
28 38
57 3
C AE
00 4
0 36
0 86
30 1
ê ¤
FB E
BB C
Ġw h
C FF
ã Ĩ
77 3
707172 7374
y p
á ¡
Ġs u
9 52
D EC
DB C
9 84
58 9
3 15
7 35
Ġ 20
00 8
14 5
or e
00000000000000000000000000000000 00000000000000000000000000000000
8 17
9 37
à ¨
á Ľ
58 5
30 7
BB F
7071727374 7576
3 13
E AD
á ŀ
ê ¨
11 8
12 9
ec e
6 13
A FF
A FA
â ħ
C AA
39 2
A CD
D AC
ê ¥
ê ¬
ï ¼
58 8
78 4
Ġin t
3 35
Ġ da
72 0
14 0
74 4
BD A
ĠĠ Ġ
70717273747576 7778
6 15
F AA
á £
FE A
9 50
32 7
D FD
ê ¡
34 0
57 1
ÃĤ Âµ
5 15
D FA
Ġt um
56 4
39 4
18 0
707172737475767778 797
B AA
E FC
E AF
á ¬
59 3
18 9
DD D
77 7
9 26
D FF
48 2
D CE
72 3
30 6
50 3
78 1
72 7
Ã¢Ä¹Ä® Ã¡
0 24
5 17
p i
à ½
50 6
78 3
70 1
EE F
EB C
th er
2 15
9 64
D AD
72 5
12 7
0 46
D CD
D CA
F CD
Ã Ī
á ±
80 818
49 59
Ã¢ Äµ
B CE
B EC
h t
34 3
76 7
18 4
FE F
Ġ R
32 3
ÃªÄ ¿
4 55
F FB
x t
¡ ë
¡ ì
¢ ë
¢ ì
£ ë
£ ì
¤ ë
¤ ì
¥ ë
¥ ì
¦ ë
¦ ì
§ ë
§ ì
¨ ë
¨ ì
© ë
© ì
ª ë
ª ì
« ë
« ì
¬ ë
¬ ì
® ë
® ì
¯ ë
¯ ì
° ë
° ì
± ë
± ì
² ë
² ì
³ ë
³ ì
´ ë
´ ì
µ ë
µ ì
¶ ë
¶ ì
· ë
· ì
¸ ë
¸ ì
¹ ë
¹ ì
º ë
º ì
» ë
» ì
¼ ë
¼ ì
½ ë
½ ì
¾ ë
¾ ì
¿ ë
¿ ì
ã Į
ä ¸
ä ¹
ä º
ä »
ä ¼
ä ½
ä ¾
ä ¿
å ¡
å ¢
å £
å ¤
å ¥
å ¦
å §
å ¨
å ©
å ª
å «
å ¬
å ®
å ¯
å °
å ±
å ²
å ³
å ´
å µ
å ¶
å ·
å ¸
å ¹
å º
å »
å ¼
å ½
å ¾
å ¿
å Ģ
å ģ
å Ĥ
å ĥ
å Ħ
å ħ
å Ĩ
å ĩ
å Ī
å ī
å Ĭ
å ĭ
å Į
å į
å İ
å ı
å Ĳ
å ĳ
å Ĵ
å ĵ
å Ķ
å ķ
å ĸ
å Ĺ
å ĺ
å Ļ
å ļ
å Ľ
å ľ
å Ŀ
å ŀ
å Ł
å ł
å Ń
æ ¡
æ ¢
æ £
æ ¤
æ ¥
æ ¦
æ §
æ ¨
æ ©
æ ª
æ «
æ ¬
æ ®
æ ¯
æ °
æ ±
æ ²
æ ³
æ ´
æ µ
æ ¶
æ ·
æ ¸
æ ¹
æ º
æ »
æ ¼
æ ½
æ ¾
æ ¿
æ Ģ
æ ģ
æ Ĥ
æ ĥ
æ Ħ
æ ħ
æ Ĩ
æ ĩ
æ Ī
æ ī
æ Ĭ
æ ĭ
æ Į
æ į
æ İ
æ ı
æ Ĳ
æ ĳ
æ Ĵ
æ ĵ
æ Ķ
æ ķ
æ ĸ
æ Ĺ
æ ĺ
æ Ļ
æ ļ
æ Ľ
æ ľ
æ Ŀ
æ ŀ
æ Ł
æ ł
æ Ń
ç ¡
ç ¢
ç £
ç ¤
ç ¥
ç ¦
ç §
ç ¨
ç ©
ç ª
ç «
ç ¬
ç ®
ç ¯
ç °
ç ±
ç ²
ç ³
ç ´
ç µ
ç ¶
ç ·
ç ¸
ç ¹
ç º
ç »
ç ¼
ç ½
ç ¾
ç ¿
ç Ģ
ç ģ
ç Ĥ
ç ĥ
ç Ħ
ç ħ
ç Ĩ
ç ĩ
ç Ī
ç ī
ç Ĭ
ç ĭ
ç Į
ç į
ç İ
ç ı
ç Ĳ
ç ĳ
ç Ĵ
ç ĵ
ç Ķ
ç ķ
ç ĸ
ç Ĺ
ç ĺ
ç Ļ
ç ļ
ç Ľ
ç ľ
ç Ŀ
ç ŀ
ç Ł
ç ł
ç Ń
è ¡
è ¢
è £
è ¤
è ¥
è ¦
è §
è ¨
è ©
è ª
è «
è ¬
è ®
è ¯
è °
è ±
è ²
è ³
è ´
è µ
è ¶
è ·
è ¸
è ¹
è º
è »
è ¼
è ½
è ¾
è ¿
è Ģ
è ģ
è Ĥ
è ĥ
è Ħ
è ħ
è Ĩ
è ĩ
è Ī
è ī
è Ĭ
è ĭ
è Į
è į
è İ
è ı
è Ĳ
è ĳ
è Ĵ
è ĵ
è Ķ
è ķ
è ĸ
è Ĺ
è ĺ
è Ļ
è ļ
è Ľ
è ľ
è Ŀ
è ŀ
è Ł
è ł
è Ń
é ¡
é ¢
é £
é ¤
é ¥
é ¦
é §
é ¨
é ©
é ª
é «
é ¬
é ®
é ¯
é °
é ±
é ²
é ³
é ´
é µ
é ¶
é ·
é ¸
é ¹
é º
é »
é ¼
é ½
é Ģ
é ģ
é Ĥ
é ĥ
é Ħ
é ħ
é Ĩ
é ĩ
é Ī
é ī
é Ĭ
é ĭ
é Į
é į
é İ
é ı
é Ĳ
é ĳ
é Ĵ
é ĵ
é Ķ
é ķ
é ĸ
é Ĺ
é ĺ
é Ļ
é ļ
é Ľ
é ľ
é Ŀ
é ŀ
é Ł
é ł
é Ń
ê ®
ê °
ê ±
ê ²
ê ³
ê ´
ê µ
ê ¶
ê ·
ê ¸
ê ¹
ê º
ê »
ê ¼
ê ½
ê ¾
ê ¿
í Ģ
í ģ
í Ĥ
í ĥ
í Ħ
í ħ
í Ĩ
í ĩ
í Ī
í ī
í Ĭ
í ĭ
í Į
í į
í İ
í ı
í Ĳ
í ĳ
í Ĵ
í ĵ
í Ķ
í ķ
í ĸ
í Ĺ
í ĺ
í Ļ
í ļ
í Ľ
í ľ
í Ŀ
Ģ ë
Ģ ì
ģ ë
ģ ì
Ĥ ë
Ĥ ì
ĥ ë
ĥ ì
Ħ ë
Ħ ì
ħ ë
ħ ì
Ĩ ë
Ĩ ì
ĩ ë
ĩ ì
Ī ë
Ī ì
ī ë
ī ì
Ĭ ë
Ĭ ì
ĭ ë
ĭ ì
Į ë
Į ì
į ë
į ì
İ ë
İ ì
ı ë
ı ì
Ĳ ë
Ĳ ì
ĳ ë
ĳ ì
Ĵ ë
Ĵ ì
ĵ ë
ĵ ì
Ķ ë
Ķ ì
ķ ë
ķ ì
ĸ ë
ĸ ì
Ĺ ë
Ĺ ì
ĺ ë
ĺ ì
Ļ ë
Ļ ì
ļ ë
ļ ì
Ľ ë
Ľ ì
ľ ë
ľ ì
Ŀ ë
Ŀ ì
ŀ ë
ŀ ì
Ł ë
Ł ì
ł ë
ł ì
Ń ë
Ń ì
12 2
78 7
28 411
al e
E CB
s es
â ¶
ê ĵ
38 7
34 2
29 39
B EA
à ¸
ê Ľ
32 161
36 6
76 2
89 4
EE B
644 71
28411 66
0 82
16 5
58 2
76 5
66 8
35 1
33 3
EB A
en ti
4 15
Ã£Ä ¦
9 15
Ã ĩ
11 5
Ã¡ Âº
39 0
39 6
52 1
59 7
22 2
69 0
à ¬
ê ©
14 6
74 1
29 0
60 7
44 6
17 1
B FA
ê ¯
36 5
10 7
89 6
ã ĭ
12 8
76 3
80818 2838
â µ
30 5
19 3
19 8
75 5
BB D
2 55
B AD
D EF
D CF
F FD
ã į
56 8
68 5
BB E
s o
00 5
54 3
34 5
36 3
14 7
808182838 4858
32 5
39 5
50 4
89 1
49 6
ro m
38 1
54 8
79 1
34 9
16 6
10 3
20 5
22 5
44 7
ea b
cc c
Ġth is
2 17
72 6
54 4
8081828384858 68
á ®
á ģ
ï ¬
39 1
39 8
50 1
70 7
80 7
9 33
á °
ã ĩ
í ŀ
ï µ
32 9
72 4
12 4
58 4
10 9
AE E
0 68
5 35
52 5
90 6
BD C
Ã¢Ä¹Ä® Ã
808182838485868 788
0 64
6 31
B CF
Ġ 00
11 2
56 3
79 89
34 7
un c
0 26
7 37
ð Ł
14 1
E FA
16 8
50 7
70 5
18 2
18 8
e ef
38 6
79 3
49 8
99 8
A FC
E CC
56 6
36 1
DD F
ED A
808182838485868788 898
6 51
9 86
Ã ĵ
38 5
12 0
76 4
10 5
24 1
7 33
à ¥
ã Ī
C FA
11 0
32 8
59 1
á ¤
é ¾
74 2
29 9
98 3
ï ¯
00 9
36 4
62 7
46 1
B AF
à ®
32 1
72 2
12 6
59 2
69 2
88 2
88 3
Ġy ou
0 84
g ra
56 2
16 3
59 0
14 8
29 3
at e
4 17
4 77
c ed
88 6
Ã¡Ä ¥
or i
ti c
Ġr en
á ¯
19 2
42 4
DD C
B AC
D AF
P y
i f
00 1
00 2
79 6
76 6
90 919
55 5
Ġw ork
4 31
8 35
ã ı
20 3
68 6
Ã¢ Ä§
e ed
72 9
10 1
20 6
29 1
40 3
24 5
0 78
72 1
36 7
90 9
62 4
7 17
d ef
32 6
16 2
59 6
19 6
74 7
46 3
Ġm o
Ġb y
4 51
B ED
ê ł
16 0
10 6
70 3
80 9
28 3
m in
o s
11 1
14 2
66 6
69 9
â Ĥ
34 8
14 4
49 1
62 6
48 6
75 3
0 30
0 55
D ED
11 4
79 4
52 3
16 7
58 6
58 7
14 3
14 9
68 1
84 5
90919 2939
l u
19 5
40 1
Ã¯ Âº
Ġc om
Ġv al
D EA
Ġ 56
74 0
70 2
18 3
29 7
66 5
88 1
B CA
10 8
18 1
18 6
88 5
909192939 4959
á ¥
á ł
38 3
80 3
44 8
ea d
8 53
Ġ 13
00 3
32 2
76 1
70 6
66 0
di g
2 13
74 5
74 9
40 8
89 5
69 3
la r
9091929394959 69
7 15
ê Ĵ
79 5
52 7
74 8
18 5
68 3
68 4
64 6
Ġ 30
ÃĥÄ ³
Ġ 72
19 7
29 6
22 3
64 5
82 3
92 7
ĠÂ £
. .
19 9
99 2
55 3
Ã£Ä ¨
Ġ 15
10 2
18 7
80 6
49 3
42 3
an d
909192939495969 7989
2 35
11 6
60 5
44 3
82 6
ea f
96 3
ĠÂ ¢
ÃħÄ ¥
0 17
a re
e ba
49 2
90 4
EE C
ĠÂ ¤
ÃĥÄ ²
f ba
t ra
Ġ 34
02 5
9091929394959697989 99
2 75
9 73
90 3
94 3
4 75
8 31
8 51
9 24
0 48
11 9
58 3
Ã¡Ä ¢
9 17
d ff
Ãª Åĥ
99 3
in t
ê §
49 0
62 5
68 2
26 7
Ġe x
ri b
7 31
8 77
C FD
c ca
ï ¹
Ġ 79
Ġ 76
DB D
fa c
Ġi m
4 37
8 13
p ro
Ġ 32
Ġ 17
89 2
42 6
55 1
ÃªÄ »
09 2
ĠÂ ¦
ĠÂ ¨
ĠÂ ²
d cb
e ca
â Į
Ġ 59
34 6
80 5
40 2
69 1
28 1
46 7
08 5
tion s
4 33
9 57
b ca
c on
48 7
ec f
0 37
¡ ð¡
¡ ð¢
¡ ð£
¡ ð¤
¡ ð¥
¡ ð¦
¡ ð§
¡ ð¨
¡ ð©
¡ ðł
¡ ð«
¢ ð¡
¢ ð¢
¢ ð£
¢ ð¤
¢ ð¥
¢ ð¦
¢ ð§
¢ ð¨
¢ ð©
¢ ðł
¢ ð«
£ ð¡
£ ð¢
£ ð£
£ ð¤
£ ð¥
£ ð¦
£ ð§
£ ð¨
£ ð©
£ ðł
£ ð«
¤ ð¡
¤ ð¢
¤ ð£
¤ ð¤
¤ ð¥
¤ ð¦
¤ ð§
¤ ð¨
¤ ð©
¤ ðł
¤ ð«
¥ ð¡
¥ ð¢
¥ ð£
¥ ð¤
¥ ð¥
¥ ð¦
¥ ð§
¥ ð¨
¥ ð©
¥ ðł
¥ ð«
¦ ð¡
¦ ð¢
¦ ð£
¦ ð¤
¦ ð¥
¦ ð¦
¦ ð§
¦ ð¨
¦ ð©
¦ ðł
¦ ð«
§ ð¡
§ ð¢
§ ð£
§ ð¤
§ ð¥
§ ð¦
§ ð§
§ ð¨
§ ð©
§ ðł
§ ð«
¨ ð¡
¨ ð¢
¨ ð£
¨ ð¤
¨ ð¥
¨ ð¦
¨ ð§
¨ ð¨
¨ ð©
¨ ðł
¨ ð«
© ð¡
© ð¢
© ð£
© ð¤
© ð¥
© ð¦
© ð§
© ð¨
© ð©
© ðł
© ð«
ª ð¡
ª ð¢
ª ð£
ª ð¤
ª ð¥
ª ð¦
ª ð§
ª ð¨
ª ð©
ª ðł
ª ð«
« ð¡
« ð¢
« ð£
« ð¤
« ð¥
« ð¦
« ð§
« ð¨
« ð©
« ðł
« ð«
¬ ð¡
¬ ð¢
¬ ð£
¬ ð¤
¬ ð¥
¬ ð¦
¬ ð§
¬ ð¨
¬ ð©
¬ ðł
¬ ð«
® ð¡
® ð¢
® ð£
® ð¤
® ð¥
® ð¦
® ð§
® ð¨
® ð©
® ðł
® ð«
¯ ð¡
¯ ð¢
¯ ð£
¯ ð¤
¯ ð¥
¯ ð¦
¯ ð§
¯ ð¨
¯ ð©
¯ ðł
¯ ð«
° ð¡
° ð¢
° ð£
° ð¤
° ð¥
° ð¦
° ð§
° ð¨
° ð©
° ðł
° ð«
± ð¡
± ð¢
± ð£
± ð¤
± ð¥
± ð¦
± ð§
± ð¨
± ð©
± ðł
± ð«
² ð¡
² ð¢
² ð£
² ð¤
² ð¥
² ð¦
² ð§
² ð¨
² ð©
² ðł
² ð«
³ ð¡
³ ð¢
³ ð£
³ ð¤
³ ð¥
³ ð¦
³ ð§
³ ð¨
³ ð©
³ ðł
³ ð«
´ ð¡
´ ð¢
´ ð£
´ ð¤
´ ð¥
´ ð¦
´ ð§
´ ð¨
´ ð©
´ ðł
´ ð«
µ ð¡
µ ð¢
µ ð£
µ ð¤
µ ð¥
µ ð¦
µ ð§
µ ð¨
µ ð©
µ ðł
¶ ð¡
¶ ð¢
¶ ð£
¶ ð¤
¶ ð¥
¶ ð¦
¶ ð§
¶ ð¨
¶ ð©
¶ ðł
· ð¡
· ð¢
· ð£
· ð¤
· ð¥
· ð¦
· ð§
· ð¨
· ð©
· ðł
¸ ð¡
¸ ð¢
¸ ð£
¸ ð¤
¸ ð¥
¸ ð¦
¸ ð§
¸ ð¨
¸ ð©
¸ ðł
¹ ð¡
¹ ð¢
¹ ð£
¹ ð¤
¹ ð¥
¹ ð¦
¹ ð§
¹ ð¨
¹ ð©
¹ ðł
º ð¡
º ð¢
º ð£
º ð¤
º ð¥
º ð¦
º ð§
º ð¨
º ð©
º ðł
» ð¡
» ð¢
» ð£
» ð¤
» ð¥
» ð¦
» ð§
» ð¨
» ð©
» ðł
¼ ð¡
¼ ð¢
¼ ð£
¼ ð¤
¼ ð¥
¼ ð¦
¼ ð§
¼ ð¨
¼ ð©
¼ ðł
½ ð¡
½ ð¢
½ ð£
½ ð¤
½ ð¥
½ ð¦
½ ð§
½ ð¨
½ ð©
½ ðł
¾ ð¡
¾ ð¢
¾ ð£
¾ ð¤
¾ ð¥
¾ ð¦
¾ ð§
¾ ð¨
¾ ð©
¾ ðł
¿ ð¡
¿ ð¢
¿ ð£
¿ ð¤
¿ ð¥
¿ ð¦
¿ ð§
¿ ð¨
¿ ð©
â ¡
â ¢
â £
â Ķ
â ķ
â ĺ
â ļ
â Ľ
â ł
ã ¡
ã ¢
ã £
ã ¤
ã ¥
ã ¦
ã §
ã ¨
ã ©
ã ª
ã «
ã ¬
ã ®
ã ¯
ã °
ã ±
ã ²
ã ³
ã ´
ã µ
ã ¶
ã ·
ã ¸
ã ¹
ã º
ã »
ã ¼
ã ½
ã ¾
ã ¿
ã İ
ã Ĳ
ã ĳ
ã Ĵ
ã ĵ
ã Ķ
ã ķ
ã ĸ
ã Ĺ
ã ĺ
ã Ļ
ã ļ
ã Ľ
ã ľ
ã Ŀ
ã ŀ
ã Ł
ã ł
ã Ń
ä ¡
ä ¢
ä £
ä ¤
ä ¥
ä ¦
ä §
ä ¨
ä ©
ä ª
ä «
ä ¬
ä ®
ä ¯
ä °
ä ±
ä ²
ä ³
ä ´
ä µ
ä ·
ä Ģ
ä ģ
ä Ĥ
ä ĥ
ä Ħ
ä ħ
ä Ĩ
ä ĩ
ä Ī
ä ī
ä Ĭ
ä ĭ
ä Į
ä į
ä İ
ä ı
ä Ĳ
ä ĳ
ä Ĵ
ä ĵ
ä Ķ
ä ķ
ä ĸ
ä Ĺ
ä ĺ
ä Ļ
ä ļ
ä Ľ
ä ľ
ä Ŀ
ä ŀ
ä Ł
ä ł
ä Ń
ï ¤
ï ¥
ï ¦
ï §
ï ¨
ï ª
Ģ ð¡
Ģ ð¢
Ģ ð£
Ģ ð¤
Ģ ð¥
Ģ ð¦
Ģ ð§
Ģ ð¨
Ģ ð©
Ģ ðł
Ģ ð«
Ģ ðª
ģ ð¡
ģ ð¢
ģ ð£
ģ ð¤
ģ ð¥
ģ ð¦
ģ ð§
ģ ð¨
ģ ð©
ģ ðł
ģ ð«
ģ ðª
Ĥ ð¡
Ĥ ð¢
Ĥ ð£
Ĥ ð¤
Ĥ ð¥
Ĥ ð¦
Ĥ ð§
Ĥ ð¨
Ĥ ð©
Ĥ ðł
Ĥ ð«
Ĥ ðª
ĥ ð¡
ĥ ð¢
ĥ ð£
ĥ ð¤
ĥ ð¥
ĥ ð¦
ĥ ð§
ĥ ð¨
ĥ ð©
ĥ ðł
ĥ ð«
ĥ ðª
Ħ ð¡
Ħ ð¢
Ħ ð£
Ħ ð¤
Ħ ð¥
Ħ ð¦
Ħ ð§
Ħ ð¨
Ħ ð©
Ħ ðł
Ħ ð«
Ħ ðª
ħ ð¡
ħ ð¢
ħ ð£
ħ ð¤
ħ ð¥
ħ ð¦
ħ ð§
ħ ð¨
ħ ð©
ħ ðł
ħ ð«
ħ ðª
Ĩ ð¡
Ĩ ð¢
Ĩ ð£
Ĩ ð¤
Ĩ ð¥
Ĩ ð¦
Ĩ ð§
Ĩ ð¨
Ĩ ð©
Ĩ ðł
Ĩ ð«
Ĩ ðª
ĩ ð¡
ĩ ð¢
ĩ ð£
ĩ ð¤
ĩ ð¥
ĩ ð¦
ĩ ð§
ĩ ð¨
ĩ ð©
ĩ ðł
ĩ ð«
ĩ ðª
Ī ð¡
Ī ð¢
Ī ð£
Ī ð¤
Ī ð¥
Ī ð¦
Ī ð§
Ī ð¨
Ī ð©
Ī ðł
Ī ð«
Ī ðª
ī ð¡
ī ð¢
ī ð£
ī ð¤
ī ð¥
ī ð¦
ī ð§
ī ð¨
ī ð©
ī ðł
ī ð«
ī ðª
Ĭ ð¡
Ĭ ð¢
Ĭ ð£
Ĭ ð¤
Ĭ ð¥
Ĭ ð¦
Ĭ ð§
Ĭ ð¨
Ĭ ð©
Ĭ ðł
Ĭ ð«
Ĭ ðª
ĭ ð¡
ĭ ð¢
ĭ ð£
ĭ ð¤
ĭ ð¥
ĭ ð¦
ĭ ð§
ĭ ð¨
ĭ ð©
ĭ ðł
ĭ ð«
ĭ ðª
Į ð¡
Į ð¢
Į ð£
Į ð¤
Į ð¥
Į ð¦
Į ð§
Į ð¨
Į ð©
Į ðł
Į ð«
Į ðª
į ð¡
į ð¢
į ð£
į ð¤
į ð¥
į ð¦
į ð§
į ð¨
į ð©
į ðł
į ð«
į ðª
İ ð¡
İ ð¢
İ ð£
İ ð¤
İ ð¥
İ ð¦
İ ð§
İ ð¨
İ ð©
İ ðł
İ ð«
İ ðª
ı ð¡
ı ð¢
ı ð£
ı ð¤
ı ð¥
ı ð¦
ı ð§
ı ð¨
ı ð©
ı ðł
ı ð«
ı ðª
Ĳ ð¡
Ĳ ð¢
Ĳ ð£
Ĳ ð¤
Ĳ ð¥
Ĳ ð¦
Ĳ ð§
Ĳ ð¨
Ĳ ð©
Ĳ ðł
Ĳ ð«
Ĳ ðª
ĳ ð¡
ĳ ð¢
ĳ ð£
ĳ ð¤
ĳ ð¥
ĳ ð¦
ĳ ð§
ĳ ð¨
ĳ ð©
ĳ ðł
ĳ ð«
ĳ ðª
Ĵ ð¡
Ĵ ð¢
Ĵ ð£
Ĵ ð¤
Ĵ ð¥
Ĵ ð¦
Ĵ ð§
Ĵ ð¨
Ĵ ð©
Ĵ ðł
Ĵ ð«
Ĵ ðª
ĵ ð¡
ĵ ð¢
ĵ ð£
ĵ ð¤
ĵ ð¥
ĵ ð¦
ĵ ð§
ĵ ð¨
ĵ ð©
ĵ ðł
ĵ ð«
ĵ ðª
Ķ ð¡
Ķ ð¢
Ķ ð£
Ķ ð¤
Ķ ð¥
Ķ ð¦
Ķ ð§
Ķ ð¨
Ķ ð©
Ķ ðł
Ķ ð«
Ķ ðª
ķ ð¡
ķ ð¢
ķ ð£
ķ ð¤
ķ ð¥
ķ ð¦
ķ ð§
ķ ð¨
ķ ð©
ķ ðł
ķ ð«
ķ ðª
ĸ ð¡
ĸ ð¢
ĸ ð£
ĸ ð¤
ĸ ð¥
ĸ ð¦
ĸ ð§
ĸ ð¨
ĸ ð©
ĸ ðł
ĸ ð«
ĸ ðª
Ĺ ð¡
Ĺ ð¢
Ĺ ð£
Ĺ ð¤
Ĺ ð¥
Ĺ ð¦
Ĺ ð§
Ĺ ð¨
Ĺ ð©
Ĺ ðł
Ĺ ð«
ĺ ð¡
ĺ ð¢
ĺ ð£
ĺ ð¤
ĺ ð¥
ĺ ð¦
ĺ ð§
ĺ ð¨
ĺ ð©
ĺ ðł
ĺ ð«
Ļ ð¡
Ļ ð¢
Ļ ð£
Ļ ð¤
Ļ ð¥
Ļ ð¦
Ļ ð§
Ļ ð¨
Ļ ð©
Ļ ðł
Ļ ð«
ļ ð¡
ļ ð¢
ļ ð£
ļ ð¤
ļ ð¥
ļ ð¦
ļ ð§
ļ ð¨
ļ ð©
ļ ðł
ļ ð«
Ľ ð¡
Ľ ð¢
Ľ ð£
Ľ ð¤
Ľ ð¥
Ľ ð¦
Ľ ð§
Ľ ð¨
Ľ ð©
Ľ ðł
Ľ ð«
ľ ð¡
ľ ð¢
ľ ð£
ľ ð¤
ľ ð¥
ľ ð¦
ľ ð§
ľ ð¨
ľ ð©
ľ ðł
ľ ð«
Ŀ ð¡
Ŀ ð¢
Ŀ ð£
Ŀ ð¤
Ŀ ð¥
Ŀ ð¦
Ŀ ð§
Ŀ ð¨
Ŀ ð©
Ŀ ðł
Ŀ ð«
ŀ ð¡
ŀ ð¢
ŀ ð£
ŀ ð¤
ŀ ð¥
ŀ ð¦
ŀ ð§
ŀ ð¨
ŀ ð©
ŀ ðł
Ł ð¡
Ł ð¢
Ł ð£
Ł ð¤
Ł ð¥
Ł ð¦
Ł ð§
Ł ð¨
Ł ð©
Ł ðł
ł ð¡
ł ð¢
ł ð£
ł ð¤
ł ð¥
ł ð¦
ł ð§
ł ð¨
ł ð©
ł ðł
ł ð«
Ń ð¡
Ń ð¢
Ń ð£
Ń ð¤
Ń ð¥
Ń ð¦
Ń ð§
Ń ð¨
Ń ð©
Ń ðł
Ń ð«
56 1
ð¬ ¡
ð¬ ¢
ð¬ £
ð¬ ¤
ð¬ ¥
ð¬ ¦
ð¬ §
ð¬ ¨
ð¬ ©
ð¬ ª
ð¬ «
ð¬ ¬
ð¬ ®
ð¬ ¯
ð¬ °
ð¬ ±
ð¬ ²
ð¬ ³
ð¬ ´
ð¬ µ
ð¬ ¶
ð¬ ·
ð¬ ¸
ð¬ ¹
ð¬ Ģ
ð¬ ģ
ð¬ Ĥ
ð¬ ĥ
ð¬ Ħ
ð¬ ħ
ð¬ Ĩ
ð¬ ĩ
ð¬ Ī
ð¬ ī
ð¬ Ĭ
ð¬ ĭ
ð¬ Į
ð¬ į
ð¬ İ
ð¬ ı
ð¬ Ĳ
ð¬ ĳ
ð¬ Ĵ
ð¬ ĵ
ð¬ Ķ
ð¬ ķ
ð¬ ĸ
ð¬ Ĺ
ð¬ ĺ
ð¬ Ļ
ð¬ ļ
ð¬ Ľ
ð¬ ľ
ð¬ Ŀ
ð¬ ŀ
ð¬ Ł
ð¬ ł
ð¬ Ń
ÃĥÂªÃĦ Âª
ÃĥÂªÃĦ Åĥ
06 7
ðĲ Ĳ
Äł ÃĦ
ðĿ Ĳ
ðĿ ĸ
ðĿ Ĺ
ðĿ ĺ
ðĿ Ļ
al i
ð¯ ¡
ð¯ ¢
ð¯ £
ð¯ ¤
ð¯ ¥
ð¯ ¦
ð¯ §
ð¯ ł
ðŀ ¤
4 57
â į
â ĸ
â Ļ
â ľ
ã Ĭ
ê ĺ
54 1
49 5
ĠÄ ¤
b cc
Ã Ĵ
Ġ 36
Ġ Âª
20 7
40 5
62 3
86 7
0 75
0 77
b ff
¡ ðª
¢ ðª
£ ðª
¤ ðª
¥ ðª
¦ ðª
§ ðª
¨ ðª
© ðª
ª ðª
« ðª
¬ ðª
® ðª
¯ ðª
° ðª
± ðª
² ðª
³ ðª
´ ðª
µ ð«
µ ðª
¶ ð«
¶ ðª
· ð«
· ðª
¸ ð«
¸ ðª
¹ ð«
¹ ðª
º ð«
º ðª
» ð«
» ðª
¼ ð«
¼ ðª
½ ð«
½ ðª
¾ ð«
¾ ðª
¿ ðł
¿ ð«
¿ ðª
Ĺ ðª
ĺ ðª
Ļ ðª
ļ ðª
Ľ ðª
ľ ðª
Ŀ ðª
ŀ ð«
ŀ ðª
Ł ð«
Ł ðª
ł ðª
Ń ðª
00 7
90 7
99 9
98 5
ðĿ ĳ
ðĿ ĵ
5 31
Ã ļ
Ġ 39
29 4
44 2
ĠÂ ±
ĠÂ ³
Ġc he
dig est
7 13
8 37
a cc
s u
Ġ 38
30 2
80 1
66 2
99 4
ca da
eb d
it y
â Ĵ
ï ©
Ġ W
Ġ 58
40 6
60 1
60 6
82 1
ĠÂ «
fa b
ðĿ ļ
ðĿ ľ
ðĿ Ŀ
ðĿ ŀ
a fb
ã ī
19 4
80 8
ĠÂ ¬
yp e
0 13
9 51
d ca
f u
40 4
64 7
ec c
ea a
ĠÂ ¥
ÃĥÄ ¬
a da
á §
â Ĩ
20 1
69 4
99 6
ÃªÄ ¼
09 1
de b
Ã¯ Åĥ
ðĿ Ľ
Ġn ot
3 37
8 75
Ġ 54
Ġ ra
90 5
82 7
ĠÄ ¨
o f
12 3
20 4
40 7
42 1
28 2
28 6
84 7
86 1
86 5
94 1
06 5
8 33
11 3
ĠÂ ®
ĠÂ ·
4 53
d db
á ľ
Ġ 52
58 1
20 9
60 9
69 5
ĠÄ ¥
ĠÄ ¸
ol og
2 33
5 77
i v
90 8
09 6
ĠÄ £
ĠÂ ¯
Ġs e
ĠĠĠĠ Ġ
ĠL icense
b ef
b fa
Ġ Â¡
49 4
ðĿ ķ
Ġp ar
0 51
2 51
8 73
c o
â ¬
â ĩ
12 1
64 1
Ġt er
ĠÄ ¬
ĠÄ ´
ĠÄ ¼
Ġc h
2 31
6 35
60 4
48 1
48 5
ea e
ĠÂ ©
ĠÂ µ
ÃĥÄ ¨
t ed
66 3
89 9
49 7
86 3
4 13
c ff
f ed
á į
Ġ 74
60 3
44 1
62 8
42 8
ea c
Ġan y
Ġco py
5 37
6 71
f ef
s ac
â Ŀ
ï ¿
20 8
68 7
ĠÄ ·
0 33
6 57
6 73
Ġ 50
Ġ 70
99 1
94 7
ĠÂ ¶
eb b
ce s
ðĿ Ķ
Ġtra um
a ef
c da
m a
á Ŀ
12 5
34 4
22 1
69 8
28 7
ec d
Ãł Âª
ÄłÄł ÄłÄł
a db
a ff
d o
75 1
24 3
Ġa re
ĠÄ §
ĠÄ µ
2 73
9 35
f db
Ã ħ
Ġ 80
Ġ ÅĢ
09 5
26 3
ec b
ea fb
ĠÄ Ń
06 1
ðĲ ĵ
Ġr es
] .
d fb
f dd
â İ
20 2
ĠÄ ©
ĠÂ ¹
aa aba
ÃħÄ ¤
2 53
9 53
I T
u c
Ġ 78
Ġ en
29 5
ĠÄ ³
ĠÄ »
eb c
a ed
ĠÂ º
fa f
Ġu s
ĠÃ¢Ä¹Ä® Ãł
d da
f cf
v as
â ı
Ġ qu
22 6
22 7
26 1
92 3
96 1
02 1
Ġs h
0 15
c ef
p on
66 1
98 7
ĠÄ °
8 57
9 31
b da
ä ¶
Ġ Åĥ
44 5
42 7
64 3
ĠÄ ¿
04 7
cc e
ðĿ Ĵ
Ġd o
aaaba cada
Ġ 33
66 4
Ã¡Ä ª
04 5
re mo
ic ro
---- ----
t w
à º
á ©
89 0
ĠÄ ½
fa a
âĹĮ â·
ic h
6 77
9 13
b ed
d ing
e eb
f da
f cb
ca c
er e
on o
ĠÄ ¯
9 55
b db
c dd
m s
88 7
88 8
99 5
24 6
09 8
ĠÄ ¹
df d
fu sion
aaabacada eafb
i a
40 9
22 8
46 5
ĠÄ «
ĠÂ ´
04 1
ba b
0 53
c fb
p o
à ł
60 2
48 4
82 5
ĠÄ ±
ÃĤ Âª
ðŁ ħ
sac remo
a cb
90 2
48 3
28 4
ĠÂ ¾
Ġf rom
Ġi l
og en
sacremo ses
0 73
6 37
I N
42 5
Ã¡Ä ¼
ĠÂ »
Ã¢ Ä¦
Ġ es
80 4
66 7
Ã¡Ä ³
Ã¡Ä ´
Ã¡Ä µ
Ã¡Ä ¶
Ã¡Ä ·
Ã¡Ä ¸
Ã¡Ä ¹
Ã¡Ä º
ÃªÄ ¢
ÃªÄ ¤
ÃªÄ ¥
ÃªÄ ¦
ÃªÄ §
ÃªÄ ¨
ÃªÄ ©
ÃªÄ ª
ÃªÄ «
ÃªÄ ¬
ÃªÄ ®
ÃªÄ ¯
ÃªÄ °
ÃªÄ ±
ÃªÄ ²
ÃªÄ ³
ÃªÄ ¶
ÃªÄ ·
ÃªÄ ¸
ÃªÄ ¹
ÃªÄ Ń
92 5
08 1
ðĲ ²
ðĲ ³
Ġne l
6 33
b fb
p s
à ·
á Ń
â ŀ
Ġ 29
Ġ Åģ
84 3
98 1
ĠÂ ½
0 71
5 33
8 46
â ¸
49 9
44 4
62 1
ba e
f or
n s
r ef
â ¦
Ġ 40
Ġ 35
Ã¡Ä ®
P Y
à ¼
Ġ 37
Ġ 31
Ġ ÅĤ
Ã¡Ä ²
Ã¡Ä »
Ãª Âª
Ãª ÅĢ
ĠÂ ¿
df c
ica l
0 35
f ca
p l
90 1
Ã¡Ä Ń
92 1
08 3
2 77
b dd
c db
z i
à µ
99 7
ed e
ĠÂ §
02 3
fa d
ba bb
dc d
ment e
H E
88 4
24 7
84 1
ff er
4 73
n on
Ġ ÃĥÂª
da ta
ĠÂ °
de e
ĠPy Object
gi ogen
8 15
a ra
c r
Ġ 68
08 7
ðĲ ĳ
Äł Ãĥ
Ã¡ ÅĢ
26 5
ĠÄ ¾
ba d
cf c
ÃĥÄ «
N T
b l
Ġ fa
89 3
Ġa pp
ba a
Ġn o
âĹĮà £
.. \
k ing
n t
Ġ 64
Ġ 77
06 3
db eb
ee e
Ġv er
0 57
f df
â Ł
69 7
ef b
ĠÄ ²
bb b
d ea
t he
Ġ "
Ġ 51
29 8
ĠÄ ¦
eb e
Ġn py
Ġdel la
Ã¡Ä ½
ÃªÄ £
ĠÄ ª
Ġe t
ÃĥÄ³ ÃĦ
Ġ H
Ġ 75
80 2
ĠÄ ®
ĠC T
ĠI n
4 71
b ea
b cf
f fa
f cc
l d
â Ń
Ġ ed
ba c
ff b
ent s
2 57
d ec
Ã Ŀ
à §
ê «
Ġ Ċ
ĠÄ ¢
Ã¢ Âµ
a ca
a dd
g ht
â §
ÃªÄ ¾
ff c
babb bcb
9 71
v a
Ã ĺ
09 4
ĠÄ ¶
eb f
cb b
fc d
A R
n o
à ³
Ã¡Ä «
Ã¡Ä ¬
28 5
ef e
96 5
96 7
ce e
ab le
Ã£Ä ¢
Ġwh ich
d cc
t s
u re
Ġ 53
09 3
Ġa ll
fa e
ÃĥÄ ·
ri ght
Ġper m
a df
c df
v al
ł ðĹ
cf d
ÃĥÄ §
Ġma y
3 17
c ec
c lu
f dc
t xt
ĠÄ º
at ed
babbbcb dbeb
2 71
f ea
f ce
¡ ðĹ
¢ ðĹ
£ ðĹ
¤ ðĹ
¥ ðĹ
¦ ðĹ
§ ðĹ
¨ ðĹ
© ðĹ
ª ðĹ
« ðĹ
¬ ðĹ
® ðĹ
¯ ðĹ
° ðĹ
± ðĹ
² ðĹ
³ ðĹ
´ ðĹ
µ ðĹ
¶ ðĹ
· ðĹ
¸ ðĹ
¹ ðĹ
º ðĹ
» ðĹ
¼ ðĹ
½ ðĹ
¾ ðĹ
â ¤
â ¥
â ¨
â ©
â ª
â «
â Ī
â ī
â Ĭ
â ĭ
Ġ 24
Ģ ðĹ
ģ ðĹ
Ĥ ðĹ
ĥ ðĹ
Ħ ðĹ
ħ ðĹ
Ĩ ðĹ
ĩ ðĹ
Ī ðĹ
ī ðĹ
Ĭ ðĹ
ĭ ðĹ
Į ðĹ
į ðĹ
İ ðĹ
ı ðĹ
Ĳ ðĹ
ĳ ðĹ
Ĵ ðĹ
ĵ ðĹ
Ķ ðĹ
ķ ðĹ
ĸ ðĹ
Ĺ ðĹ
ĺ ðĹ
Ļ ðĹ
ļ ðĹ
Ľ ðĹ
ľ ðĹ
Ŀ ðĹ
ŀ ðĹ
Ł ðĹ
Ń ðĹ
ðĺ ¡
ðĺ ¢
ðĺ £
ðĺ ¤
ðĺ ¥
ðĺ ¦
ðĺ §
ðĺ ¨
ðĺ ©
ðĺ ª
ðĺ Ģ
ðĺ ģ
ðĺ Ĥ
ðĺ ĥ
ðĺ Ħ
ðĺ ħ
ðĺ Ĩ
ðĺ ĩ
ðĺ Ī
ðĺ ī
ðĺ Ĭ
ðĺ ĭ
ðĺ Į
ðĺ į
ðĺ İ
ðĺ ı
ðĺ Ĳ
ðĺ ĳ
ðĺ Ĵ
ðĺ ĵ
ðĺ Ķ
ðĺ ķ
ðĺ ĸ
ðĺ Ĺ
ðĺ ĺ
ðĺ Ļ
ðĺ ļ
ðĺ Ľ
ðĺ ľ
ðĺ Ŀ
ðĺ ŀ
ðĺ ł
ðĲ °
ðĲ Ĥ
ðĲ ĺ
ðĲ Ļ
ðĲ ļ
ðĲ Ľ
ÃĥÄ ©
ðĴ Ģ
ðĴ ģ
ðĴ Ĥ
ðĴ ĥ
ðĴ Ħ
ðĴ ħ
ðĴ Ĩ
ðĴ ĩ
ðĴ Ī
ðĴ ī
ðĴ Ĭ
ðĴ ĭ
ðĴ Į
ðĴ į
ðĴ Ĳ
ðĴ Ĵ
ðĴ ĵ
ðĴ Ķ
ðĵ Ģ
ðĵ ģ
ðĵ Ĥ
ðĵ ĥ
ðĵ Ħ
ðĵ ħ
ðĵ Ĩ
ðĵ ĩ
ðĵ Ī
ðĵ ī
ðĵ Ĭ
ðĵ ĭ
ðĵ Į
ðĵ į
ðĵ İ
ðĵ ı
ðĸ ¡
ðĸ ¢
ðĸ £
ðĸ ¤
ðĸ ¥
ðĸ ¦
ðĸ §
ðĸ ¼
ðĸ ł
ðĶ Ĳ
ðĶ ĳ
ðĶ Ĵ
ðĶ ĵ
ðĶ Ķ
ðĶ ķ
ðĶ ĸ
ðĶ Ĺ
ðĶ ĺ
ðŀ ¡
ðŀ ¢
ðŀ ł
ðĽ °
Ġtum our
9 75
9 77
I ter
e m
Ã Ĺ
à ¡
Ġ 22
en ce
ca cb
a ec
a bb
d cf
i z
u lar
¿ ðĹ
ba f
di f
babbbcbdbeb fc
b df
v i
Ġ 66
Ġ 69
Ġ 48
db a
db d
af d
ÃĤÂº ÃĦ
0 31
r ee
t t
Ġ J
Ġ 62
Ġa d
94 5
02 7
ðĲ İ
ff d
Ġp i
af e
l ow
o id
ed d
ca a
aa a
bf d
bf e
ÃĥÄ² ÃĦ
6 53
c om
i le
p h
ca b
ca f
04 3
ðĲ Ĭ
cb f
ab d
at o
a fa
b dc
c eb
i b
p df
09 7
da a
ef a
ĠÂ ¸
db e
ðĲ Ģ
om a
Ġca n
Ġst u
c ea
f ec
n e
r c
Ġ U
Ġ 89
Ġ 57
ÃªÄ µ
âĹĮ Ö
it Ãł
at a
b de
db f
cb e
ab e
Ġo ther
b ec
d de
f ee
â ®
ê £
Ġ 42
ÃĦ ÅĤ
ðĲ ĥ
ðĲ Ĵ
dd f
bc d
0000000000000000000000000000000000000000000000000000000000000000 0000000000000000000000000000000000000000000000000000000000000000
tw are
â Ĳ
cc f
gra m
s er
z a
à ¯
Ġ 44
Ġ 55
Ġ 73
ed a
ĠÃ ¨
ca d
ef c
ðĲ ¦
dd d
Ġde i
Ġper fusion
R I
a cf
c ba
e ea
g e
l o
à ¢
Ġ 49
Ġ 88
ed f
Ġa rray
da b
ef d
Ã£Ä £Ä
ĠT he
e ec
i x
en er
da f
âĹĮ Ù
dd c
aa c
ðĳ «
ac d
ðĸ ¨
Ã¢Ä¹Ä® Ãª
âĹĮá ·
Ġun der
u p
v id
Ġa c
Ġa r
Ã¯ Âµ
ab f
our ce
m e
Ġ 71
da e
ðĲ Ķ
fb e
or t
ti ve
bb e
ðĳ Ĳ
ðĳ Ĵ
ad i
Ġr is
ðĽ ±
int p
b ce
Ġ 60
cb d
Ã ¹
Ġ Y
ÃªÄ ½
ĠÂ ¼
ðĲ ľ
ðĲ ł
ff e
fb b
aa b
df e
ðĳ Ģ
ðĳ ĸ
ðĸ ¬
Ġren al
Ġval u
d fa
ed c
db c
ðĲ į
Ġp o
ist rib
of tware
a de
c de
d ce
ðĲ ¬
ab c
ÃĥÄ µ
ðĳ £
ðĳ ĺ
an ti
Ġtraum a
a ea
a eb
a ee
ï ·
Ġ er
aa e
Ġi f
res ent
ÃħÄ£ ÃĥÂªÃĦ
a ce
f de
á Ł
da d
cc b
ðĲ ħ
ðĳ Ĩ
ðĳ Ĭ
Ġg ra
ÃħÄ¢ ÃĥÂªÃĦ
Py Array
ÃĥÄ¬ ÃĦ
) :
Ã ŀ
ed b
da c
cc d
bb c
Ġc ol
Ġin ter
âĹĮá ©
ag e
8 71
Ã ľ
Ġ 46
ca e
ðĸ ½
ðŀ º
Ġv oid
sion s
per i
p ref
Ã Ļ
Ġ 28
Ġ FA
ff f
cb c
Ġcon t
Ġh a
b fc
b rea
Ã Ł
Ġ 82
Ġ le
ð¬ º
Ã¡Ä ¿
ðĺ «
aa d
ÃĥÄ ¶
ðĳ Ĥ
ðĳ Į
Ġo bject
ou t
ðŀ ¸
b eb
b ee
c he
i al
Ã¡Ä ¾
Ġs p
non brea
pref ix
u bl
Ġ 83
ccc dc
unc tion
nonbrea king
) ,
à Ń
Ġ K
Ġ 61
en d
ec fd
in e
ou ld
ĠT C
O R
b ba
py Iter
Ġv as
Ġu se
ag ing
D es
a dc
f eb
u s
Ġ 23
Ġ 47
Ġ 21
Ã¡ ÅĤ
al l
ÃĥÂªÃĦÂª ÃĦ
ÃĥÂªÃĦÅĥ ÃĦ
cacb cccdc
Ġpi Ã¹
o d
v ey
ðĲ ¤
ðĲ Į
ðĳ ¢
ðĳ °
ðĳ Ī
Ġcon st
ÃĦÂµ ÃĥÂªÃĦ
ÃŃ ÅĢ
_ _
b le
c dc
h is
h an
r ed
â ģ
ï ¸
Ġ V
il ity
ĠO R
) .
N U
a fc
c fa
v en
Ġ ea
aa f
ÃĥÄ ¦
ðĴ ĳ
ðĵ Ĳ
Ġm ea
Ġn on
âĹĮà ł
ÃĥÄ¨ ÃĦ
cacbcccdc ecfd
t ype
Ġ 84
bb d
cf e
la tion
ig n
p t
Ġ 01
ðĳ ļ
Ġm icro
Q y
c i
p ut
á ª
fb d
an giogen
Ġf ol
ar y
ĠN PY
rea t
uc t
Q x
à ±
ec tion
ðĺ Ł
ðĲ ¡
fb f
Ġs ono
ð¯ ¨
ĠP ro
Ġco de
Ġ 03
Ġ ro
ĠÃĤ Âµ
t um
ðĲ ¨
Äł p
fb c
ÃĥÄ °
Ġin j
Ġin di
Des cr
g n
l in
Ġ 96
Ġ ba
ÃĥÄ ±
Ġm ed
Ġn um
ĠA N
ĠÃĤ Âª
ĠÃĤ Âº
c ol
u ra
Ġ 86
or s
bb f
ÃĦÂµ Ãĥ
ÃĦÂº ÃĥÂªÃĦ
= =
u ri
Ġ AE
Ġ 26
Ġ 94
âĹĮ Ü
ig ht
if ica
l s
à ©
de s
Ġc or
ðĳ Ħ
Ġun a
ver ed
val u
] ,
a pi
Ġ 90
in oma
Ãł Âº
ðĿ Ł
Ã¢Ä¹Ä® Ã¢
Ġmo dif
min er
ÃĥÄ· ÃĦ
a p
Ġ CB
Ġ 41
Ġa t
da db
ðĲ Ń
Äł s
st ra
am e
pdf miner
Ġstu di
Ġ FD
Ã¡Ä £
ÃĥÄ ª
ĠT HE
ÃħÄ¢ Ãĥ
Ġcopy right
E S
G et
g h
y s
Ã Ľ
à «
à »
Ġ 63
Ġ 25
dc dd
âĹĮà ¥
Ġy our
e g
l un
u st
Ã ¨
á ³
Ġ 09
Ġ 08
Ġ 93
ĠÃħÄ ¥
a py
ï «
âĹĮ ðŀ
ðĳ ĭ
Ġs et
an o
âĹĮà ½
ÃĦÂµ ÃĦ
ÃĦÂº Ãĥ
PyArray Object
E R
I L
Ġ 67
Ġ* *
Ä¢ Ã¡
il es
ÃħÄ£ Ãĥ
n i
o ca
p ar
Ġ 06
Ġ 87
Ġa f
es ion
ol s
ðŀ ¹
ÃĦÅĥ Ãĥ
ĠO F
IN G
for m
Ġha ve
âĹĮðŀ Ģ
c er
c ular
i ed
i ll
k e
p et
Ã ©
Ã ĸ
Ã¢ Ä¤
âĹĮ Û
Ġp at
Ä¤ Ã¡
ÃĦÂª Ãĥ
ĠÃħÄ ¢
ÃĥÄ« ÃĦ
U T
p le
s ed
Ġ AA
Ġ 65
Ġ 43
Ġ ce
ÃªÄ º
Ġa g
it or
ent e
tra st
F unc
Ã ¤
Ġ FE
Ġ FC
Ġ 95
Ãª ÅĤ
AF CE
ĠI N
qu i
ul ti
ĠÃħÄ £
a zi
i e
z z
Ã £
Ã ¥
Ã ¦
Ã §
Ġ 98
Ġ BF
ðĲ «
ðĲ ķ
ðĳ ħ
it er
ðĸ ©
th on
ĠÃ¢Ä¹Ä® Ã¡
Ġco vered
Ġit er
Ġfol low
reat ment
b er
m on
à ¹
Ġ ef
Ġ 27
ĠÃ Ń
at er
tion al
Ä¦ Ã¡
Ä£ Ã¡
Ä¥ Ã¡
ment o
Ġsu ch
Py Object
Ġter ms
-------- --------
rc inoma
S E
a ri
ĠÃĦ Åĥ
an g
Ġl icense
Ġcon di
Ġcon vey
ĠY ou
dadb dcdd
R A
i ve
p ri
Ġ AB
Ġ 99
Ġ 45
Ġ 97
in ter
Äł a
âĹĮá Ģ
Ä² Ã¡
Äª Ã¡
ut e
L L
P L
i o
à ¿
Ġ CE
ðĳ ľ
Ġp ara
ĠÃĦ Âµ
Ġan ti
Ġf unction
Ġr ef
ou s
Ä¬ Ã¡
Ġmo de
u tion
Ġ CA
Ġ 04
Ãĥ ÅĤ
Âª Ã¡
en za
ĠÃ Ī
Ġa b
Äł m
Ġp ati
âĹĮà ±
Ä§ Ã¡
Ä´ Ã¡
to ols
Ä« Ã¡
ÃĦÅĥ ÃĥÂªÃĦ
res pon
adi ol
z e
é ¿
Ġ 81
Ġ has
ea r
Ġa cc
es e
Ġp ri
ðĸ Ń
ĠC O
Ä¨ Ã¡
ĠI f
âĹĮðĳ ²
ÄłÄłÄłÄł ÄłÄłÄłÄł
Ġus ed
ener al
ubl ic
C on
e l
e x
g s
m en
r u
â ĳ
Ġa dd
Ġs oftware
ĠÃĥ ÅĤ
Ġm on
Ġr ight
Ġdi ffer
ta ti
ÃĦÂº ÃĦ
ig h
Ġno ti
Ġver sion
ÃĥÄ§ ÃĦ
ÃĥÄ© ÃĦ
dadbdcdd ded
T I
u al
â ¼
â ½
â ¾
Ġ CC
20 10
62 76
ĠÃ «
ĠÃ ¬
ĠÃ Ĭ
ĠÃ Ĳ
ĠÃ ĳ
âĹĮ Ì
Ä® Ã¡
Ġs ign
ĠÃªÄ £
ĠÃªÄ ¤
ĠÃªÄ ¥
ĠÃªÄ ¦
ĠÃªÄ §
ĠÃªÄ ¨
ĠÃªÄ ©
ĠÃªÄ ª
ĠÃªÄ «
ĠÃªÄ ¬
ĠÃªÄ ®
ĠÃªÄ ¯
ĠÃªÄ °
ĠÃªÄ ±
ĠÃªÄ ²
ĠÃªÄ ³
ĠÃªÄ ·
ĠÃªÄ ¸
ĠÃªÄ ¹
ĠÃªÄ ¿
ĠÃªÄ Ń
ĠÃ¡Ä ¦
ĠÃ¡Ä §
ĠÃ¡Ä ¨
ĠÃ¡Ä ©
ĠÃ¡Ä ª
ĠÃ¡Ä ³
ĠÃ¡Ä ´
ĠÃ¡Ä µ
ĠÃ¡Ä ¶
ĠÃ¡Ä ·
ĠÃ¡Ä ¸
ĠÃ¡Ä ¹
ĠÃ¡Ä º
ĠÃ¡ Âµ
Äµ Ã¡
ĠÃ° Âª
ĠÃ° Ä¹
ĠÃ° ÅĤ
Ä³ Ã¡
ÄŃ Ã¡
ĠÃ£Ä §
zion i
S T
x is
â º
Ġ k
Ġ CD
Ġ AC
Ġ CF
Ġ 92
Ġ ess
58 90
75 54
ĠÃ Ĩ
ĠÃ ī
09 39
er s
Ã£Ä ©
ĠÃªÄ ¢
ĠÃªÄ ¶
Ġl esion
ta in
Ġre t
Ġ AD
Ġ 85
Ġ eff
39 89
52 99
10 29
64 59
ĠÃ ı
86 12
ea s
ðĲ ¢
Ġth er
Ġp res
ĠÃªÄ ¼
ĠÃ¡Ä ²
Ġd is
Ġde ll
Ä¶ Ã¡
ĠÃ£Ä £
ĠÃ£Ä ¥
dadbdcddded fe
m l
79 90
64 79
45 18
ĠÃĦ Âº
Ġm an
ĠÃ¡Ä ®
ĠÃ¡Ä »
at or
Ġe m
âĹĮà ©
ĠÃ¯ Åĥ
Ä¯ Ã¡
vid ed
c um
c ri
i pro
Ġ FB
Ġ ec
10 69
78 53
60 37
55 39
ea eb
Ã¢ Ä´
ðĲ Ŀ
97 14
ðĳ ĥ
ðĸ «
Ä¸ Ã¡
Ġu r
per m
Ġch ar
pl es
o se
s am
t y
Ã ĭ
Ġ 91
32 92
24 22
ĠÃ Ķ
Ġt ype
98 74
45 74
ĠÃĦ Âª
ĠÃ¡Ä Ń
ÅĤ Ã¡
ic o
ol o
Ġr ed
se l
Ġd istrib
Äº Ã¡
ment s
Ä· Ã¡
Ä° Ã¡
Ġfor m
ÃĦÂª ÃĥÂªÃĦ
ĠCT P
Ġcondi tions
ipro ps
c rea
e ll
â ¿
Ġ EA
Ġ BE
Ġ 07
72 22
34 98
AB AB
48 60
en ch
ĠÃ ĩ
ĠÃ ĵ
73 10
ðĲ ©
ðĲ ª
Ġin clu
Ġm ag
an ce
ĠÃ¡ Âº
per lun
ĠÃħÄ ¤
Ġsp ec
ĠTC p
Ġindi ca
sam ples
perlun iprops
p ati
u ti
v an
Ġ EE
Ġ AF
38 72
30 11
30 13
74 32
80 62
CE FB
44 80
ĠÃ ļ
on e
or m
Ġp os
ĠÃ¡Ä «
ĠÃ¡Ä ¬
ĠÃ¯ Âº
ĠT his
Ä» Ã¡
Ä½ Ã¡
iz e
A T
I n
R O
U Func
Ġ FF
Ġ DE
Ġ DA
32 30
59 76
50 16
44 79
AC CA
in i
ðĲ ģ
Ġm ust
ĠÃ¡Ä ¼
Ġe xt
Ġr ec
Ä© Ã¡
ur g
ĠS ource
ĠÃ£Ä ¤
ĠÃ£Ä ¦
Ġne i
ĠĠĠĠĠĠĠĠĠĠĠĠĠĠĠĠ ĠĠĠĠĠĠĠĠĠĠĠĠĠĠĠĠ
up tools
ĠÃŃ Åģ
2 790
l ica
t ing
v o
Ġ EC
12 76
ĠÃ İ
de x
âĹĮ Ø
âĹĮ Þ
âĹĮ ê¥
Ä¹ Ã¡
âĹĮà «
Ġpro vided
op o
Ġim aging
co la
Ġres pon
d uct
s s
56 30
52 68
36 39
36 89
30 32
17 19
Ã¡Ä ¯
ED FD
ĠÃ ķ
Ġt ec
er o
âĹĮ Í
Ġs i
Ġp re
is e
âĹĮá ģ
ĠÃª Âª
Ä¼ Ã¡
Ä± Ã¡
ĠN pyIter
Ġre p
Ġit s
Ã¢Ä¹Ä®Ã Ļ
Ġnel la
Ġvalu es
uri es
respon ding
Ġmon itor
f ica
r y
v ati
Ġ -
39 11
52 18
59 18
30 54
74 76
CB AA
ĠÃ¡Ä ±
ĠÃ¡ ÅĢ
Ä¿ Ã¡
si gn
Ġda ta
Ġsh ow
Ġset uptools
S ED
o py
r m
â »
Ġ DB
72 90
12 00
79 75
15 59
Ġt reatment
DF AC
25 79
Ġth an
ðĴ İ
is h
Åĥ Ã¡
ĠÃ¡Ä ½
Ġl i
ÃĥÄ¶ ÃĦ
api a
pet to
Ġref er
r it
r ing
Ġ 02
11 32
39 15
52 29
20 89
89 79
in f
Ġa xis
81 39
Ġp azi
ĠÃ¡Ä ¥
as t
Ġi d
âĹĮá ¬
âĹĮá ®
im it
d y
g en
p ac
Ġ 05
79 06
76 00
76 18
76 60
30 14
50 48
14 56
19 00
78 11
78 02
70 36
20 12
40 49
CD FB
AD EB
75 12
ĠÃ Ĵ
53 00
ec ed
on g
BA CE
âĹĮ ê¨
Ãł Âµ
ti es
Ġs ca
Ġe valu
Ġw ill
ol e
Ġb ut
Ġcon trast
Ã¢Ä¹Ä®Ãł ÅĤ
Ġh igh
Ġpro gram
Ġon ly
Ġval ori
olog ical
Ġdo es
ÃĥÄµ ÃĦ
prefix es
Ġcor re
Ġaf ter
Ġpati ents
d u
t ti
ê Ł
72 44
12 94
34 56
34 89
36 58
30 19
50 38
14 88
10 41
29 10
68 80
55 34
77 36
24 36
46 54
BE DD
ÃĥÄ ´
Ġs o
Âº Ã¡
Ġm in
at ure
Ġr i
ou n
ĠC or
Ġal la
ĠPyArray Object
Ġperm is
ĠPro gram
c ir
e xt
i tional
m et
p tion
t to
72 05
60 11
88 49
35 58
42 59
99 39
53 79
EA CD
96 00
43 36
Ãł ÅĤ
Ġan im
la im
Åģ Ã¡
ĠN O
EBB A
Ġtum or
ðŁ Ħ
IT Y
Ġright s
n am
u th
00 52
00 78
11 00
39 66
14 33
19 02
74 59
18 78
66 56
40 62
49 40
88 14
62 34
86 44
in st
96 39
ĠÃªÄ »
ĠÃªÄ ½
Ġe le
ĠÃ¯ Âµ
ĠC om
Ä¾ Ã¡
il itÃł
so ci
tic o
Ġinj uries
F ig
T HE
d ll
p res
t en
32 12
39 00
39 29
36 138
30 90
20 54
89 20
89 96
49 13
AB ED
68 10
64 76
ĠÃ Ŀ
âĹĮ êĻ
93 19
ti me
ĠÃ¡Ä °
ro l
Ġan giogen
ĠPy UFunc
ĠL I
ĠG NU
ĠG eneral
ther apy
Ġra di
Ġsh ould
peri ment
ÃĥÄ± ÃĦ
/ /
c or
i j
m ag
n er
r en
t ta
00 32
32 11
72 01
12 99
79 26
34 83
58 70
30 57
14 74
10 16
19 50
74 82
CE BE
FD AC
17 11
37 59
75 14
75 73
64 19
57 79
26 19
53 12
ec k
04 19
Äł t
03 72
Ġs om
ĠÃªÄ µ
Ġm l
ic i
âĹĮà º
ĠC on
ar k
Ã° Ä³
Ġren ale
Ġtumour s
Ġperfusion e
Ġmea ns
ĠAN Y
ap e
: //
B AAB
B FDD
C L
N pyIter
f t
u se
u to
v es
w ith
Ġ EB
Ġ eb
36 20
50 14
19 68
78 74
74 33
Ãĥ ÅĢ
20 76
22 76
AB DD
13 78
DD AE
73 30
86 74
Ġt im
ef ore
06 10
63 39
63 78
45 12
25 00
93 78
or g
Ġs ource
at ing
Ġd opo
ĠÃł Âª
ĠÃª ÅĢ
ur ns
Ġbe en
Ã° Äº
Ġas s
rib ut
IL ITY
\ __
a pp
r ect
Ġ BB
36 54
59 15
14 40
19 89
78 16
78 83
74 48
70 17
17 37
EE AD
DD FD
FF AE
31 00
82 58
46 48
84 66
ec on
07 00
es is
ab ility
la s
Ġr ece
py thon
il i
qu ir
ist ra
Ġne w
Ġre qui
ation s
Ġtum ore
Ã¢Ä¹Ä®Ã ĸ
ĠW ork
Ġapp lica
va il
Ġmicro vas
Ġsign ifica
Ġid enti
1 798
C CDD
E AAB
V C
u e
Ã į
Ġ db
00 38
11 14
38 66
34 58
34 69
36 34
16 80
58 69
59 60
10 88
70 12
18 11
29 92
80 70
CD EF
44 10
FE BE
13 12
62 59
37 54
DB BB
33 32
AC FE
FA CE
FA CB
31 70
ðĲ £
97 18
Âµ Ã¡
Ġm ore
ÅĢ Ã¡
ic he
ĠP ublic
ĠÃ¢ Äµ
âĹĮá °
ĠF or
Ġwith out
Ġdel le
ĠÃ£Ä ¨
Ġpar ench
Ġnum ber
Ġpat ent
R et
c t
f unc
m an
Ġ ED
Ġ cb
Ġ cf
00 12
11 66
32 49
56 27
72 52
79 23
34 66
16 38
76 62
30 80
30 43
50 76
50 28
50 98
10 34
19 08
18 44
20 79
29 78
49 28
AA CB
22 10
22 48
35 32
35 72
42 00
42 20
33 59
64 10
en s
26 32
ea l
94 89
Äł l
85 50
âĹĮ ê¦
ti ca
81 58
ÃĥÄ ¼
Åĥ ÃħÄ£
ĠÃ¡Ä ¢
um a
ll y
DFB A
mo dif
ch ar
Ã¢Ä¹Ä®Ã ľ
Ġim p
Ġra pp
Ġtraum i
00000000000000000000000000000000000000000000000000000000000000000000000000000000000000000000000000000000000000000000000000000000 00000000000000000000000000000000000000000000000000000000000000000000000000000000000000000000000000000000000000000000000000000000
Ġfollow ing
Ġrefer ence
O N
V E
b o
d s
d ist
m i
Ã ²
Ġ BA
00 72
00 28
32 68
56 20
56 90
38 80
34 11
36 29
16 33
76 72
76 49
59 99
50 19
19 71
74 72
70 74
20 48
20 99
29 56
89 11
89 80
60 12
60 59
FB DB
AB EE
13 55
17 00
90 80
62 61
68 39
FC FD
57 14
EC AD
53 76
51 78
96 37
BF AC
45 56
45 76
Äł r
43 11
61 56
03 74
91 79
ðĳ ±
Ġo ut
âĹĮà ¸
as s
ur y
DEE C
ĠS oftware
Ã° Ä²
ðĽ ²
Ġtum ori
Ġus ing
ib ra
Ġar ter
ÃĥÄ° ÃĦ
ater ial
Ġspec if
ĠCor responding
2 728
A CEA
m ed
w h
Ġ fb
00 82
32 58
38 32
38 95
12 90
79 59
52 39
36 22
58 85
50 34
10 58
19 66
70 66
18 56
18 50
44 82
13 54
88 56
15 18
17 54
35 39
62 86
37 10
48 49
75 32
33 16
AC CB
64 68
24 50
ED AB
FA FF
57 12
82 14
84 70
73 72
ec ca
EA FC
45 32
65 58
27 11
43 18
83 34
ra n
Ġn u
ĠP RO
611 0
EAE B
si ve
ĠN U
Ġon e
ĠĠĠĠĠĠĠĠĠĠĠĠĠĠĠĠ ĠĠĠĠĠĠĠĠ
con t
AR RA
Ġris petto
sel f
4 696
5 708
8 709
B AAF
E AAC
E FFF
F FDF
F AEC
e en
e ver
g li
m and
p ag
00 48
00 01
12 86
79 41
34 49
36 36
16 68
59 32
59 06
50 58
14 34
10 71
19 12
18 80
29 22
80 23
66 60
60 98
22 58
CE FE
90 91
35 19
37 76
DB DB
75 72
55 11
55 79
64 18
BD CC
73 54
71 58
71 74
ec ess
Ġa uth
Ġt a
CF FC
98 76
DE R
DC FB
Äł in
23 00
23 35
83 78
93 59
95 34
ti m
07 11
03 11
91 58
ðĳ ²
Åĥ Ã¯
Ġin g
Ġm ulti
an t
py cac
Ä¢ Ã¢
ĠÃĥÄ ²
si b
BDB A
mo d
AFE E
Ġca rcinoma
EFE C
Ġco pi
ul t
so ft
Ã¢Ä¹Ä®Ã Ľ
Ġren ali
min istra
icro soft
ĠAN D
Ġstudi es
ÃĥÄª ÃĦ
eaeb eced
B CEB
B CEA
R adiol
T his
U R
c python
f ree
n os
Ġ DD
Ġ ee
32 40
56 56
72 12
38 69
39 14
39 25
54 12
54 88
54 42
79 99
34 72
36 88
30 93
50 74
70 34
29 79
80 66
CD DC
FE FD
FE BD
35 78
68 48
28 54
CC AB
AF CD
in ary
EF FD
Ġt is
96 53
63 14
85 18
43 10
97 70
ti va
Ġth ese
Ġs ize
Ġp resent
ĠĠĠĠ ĠĠ
ĠÃªÄ ¾
di men
âĹĮà §
âĹĮà µ
ol um
ĠÃ¢ Âµ
ĠÃĥÂªÃĦ Âª
ĠÃĥÂªÃĦ Åĥ
py c
Ġl imit
âĹĮá ŀ
919 8
ĠÃĥÄ ¬
Ġh ol
Ġal so
ur n
Ġ11 5
911 6
ati ve
li zz
Ġwh ere
Ġsu b
Ġcom e
Ġqu es
Ġapp ro
han ce
Ġnoti ce
Ġpazi enti
THE R
ĠNU LL
pycac he
8 153
B AAE
D CEB
E ABB
e w
n ot
o bj
p ec
u zione
v ed
w ork
á ²
Ġ EF
Ġ dc
11 12
11 49
32 91
56 89
72 98
38 89
54 36
79 09
52 32
36 77
16 84
59 20
59 82
30 12
50 35
10 26
19 09
18 04
80 38
80 40
80 92
40 90
40 91
89 00
22 00
CE FC
CD DB
13 38
13 18
13 73
17 74
90 34
35 76
AD CB
62 49
68 42
EE CF
77 56
Âª Ã¯
46 19
EC FC
73 38
51 00
in al
Ġa tt
08 19
ðĲ ®
85 70
âĹĮ êª
95 14
21 72
Ġin to
it e
ĠÃ¡Ä ¤
âĹĮà Ń
ĠÃ¢ Ä§
ĠÃ¢ Ä¦
Ä¦ Ã¯
Ä¤ Ã¢
ll o
Ä£ Ã¢
172 69
ith er
ĠÃĥÄ ³
AFB F
679 3
icen s
Ġcom p
iv ed
uc tion
ph y
ÃĥÄ¦ ÃĦ
Ġmed i
Ġiter ator
Con ver
Ġtis su
A L
D ADF
E CEB
F CEA
G H
c ul
i pi
t ter
v is
y nam
Ġ ent
Ġ 760
00 56
00 94
32 36
72 58
38 67
12 11
39 34
54 76
54 18
52 04
34 18
58 36
58 40
76 30
76 27
30 88
30 42
10 70
19 10
18 32
18 40
80 14
AA BA
CD CA
FB CD
44 44
AB CB
AB DA
88 37
90 74
AD ED
37 32
37 34
37 19
DB FC
75 33
33 36
33 58
33 18
09 76
09 84
84 14
73 78
71 56
92 35
94 60
96 10
96 44
63 72
67 50
67 75
45 19
65 52
93 70
47 30
Ġp ot
Ġm aterial
an te
an ces
Ġf iles
st e
Ġde s
Ġb lu
ĠÃĥÄ ¨
EFB D
ĠB V
BDD C
si der
og ra
Ġre g
ir st
gi o
olog y
tw een
age ment
Ġpara met
cum ent
inf o
Ġcopi es
eaebeced ee
4 526
5 155
9 799
A S
F AAB
F rom
T P
U NU
l la
p ara
s h
t or
â ¯
Ġ cc
Ġ ff
Ġ dd
32 34
32 59
32 98
56 40
56 88
72 29
39 91
79 58
36 78
36 83
16 58
76 99
76 269
30 58
30 66
30 22
50 65
10 60
19 54
78 76
70 62
20 69
29 36
29 17
29 64
29 02
80 18
66 66
66 49
89 74
CE EC
FB FC
FB FF
AB ILITY
FD CA
88 26
15 11
17 16
AE CE
33 00
99 69
99 90
55 16
64 58
77 00
BB CF
46 42
BD AE
53 14
in d
EA FF
08 11
06 12
ðĲ ĭ
ðĲ ı
Äł o
eb be
43 74
Ġc ir
Ġc lin
ra nt
ðĳ į
Ġs ul
is ura
ĠÃ¡Ä ¾
Ġn orm
Ä§ Ã¢
Ä§ Ã¯
Ġd ef
Ġb i
797 39
Ä¨ Ã¢
ĠÃĥÄ §
ĠÃĥÄ ©
ĠÃĥÄ «
DDB F
ĠÃ¢Ä¹Ä® Ãª
rea ted
su re
ces s
Ġen d
Ġstu dy
me ter
Ġcol ori
end enti
Ġvas cular
__ \
Ġess ere
rm ac
Ġangiogen esis
ARRA NT
A n
A CEE
C H
D EDC
I S
I f
a y
g g
g u
s so
à ¾
â ĥ
Ġ `
Ġ df
Ġ 792
00 66
00 69
00 90
11 18
11 25
32 64
56 44
72 94
72 67
72 87
12 46
39 76
54 34
54 66
52 10
52 69
36 72
58 44
58 37
59 34
30 29
30 49
14 21
10 25
19 88
19 98
19 94
74 50
74 09
18 90
18 46
20 60
29 44
29 53
80 49
80 44
66 68
66 24
89 78
89 69
89 88
AA DD
AA ED
CE CB
69 44
44 42
AB FC
FE AE
13 10
88 27
AE BC
90 84
62 12
62 80
42 12
68 64
48 00
DB EE
33 38
55 00
24 58
ED FA
57 76
57 19
82 65
26 38
53 50
Ġt ess
CF CD
08 60
06 59
63 36
67 72
65 70
Äł C
Äł P
Äł re
87 58
85 56
âĹĮ âĥ
41 70
97 59
07 19
81 76
03 54
Ġth ose
ĠÃĥ ÅĥÃħÄ£
Ġm e
ol d
Ġr un
st u
Ä¦ Ã¢
âĹĮá ¤
Ġdi ag
Ä¥ Ã¢
ĠÃª ÅĤ
ĠT h
319 9
300 8
710 2
AFB D
ĠÃ£Ä ¢
BEB A
ĠÃĤÂº Ãĥ
Ġmodif y
ES S
ni qu
Ġdiffer ent
Ġtec h
Ġrequi re
Ret urns
hance ment
UNU SED
3 389
7 786
C FCA
D CEE
E FCF
F ABB
M RI
S S
T he
c laim
f y
g an
l er
m p
Ġ <
Ġ DF
Ġ 560
Ġ fac
00 29
11 16
32 79
32 46
32 84
38 54
38 99
12 18
54 96
52 80
36 40
16 29
76 58
30 20
50 32
50 63
14 66
10 72
10 76
74 29
74 42
70 22
20 17
80 50
40 38
40 34
40 43
49 64
AA FD
CE FF
FB AD
AB AA
AB DB
FE AA
13 17
15 00
17 55
AE FE
AE EA
35 75
AD BB
42 55
48 38
75 34
AC AA
64 78
28 40
FF AA
BB AE
24 64
31 39
57 59
57 74
82 68
ĠÃ ħ
26 79
53 59
73 50
51 72
Ġa a
BE DB
04 22
DA FE
DC FE
85 72
85 30
23 72
83 19
81 74
Ä® Ã¢
Ġs ection
ðĸ ®
ĠÃ¡Ä ¿
Ġf ile
Ä¤ Ã¯
Ä¨ Ã¯
Ä¶ Ã¯
Äª Ã¢
ta zione
ĠÃª Åĥ
200 7
Ġu l
ĠÃĥÄ µ
ve l
338 1
500 2
mo stra
179 1
258 7
350 4
Ġas soci
Ã¢Ä¹Ä®Ã ŀ
ĠW ARRANT
ÄłÃĥ Åĥ
Ġperm eab
com mand
angiogen ic
ĠÃĤÂª Ãĥ
gh ij
Ġeff ect
Ġevalu ation
Ġrapp resent
3 169
6 540
A FCC
C AAB
C ABA
E FDE
I s
L icense
M A
o ve
p en
r uct
w ise
Î Ķ
Ġ ,
00 55
11 84
32 43
56 74
56 94
38 60
38 92
12 40
12 06
39 56
39 40
54 14
79 79
79 43
52 34
52 09
52 96
34 92
16 24
58 74
58 66
58 01
76 26
59 72
59 26
30 84
14 09
10 56
78 20
78 60
78 21
70 32
70 38
70 54
70 14
70 87
70 95
20 22
80 29
40 18
49 48
49 84
AA AE
AA EA
22 83
CE DB
44 38
88 38
88 54
88 45
35 11
68 72
48 89
AC FB
28 11
28 48
EB CB
EB AC
ED CE
82 52
82 66
46 89
ĠÃ ŀ
ĠÃ Ł
BD EB
84 89
73 16
86 13
86 17
Ġa vail
Ġt ion
92 12
98 18
08 74
02 13
BF AB
fa ce
63 32
63 18
45 58
Äł c
Äł d
Äł pro
87 16
25 34
43 34
95 76
21 74
03 12
Âµ Ã¯
ac h
is i
ae m
ro w
an e
an crea
Ã¢Ä¹Ä® Ã¡Ä¢
ĠÃ¡ ÅĤ
Ġf ree
Ġf irst
Ġr id
Äµ Ã¢
Ġl y
ĠA n
818 7
âĹĮá ¯
Ä´ Ã¢
Ä¶ Ã¢
711 4
Ä³ Ã¢
Ä¸ Ã¢
ĠT O
ÄŃ Ã¢
Ä· Ã¢
Ġor der
Ä¬ Ã¢
Ä¯ Ã¢
380 34
Ä° Ã¢
754 3
156 7
400 6
Ġg li
ĠÃ¢Ä¹Ä® Ã¢
249 5
Ġbe tween
080 1
842 4
yp es
tic ular
.. /
po st
Ġea ch
ĠÃĤÂµ Ãĥ
eg g
Ġther apy
cola ri
Ġanim al
ribut or
1 704
A CBC
B AAA
D AAC
D AEB
k l
l ess
r ec
r is
r ic
u i
Ġ '
Ġ 728
Ġ 704
Ġ enti
00 16
00 87
11 40
32 42
56 77
72 25
38 68
38 48
12 10
39 58
39 78
54 19
52 36
34 09
34 27
36 66
16 00
16 35
59 78
59 77
59 61
30 72
30 31
30 67
50 54
50 70
14 20
19 79
19 74
78 90
78 43
74 18
74 90
70 78
80 51
66 18
89 18
89 29
49 11
49 54
CD CB
69 58
CB AE
15 76
15 19
AE FB
62 14
37 11
75 39
75 52
75 58
75 70
FC CB
33 14
33 70
99 62
55 59
55 57
64 32
77 38
BB AC
ED AF
31 36
ĠÃ ĺ
86 80
Ġt endenti
BC CE
DE CD
DE AF
06 55
63 56
63 16
65 72
Äł ÃĥÂªÃĦ
Äł ÃĤ
25 50
23 59
âĹĮ ï¸
61 34
05 54
91 39
es i
Ġs er
Ġp red
Ġw as
Äµ Ã¯
Ġv olum
554 9
Ä² Ã¢
Äº Ã¢
Ä¥ Ã¯
Ä© Ã¢
Ä« Ã¢
ĠF OR
358 3
Ä¼ Ã¢
ĠÃĥÄ ¦
ĠÃĥÄ ª
EAE C
718 7
Ġh tt
268 5
819 7
940 5
Ġpro duct
966 3
Ġne ed
011 2
252 7
ow ever
Ã¢Ä¹Ä®Ã ĺ
ðŁ Ĩ
Ġter apia
ĠÃĥÂª ÃĤÂª
ubl ish
tum our
pri ate
Ġtim e
ynam ic
eaebecedee eff
" ,
' s
2 320
2 757
4 369
8 528
9 569
B CED
B ADC
C FDE
D ACC
E ADC
E ABD
F FDE
U D
a zione
o de
p os
p ts
p end
v ent
Ġ âĢ
Ġ 368
00 36
11 75
32 90
56 18
56 55
56 23
72 40
72 49
38 46
38 08
39 46
54 20
79 36
79 30
52 52
52 44
16 89
76 34
76 19
76 66
76 69
30 15
30 82
50 49
14 30
14 18
14 99
74 88
70 39
70 48
18 19
18 27
66 93
49 34
22 16
CD DE
FB AA
CB CA
CB DE
44 49
44 53
FD AA
88 12
88 84
15 71
17 38
17 39
62 58
68 00
Ãª Åģ
48 66
DB AB
75 38
75 13
AC AB
DD FC
EB EC
31 59
57 39
82 72
82 64
BD AC
09 38
53 16
73 17
86 11
86 76
Ġt i
98 10
08 22
DE FB
02 59
DC CB
27 70
Äł f
85 58
85 77
43 79
95 10
47 34
47 10
ti al
01 56
Ä® Ã¯
ra vas
Ġs econ
Ġp u
it a
ĠÃªÄ º
Ġm et
Ġm isura
la y
la re
Ġl ow
Ġl oca
he ther
ĠÃł Âº
760 34
711 1
Ä¸ Ã¯
Ä· Ã¯
Ä¾ Ã¢
Ä» Ã¢
716 3
200 4
300 14
ĠÃĥÄ ¶
372 5
332 11
510 4
376 7
AFB E
sion e
Ġh an
449 8
176 6
per fusion
579 5
ĠS U
839 8
Ġma ke
Ġwh en
Ġex am
Ġpar ticular
Ġsh all
Ġcan cer
Ġmicro cir
Ġinj ury
uri a
Ġce ll
Ġmag gi
Ġrespon se
quir ed
rant y
1 522
2 164
3 560
4 799
4 704
8 529
8 304
9 000
A CDA
A FCF
C FDF
C ACA
D CDF
D CEA
E CBB
K AT
M E
O F
V I
c u
k o
t u
Ġ 384
00 07
11 20
32 29
32 77
32 45
56 28
56 02
72 74
72 48
72 92
38 70
38 15
38 37
12 91
54 79
54 30
54 93
54 47
79 88
52 79
52 77
34 34
16 10
58 76
58 71
58 67
50 15
50 68
14 16
14 28
14 04
14 93
10 24
19 58
19 44
78 10
78 99
78 71
74 74
70 60
70 27
18 58
80 52
66 20
40 94
AA AF
22 34
22 20
CE CD
CE BB
CD BD
FB EE
44 70
44 64
AB FD
FE CC
13 00
13 59
88 79
88 86
15 58
AE CD
AE AB
AE DC
90 16
35 70
68 78
48 30
DB EB
75 00
33 72
99 87
99 23
DD AB
DD EE
28 70
FF CD
FF AD
24 60
ED CC
ED EC
31 50
82 78
ĠÃ Ĺ
ÃªÄ ´
EC FD
BD CE
73 13
86 70
71 78
in a
in s
er y
CA FA
94 50
da tion
DF AB
04 66
BC AB
06 34
DC AE
BA CB
67 31
Äł n
25 16
âĹĮ ê¤
83 59
83 15
Ãł Åĥ
47 39
05 76
07 14
81 38
81 5229
Âº Ã¯
Ġo per
ro u
Ġw ar
ĠP S
Ġde ter
ar gs
ll ed
554 4336
Ä£ Ã¯
312 0
Ä¿ Ã¢
Ä½ Ã¢
330 5
556 1
556 3
319 2
500 4
770 3
BDB D
mo therapy
AFE B
460 6
478 7
âĹĮðĳ Ħ
264 1
ĠG CC
Ġdo cument
Ġapp ly
Ġperm it
Ġgra n
Ġgra do
han ced
---------------- ----------------
Ġlesion i
opy right
Ġhigh er
Ġnu ances
dimen sions
Ġavail able
1 529
1 502
2 696
2 384
4 769
4 771
6 782
8 522
A FDC
B FCA
D CDC
D FFA
E AAD
E AAF
W AR
j or
n ey
v ol
Ġ 768
Ġ 360
Ġ 520
Ġ 157
00 49
11 69
32 52
32 10
32 74
32 70
56 58
56 65
38 35
54 16
79 34
79 29
52 66
52 62
52 31
52 86
52 23
34 57
36 02
36 87
58 10
58 21
76 86
76 98
76 06
59 12
59 79
59 90
30 36
30 46
19 60
19 42
78 69
78 94
74 35
74 92
70 72
70 59
70 61
18 00
18 98
18 97
29 20
29 62
66 88
66 17
40 100
89 35
49 14
49 07
AA FC
AA BE
AA DC
60 54
60 14
22 14
CD CD
CD FC
FB AF
69 69
69 68
69 48
CB CD
CB CF
AB BB
FE DD
FE FF
FD EF
13 76
13 37
13 53
17 32
17 58
AE AA
90 70
35 12
35 10
AD AA
62 48
37 00
68 12
68 54
48 40
48 42
48 28
75 11
75 36
75 77
33 50
99 46
99 83
77 11
77 19
77 17
28 50
28 89
BB CA
CC AD
24 49
57 50
82 63
46 58
46 14
ĠÃ ľ
ca lar
73 52
51 58
Ġt em
CA FC
CF FD
94 33
08 59
08 24
04 29
DE AE
06 37
02 40
63 569
67 38
67 34
65 34
65 19
27 34
25 56
âĹĮ ×
41 50
83 11
21 00
05 16
07 12
81 70
Ä¹ Ã¯
ĠĠĠĠ ĠĠĠ
Ġo w
Ġo ffer
ĠÃ¡Ä ¯
at uria
ÅĢ Ã¢
Ġr u
Ġl o
Ġcon sider
ect ed
âĹĮá ³
Ä¢ Ã¯
Ä¯ Ã¯
Ä± Ã¢
ica tion
ĠÃĥÄ ·
758 9
100 5
772 9
EAE D
376 4
Ġg ener
FFE B
218 5
336 4
629 8
440 38034
EFE B
099 9
rea ter
250 3
052 79
029 7
028 2
ĠO THER
Ġqu anti
ne tic
Ġer r
Ġro le
form ation
4913 5544336
0610 68
ibra ry
Ġtissu e
ste ps
UD ING
Ġhan no
0 560
1 790
3 798
3 782
3 164
4 508
6 760
A CBF
B ABB
B CDC
B ADA
E CCF
M a
M PL
N PY
S t
T ype
b in
i es
i ol
Ġ 528
Ġ 304
11 65
56 80
38 44
38 23
12 03
39 42
39 99
79 25
52 58
52 82
52 84
34 02
36 92
36 95
16 88
16 42
76 14
59 54
59 80
59 24
59 399
30 96
10 89
10 46
19 64
78 13
78 04
78 06
78 47
74 20
74 21
74 91
70 40
18 10
18 29
18 99
20 32
20 52
20 90
20 42
29 54
29 74
29 27
80 79
66 09
40 26
89 09
49 72
49 36
AA DA
22 78
22 88
CE BD
CD BE
44 28
44 67
44 634
FE AC
88 72
88 36
88 28
88 57
88 65
15 50
15 77
15 51
17 15
90 46
62 67
48 47
DB AA
DB CF
EE BE
AC AF
DD CC
77 14
BB CE
BB DF
Âª Ãł
CC AA
EB EA
en oca
en ze
en hanced
24 52
24 35
24 75
31 72
57 37
46 59
ĠÃ Ļ
BD FB
73 14
86 39
71 52
EF AB
EF AE
CA FB
on ance
BE AF
08 72
04 59
04 80
04 55
06 54
DA CD
DC CE
67 13
45 11
45 39
27 17
Äł A
87 12
85 36
43 38
23 14
95 00
95 39
07 33
03 14
Ä¹ Ã¢
Ġp ublish
Ġin f
it o
ðĸ ¾
at h
Ġw e
Ġw ere
Ġw ould
ol ec
Ġ5 12
Ġv e
Ġv ari
ar g
ĠA m
ect al
554 318
Ä© Ãł
Ä© Ã¯
Ä« Ãł
556 5
154 0
158 7
174 4
718 1
211 1
859 4
si ble
BDB E
474 0
829 4
Ġca ses
416 5
936 4
552 24
018 3
Ġbe ing
ati c
259 061068
072 5
135 76034
âĹĮðĳ °
ĠR adiol
Ġex periment
Ġpar t
ĠÃĥÂª ÃħÄ¥
ser vati
lo od
tive ly
put ed
Ġba s
ĠÃħÄ¢ Ãĥ
Ġpara meter
Ġadd itional
3989 5630
8612 44038034
Ġmonitor ing
Ġpermis sion
Ġparamet ri
Ġnorm al
79739 270
Ġvolum e
33211 138
815229 49135544336
0 709
3 151
4 790
4 522
5 526
5 164
5 780
5 357
7 399
7 526
9 502
A CDF
A FDA
B CDF
C ADD
C FFF
C FDC
C CDE
C CEC
D CDA
D TP
E N
T T
g gi
m b
u ffer
w w
x y
Ġ um
Ġ he
00 10
00 62
11 50
11 85
11 23
11 41
32 16
32 06
56 14
56 13
56 96
56 63
38 24
12 34
39 44
39 88
39 90
39 64
54 62
54 82
79 76
79 64
79 81
52 81
52 03
34 50
34 10
16 28
16 83
58 58
58 60
58 35
58 75
76 88
76 48
76 28
59 08
30 34
14 89
14 82
14 98
14 36138
10 83
19 99
19 28
78 79
78 18
78 37
74 49
74 62
74 469
70 99
70 28
70 63
70 65
18 74
18 93
29 59
80 89
66 19
66 42
40 54
40 66
40 44
40 55
89 56
89 59
49 60
49 90
AA CD
60 69
60 9714
22 66
22 85
FB DA
69 54
69 99
CB FC
44 57
AB BA
FE CB
FE AB
FD BE
13 75
88 00
88 16
88 88
15 38
15 34
17 14
AE BD
90 35
35 53
62 00
42 34
42 450
37 36
37 50
37 73
48 16
48 26
EE DD
99 00
99 49
55 33
64 55
DD AF
BB CB
CC FC
ED AC
57 15
57 746
46 79
09 59
09 67
26 20
84 60
51 34
51 76
86 56
86 14
86 35
86 42
71 32
98 68
98 1900
ĠÄ ł
BE FE
08 00
08 12
04 36
BC FC
DE CB
DE FC
02 66
BF AE
67 58
45 50
Msg KAT
Äł b
Äł h
87 74
25 12
43 39
41 54
41 30
61 72
61 74
47 19
ce ption
07 58
Ġc d
ra di
Ġs ur
Ġp h
Âº Ã¢
at om
an to
an ge
âĹĮà ·
212 2790
Ġ5 76
Ä§ Ãł
414 1
414 9
Ġd ec
Ġdi mostra
711 8
356 3
356 248
ĠT ra
Ä¾ Ãł
312 4
574 9
Ã¢Ä¹Ä®Ãł Âº
330 8
200 8
ĠPy thon
756 4
CFE C
518 8
Ġper form
ĠI S
ĠI t
374 2
270 5
176 5
466 679
469 05279
FFE C
136 33211138
429 1
ÃĦÂª ÃĦ
638 5
878 33
icen ses
969 55224
Ġst ate
970 1
470 1
Ġtra ns
464 6
li b
ir d
iv al
Ġdo se
po se
Ġver sions
Ġnum er
ĠÃĤÂª ÃĥÂªÃĦ
ĠÃĦÅĥ Ãĥ
Ġacc or
6276 59399
Ġpres ence
7990 8139
Ġman agement
2422 259061068
Ġdistrib ute
urg ery
1719 7532
5918 554318
1132 63569
6476 861244038034
CL UDING
Ġhol der
Ġpu Ã²
13576034 2422259061068
39895630 81522949135544336
0 547
2 502
3 508
4 000
4 788
4 509
4 382
5 508
5 789
6 362
7 560
8 598
C CED
C CBF
E CDB
E AAE
M IT
T o
T WAR
U L
g ment
l es
p or
s a
t ect
Ġ x
Ġ BD
Ġ bf
Ġ 696
11 39
32 17269
56 54
56 29
56 48
56 46
56 04
56 95
56 47
72 14
72 02
38 06
12 54
12 14
12 77
39 62
39 85
39 03
54 49
54 09
54 73
54 04
54 21
54 0939
79 74
79 92
52 42
16 36
16 20
16 04
16 93
58 92
76 17
76 43
59 10
59 94
30 77
50 92
14 27
14 03
10 62
10 84
19 48
19 24
19 92
19 97
74 22
74 64
74 28
70 68
70 75
18 34
18 22
20 74
20 29
20 44
29 87
29 85
80 34
80 889
66 83
66 81
89 44
89 62
89 24
AA EF
60 72
60 10
60 95
22 72
22 52
22 13
22 82
22 84
CD EA
69 15
69 08
CB AD
CB EE
CB FF
AB BD
AB DC
FE DC
13 58
13 50
AE EC
AE BA
90 69
AD DD
62 72
62 69
37 12
37 55
DB DD
EE FC
99 38
99 12
99 82
55 32
DD EB
77 32
28 34
28 76
28 18
28 29
EB CD
EB FD
ED CA
31 74
57 38
82 18
46 56
EC AE
BD FE
ca n
26 29
26 89
53 39
53 34
84 71
73 00
73 36
73 70
51 56
51 38
86 73
86 51
Ġa i
CF CE
CF AB
94 55
04 30
02 55
BA FA
67 11
45 38
65 50
Äł S
87 17
23 11
41 36
83 12
21 58
05 56
03 78
Ġth ird
Ġc er
ðĳ ĳ
Ġo p
Ġin st
Ã¢Ä¹Ä® ÃªÄ»
Ġe ither
Ġf la
Ġn ecess
ou nt
414 6
Ġl in
âĹĮá Ĥ
554 4
ÄŃ Ã¯
574 5
Ä¬ Ã¯
330 540939
454 8
200 619
734 8
Ä° Ã¯
339 76
300 6
Ġu p
Ġu ti
ĠÃĥÄ ±
ĠÃĥÄ ¼
354 9
634 8
174 5
418 5
229 56
658 4
130 609714
234 8
Ġwith in
880 7
579 2089
Ġca st
956 8
834 4
268 2
810 5
680 6
639 4479
688 7
820 3
232 4
819 6
Ġpro pag
id ney
050 79739270
im a
934 6
239 1
968 4
452 1
210 356248
982 6
Ġtra tta
850 5
959 0
435 30014
655 11
Ġla w
ĠG PL
Ġwh o
082 5
enti al
Ġmo st
and o
tra uma
vas cular
non free
ara c
Ġpo inter
Ġcont ro
ĠÃĤÂµ ÃĥÂªÃĦ
ĠÃħÄ¥ Ãĥ
ie ld
5299 96955224
perm eab
Ġinclu de
4654 466679
9639 9637
Ġsom e
3332 17197532
Ġparench y
ecca k
niqu e
Ġrappresent ati
MA G
kl m
Ġwar ranty
40100 1436138
44634 5918554318
DTP A
981900 79908139
2122790 401001436138
46905279 627659399
13633211138 6476861244038034
113263569 3989563081522949135544336
0 161
0 175
0 377
3 786
4 797
4 377
6 520
8 000
8 393
8 508
8 320
8 175
C FCC
D ADD
D FDA
D CCC
F CDF
F AAC
F CEF
G F
P ro
b um
c s
g o
l ed
Ġ BC
Ġ 224
Ġ 320
00 44
00 26
11 11
11 19
11 82
32 72
32 53
32 08
32 04
56 36
56 69
56 21
38 09
39 18
39 82
39 95
54 60
54 57
54 51
79 72
79 54
79 18
79 67
52 14
52 08
34 32
36 16
36 45
36 65
36 05
16 15
16 77
16 92
16 03
58 87
76 93
59 42
59 71
59 656
30 62
30 33
50 39
50 40
50 94
10 17
10 55
19 77
78 19
78 42
74 03
70 58
70 42
18 31
18 05
20 20
20 35
29 42
29 75
29 23
29 41
80 16
80 96
66 77
66 06
89 04
49 41
AA BD
60 50
60 40
60 71
60 27
22 39
CE AF
CE EF
FB FA
FB BF
69 30
69 27
CB EA
CB DF
44 68
FD CB
FD FF
FD CF
FD DE
88 59
88 82
15 31
17 35
17 77
AE CA
90 45
35 54
35 50
AD AB
AD FD
AD FA
62 32
62 52
62 66
62 75
42 49
68 36
68 44
68 41
48 50
48 18
EE CC
33 12
33 74
99 11
55 12
DD AA
DD EF
28 30
28 80
BB CC
CC FB
EB DA
24 32
57 56
82 56
09 49
09 88
09 48
84 59
84 19
84 18
73 12
51 79
86 58
71 70
in clu
98 49
96 73
BE FA
04 33
DE AB
02 29
27 39
27 54
23 19
83 17
93 14
61 30
95 38
21 30
05 32
05 36
81 50
01 58
Â´ Â¢
Â´ Â¤
Ġth en
ac k
Ġo b
Ġthe m
ÅĤ Ã¯
Ġw rit
âĹĮà ¤
Ġr eas
um ent
Ġ2 56
ri des
ĠC ol
Ġb lood
ar r
Ġcon s
ll i
Äº Ã¯
Äª Ã¯
312 9
172 5
172 9
330 6
719 0
719 7
534 4
769 16
Ä± Ã¯
539 1
372 9
158 0
359 6
354 8
618 2
Ġh aem
374 0
Ġg i
Ġg reater
ĠE X
614 1
576 3
ur ther
834 6
410 8
972 1
649 8
420 7
019 7
ĠM TT
617 3
088 1
464 7
655 1
984 7
pi lation
tic he
iv en
Ġall ow
za zione
RI GH
Ġvalu tazione
== ==
6479 7660
cri pts
5539 42450
Ġrec ipi
oun dation
ĠNO T
4940 7573
cul ature
76269 74469
Ġdiag nos
ÎĶ R
Ġexam ple
OF TWAR
Ġru olo
57746 333217197532
3217269 43530014
330540939 446345918554318
200619 6394479
130609714 98190079908139
5792089 210356248
05079739270 4654466679
529996955224 135760342422259061068
96399637 136332111386476861244038034
46905279627659399 1132635693989563081522949135544336
7 389
7 524
9 169
A FFF
C T
C ADB
D CEF
D ABC
D AED
D CEC
E FDB
F AAD
F CDB
F FBF
O L
P O
U S
m io
p e
s ur
Ġ )
Ġ +
Ġ Q
Ġ z
Ġ bb
Ġ fd
Ġ 399
Ġ 598
00 88
00 09
11 76
11 78
11 44
11 03
32 39
32 48
56 00
56 78
56 82
56 86
56 43
72 00
72 20
72 21
72 97
38 52
38 16
38 18
38 84
12 32
12 56
12 50
39 93
54 13
54 92
79 78
79 66
79 49
79 35
52 00
52 90
52 28
52 65
36 48
16 59
16 22
58 29
58 41
76 24
59 19
59 40
59 22
59 92
59 67
30 17
30 87
30 85
50 26
50 23
14 76
14 59
14 43
19 57
19 82
78 15
78 75
78 86
74 34
74 16
74 14
74 78
74 66
70 50
70 33
70 85
18 48
18 09
29 66
29 51
80 17
80 620
66 70
66 21
40 29
40 64
40 82
60 39
60 52
60 90
60 25
22 56
22 68
22 700
69 59
69 80
69 57
CB BE
44 22
FE CD
FE FE
FE FA
FD EE
13 16
88 89
17 75
AE DD
90 76
90 87
35 34
35 16
35 55
AD FB
AD DB
62 56
62 10
62 74
42 73
42 45
37 39
Ã¡Ä £Ä
68 66
68 60
48 32
48 56
48 12
48 19
DB CB
75 158
33 10
99 29
64 62
DD CE
DD FA
77 12
77 70
28 12
FF FE
ED DB
ED FC
FA CD
FA FD
82 19
46 36
46 74
EC FF
09 60
09 69
26 12
26 14
73 59
51 54
86 48
in di
Ġa m
Ġa cce
Ġt reated
CA CB
92 79
98 39
98 20
94 51
ef fe
96 36
96 89
96 75
DF CE
04 40
DE AA
02 75
DA FF
DC FF
BA FC
67 59
45 59
65 12
27 18
Äł M
Äł T
85 00
85 11
85 34
25 10
41 34
93 39
95 11
95 16
95 78
or y
or ted
ti vo
07 36
07 17
ee ef
Âµ Ã¢
ÃĥÄ ¥
ÃĥÄ ¿
ra c
ðĳ ĩ
ac er
Ġo l
cd ef
Ġthe ir
re ed
re ter
Ġm ent
an da
Ġ1 76
un time
ĠP AR
ðŀ ¥
se t
Ġ4 16
Ġto mo
Ġd ue
Ġd ynamic
ter apia
Ġcon f
ĠÃł ÅĤ
âĹĮá ľ
760 28
Ä´ Ã¯
138 9
312 3
th at
534 2
219 4
219 9
611 4
ica tions
756 6
Ġis t
ĠD CE
214 2
211 5
270 700
600 4
269 0
859 3
139 1
516 6
779 1
268 4
610 2
972 6
752 3
ĠN o
218 9
DEB A
649 3
150 4
EFE A
232 8
674 2
Ġpro vi
840 1
840 5
420 8
889 6
060 8
478 1
090 5
230 2
DFE B
DFE D
ul es
062 1
âĹĮðĳ Ĩ
âĹĮðĳ ľ
022 18
946 3
ĠR adi
Ġren e
Ġwork s
ma in
Ġres onance
Ġus er
Ġfa rmac
Ġother wise
ÃĦÅĤ ÃĦÅĤ
Ġris ul
Ġpo st
Ġcont rol
ĠÃĤÂº ÃĥÂªÃĦ
api e
Ġmodif ied
ĠÃħÄ¢ ÃĥÂªÃĦ
ĠÃħÄ£ Ãĥ
Ġconvey ing
Ġmode ls
Ġpri ma
ĠCO PY
ÄłÄłÄłÄłÄłÄłÄłÄł ÄłÄłÄłÄłÄłÄłÄłÄł
Ġnoti ces
cola re
0372 80889
med i
post a
Ġdeter min
Ġgran ted
33976 553942450
2122790401001436138 050797392704654466679
RIGH T
64797660 13060971498190079908139
49407573 529996955224135760342422259061068
7626974469 49407573529996955224135760342422259061068
OFTWAR E
57746333217197532 96399637136332111386476861244038034
321726943530014 330540939446345918554318
2122790401001436138050797392704654466679 469052796276593991132635693989563081522949135544336
0 155
0 557
1 768
2 000
2 782
2 362
3 728
3 502
4 320
4 357
5 560
5 382
6 000
6 798
7 799
9 362
A s
A CDB
B AED
B AEB
B ACF
B FBC
B ABD
C FDD
C CDA
C AEA
D CBB
D FDE
D AAE
D ata
E CBC
E ACA
E ADF
F FCC
F ABA
F AEA
I nt
M ulti
N ew
R es
c y
o ver
t re
u b
y st
Ġ DC
Ġ fe
Ġ 788
Ġ 524
Ġ FDD
Ġ ABE
Ġ 785
Ġ ABC
00 18
00 13
00 05
11 10
11 90
11 09
11 98
11 27
32 54
32 520
56 42
56 98
38 20
38 05
12 33
12 07
39 33
54 52
54 29
54 75
79 08
79 47
52 88
52 01
34 48
34 25
36 80
36 46
36 03
16 50
16 97
58 56
58 39
58 30
58 86
76 20
59 59
59 63
59 27
50 89
50 53
14 72
10 39
10 19
10 82
10 51
19 90
78 58
78 78
78 65
78 85
74 56
70 30
70 19
70 24
70 96
70 41
18 66
20 37
20 64
20 28
29 05
80 60
80 65
66 32
66 86
40 58
40 50
40 89
89 32
89 66
89 42
89 46
89 73
89 65
49 50
49 20
49 17
AA FA
60 18
60 86
22 50
22 70
CD AC
CD EB
FB CC
FB EA
69 42
69 46
69 84
69 25
44 52
44 58
44 78
44 60
AB FB
AB FF
FE EC
FD DA
13 15
88 13
15 32
17 12
17 381
90 54
90 19
90 47
35 13
62 73
62 756
42 77
42 85
37 37
48 29
48 24
48 41
DB CD
DB EF
DB BC
75 74
75 18
FC AF
EE AF
EE DF
99 66
AC CC
55 55
55 53
64 12
77 77
28 56
28 16
28 78
BB CD
BB DB
CC FF
EB AD
24 37
31 52
57 78
82 39
82 16
46 49
EC FE
09 18
09 66
09 28
53 72
53 15
84 32
84 40
86 00
86 59
86 358
71 50
in ding
er iv
ÃĥÂª ÃħÄ¥
92 58
98 58
98 44
94 582
96 54
96 80
96 35
08 54
08 46
04 00
04 78
04 20
04 69
BC AF
DE CE
06 56
06 30
06 71
02 76
02 31
DC CD
de pend
Äł e
Äł g
Äł con
87 32
25 30
âĹĮ ê£
83 00
83 72
93 17
61 38
61 70
95 19
47 32
47 14
21 34
07 34
01 34
01 59
01 74
Ġs ing
Ġs ame
Ġo ur
Ġin i
Ġin dex
re l
Ġm s
at oma
ÅĤ Ã¢
Ġe vid
Ġ3 12
ĠĠĠĠĠĠĠĠ Ġ
Ġb efore
Ġl acer
411 9
Ä² Ã¯
Ġor gan
574 71
Ä¬ Ãł
172 7
700 7
Ä« Ã¯
ĠF oundation
719 5
719 9
716 2
200 1
556 7
ĠÃĥÄ °
539 42
154 8
372 2
332 2
332 6
559 6
511 0
Ġper s
772 3
772 5
311 2
EAE E
858 4
632 7
612 5
211 6
600 7
466 1
466 6
458 9
658 7
130 2
ĠL a
829 1
579 80
476 1
650 7
FFE F
410 3
410 6
814 6
688 4
280 6
940 6
220 4
479 6
922 1
778 3
928 1
929 8
470 7
042 3
636 4
Ã° Ä´
648 2
ĠG d
Ġsu pp
Ã¢Ä¹Ä®Ã¡ ÅĢ
gra phy
Ġ39 40
Ġter apie
IT H
Ġcol on
angiogen esi
tum or
col o
ĠÃħÄ¥ ÃĥÂªÃĦ
ĠÃħÄ£ ÃĥÂªÃĦ
mon stra
ang u
ĠÃĦÂµ Ãĥ
ĠCO N
Ġchar ge
ĠÃĦÂª Ãĥ
sign ifica
pac k
Ġpermis sions
Ġele vati
ape u
Ġsignifica nt
bo ol
Ġout put
Ġtess uto
Ġassoci ated
Ġrid uzione
ĠâĢ ¢
Ġexperiment al
arac ter
Ġreas on
2006196394479 2122790401001436138050797392704654466679469052796276593991132635693989563081522949135544336
5792089210356248 762697446949407573529996955224135760342422259061068
037280889 270700
33976553942450 5774633321719753296399637136332111386476861244038034
6479766013060971498190079908139 321726943530014330540939446345918554318
0 353
0 331
1 569
2 309
3 360
3 704
4 598
4 308
4 175
5 520
5 522
6 371
6 133
7 520
8 728
8 768
8 399
8 799
8 569
8 333
9 599
9 357
A CEB
B ADD
B ACC
B AEC
C CBC
C FFA
C ast
D FDC
E CDC
E AAA
E ABF
E CCA
F CEC
F AAA
F FBC
I ES
h a
i de
n al
p at
u ta
v ata
Î ¼
Ġ fc
Ġ 798
Ġ 169
Ġ est
00 71
11 17
11 93
32 18
32 37
32 24
32 23
32 95
32 05
56 87
56 03
72 24
38 50
38 25
12 51
12 71
39 54
54 44
54 17
54 86
54 43
54 41
79 11
79 03
52 16
34 77
36 12
36 18
36 44
36 17
36 91
16 30
16 71
16 27
16 47
58 32
58 34
58 18
58 42
58 99
58 57
58 94
58 02
76 76
76 04
59 03
50 12
50 59
14 32
14 70
14 15
14 90
10 50
10 99
10 94
19 22
19 46
19 45
78 59
74 80
74 99
70 89
20 30
20 49
20 57
29 90
29 48
80 24
80 31
66 44
66 84
66 96
40 88
40 63
89 17
89 61
AA AA
AA EE
AA EB
AA ADC
60 96
22 29
22 64
CE CC
FB CE
FB BC
69 32
69 76
69 14
69 64
69 750
CB DC
44 72
44 20
44 88
44 62
44 41
AB AD
FD FA
13 32
13 39
13 33
88 83
15 78
AE ED
AE DE
90 29
90 48
35 30
AD CC
AD BD
AD ABC
62 88
62 82
42 66
42 40
42 53
42 84
42 87
68 28
68 46
68 53
DB FA
DB CEF
75 15
75 17
EE ED
EE EF
99 72
55 74
64 72
64 60
64 69
64 13
64 15
DD CD
DD EC
77 79
77 58
28 60
28 57
FF CB
FF AF
BB EF
CC FE
EB AF
24 18
FA FC
57 52
46 10
46 15
ĠÃ Ľ
BD ADE
09 19
09 80
26 44
53 36
53 58
84 30
84 74
84 29
51 74
86 34
71 00
in ed
in dex
ea ls
Ġa tion
er ica
92 48
98 42
94 10
94 35
08 44
DF AE
BC AA
BC FA
06 72
06 76
DA CB
de l
63 79
65 39
27 36
Äł v
85 14
43 56
41 72
83 30
93 34
93 15
95 12
95 31
97 34
07 78
Â´ Â¡
Â´ Â£
Â´ Â¥
Â° Â±
al bum
Ġc ui
Ġp ol
Ġin fa
re qui
Ġan che
la ce
Ġ7 56
Ġ7 52
se ls
ĠC opyright
om i
616 9
Ġl ist
âĹĮá Ŀ
Ä¤ Ãł
554 0
554 2
554 8
512 4
512 044
Ä£ Ãł
138 3
558 6
558 02
172 4
Ä» Ãł
Ä½ Ã¯
ĠF ree
358 4
200 3
611 8
536 4
134 4
510 3
510 8
CFE D
174 2
739 2
739 4
514 0
736 1
Ġal ong
516 5
DFB B
per it
Ġca p
Ġca lled
Ġ11 5792089210356248762697446949407573529996955224135760342422259061068
248 1
416 3
679 72
676 1
CFB A
CFB F
ĠS h
ĠS OFTWARE
440 2
412 05
249 2
018 30
654 4
im aging
032 3
099 3
060 2
Ġ10 4
BEE D
968 2
074 84
938 3
ch eck
848 1
979 5
042 4
062 7
830 5
864 1
086 7
Ġda n
Ġval id
dig es
con s
Ġpar ty
ÃħÄ¤ ÃĥÂªÃĦ
Ġen hancement
Ġes peri
Ġ68 6479766013060971498190079908139321726943530014330540939446345918554318
lo ad
red ist
Ġmea n
ĠÃĦÅĥ ÃĥÂªÃĦ
ĠÃĦÂµ ÃĥÂªÃĦ
Ġanti angiogenic
Ġab ove
ĠCO NT
Ġret urn
ĠÃĦÂº Ãĥ
Ġdistrib ution
ĠÃħÄ¤ Ãĥ
Ġrep resent
Ġtumor ale
ren al
ĠCon t
Ġauth ors
tiva mente
enoca rcinoma
Ġinf ring
yst em
Ġ3940 20061963944792122790401001436138050797392704654466679469052796276593991132635693989563081522949135544336
339765539424505774633321719753296399637136332111386476861244038034 037280889270700
Ġ115792089210356248762697446949407573529996955224135760342422259061068 512044
Ġ686479766013060971498190079908139321726943530014330540939446345918554318 339765539424505774633321719753296399637136332111386476861244038034037280889270700
0 303
0 173
1 000
1 384
1 368
1 304
2 760
2 798
3 709
4 798
4 746
4 355
6 175
7 709
7 382
8 362
8 573
9 696
9 709
A l
A CDD
A FDD
B FDE
B CDD
B FDF
B FDB
B CCA
B ECF
C ABD
D CDB
D ABB
D AEC
D ACA
F ADD
F CBE
F CBA
I R
I ED
R e
a zioni
c un
d C
d uc
d type
o b
o la
p ort
s ing
v oid
Ġ 000
Ġ 393
Ġ 709
Ġ 708
Ġ 789
Ġ 447
00 89
00 22
00 75
00 92
00 96
00 67
11 56
11 48
32 86
56 73
56 85
56 61
56 97
38 90
38 04
38 43
12 58
39 49
39 45
54 74
54 77
79 38
79 40
79 60
79 22
79 53
52 19
52 26
52 67
52 91
34 12
34 54
34 76
34 80
34 01
36 76
36 73
16 72
16 49
16 75
16 46
16 01
58 00
58 59
58 07
76 74
76 92
76 05
59 48
30 10
50 61
14 29
10 90
10 42
10 75
19 36
19 69
19 53
19 51
78 39
78 35
78 01
74 39
74 10
74 41
70 29
70 26
18 55
18 92
18 83
29 40
80 80
80 82
80 83
66 40
40 14
40 96
89 92
49 99
AA AB
60 51
60 94
22 36
22 71
CE DF
CD EE
CD BB
69 10
69 74
69 17
69 37
69 07
AB EC
FE BB
FD ED
FD BC
13 72
88 70
88 20
15 56
90 68
90 65
35 00
35 56
AD AE
AD BF
AD BA
62 40
62 85
42 69
37 57
68 56
68 31
48 79
DB FF
FC FB
EE BD
33 19
33 78
99 70
99 42
99 99
55 72
64 30
DD ED
77 33
28 72
BB FE
BB FC
CC AE
CC CF
EB FC
en zi
24 55
31 76
57 31
82 00
82 74
46 88
BD CB
53 10
84 00
84 33
51 70
ec tions
Ġa rea
Ġt w
Ġt ut
er c
er eas
CF FB
94 88
96 20
96 42
08 79
08 29
08 40
04 56
04 58
04 74
04 17
BC AE
06 38
06 75
06 57
02 56
02 80
db ef
DC FA
63 74
67 18
65 79
27 00
Äł ex
87 52
23 13
23 37
41 58
83 35
93 76
or der
ti v
07 76
81 59
03 16
91 78
Â´ Â§
ÃĥÄ ½
Ġc ould
Ġs ia
Ġp or
ac t
is sion
at ura
ÅĤ Ãł
Ġan atom
la zione
âĹĮà ³
Åģ Ãł
Ġr ea
Ġr ic
Ġ7 58
Ġ3 52
Ġ5 52
ri es
om ark
Ġv es
Ġcon ven
256 4
256 8
Ä¢ Ãł
ÄŃ Ãł
161 59
Ġor e
Ä¾ Ã¯
312 7
Ä¿ Ãł
Ä¼ Ã¯
556 6
339 1
Ä± Ãł
758 4
511 9
134 5
732 3
354 1
618 0
334 7
EFB B
156 6
400 8
100 2
311 8
ĠB UT
500 5
ĠI m
612 6
ag gio
872 4
139 0
640 8
516 0
550 3
288 7
650 6
170 5
410 2
EDB F
266 7
874 0
610 4
532 3
DEB D
688 3
429 7
519 4
412 5
936 1
249 9
674 8
832 9
050 1
838 3
Ġne ll
488 1
058 3
419 6
074 9
259 3
ot he
619 6
848 7
ul ts
278 3
FAE E
op las
828 3
655 3
tra n
Ġex ec
Ġche motherapy
ĠW ITH
olog ia
Ġfa il
Ġvalu e
Ġcol l
pt r
Ġba sed
lun t
TI C
TI ON
Ġpos sib
ĠDA MAG
Ġtec n
sign ed
Ġrece ived
Ġtech nique
ghij klm
Ġerr or
Ġtomo graphy
( "
0 786
0 368
1 560
1 520
2 399
2 380
2 526
2 308
3 522
4 709
4 785
5 768
5 788
5 709
5 799
5 360
5 133
6 797
6 389
6 224
6 355
8 708
9 191
A r
A NT
B L
B CBE
B EDC
C AAE
C FDB
C CBD
C opy
D CDE
D CBA
E ADD
E ABC
F ABC
F FCA
F ACF
G RA
I P
L E
M icrosoft
N O
S et
b u
h o
m it
n is
n ow
o k
r d
s p
t es
t reatment
t ypes
x if
Ġ Z
Ġ bd
Ġ --
Ġ 509
Ġ 599
Ġ 308
Ġ 784
Ġ 584
Ġ 592
00 86
00 98
00 95
11 79
11 88
11 46
11 96
32 38
32 50
32 85
56 34
56 33
56 25
72 69
38 40
38 73
38 93
12 39
12 70
12 66
12 49
12 15
12 17
12 62
12 64
12 84
39 39
39 20
39 02
39 61
54 32
54 40
54 99
79 20
79 63
52 92
52 94
52 47
36 60
16 11
16 34
16 14
16 51
16 02
16 91
58 12
58 14
58 19
58 26
76 56
76 09
76 96
59 39
59 65
30 70
30 37
30 48
30 47
50 18
50 17
14 00
14 42
14 92
10 12
10 80
10 15
19 34
19 80
78 30
78 49
78 44
74 69
74 55
70 51
18 14
18 02
20 11
20 59
20 96
29 58
29 60
29 82
29 04
80 39
80 90
80 37
80 75
80 99
80 85
80 95
66 38
66 75
40 70
40 28
89 14
89 45
89 91
49 12
49 75
49 09
49 87
49 81
22 31
CE FD
69 56
CB EF
44 24
AB CA
FE EB
FE BC
FE BF
88 78
88 40
88 31
88 81
15 72
15 54
15 74
AE EB
90 77
90 92
35 37
35 51
AD AF
AD DE
AD DA
62 89
62 64
42 62
42 63
42 47
37 16
37 53
37 51
68 24
68 67
68 27
48 22
48 33
48 45
DB CA
DB DA
DB BA
75 30
EE FD
EE AC
EE EB
33 56
AC CD
55 13
55 75
55 77
64 50
DD AC
77 39
77 50
28 66
28 22
FF FB
BB BF
BB BA
EB AA
EB CA
EB DF
ED CD
31 56
ed istrib
46 52
46 70
46 40
EC AF
BD CD
BD AB
09 36
09 42
09 75
09 71
26 39
26 49
53 37
84 22
73 32
73 37
51 59
86 78
EA FD
Ġt e
CF AA
CF AE
92 18
98 38
98 13
98 37
94 14
da fc
da te
96 16
96 15
BE FD
08 15
DF FE
04 10
BC CB
BC FE
06 52
06 78
02 39
02 70
02 18
02 89
DC FC
ba se
cc ess
ðĲ ±
63 00
63 50
67 10
67 74
65 75
27 13
27 75
87 14
87 18
85 32
85 76
85 59
25 38
23 32
23 34
23 16
23 18
âĹĮ ðĲ¨
41 39
83 70
cb cf
93 54
61 39
61 52
95 36
47 52
47 33
97 36
97 30
97 31
05 58
07 56
07 15
es tion
Â´ Â¦
ðĿ į
ðĳ ĵ
Ġs ol
Ġs tati
Ġp ur
Âº Ãª
Åĥ Ã¢
Ġo s
Â½ Â³
Â½ Â¼
Ġin formation
Ġthe y
re g
re t
ĠÃĥ ÅĢ
ent ly
Ġf un
0000000000000000 00000000
Ġ6 40
ou gh
um er
Ġ7 12
Ġ7 36
Ġ3 36
ĠP er
Ġ5 36
Ġ8 24
Ġd er
616 5
Ġb en
849 0
849 9
Ġv i
Ġcon servati
Ä¨ Ãł
Ä¥ Ãł
Ä³ Ã¯
ĠT o
to col
558 2
574 1
Ã¢Ä¹Ä®Ãł Âµ
Ã¢Ä¹Ä®Ãł Åĥ
th y
th od
Ä» Ã¯
358 2
454 1
200 5
339 0
754 53
539 8
158 4
159 6
159 7
618 8
712 1
712 4
EFB A
100 4
718 2
632 4
632 6
sion i
500 7
Ġg eneral
Ġg iven
234 2
489 3
288 1
Ġca so
170 1
378 1
972 4
CFB EC
810 7
810 9
814 7
974 3
ĠÃ¢Ä¹Ä® ÃĻ
289 9
989 7
136 6
649 5
440 1
918 8
836 6
429 4
276 5
272 2
988 2
076 5
870 7
020 3
Ġne o
220 1
216 0
239 4
912 4
670 1
670 5
254 4
250 5
678 1
244 1
860 1
236 1
816 2
920 4
932 7
049 5
928 3
970 2
982 5
062 3
âĹĮðĳ Ģ
âĹĮðĳ ĺ
959 7
ĠO n
864 7
942 6
059 0
824 7
Ġma king
335 1
ĠR M
ĠR untime
rom olec
eef d
gra de
tic i
048 1
ĠÄ¤ Ã¡
ĠÂª Ã¡
ĠÄ¨ Ã¡
iv o
Ġse l
co py
Ġch aracter
IN D
Ġad van
Ġcan not
Ġgra nt
OR DER
Ġvas i
Ġfol der
Ġstudi o
Ġk idney
Ġdis claim
Ġmag netic
ero diges
ĠLI MIT
Ġsom ministra
ĠCon vey
ĠWork s
Ġimp ort
Ġspecif ic
Conver ter
Ġdef ini
ĠWARRANT IES
Ġpermeab ility
Ġgener ated
MPL IED
Ġpublish ed
Ġnumer ical
Ġuti lizz
Ġtratta mento
reed om
ĠCOPY RIGHT
eriv ative
ĠLIMIT ED
0 502
1 709
1 524
2 797
2 547
4 792
4 380
4 529
4 789
4 133
6 709
6 399
6 790
7 760
7 789
8 524
8 599
8 769
9 792
9 309
B CBD
B CBA
C FDA
C AEB
C ABF
D AAA
D ECA
D ADA
E CBF
E CBA
F CBB
F CEE
F AED
F FBD
F AAF
J K
O SS
g res
h i
m icro
n u
n ing
o th
r ece
s cripts
u tions
x ml
Ġ j
Ġ 292
Ġ 595
Ġ 782
Ġ 529
Ġ 790
Ġ 786
Ġ 164
Ġ 746
Ġ 588
Ġ 896
Ġ 544
00 08
00 91
11 64
56 67
72 50
72 89
72 68
72 77
72 28
72 46
72 43
72 23
38 39
38 76
38 78
38 88
38 33
38 71
12 72
12 68
39 22
39 57
39 73
39 97
54 00
54 37
54 02
54 63
54 67
79 14
79 19
79 13
52 78
52 74
52 20
52 40
52 89
52 15
52 35
52 97
34 38
34 52
34 62
34 42
34 64
34 718
36 59
36 63
16 99
16 08
16 06
16 41
76 12
76 79
76 25
59 46
30 76
30 50
30 74
50 72
50 90
50 25
14 79
10 64
10 45
19 26
78 46
78 03
74 75
74 31
74 47
74 01
70 44
70 71
70 214
18 72
18 28
20 36
20 58
20 13
20 68
20 75
20 41
29 30
29 35
29 174
80 30
80 57
80 71
80 93
66 74
40 72
40 10
40 45
89 38
89 28
89 51
89 67
89 43
49 44
49 02
60 36
60 30
60 88
22 19
22 24
CE ED
CE CA
CE DA
CD ED
CD EC
FB EC
69 29
69 96
69 97
CB FE
CB ED
44 23
FE FC
FE ED
13 56
13 74
13 57
88 66
17 51
90 812
AD CD
AD CA
42 10
42 44
42 51
37 58
68 76
68 22
68 51
DB DE
75 37
75 57
FC FC
FC FA
EE DA
99 59
99 73
55 37
64 36
64 16
DD CF
77 72
28 00
28 68
28 33
FF FA
BB EA
Âª Ãª
CC CA
EB FB
EB DD
en do
24 79
24 17
24 31
24 640
82 76
82 35
82 62
82 51
46 00
46 12
46 71
EC AA
EC AB
BD AD
BD FF
09 54
ca st
26 22
53 78
53 70
AF AB
84 79
84 50
73 39
51 32
51 36
71 39
71 36
ec bc
EF CE
EA FA
Ġa ff
Ġa ut
er i
92 50
92 29
92 62
92 33
94 38
94 80
94 49
96 11
BE AE
BE FC
08 56
08 89
DF FD
DE DD
DE FA
06 49
02 77
BF FE
DC FD
BA CD
67 15
45 54
45 17
65 56
65 13
27 72
27 59
Äł L
Äł w
Äł de
Äł su
85 54
25 58
25 14
25 78
23 79
41 00
83 14
95 15
47 36
21 79
21 52
21 59
21 50
97 79
97 37
ti vi
ce ll
ce pt
05 18
07 72
07 30
03 00
91 72
91 36
Â´ Â±
Â´ Â¨
Ġth ere
Âµ Ãª
Ġc ount
Ġp ancrea
ac ed
Åĥ Ãª
Â½ Â½
at es
an cer
ÅĤ Ãª
Ã¢Ä¹Ä® Ã¡Ä£
ÅĢ Ãł
ÅĢ Ã¯
Ġ6 16
âĹĮà °
Ġ2 48
Äµ Ãł
Ġ4 72
Ġ8 40
Ġd ist
Ġde monstra
Ä¦ Ãł
om p
Ġb inary
Ġb uffer
ar d
Ġi ca
Ġcon se
Ġcon tain
âĹĮá Ł
256 9
554 6
644 4
512 3
356 6
to di
Ä· Ãł
has e
172 2
00000000000000000000000000000000 000000000000000000000000
Ä½ Ãł
ĠF ile
330 4
534 6
734 6
et work
611 2
Ġu reter
ĠÃĥÄ ´
154 3
154 6
758 7
758 8
159 4
511 5
618 4
CFE A
EFB E
518 7
866 5
Ġper fu
318 2
632 9
774 5
750 1
ĠD erivative
374 9
Ġg et
ĠE x
672 5
si ze
BDB F
576 5
489 6
516 8
mo xif
DDB B
388 00
FFE E
676 7
DEE B
972 3
639 6
811 9
974 9
456 3
450 7
DEB F
289 1
689 1
689 6
232 9
622 2
988 4
832 1
462 4
076 6
018 6
822 2
638 7
220 3
800 3
488 5
Ġ12 8
910 2
968 3
938 7
Ġre l
960 4
960 7
ot e
ot to
434 5
778 4
920 7
210 6
970 6
979 1
979 4
029 9
Ã° Äµ
Ã° Ä¸
Ã° Ä¿
630 6
575 5
ĠĠĠĠĠĠĠĠĠĠĠĠĠĠĠĠ ĠĠĠĠĠĠ
946 5
059 6
li al
Ġma jor
Ġla r
CAE E
ece ler
ht ml
924 3
con trast
Ġche mio
ĠÄ¬ Ã¡
Ġch ang
Ġch ange
cr yp
iz z
ĠU SE
Ġris posta
Ġcont ributor
OR S
angiogen e
ER CH
Ġmode l
Ġpri or
Ġlesion s
Ġshow s
Ġli ability
Ġsca n
Ġcorre lation
du ce
inst all
Ġass ess
Ġapplica ble
Ġidenti fy
ĠĠĠĠĠĠĠĠĠĠĠĠĠĠĠĠĠĠĠĠĠĠĠĠ Ġ
UR PO
Ġmedi um
tter atura
Ġblu e
Ġclin ical
vel op
cu lation
Ġparameter s
Ġparenchy ma
OL DER
Ġprovi de
Ġ394020061963944792122790401001436138050797392704654466679469052796276593991132635693989563081522949135544336 53942
TIC UL
ANT ABILITY
0 399
0 509
0 169
1 792
2 508
2 746
3 595
3 792
3 799
4 768
4 595
4 171
5 728
5 502
5 771
6 547
7 360
8 360
8 131
9 898
9 388
9 377
9 353
A FDF
A CBA
B CEE
B ABA
B AEF
B ADF
B CCC
C ABB
C AEC
C FAF
D CBE
D ACF
E CEC
F FCF
F ABD
F iles
N ESS
S calar
T E
c id
f rom
f ecf
f fab
g er
m al
u le
v ing
Ġ bc
Ġ 191
Ġ 799
Ġ 508
Ġ 502
Ġ 190
Ġ 369
Ġ 780
Ġ 151
Ġ 608
Ġ 720
Ġ 504
Ġ 424
Ġ ../
00 53
11 15
11 73
11 92
11 02
11 83
11 97
32 61
32 774
56 32
56 49
56 93
56 05
72 32
72 72
72 30
72 60
72 55
72 63
38 55
38 83
12 20
12 60
12 96
12 67
39 10
39 24
39 09
54 84
54 71
54 87
79 32
79 37
79 07
52 72
52 30
52 83
52 21
52 05
34 13
34 35
34 04
34 87
34 700
36 38
36 79
36 90
16 79
16 17
16 90
16 96
16 21
58 88
58 84
76 54
76 36
76 64
59 11
59 44
59 81
30 89
30 28
30 26
30 454
50 20
50 80
50 66
50 69
50 99
50 87
14 39
14 19
14 78
14 60
14 68
10 36
10 18
10 97
19 72
19 39
19 29
19 55
78 56
78 80
78 89
78 82
78 87
74 36
74 60
74 77
74 46
70 82
70 67
18 16
18 59
18 37
18 24
18 82
20 15
20 98
20 23
20 83
29 33
29 67
29 61
80 32
80 64
80 28
66 59
66 22
66 69
66 57
66 71
66 67
66 578
40 59
40 80
40 65
40 83
89 36
89 76
89 22
89 68
89 53
89 98
49 58
AA AD
60 63
60 67
60 85
22 89
22 55
22 28
22 53
22 65
22 61
CE AB
CE AE
CE DD
CE DC
CD AB
CD DA
FB AC
FB DC
FB BA
69 93
69 01
CB BD
44 56
44 16
44 18
44 29
44 85
AB CD
AB BF
FE CE
FD FB
88 80
88 22
88 68
88 53
17 50
17 53
90 10
90 15
90 17
90 24
90 26
90 73
90 98
35 14
35 18
AD AC
62 18
62 60
62 814
42 36
42 60
37 15
68 52
68 29
68 55
68 71
68 43
68 61
48 76
DB FD
75 10
75 78
75 35
FC FF
FC CC
EE FB
EE EA
EE BC
33 798
99 50
99 15
99 68
AC FC
55 70
DD AD
DD DA
BB DA
EB CC
en ces
en cryp
24 56
24 12
24 54
57 16
57 30
82 59
82 20
EC FA
09 30
09 46
09 65
26 40
26 37
53 11
53 32
53 38
53 17
AF AD
84 58
84 49
84 170
73 58
73 133
86 79
86 18
86 55
71 38
71 79
EF AA
EF AD
Ġt yp
CF FE
92 34
92 69
98 59
98 50
98 66
94 36
94 29
94 40
96 40
96 55
96 77
08 68
BC CD
06 50
06 22
02 54
02 728
db bb
BF FD
fa ef
cc ur
63 58
67 14
45 35
65 33
27 76
Äł F
Äł an
Äł st
87 38
87 78
25 32
25 39
25 19
43 72
43 30
43 78
43 13
23 56
23 54
23 58
83 39
93 00
93 74
dd itional
97 13
05 00
05 37
01 52
01 36
03 76
91 70
Â´ Â¯
ab ili
Â° Â¬
Â° Â¦
Â° Â¨
Â° Â¢
Â° Â¤
al ys
Â¶ Â¦
Â¶ Â¢
Â¶ Â¤
ÃĥÄ ¸
Ä¹ Ãł
Ġc ur
Ġc laim
af da
af ef
Ġo ver
Â½ Â²
bc eb
ad en
Ġin d
Ġin te
di o
Ġm or
Ġm al
Ġm em
ro perit
Ġf urther
Ġw ay
Ġw hether
Ġ1 36
Ġ2 72
Ġ2 40
un g
Ġ8 32
Ġ8 36
Ġ8 80
414 2
Ġde gli
ĠC ancer
616 2
Ġb lunt
Ġl l
Ġl en
849 2
849 6
849 7
Ġi r
ĠA ll
818 4
818 6
818 9
Ä¤ Ãª
644 1
644 8
Ä² Ãł
560 59
Äº Ãł
138 5
138 6
Äª Ãł
ta re
ta il
574 4
th ing
Ä¿ Ã¯
528 55
ĠF IT
330 98
716 0
716 4
716 8
782 89
132 3
611 9
154 1
332 9
158 1
559 1
511 3
134 2
134 6
732 5
618 6
CFE F
334 9
518 9
772 6
310 6
739 0
739 7
858 3
710 1
710 6
632 2
BDD D
750 6
ĠI MPLIED
214 6
Ġg estion
ĠE VE
269 1
269 8
658 8
672 3
130 5
ĠL ibrary
614 3
614 5
770 5
640 2
489 1
ur es
DFB E
474 1
880 4
DDB D
650 5
776 3
956 1
956 4
248 3
416 7
530 3
FFE A
EDB B
266 2
316 6
CFB C
432 8
811 4
336 5
812 3
989 0
472 0
918 6
570 6
870 2
ĠÃ£Ä ©
949 5
822 7
439 4
032 4
868 3
868 4
220 5
800 6
BEE A
BEE E
066 8
934 7
Ġ12 0
900 7
239 0
912 2
254 8
Ġre quired
479 3
678 3
072 2
468 6
BFE B
BFE F
010 64
DFE C
Ġst ata
928 7
929 4
ĠM app
ĠM dC
970 3
617 7
Ġtra n
990 3
775 7
040 7
014 4
am es
070 2
070 7
âĹĮðĳ Ĳ
âĹĮðĳ Ĵ
âĹĮðĳ ļ
652 1
980 9
028 6
430 7
962 6
513 18
Ġma p
038 7
ir urg
ĠG IL
Ġsu gg
0000000000000000000000000000000000000000000000000000000000000000 00000000000000000000000000000000000000000000000000000000
ht t
gra ms
Ġcom puted
Ġval ore
Ġex pres
ĠW h
Ġse para
Ġse gment
ĠÄ´ Ã¡
ĠÄ¼ Ã¡
ĠÄª Ã¡
ĠH CC
va mente
Ġac qu
ĠV er
Ġea r
Ġmea sur
tum ore
ous ly
ĠÃĦÂº ÃĥÂªÃĦ
Ġred istrib
Ġpos sible
Ġsca lar
Ġradi olog
Ġrece ive
Ġmicrovas culature
ens itÃł
ĠPRO GRA
Ġques to
Ġappro priate
Conver t
Ġhtt ps
arg et
Ġph ys
ĠTra uma
Ġperform ed
Ġnecess ari
anda rd
ĠPAR TICUL
medi ate
inding s
Ġtw o
othe lial
moxif en
ERCH ANTABILITY
URPO SE
ĠPROGRA M
ĠPARTICUL AR
0 798
0 362
0 308
1 393
1 399
1 799
2 788
5 760
5 389
5 309
6 508
6 382
6 151
6 375
7 788
7 508
7 782
7 502
7 746
7 331
8 797
9 509
9 522
9 780
A CDC
B CDB
B ABE
B CBF
B ADB
C R
C CEA
C CEF
D ABE
D ABA
E CED
E CBE
E FCC
E ADE
F ABE
F CBF
F FDB
I AL
M O
V D
` `
f r
f ia
g in
g al
k s
k en
k es
m ea
n a
x es
Ġ .
Ġ /
Ġ \
Ġ 797
Ġ 389
Ġ 769
Ġ 380
Ġ 175
Ġ CEC
Ġ 549
Ġ 373
Ġ 392
Ġ 744
Ġ 568
Ġ 808
00 79
00 85
00 21
00 436
11 33
11 26
11 87
11 495
32 89
32 75
32 96
32 81
32 854
72 56
72 15
72 62
72 53
38 34
38 58
38 19
38 13
38 42
38 81
38 882
12 29
12 63
12 179
39 84
39 86
39 04
39 47
39 770
54 33
79 16
79 85
79 83
52 75
52 53
52 27
52 530
34 88
34 08
34 97
34 139
16 69
16 44
58 48
58 31
58 98
76 32
76 78
76 83
59 86
59 85
30 52
30 18
30 64
30 24
30 63
50 10
50 42
50 46
14 38
14 55
14 08
14 61
14 01
10 32
10 54
10 10
10 61
10 234
19 38
19 52
19 86
78 70
78 09
78 92
78 23
78 91
74 58
74 71
74 87
74 25
74 798
70 16
70 55
70 57
70 46
70 379
18 39
18 84
18 07
20 39
20 19
20 66
20 40
29 29
29 99
29 03
29 010
80 58
80 68
80 97
66 79
66 99
66 41
66 07
66 138
40 85
89 10
89 31
49 79
49 57
AA FE
AA DB
60 76
60 43
22 40
22 42
22 23
CE AAB
69 79
69 18
69 49
69 75
69 47
69 422
CB CE
CB FD
CB BA
44 12
44 76
AB EB
FE DB
FD AF
13 34
13 19
13 152
88 74
88 35
88 42
88 85
15 79
15 332
AE EE
90 75
90 28
35 79
62 79
62 16
62 44
62 87
62 488
42 79
42 82
42 71
42 3622
68 14
68 49
68 68
68 77
68 57
68 63
48 11
48 20
48 68
48 256
DB EC
75 56
FC AC
33 37
99 76
99 78
99 26
99 47
AC AC
55 51
64 77
64 57
64 801
DD DD
77 54
77 334
28 64
28 71
28 27
28 47
28 122
BB BE
Âª Ã¢
CC FD
CC FA
EB EF
EB DC
EB DDC
24 11
24 53
31 34
31 30
31 768
ed db
82 17
82 57
46 30
46 44
ĠÃ ĭ
ÃªÄ £Ä
EC T
BD EF
09 00
09 78
26 80
AF FD
84 54
84 34
84 16
51 50
EF FB
ea ac
EA FB
Ġa ble
92 56
92 14
92 19
92 37
98 52
98 36
98 35
94 52
94 13
94 372
96 72
96 58
96 59
BE FB
BE CB
BE ADF
08 55
08 57
04 52
04 57
04 768
06 88
02 44
02 88
BF FC
DC AD
BA FE
fa fb
fa cd
ba be
cc cf
63 54
45 52
Äł B
Äł N
Äł R
Äł ne
87 79
85 10
eb dc
25 33
41 361
83 54
93 72
93 36
93 30
93 37
61 79
61 384
95 30
95 35
47 18
97 12
05 15
07 32
07 16
07 70
81 32
81 79
81 78
01 593
03 19
91 34
Â´ Â·
ab ile
Â° Â·
al ly
Âµ Ãł
Ġc r
ra g
ra tter
Ġs ti
Ġs ee
Ġp lace
ac romolec
Åĥ Ãł
Ġin ner
Ġm at
ro ad
Ã¢Ä¹Ä® Ã°Ä³
Ġf lu
Ġn etwork
Ġ6 00
Ġ6 80
Ġ6 51
212 44
Ġr est
Ġ1 52
um an
ion e
Ġ2 16
un a
Ġ8 00
st and
st anti
ĠĠĠĠĠĠĠĠ ĠĠĠĠĠĠ
414 8
Ġd type
Ġd ru
Ġd eceler
Ä¦ Ãª
Ġ9 44
Ġ9 68
Ġcon ver
ĠA s
âĹĮá ¨
âĹĮá ª
411 4
Ġ0 72
760 60
919 6
919 55
644 34
Ä¶ Ãł
711 2
ĠT um
558 43
574 2
574 47
700 9
330 1
330 7
569 44
358 5
358 7
358 23
716 00
556 2
219 04
319 5
300 2
300 9
754 09
ĠÃĥÄ ¿
158 9
314 9
559 7
359 2
359 4
338 7
572 39
400 5
400 7
Ġper i
772 1
714 1
714 3
EAE ED
710 24
Ġh eal
ag es
449 70
il d
872 7
672 4
130 1
si m
770 7
BDB BD
640 7
489 9
ur ing
550 1
460 3
460 4
880 5
650 11
Ġca si
422 2
248 2
416 6
779 3
179 6
170 7
EDB A
659 97
810 6
639 0
974 5
336 7
336 19
450 4
ĠÃ¢Ä¹Ä® Ãľ
289 4
370 7
629 1
629 4
649 2
649 6
440 59
689 3
276 79
280 4
622 3
622 24
840 4
178 1
420 6
822 1
Ġne oplas
ati co
016 0
060 3
934 8
Ġ12 48
058 74
216 8
019 4
019 9
968 6
080 29
240 1
938 5
090 2
969 4
480 5
230 87
072 7
Ġ18 4
468 4
958 5
976 42
BFE C
879 4
920 9
Ġst ruct
079 5
EDD D
ĠM RI
848 3
BEB F
852 5
ACE ED
056 8
916 8
BAE E
ded f
BBA FA
034 5
CFC AC
ess o
022 5
ÃĤÂµ ÃĦ
515 57
ĠR edistrib
385 31
Ġcom ple
.. .
Ġ34 4
ĠÄ¥ Ã¡
ĠÄ§ Ã¡
273 36
ÃħÄ¤ Ãĥ
ĠÄ³ Ã¡
ĠÄ» Ã¡
vas ive
ĠÄ¯ Ã¡
ĠÄ« Ã¡
bfb b
071 76
bl ig
ĠÄ² Ã¡
ĠÄ¶ Ã¡
Ġarray s
Ġle tteratura
Ġindi vid
ĠÃŃ ÅĢ
ÃĥÅĤ ÃĤÂª
Ġab s
ear ch
Ġeff ec
Ġur in
ĠÃĦÂª ÃĥÂªÃĦ
Ġred uction
Ġindica te
Ġext ra
ens ity
modif ied
row th
Ġenti re
Ġloca l
Ġwrit ten
ĠCol our
Ġacce pt
Ġpers on
load er
omark ers
encryp tion
ĠFIT NESS
Ġrest ric
0 599
0 224
1 760
2 161
2 304
2 153
3 191
3 520
3 790
4 728
4 782
5 595
5 529
5 790
6 792
6 708
7 708
7 528
8 526
8 309
8 308
8 190
8 369
8 169
8 547
9 560
9 389
9 786
9 308
9 573
A CBB
A FDE
A CBE
B AEA
B UT
C CEB
D AAF
E FDC
E CDE
E ADB
F CED
F ACA
M em
N ame
O D
P R
S U
b y
c k
c ent
c ece
f er
n ist
r on
r ebbe
t ec
t tati
u ter
v ic
v ato
Ġ ic
Ġ CBB
Ġ 526
Ġ 522
Ġ 540
Ġ CDC
Ġ ADA
Ġ 371
Ġ 133
Ġ 496
Ġ 624
Ġ 448
Ġ 408
Ġ 296
Ġ 992
Ġ 904
Ġ 0000000000000000000000000000000000000000000000000000000000000000000000000000000000000000000000000000000000000000000000000000000000000000000000000000000000000000000000000000000000000000000000000000000000000000000000000000000000000000000000000000000000000000
00 11
00 30
00 37
00 04
00 02
11 34
11 59
11 77
11 94
11 04
11 418
11 861
11 427
32 76
32 51
32 93
32 242
32 515
56 10
56 70
56 26
56 51
56 71
56 91
56 380
72 79
72 36
72 19
72 78
72 70
72 31
72 04
72 27
72 708
38 26
38 53
38 47
38 07
38 613
12 12
12 36
12 09
12 26
12 87
12 47
12 859
39 70
39 80
39 37
39 51
39 94
39 07
39 629
54 80
54 15
54 85
54 172
54 674
79 48
79 95
52 38
52 59
52 43
52 41
34 00
34 60
34 31
36 94
36 27
36 43
36 23
36 411
16 66
16 40
16 62
16 09
16 81
58 542
76 11
76 52
76 29
76 80
76 22
76 55
76 71
76 81
59 38
59 68
59 55
59 45
59 318
30 16
30 60
30 21
30 132
30 390
50 11
50 45
50 97
14 12
14 10
14 49
14 64
14 67
14 551
10 52
10 30
10 74
10 49
10 73
10 95
10 836
19 20
19 62
19 418
78 05
78 781
74 00
74 68
74 86
74 63
74 61
74 95
74 878
70 23
18 75
18 64
18 86
18 63
18 67
18 91
18 042
20 18
20 65
20 95
20 238
29 11
29 16
29 09
29 98
80 69
80 13
80 45
80 549
66 80
66 13
66 62
66 48
66 28
66 04
66 27
66 43
66 03
40 32
40 60
40 51
40 67
40 25
40 811
89 26
89 08
89 97
49 49
AA BC
60 5567
22 74
22 73
CE BF
CD AF
FB FB
FB DD
69 53
69 92
69 98
69 107
69 933
CB BF
44 00
44 50
44 47
44 750
44 229
AB CC
AB EA
FE AF
FD AD
FD EB
FD EC
88 19
88 44
88 55
15 75
AE AD
AE FC
90 56
90 13
90 31
90 63
90 27
90 95
90 9460
62 11
62 30
62 70
42 58
42 76
42 29
68 400
DB AE
DB ED
FC FE
EE FF
EE FEB
33 30
99 20
99 92
99 61
AC FA
64 54
64 66
DD DB
DD DF
BB EE
CC CD
24 88
24 63
24 756
ED EB
ED ED
ED EA
ed ed
ed fa
57 34
57 17
57 75
82 48
82 73
BD ED
09 68
09 63
09 61
AF AE
AF ABD
84 38
84 12
84 20
84 536
84 749
73 76
73 19
86 36
86 88
86 743
ec ea
EF CD
ea db
CA FD
CF CB
92 36
92 31
92 73
92 71
92 512
98 11
98 22
94 72
94 79
da eb
da aa
96 176
BE AD
08 39
08 76
08 30
08 18
08 80
DE FF
DE BB
DE CEA
DE FEE
06 48
02 52
02 71
Ã¢ Ä¨
DA FA
DA FEB
BF CD
DC AC
fa ab
de lla
67 56
45 79
45 75
Äł E
Äł I
Äł W
Äł di
Äł com
85 198
ff de
ff fd
ff ic
eb ea
eb cb
43 502
43 173
23 36
âĹĮ ðĸ¬
83 36
93 18
61 58
61 59
47 72
47 70
47 37
dd ea
dd fb
21 56
97 52
or o
ti s
ce ee
05 35
05 757
81 54
03 59
03 17
91 56
bb ff
bb bd
cf eb
Â´ Â°
Â´ Â©
ab fa
Â° Â¿
Â¶ Â¬
Â¶ Â¨
Â¶ Â«
Ġs olo
Ġp en
Ġp ublic
bf ba
Ġo blig
Â½ Â¹
Ġin crea
cd fb
ae ec
ĠÃ¡Ä £
ro un
an za
Ġan ni
Ġe ven
Ġf u
Ġf low
Ġf reedom
Ġf indings
212 1
212 8
Åģ Ã¢
Ġr ead
ðĶ Ļ
ion s
Ġ2 32
Ġ3 76
ĠP URPOSE
ĠÃ¢ Ä¤
Ġ4 32
Ġ4 80
Ġ8 56
Ġ8 16
st eals
Ġde signed
Ġde tail
ĠC lin
Ġb oth
788 666
Ġv is
ar di
Ġ9 12
Ġ9 52
Ġ9 76
ĠA ss
âĹĮá Ń
411 2
Ġdi men
Ġdi rect
554 1
512 0
711 3
711 6
356 2
708 59
312 1
312 5
700 4
700 5
719 6
534 7
534 9
534 26
716 6
454 4
454 5
734 7
339 5
339 6
339 38
219 7
319 4
536 6
539 7
158 3
758 09
314 0
314 1
559 0
559 84
159 83
511 1
511 8
134 9
359 0
732 03
510 1
712 2
712 5
712 8
572 4
572 7
656 4
518 4
518 5
400 99
100 7
310 9
311 88
714 5
514 6
374 5
270 1
449 4
449 85
Ġg re
Ġg ial
466 5
458 8
229 4
229 7
872 18
658 9
859 1
859 6
234 6
BDB C
489 2
489 5
DFB F
829 0
829 8
qu ence
qu ival
AFE F
per s
460 1
CBF AC
650 4
Ġ11 2
FFE D
266 3
874 9
AEC FF
659 7
532 5
ĠS u
911 1
136 66
730 1
440 8
689 0
836 1
820 8
280 3
839 4
249 0
272 9
738 3
462 3
420 9
018 4
654 3
Ġy ell
838 6
838 7
EBB CE
439 0
439 81
868 1
868 5
ati ca
016 7
016 8
220 7
Ġ10 24
BEE F
058 4
900 3
910 6
969 9
039 4
479 1
259 0
259 4
259 7
922 60
011 7
468 7
958 17
844 4
844 5
976 5
BFE E
778 7
FCE FC
436 5
210 7
929 9
ĠM icrosoft
ĠM ERCHANTABILITY
842 1
914 7
914 9
012 6
BEB C
CCB EB
089 1
869 0
856 2
029 6
260 1
EAA BC
âĹĮðĳ ĭ
980 4
959 2
264 6
CAD CA
Ġma ko
EFF AB
ir en
984 3
Ġda l
046 1
455 39
115 31
255 3
BAD DE
eef b
if est
835 19
Ġcom pl
Ġcom par
Ġ15 36
tra um
Ġex pl
Ġex clu
Ġex peri
dcb e
ĠW e
ĠÄ¸ Ã¡
ĠÄ£ Ã¡
Ġpar te
sac tion
ĠÄµ Ã¡
ĠÄ© Ã¡
Ġus ers
ĠÃ¢Ä¹Ä®Ãł ÅĤ
Ġqu ali
ĠÄ° Ã¡
633 76
ĠÅĤ Ã¡
ĠÄ¾ Ã¡
ĠÄ¦ Ã¡
ĠH OLDER
ĠÄ® Ã¡
ĠÄ¢ Ã¡
Ġad enocarcinoma
ib it
ort MsgKAT
Ġpo int
Ġcol ore
Ġinter ac
ĠK eccak
Ġvas colare
od y
ĠPro duct
eg al
ie w
Ġiter ation
Ġef fe
Ġpati ent
ĠÃĥÅĤ ÃĤÂª
Ġinclu ding
pati c
Ġpazi ente
mag ini
las si
Ġidenti fica
man ifest
ran ge
ministra tion
ĠÃĥÄ¬ ÃĦ
Ġsul la
Ġ` `
mp re
Ġfac t
ĠWARRANT Y
Ġhtt p
rou gh
Ġpermit ted
Ġbas si
Ġinst all
Ġpropag ate
Ġob tain
Ġrecipi ent
Ġreason able
ĠSh ortMsgKAT
Ġesperi enze
Ġfail ure
ĠDAMAG ES
ghijklm n
Ġdisclaim er
Ġsomministra zione
ĠEx ception
Ġ../ ../
alys is
aden op
Ġheal thy
Ġgial lo
Ġyell ow
- >
0 191
0 190
0 157
1 797
1 599
1 598
1 308
1 369
2 709
2 389
2 773
3 393
3 760
3 528
4 393
4 399
4 569
4 524
4 190
5 308
5 355
5 373
6 788
6 528
6 522
6 780
6 388
6 157
7 191
7 309
7 780
7 373
8 788
8 4252
8 704
9 728
9 393
9 789
9 173
9 351
B FDA
C or
C CBB
C CDB
C ADC
C ADF
D CCA
D EDF
E CDD
E CEA
E ACC
E ACF
F CDE
I M
I SE
O UT
a es
a ys
c op
n ed
n um
o per
o ther
o od
p re
r al
s ono
t om
t est
u g
v ia
x im
z zazione
Ġ ion
Ġ 569
Ġ key
Ġ 362
Ġ 309
Ġ 388
Ġ 357
Ġ 155
Ġ 303
Ġ 747
Ġ 626
Ġ 664
Ġ 888
00 54
00 63
00 03
11 58
11 74
11 60
11 68
11 47
11 01
11 238
11 920
32 56
32 80
32 66
32 62
32 94
32 63
56 75
72 82
72 73
72 155
72 165
38 12
38 79
38 14
38 74
38 64
38 82
38 94
38 668
12 19
12 35
12 42
12 24
12 53
39 48
39 27
39 87
39 05
39 680
54 56
54 39
54 89
54 46
54 25
54 83
79 52
79 71
52 54
52 76
52 50
52 49
52 87
34 75
34 55
34 67
34 81
36 19
36 28
36 57
36 51
36 71
36 41
36 356
16 52
16 43
16 878
58 78
58 55
58 04
58 63
58 93
58 81
58 878
76 50
76 89
76 15
76 35
76 45
59 57
59 98
59 02
59 47
59 21
30 99
50 95
14 69
14 35
14 86
14 71
14 176
10 38
10 66
10 86
10 98
10 96
10 93
19 06
78 88
74 19
74 43
74 558
70 37
70 64
70 94
70 21
18 57
20 21
20 248
29 34
29 28
29 96
29 95
29 611
80 11
80 12
80 10
80 19
80 94
66 29
66 90
40 19
40 17
40 48
40 87
40 61
40 21
89 30
89 15
89 55
89 06
89 25
49 00
49 10
49 70
49 71
49 67
49 45
49 138
49 132
AA FB
AA CC
AA DF
AA BF
60 58
60 70
60 20
60 44
60 82
60 350
22 11
22 62
CD FF
FB FE
69 40
69 35
69 94
69 45
69 43
69 254
CB FB
CB CB
CB FA
44 89
44 26
44 84
FE CA
FD DB
13 79
13 356
88 75
15 17
17 76
17 59
17 70
17 13
17 71
AE AC
AE BB
AE FA
90 11
90 20
90 82
AD AD
AD CF
62 36
62 84
42 13
42 37
42 61
37 56
68 804
48 54
48 74
48 44
48 53
48 51
48 758
DB FE
75 16
FC CD
FC AB
EE FE
EE DE
EE DC
33 52
33 17
99 36
99 64
99 31
99 21
AC FF
55 78
55 15
55 304
55 514
64 80
64 63
77 10
77 18
77 760
28 14
28 37
EB CE
EB AB
24 00
24 30
24 14
24 70
24 80
24 61
ED EF
82 12
46 76
46 29
BD EE
09 53
09 536
ca fb
ca use
26 76
26 78
73 34
73 18
73 15
86 19
86 53
ea de
EA CE
Ġa erodiges
Ġt ext
Ġt ardi
CF AC
92 16
92 20
92 44
98 32
98 53
98 73
98 136
94 311
da ea
ef be
ef ul
96 38
96 29
BE CE
08 32
08 34
08 70
08 42
08 75
06 16
06 70
06 40
06 35
06 77
06 73
06 352
02 38
02 10
BA FF
fa cf
fa dc
ba ec
ba ad
cc be
67 19
45 37
65 00
65 38
65 59
65 78
27 35
Äł se
Äł th
Äł qu
Äł po
87 72
85 16
85 348
ff ef
eb fb
25 13
25 329
âĹĮ êł
41 59
41 724
cb ff
93 32
93 52
93 50
95 56
47 38
47 31
21 54
97 11
ti g
05 19
05 74
05 70
07 54
07 52
07 10
81 56
01 50
aa aa
03 37
bb ed
Â´ Â¬
Â´ Â®
Â´ Â¸
ab or
Â° Â¶
Â° Â£
Â± Â·
Ġs urgery
Ġs ystem
fc fa
Ġp l
Âº Ã¡Âµ
af cc
af df
Ġo ve
Â½ Â¾
Â¾ Â³
ad ef
fd cc
ĠÃªÄ ´
Ġm ark
at ti
an i
Ġn ame
Ġ6 32
Ġ6 56
Ġ6 72
Ġ6 88
Ġ6 48
âĹĮà ¨
âĹĮà ª
Åģ Ã¯
um Py
Ġ2 00
Ġ2 18
Ġ2 64
Ġ2 008
Ġ7 76
Ġ7 74
Ġ3 56
ri o
Ġ4 00
Ġ4 56
Ġ8 72
ĠĠĠĠĠĠĠĠ ĠĠĠĠĠ
Ä§ Ãª
Ġde ve
ĠC ode
Ġl ong
Ġl icens
849 1
ar ray
ter i
Ġ9 88
Ġ9 28
ĠA R
ĠA l
ĠÃł Âµ
818 8
Ġdi ver
âĢ Ŀ
919 0
644 3
Ä¨ Ãª
138 0
138 8
ta tive
711 00
356 4
356 7
708 64
Ä¬ Ãª
524 69
200 2
200 6
132 8
et t
Ä° Ãł
Ã¡Âµ ÂºÃ¡Âµ
339 2
526 49
529 69
536 1
ica lly
ĠÃĥÄ ¥
539 0
154 5
758 5
758 56
511 6
511 7
134 7
359 3
354 6
510 2
510 9
338 6
334 2
634 6
EFB F
656 7
656 14
156 2
174 7
310 8
714 2
714 9
718 3
710 4
710 5
710 9
376 2
318 6
632 5
774 1
BDD F
379 5
750 4
750 7
ĠD AB
ĠI I
612 0
214 8
418 0
211 7
600 8
Ġg ive
458 6
229 1
229 3
658 3
658 26
ĠL e
ĠL egal
Ġal ter
139 6
550 5
DFB AB
mo de
474 8
829 7
880 1
579 4
476 2
Ġca ratter
422 5
274 8
530 2
179 4
EDB C
EDB D
874 1
DEE E
316 3
680 2
811 0
456 4
911 2
136 7
649 4
649 9
730 2
EFE F
689 7
836 5
820 7
819 5
280 7
519 5
759 00
Ġ16 0
279 5
988 8
Ġpro tocol
840 7
832 2
966 6
578 3
420 4
654 5
889 2
020 8
099 5
016 3
800 9
800 12
066 78
488 4
934 2
944 1
239 5
239 7
Ġre la
---- -
039 8
ver s
ver so
244 6
860 2
960 1
069 2
DFE A
DFE E
920 6
EDD C
ĠM R
152 3
642 1
617 00
088 5
869 3
Ġ19 2
675 1
990 9
775 1
775 3
062 4
830 2
876 4
034 4
862 4
948 7
022 8
828 4
Ġsu ccess
Ġda lla
515 11
722 57
rib ution
pro duce
dcb d
con o
acc b
Ġse mpre
Ġter min
Ġch irurg
ĠÂµ Ã¡
ĠÄ· Ã¡
ĠÄŃ Ã¡
Ġres ult
vas colari
Ġqu anto
ĠÄ¿ Ã¡
ĠH owever
ĠÄº Ã¡
ree ment
ph ic
ib le
ĠU rol
00000000000000000000000000000000000000000000000000000000000000000000000000000000000000000000000000000000000000000000000000000000 000000000000000000000000000000000000000000000000000000000000000000000000000000000000000000000000000000000000000000000000
RI BUT
Ġpo or
Ġpo si
Ġinter face
Ġle gal
OR T
ven tion
Ġro sso
ĠIN CLUDING
ru e
Ġret to
Ġther efore
Ġpres enza
van t
Ġrep orted
Ġmonitor aggio
ast as
Ġcorre l
du zione
Ġanim ali
ĠLI ABILITY
Ġspecif ied
ĠÃĥÄ² ÃĦ
Ġsub stanti
Ġques ti
ĠÃĥÄ³ ÃĦ
Ġcomp il
Ġmedi ante
Ġdes cri
Ġend othelial
ĠTh ese
Ġpermeab ilitÃł
Ġpred ic
Ġmicrocir colo
Ġmaggi ore
ME NT
ins um
Ġoper and
Ġfla gs
inclu ding
ĠQ u
apeu tic
Ġinfring e
BL AS
Ġos ser
Ġdemonstra ted
Ġmem ory
Ġphys ical
lassi fica
% âĢĵ
. :
0 898
0 769
0 704
0 540
0 355
0 594
1 526
1 362
2 708
2 529
3 768
3 375
4 169
4 177
5 380
5 704
5 304
5 388
6 380
6 308
6 368
7 393
7 768
7 797
7 569
7 377
8 760
8 560
8 509
8 380
8 151
8 757
9 399
9 798
9 777
A ll
A CEF
A FDB
B FCC
B FBA
B EDE
C om
C CDF
C AAD
C CDC
D FCA
E ADA
F ADA
G ener
I ON
L I
O n
P Q
T C
a dee
c tion
c li
c ecd
d ecf
d faa
d dee
e eaf
e ecb
f i
f ead
f eaf
f cce
h ibit
l en
l icenses
m un
m all
p r
p resent
q r
r un
s rc
s pec
t ri
v c
w or
w rit
y ear
« êĻ
Ã «
Ġ AAD
Ġ 382
Ġ 547
Ġ FDB
Ġ 137
Ġ FBB
Ġ Object
Ġ 355
Ġ 135
Ġ 328
Ġ ÎĶR
ľ âĦ
00 76
00 84
00 47
00 900
00 2460
11 38
11 54
11 29
11 35
11 62
11 86
11 318
11 689
32 33
32 55
32 41
32 47
32 556
32 163
56 79
56 09
56 53
56 08
56 472
72 10
72 64
72 51
72 06
72 07
72 678
38 63
38 393
12 75
12 55
12 28
12 31
12 93
12 81
12 279
12 503
39 17
39 77
39 98
39 65
39 522
54 54
54 70
54 69
54 90
54 26
54 06
54 61
54 97
54 05
54 611
54 578
79 62
79 28
79 94
79 27
79 792
52 02
52 63
52 138
34 59
34 22
34 53
34 84
34 06
34 414
34 012
34 441
36 74
36 15
36 85
36 579
16 19
16 78
16 61
16 552
58 72
58 54
58 15
58 28
58 27
76 70
76 44
76 84
76 623
59 69
59 13
59 62
59 73
59 51
59 96
59 01
59 293
59 406
30 79
30 30
30 98
30 94
30 7310
50 29
50 24
50 82
50 86
50 159
50 309
14 36
14 80
14 22
14 26
14 51
14 63
14 87
14 41
14 229
14 434
10 78
10 40
10 22
10 85
10 91
10 270
10 232
10 151
19 56
19 59
19 23
19 47
19 81
19 252
19 617
78 00
78 36
78 647
74 79
74 52
74 44
74 13
74 26
74 83
74 81
70 43
18 36
18 30
18 35
18 696
18 438
20 156
20 910
29 37
29 31
29 989
29 065
29 5511
80 63
66 61
40 11
40 84
40 47
40 368
40 519
40 492
89 33
89 86
89 41
89 654
89 892
49 38
49 39
49 16
49 66
49 69
49 04
49 25
AA AC
AA DE
AA ABC
60 74
60 62
60 99
60 382
22 17
22 27
22 47
22 312
22 334
CE AD
CE EA
CD AE
CD DBC
FB CB
FB CF
69 39
69 78
69 33
69 55
69 73
69 71
44 46
44 858
AB FE
AB AC
FE EF
FE EA
FD FD
13 11
13 36
13 70
13 396
88 29
88 77
88 21
15 30
15 510
15 130
17 36
17 17
17 31
AE CB
90 58
90 30
90 50
90 78
90 49
90 86
90 866
90 101
90 5379
AD EE
AD DC
62 47
62 117
42 30
42 18
42 31
37 70
68 18
68 20
68 65
68 269
68 672
68 248
48 14
48 70
48 69
48 15
48 62
48 48
48 55
48 64
48 27
48 510
48 547
48 279
DB FB
DB AC
DB BE
FC AE
EE CB
EE EE
EE BA
EE BBE
33 175
99 79
99 13
99 88
99 33
99 24
99 67
99 916
99 8070
AC CE
55 14
55 700
55 776
55 370
55 184
DD FB
77 75
28 10
28 42
28 26
FF CE
BB DE
Âª Ã¡Ä©
Âª Ã¡Ä¨
CC CC
EB CF
EB DE
24 78
24 67
24 65
FA FB
FA FA
ed cc
57 18
57 549
82 34
82 55
46 18
EC AC
BD FA
BD ADA
09 12
09 82
09 83
09 274
26 558
26 511
53 30
84 15
51 39
51 30
51 782
86 52
86 33
71 59
ec fc
ec ro
in am
in ali
EF FC
EF CBC
ea t
ea fa
ea fc
ea fd
ea se
Ġa e
Ġa te
CA ST
92 40
92 64
98 60
98 77
94 39
94 20
94 62
94 303
ef ef
ef df
96 70
BE AB
BE AC
08 38
DF CD
04 11
04 49
04 15
04 716
DE FE
DE AD
06 58
06 44
06 156
02 73
02 708
db ee
BF CE
fa ba
fa ee
fa rmac
de m
ba cf
cc dd
cc cd
63 12
63 34
67 54
67 78
45 70
65 54
65 17
27 58
Äł u
Äł ca
87 54
ff db
eb cf
25 35
25 77
43 52
43 35
23 15
23 788
23 705
23 1511
âĹĮ ãĢ
âĹĮ ê«
41 78
93 79
61 36
47 56
47 16
dd df
21 38
21 540
fb bc
or ectal
05 75
07 31
aa bc
91 32
cf ce
Â´ Â«
Â´ Â¿
ab fb
ab cf
ab fc
Ġth rough
Â° Â§
Â° Â«
Âµ Ã¡Ä©
Âµ Ã¡Ä¨
Â¶ Â£
Â¶ Â¯
Â¶ Â§
Â¶ Â©
ÃĥÄ »
Ä® Ã¡Ä©
Â± Â¯
ðĳ Ļ
fc ff
Ġp y
Ġp ed
Ġp rec
Âº Ã¡Ä©
Âº Ã¡Ä¨
is ed
Åĥ Ã¡Ä©
Åĥ Ã¡Ä¨
ad ed
ad ec
cd db
re qu
re tto
Â¼ Â³
Â¼ Â¹
Ġm am
ro priate
an y
Ã¢Ä¹Ä® ÃªÂª
Ġe pati
Ġe insum
Ġn ames
728 78
âĹĮà ¹
Ġ2 80
Ġ2 88
Ġ2 000
ri de
Ġ4 40
Ġ4 88
Ġ4 33
Ġ8 42
Ġ8 64
st ate
Ä§ Ã¡Ä©
414 5
Ä¦ Ã¡Ä©
om e
616 7
Ġl ater
Ã¡Ä© Ä£
Ã¡Ä© Ä¥
Ã¡Ä© Ä©
Ã¡Ä© ÄŃ
Ã¡Ä© Ä«
Ã¡Ä© Ä±
Ã¡Ä© ÂªÃ¡Ä©
Ã¡Ä© ÂµÃ¡Ä©
Ġv en
Ã¡Ä¨ ÂªÃ¡Ä¨
Ã¡Ä¨ ÂµÃ¡Ä¨
4252 2
Ġ9 36
Ġ9 20
Ġ9 60
ĠA J
818 0
411 8
3738 53
3132 1522
256 26
919 21
554 7
512 6
138 09
792 75
711 94
ĠT H
ĠT er
708 60
399 32
312 6
558 3
558 7
574 82
172 1
700 419
799 71
509 32
528 69
719 3
524 33
716 9
716 96
Ä¼ Ãł
599 40
Ä¯ Ã¡Ä©
782 10
598 39
598 54172
200 9
219 6
611 5
611 6
529 79
536 2
300 79
502 39
754 1
Ġu t
154 2
372 3
372 7
332 0
158 6
158 47
158 258
CEB DBB
159 2
134 8
134 370
359 7
732 9
732 43
354 2
354 66
354 02
618 9
CFE B
334 5
634 0
634 4
572 9
656 6
156 3
518 2
400 49
310 3
310 5
311 0
311 1
EAE CF
718 0
369 31
858 2
710 3
376 5
318 0
500 9
514 5
Ġh owever
Ġh uman
374 82
600 87
176 1
Ġg ro
Ġg rowth
736 3
466 2
ĠE n
ADD FA
229 9
Ġal le
Ġal cun
234 9
469 3
469 4
770 1
576 7
640 1
640 3
ur ed
516 86
474 4
829 6
AFE A
460 8
880 2
DDB A
579 1
288 5
776 00
422 3
422 7
779 71
834 7
170 3
268 6
679 44
CDE AD
676 5
410 4
410 9
610 3
972 0
CFB AA
680 9
680 88
549 78
432 2
432 9
639 2
639 4
639 8
974 7
336 66
ĠS T
456 7
450 40
450 93
ĠÃ¢Ä¹Ä® Ãĸ
289 7
136 34
649 7
150 3
150 5
688 2
472 1
918 4
918 7
EFE FE
820 4
429 5
429 56
280 1
839 14
622 8
279 3
272 0
272 5
Ġpro pri
id enti
832 7
462 5
420 54
076 1
889 4
838 1
EBB F
439 1
Ġbe low
ist ono
099 6
Ġne ph
868 6
868 7
220 6
Ġ10 16
488 3
944 3
zion ale
216 6
216 20
900 9
019 18
074 4
080 6
044 1
452 3
254 6
262 1
262 4
480 2
922 7
922 34
Ġ18 80
Ġ18 96
960 3
069 7
434 0
958 0
958 8
Ġ14 4
010 3
010 6
010 54
Ġst ated
436 1
932 5
932 54
928 2
210 2
210 8
939 1
939 10
929 6
ĠM ar
012 4
DBF FC
470 5
979 59
089 7
869 2
Ġtra ttati
est e
Ġ19 76
Ġ19 92
Ġit em
990 2
242 6
260 7
pp o
âĹĮðĳ ģ
âĹĮðĳ Ī
âĹĮðĳ ĸ
830 59
916 6
ACB FC
630 1
630 5
978 7
862 8
575 3
942 1
ĠĠĠĠĠĠĠĠĠĠĠĠĠĠĠĠ ĠĠ
054 4
954 1
954 3
930 72
gi a
086 89
Ġwh ereas
Ġ20 8
Ġ20 16
Ġ20 48
926 1
024 7
pi a
ĠR E
ĠR o
064 6
064 7
498 13
ori z
eed c
BED FC
fba c
cca c
Ġim magini
ĠÄ¤ Ã¯
ĠÂª Ã¯
su b
afb e
ĠÄ¨ Ã¯
ĠÄ¸ Ã¯
Ġse ll
Ġpar ties
Ġpar tico
co de
co vered
Ġch o
do cs
ĠÅĢ Ã¡
Ġres ol
dfb d
ĠÂº Ã¡
Ġsh ape
ĠÅĥ Ã¡
ĠÄ½ Ã¡
po int
IN CLUDING
Ġnel le
pl an
no si
vi ce
ĠU ser
RI S
Ġobject s
han i
ĠPro cess
Ġba se
Ġmed ia
Ġmodif ications
par ench
Ġag ent
Ġag ents
Ġiter ated
Ġanti an
Ġmode llo
Ġdis p
uti lizz
AT L
In dex
ĠĠĠĠĠĠĠĠĠĠĠĠĠĠĠĠĠĠĠĠĠĠĠĠĠĠĠĠĠĠĠĠ ĠĠ
Ġ- >
oun d
Ġele ments
ĠCom put
ĠCom pilation
quir ing
Ġauth oriz
inal ly
An d
Ġtess uti
Ġme thod
Ġme todi
pen BLAS
Ġsecon da
lay ed
Ġdocument ation
Ġtem po
Ġow n
iol i
ww w
Ġdimostra to
Ġup per
effe tto
Ġrisul tati
Data Mem
Ġsing le
Ġsupp ort
pat ent
Î¼ m
album in
Ġpol mon
Ġves sels
ĠIm aging
ĠWITH OUT
Ġtecn ica
Ġadvan ced
84170 40
Ġclaim s
roperit on
ĠMapp a
Ġtran saction
htt p
Ġacqu isi
Ġredistrib ute
stand ing
sim ple
Ġgre en
Ã¡Ä©Ä£ Ã¡Ä©
Ã¡Ä©Ä¥ Ã¡Ä©
Ã¡Ä©Ä© Ã¡Ä©
Ã¡Ä©ÄŃ Ã¡Ä©
Ã¡Ä©Ä« Ã¡Ä©
Ã¡Ä©Ä± Ã¡Ä©
" )
/ >
0 529
0 789
0 164
0 746
0 304
0 382
0 371
0 545
0 777
1 528
1 789
1 746
1 309
1 785
2 528
2 368
2 355
2 371
2 177
3 708
3 524
3 769
4 708
4 304
4 388
4 371
4 135
5 792
5 569
6 292
6 599
6 502
6 786
6 155
6 571
7 161
7 137
7 151
8 595
8 502
8 786
8 224
8 780
8 540
8 137
8 463
9 526
9 529
9 157
9 177
A IM
B FFF
B FCF
B FBF
B FAF
B EDA
C h
C CBE
C AEF
D CDD
D FDB
D ABF
E x
E FDA
E CCC
E MENT
F R
F AAE
F ACC
F FDC
F ADB
F FBB
F ADE
F FBA
G PL
G EN
L o
P V
Q U
R adi
S e
W ISE
a eff
a cfd
b ecc
c ebc
c us
d eae
e le
f ebf
f ine
g l
g ith
j ury
l ist
l esion
m enti
m ary
m ission
o ok
p a
u ale
u ced
w xy
³ â´
Ã ¬
Ġ 161
Ġ 898
Ġ AAC
Ġ CDD
Ġ CEE
Ġ CDB
Ġ CBE
Ġ CDA
Ġ FCF
Ġ FCC
Ġ AEB
Ġ EED
Ġ 004
Ġ 301
Ġ 571
Ġ 333
Ġ 325
Ġ 891
Ġ EAEED
Ĩ ï½
00 39
00 58
00 14
00 64
00 31
00 57
00 518
00 757
00 4318
00 8040
00 9339
11 31
11 57
11 798
11 559
11 044
11 4730
32 69
32 82
32 87
32 856
32 743
32 7802
56 76
56 59
56 5398
72 18
72 66
72 75
72 99
72 61
72 3013
72 9538
38 00
38 56
38 38
38 49
38 75
38 98
38 539
38 338
12 38
12 59
12 69
12 73
12 92
12 02
12 27
12 85
12 95
12 736
12 276
12 7890
39 53
39 572
39 567
39 725
54 45
54 81
54 614
79 56
79 24
79 57
79 87
79 634
79 564
79 3268
52 11
52 22
52 55
52 46
34 79
34 19
34 29
34 82
34 21
34 940
34 341
34 862
34 477
34 2248
34 5359
34 8294
36 31
36 84
36 21
36 891
36 823
36 5714
36 70859
16 76
16 64
16 760
16 889
16 608
16 424
58 79
58 52
58 45
58 43
58 61
58 350
58 619
58 144
58 181
58 8062
76 39
76 68
76 01
59 56
59 29
59 66
59 95
59 618
59 640
59 896
59 883
30 86
30 289
30 6098
50 44
50 64
50 96
50 41
50 83
50 47
50 897
14 54
14 57
14 65
14 23
14 739
14 216
14 928
14 014
14 513
14 165
14 5890
14 7036
14 1140
14 6806
10 79
10 13
10 35
10 48
10 31
10 644
10 374
19 16
19 87
19 95
19 01
19 898
19 218
19 6037
19 6507
19 83914
78 52
78 14
78 66
78 62
78 68
78 33
78 55
78 84
78 96
78 93
78 389
78 136
78 104
78 305
78 447
78 163
74 15
74 84
74 98
74 08
74 314
74 756
74 810
74 016
74 948
74 104
74 585
74 685
74 0459
70 20
70 93
70 5557
18 17
18 33
18 73
18 61
18 03
18 268
18 688
18 578
Ãĥ Åģ
20 78
20 55
20 82
20 71
20 25
20 93
20 454
20 87833
29 69
29 84
29 520
29 618
29 858
29 579
29 966
29 855
29 424
29 402
29 5098
29 7725
80 54
80 59
80 61
80 710
80 352
80 966
80 876
80 546
80 5689
80 8265
80 8383
66 72
66 94
66 25
66 323
66 6775
40 76
40 69
40 42
40 216
40 896
40 291
40 7958
89 70
89 40
89 13
89 554
89 529
89 676
89 205
89 6318
49 89
49 37
49 82
49 632
49 880
49 552
49 608
49 290
49 607
49 162
49 74878
AA CE
60 56
60 80
60 55
60 83
60 61
60 97
60 330
60 301
60 891
60 726
60 475
60 993
22 12
22 26
22 86
22 25
22 6054
CE EE
CE BC
CD CE
CD DD
CD CC
CD BF
FB FD
FB BB
FB BD
69 11
69 06
69 91
69 242
69 447
69 3359
CB DB
CB EB
CB EC
44 36
44 30
44 17
44 33
44 61
44 698
44 7554
AB AE
AB BE
AB LE
FD AB
FD BA
FD FCA
13 71
13 558
13 363
88 39
88 69
88 818
88 169
88 449
88 829
88 450
15 10
15 73
15 511
15 350
17 57
17 301
17 742
AE CEE
AE AAF
90 72
90 52
90 36
90 18
90 25
90 739
90 989
90 979
90 847
90 6138
35 164
35 780
35 530
35 357
35 589
35 7779
AD EC
62 78
62 29
62 35
62 55
62 31
62 190
62 5627
62 5488
42 38
42 39
42 74
42 676
42 839
42 642
42 631
42 57980
37 77
37 334
37 188
68 32
68 59
68 30
68 74
68 17
68 454
68 376
68 239
68 586
68 3090
48 34
48 35
48 73
48 61
48 244
48 322
48 706
48 3575
48 5739
DB BF
DB FEE
DB BDC
75 31
75 540
FC CF
EE EC
EE CA
EE FBC
EE DBB
33 15
33 7853
99 30
99 28
99 45
99 25
99 711
99 476
99 998
99 985
99 4480
99 1827
55 570
55 727
55 342
55 363
55 188
64 11
64 52
64 71
64 502
64 559
64 006
64 324
64 787
64 496
64 3872
DD EA
DD CA
DD DAB
77 52
77 59
77 71
77 169
77 544
77 1100
28 13
28 62
28 24
28 43
28 61
28 460
28 579
28 303
28 324
28 2464
28 5242
BB DD
BB BB
BB ADA
Âª Ã¡Ä§
Âª Ã¡Ä¦
CC FDE
EB FE
EB EE
EB AEB
24 39
24 40
24 68
24 368
24 738
24 3096
ED FF
ED EBF
FA FDB
31 549
ed ec
ed fb
ed cf
ed ee
ed dc
ed be
57 10
57 188
82 70
82 60
82 44
82 88
82 67
82 61
82 132
82 310
82 316
82 688
82 447
82 1103
82 75158
82 61700
46 39
46 798
46 510
46 500
46 3019
46 3890
BD CF
09 14
09 20
09 22
09 15
09 55
09 115
09 381
09 442
09 7876
09 3029
09 0029
09 1146
ca v
ca ef
ca ce
ca rcinoma
26 34
26 70
26 88
26 33
26 169
26 137
26 555
26 7512
53 18
53 371
AF FB
AF AC
AF AECE
84 56
84 10
84 7514
73 35
73 792
73 524
51 508
86 72
86 16
86 89
86 325
86 703
86 408
71 54
71 341
ec da
EF AC
ea ff
ea af
ea ad
EA CDB
Ġt u
92 109
92 2964
92 6609
92 8813
on a
98 79
98 46
98 139
98 106
98 4849
94 69
94 37
94 75
94 605
da ed
da ef
da bd
ef bf
96 546
BE CC
08 62
08 64
08 77
08 716
08 782
08 738
04 32
04 12
04 50
04 64
04 51
04 176
04 549
04 325
BC FF
BC FBE
DE AC
DE DBBB
06 89
06 008
06 747
06 1966
02 11
02 72
02 14
02 20
db ec
db af
DA FBE
BF AA
BA FB
ba ca
63 35
67 32
67 547
67 1844
45 594
65 36
65 15
65 37
27 50
27 1908
Äł per
Äł cont
87 36
87 19
87 15
85 38
85 39
85 79
85 37
85 588
85 002
ff ee
25 75
25 1314
25 006
25 1832
43 12
43 19
43 15
43 37
23 76
23 7923
âĹĮ Ý
âĹĮ ê©
âĹĮ ê¯
âĹĮ ðĲį
41 32
41 74
41 598
83 16
83 746
83 727
83 146
83 1610
cb fd
93 008
93 791
61 54
95 58
95 18
95 17
95 707
47 74
47 15
47 17
47 5034
dd dc
21 524
fb ca
97 72
97 39
97 393
05 11
05 59
05 10
05 5014
05 7539
05 78289
07 37
01 32
01 38
01 54
01 72257
aa dc
aa ab
aa ac
03 32
03 79
03 3284
91 397
bb fd
df cc
df cd
cf db
Â´ Â¶
Â´ Â»
ab les
Ġth us
Â° Â´
Â° Â¥
Â° Â»
Âµ Ã¡Ä§
Âµ Ã¡Ä¦
Â¶ Â¡
Â¶ Â®
Â¶ Â·
Ä¹ Ã¡Ä©
Ä¹ Ã¡Ä¨
Ä¹ Ã¡Ä§
Ä¹ ÃĬ
Ġc lassifica
Ä® Ã¡Ä¨
Ä® Ã¡Ä§
Ġs um
Ġs os
Ġs periment
Ġs angu
Ġs otto
Ġp ass
Ġp hase
ac da
ac ef
Âº Ã¡Ä§
Âº Ã¡Ä¦
is on
is ter
af ca
af dd
Åĥ Ã¡Ä§
Åĥ Ã¡Âµ
Ġo tt
Ġo ccur
Â¾ Â¹
bc da
cd cf
bd da
Ġm m
Ġm acromolec
000 24
000 3866
ÅĤ Ã¡Ä©
ÅĤ Ã¡Ä¨
Ġan alysis
191 0094
Ġe l
Ġe quival
la ri
la gs
ÅĢ Ã¡Ä©
ÅĢ Ã¡Ä¨
ic le
Ġw ell
ing u
Ġ6 348
âĹĮà ¬
212 3
Åģ Ã¡Ä©
Åģ Ã¡Ä¨
Åģ ÃĬ
Ġr ectal
Ġ1 38
Ġ1 594
Ġ1 744
as h
1020 1
5060 9
1314 41
7080 4
Ġ7 00
ĠP ath
Äµ Ã¡Ä©
Äµ Ã¡Ä¨
Äµ Ã¡Ä§
Ġ4 64
Ġ8 48
Ä§ Ã¡Ä¨
Ä§ Ã¡Ä§
414 0
Ġde velop
Ä¦ Ã¡Ä¨
Ä¦ Ã¡Ä§
om inal
616 1
Ġl ung
849 3
849 53
Ã¡Ä© Ä³
Ã¡Ä© Ä·
Ã¡Ä© Ä»
Ã¡Ä© Ä¿
Ã¡Ä© Ä½
Ã¡Ä© ÂºÃ¡Ä©
Ã¡Ä© ÅĥÃ¡Ä©
Ã¡Ä© Ä¹Ã¡Ä©
Ã¡Ä© ÄµÃ¡Ä©
Ġv an
Ġv ivo
Ã¡Ä¨ Ä£
Ã¡Ä¨ Ä¥
Ã¡Ä¨ Ä³
Ã¡Ä¨ Ä©
Ã¡Ä¨ ÄŃ
Ã¡Ä¨ Ä·
Ã¡Ä¨ Ä»
Ã¡Ä¨ Ä«
Ã¡Ä¨ Ä¿
Ã¡Ä¨ Ä½
Ã¡Ä¨ Ä±
Ã¡Ä¨ ÂºÃ¡Ä¨
Ã¡Ä¨ ÅĥÃ¡Ä¨
Ã¡Ä¨ Ä¹Ã¡Ä¨
Ã¡Ä¨ ÄµÃ¡Ä¨
Ġ9 84
ĠA pp
ĠA RIS
Ã¡Ä§ Ä£
Ã¡Ä§ Ä¥
Ã¡Ä§ Ä³
Ã¡Ä§ Ä©
Ã¡Ä§ ÄŃ
Ã¡Ä§ Ä·
Ã¡Ä§ Ä»
Ã¡Ä§ Ä«
Ã¡Ä§ Ä½
Ã¡Ä§ Ä±
Ã¡Ä§ ÂªÃ¡Ä§
Ã¡Ä§ ÂµÃ¡Ä§
Ã¡Ä§ Ä¹Ã¡Ä§
Ã¡Ä§ ÄµÃ¡Ä§
818 81
Ä¤ Ã¡Ä©Ä¥Ã¡Ä©
411 1
411 11
411 31
3738 8
Ã¡Ä¦ ÂªÃ¡Ä¦
Ã¡Ä¦ ÂµÃ¡Ä¦
Ġ0 7906
696 295511
256 81
256 916
760 33798
919 9
919 19
554 3
554 5
554 7027
Ä¢ Ãª
Ä¢ Ã£Ä¨
Ä¢ Ã¡Ä©Ä£Ã¡Ä©
512 2
512 518
Ä£ Ãª
560 32
560 17
560 3925
Ä¨ Ã¡Ä©Ä©Ã¡Ä©
138 7
Äª Ã¡Ä©Ä«Ã¡Ä©
ta via
711 0
356 54
Ä¸ Ãł
to ken
Ä· ÃĬ
Ġor ig
399 90
558 48
558 864
558 4860
574 3
Ä¬ Ã¡Ä©ÄŃÃ¡Ä©
172 3
700 1
700 6
th is
ÃĬ ÅĢ
ÃĬ Ä¾
ÃĬ Ä»
ÃĬ Ä¿
ÃĬ Ä½
ÃĬ Ä¼
360 76623
Ä« Ãª
Ä½ Ãª
ĠF acc
389 89
389 894
330 3539
330 1802
719 2
719 51
719 074
719 8038
524 38
524 1811
358 1
534 0
Ä¯ Ã¡Ä¨
Ä¯ Ã¡Ä§
598 60
598 0028
769 46510
454 0
454 6
454 29
454 1755
200 0354
132 10
Ä° Ã¡Ä©Ä±Ã¡Ä©
556 285242
339 73
339 97
526 54
319 0
704 38
704 57
704 3456
536 72
536 49
300 1
754 844
790 31
786 31
164 33
164 5779
164 009339
154 54
154 57
154 837
332 1
746 19
314 3
314 4010
362 51
362 308
FDE FBD
134 63
134 6910
359 352
359 160
732 4
732 959
308 59854172
354 5
510 5
338 5
CFE AFE
334 6
634 8577
712 154837
EFB BE
656 8
156 1
156 38
174 0
174 1
174 114730
400 4
400 51
866 4
866 0918
100 01
100 4154
Ġper iren
772 2
772 51
310 7
311 70379
714 73
718 5
858 758
710 8
376 74
318 9
318 63
ĠB Y
632 8
632 52
379 13
750 5876
AFB A
AFB AD
AFB DE
Ġh ow
Ġh yp
ĠI NT
374 1
374 3
211 4
449 0
449 1
449 2
449 3
449 62
176 4
736 21
736 4642
458 33
458 034
ĠE ur
269 2
269 47
229 8
658 057539
859 2012
672 2
130 7
si de
ut able
ĠL i
ĠL icens
139 69
234 3144010
469 0
614 28
576 97
576 197
489 7
489 3043
489 54978
550 2840
474 3
474 337
829 065
460 2
880 9046
288 8
476 95
650 71100
Ġca use
Ġ11 20
248 7
248 59656
416 67
834 09
834 3301802
274 16
530 7
530 313
179 3
179 64
679 5
Ãĳ Ä¢
676 3
676 6
378 6339
AED FA
EDB E
EDB BE
266 1
266 79
266 272
874 928813
DEE F
DEE CA
610 5
610 40
659 3
972 5
316 5
CFB B
532 2
810 17269
432 15
811 6
ĠN umPy
814 0
218 68804
336 3
456 1
456 8
456 85
450 82
812 7
911 0
911 9
620 1
620 4
989 2
989 70
136 3
370 81
649 6276
730 21
440 57
918 12
836 1056
820 1
232 52
280 99
839 3658
839 4170
839 5875
759 1
759 3
Ġ16 8
Ġ16 00
Ġ16 24
940 7
4454 4
ADB AFCE
936 6
CBD FD
279 6274
249 7
ÃĦÅĥ ÃĦ
272 40
570 89
674 9
674 210
988 7
Ġpro duc
840 70
552 7
552 38
552 31
552 61
832 4
832 8275158
966 566
966 2760
578 71
178 34
462 6
076 4
050 6
654 15
889 32
949 1
Ãı Ä¢
Ġun o
822 3
822 42
FBB AD
438 7
438 43
020 1
099 8
638 95
016 66578
060 1
220 30
Ġ10 56
066 3
066 4
066 5
878 79634
944 6
944 4049
Ġ12 00
058 5
216 91
900 6
900 8
419 8
912 5
019 9770
968 29
074 5
080 3
452 74
icen sed
238 5
240 3
240 9
938 26
938 2335
938 3719
039 5
039 86
262 8814
479 71
480 7
538 86
678 85
ver e
230 1
230 5
244 2
244 4
244 40
854 85
860 5
072 4
072 9
Ġ18 00
Ġ18 32
Ġ18 88
960 5
069 24
958 1
236 4
844 3011
DBE CC
Ġ14 72
879 70
920 1
920 93
Ġst r
Ġst ar
Ġst ato
Ġst ating
Ġst rides
079 71
079 81
932 6
ĠM ed
ĠM od
ĠM VD
842 3
842 8
012 20
012 53
642 7
642 8
642 56
619 3
619 5
848 43
DBF FCC
5666 1376
088 3
088 4
869 5
869 7
869 8
Ġ19 12
Ġ19 44
Ġ19 68
675 547
852 1
052 7
052 67
042 6
042 3336
242 4
260 5
260 41724
FEC FD
FEC FC
648 4
648 59
070 60
070 7201
980 2
7374 157
959 1
028 3
028 35
430 2
430 4959
ded c
630 58
876 2
978 1
bcb e
546 73
EAB FB
ĠO UT
278 29174
FAB DE
575 7
BFB AD
BFB EF
006 37
513 71
513 5100
513 7409
ĠĠĠĠĠĠĠĠĠĠĠĠĠĠĠĠ ĠĠĠĠ
ĠĠĠĠĠĠĠĠĠĠĠĠĠĠĠĠ ĠĠĠĠĠ
022 1
946 33
946 3249
li ed
CCD EC
954 51
930 5
930 96
828 7
EFD DD
038 77
036 1
036 6
086 3
086 8827
Ġwh ole
Ġsu peri
984 1
315 7078
735 51
Ġ20 32
817 1
118 31
392 71
335 5999
950 3759
180 48
DCE FB
024 3
024 5
964 1
964 7
BCE DC
455 19
BFA FDBE
896 3558
255 1
BAD CB
933 56
535 5944
064 5
026 1
986 00
084 1
477 743
eed e
702 3370
Ġ13 12
Ġ13 76
527 31321522
Ã£Ä¨ Ä¢Ã£Ä¨
Ġ15 76
973 35
Ġex p
731 70214
cca d
cca e
Ġ17 55
999 549
ĠW HE
282 7736
833 58
453 15130
ĠÄ¥ Ã¯
ĠÂµ Ã¯
537 36
033 54
673 14
adb c
dfb e
ĠÂº Ã¯
Ġus eful
fcf e
eeb e
po ses
ĠÄ± Ã¡
ĠÅĤ Ãª
fca f
bdd c
zi p
ede l
ĠÃĥÂª ÃħÄ¢
Ġver de
Ġad ministration
com pati
ph er
ne l
ĠU n
ĠU ni
ial ly
Ġvas colari
Ġmea sure
Ġ01 72
Äłp ar
des cr
ear ly
Ġacc ess
el le
Ġlesion e
ator y
6037 78389
Ġur inary
perm is
Ġindica no
pati ents
Ġext ent
Ġext ravas
2790 3636
3054 3819
Ġshow n
rm sg
8139 8963558
3658 6200
1041 30859854172
ÃĥÄ´ ÃĦ
Ġri port
7926 40
1950 49880
0419 3602
ÃĥÅĢ ÃĦ
Ġass um
5915 3815
1088 77
Ġparench ima
2079 44
AACB AC
8550 307310
ibra ries
Ġarter i
ĠPRO VI
8378 345359
9158 7364642
7034 0860
6848 74
2854 1346910
7338 17
8014 8550307310
3358 91
Ġpot enzi
ĠÃĥÄ¨ ÃĦ
0612 0229
Ġbi omarkers
ĠÃĥÄ§ ÃĦ
3264 5241811
5644 73792
1846 808265
8176 8261700
0087 79
Ġneed ed
4369 59153815
ĠÃĥÄ¶ ÃĦ
1493 79275
4769 7202
Ġlo op
ĠOTHER WISE
5164 6256
Ġaccor ding
5629 195049880
ield s
1622 614
ĠRadi ology
Ġfarmac o
depend ent
9317 556285242
Ġini tial
8799 771100
erica n
ĠCONT RIBUT
bu ild
7277 16
Ġchang es
ĠEVE NT
mea sure
Ġflu sso
Ġindivid ual
Ġpen et
29611 45315130
Ġchirurg ica
Gener ic
998070 51508
CAST ING
Ä®Ã¡Ä© Ä¯Ã¡Ä©
Ä§Ã¡Ä© Ä¨Ã¡Ä©Ä©Ã¡Ä©
Ġpartico lare
utilizz o
Ä¹ÃĬ Äº
Ġott en
ÅģÃĬ ÅĤ
Ã¡Ä©Ä³ Ã¡Ä©
Ã¡Ä©Ä· Ã¡Ä©
Ã¡Ä©Ä» Ã¡Ä©
Ã¡Ä©Ä¿ Ã¡Ä©
Ã¡Ä©Ä½ Ã¡Ä©
Ã¡Ä¨Ä£ Ã¡Ä¨
Ã¡Ä¨Ä¥ Ã¡Ä¨
Ã¡Ä¨Ä³ Ã¡Ä¨
Ã¡Ä¨Ä© Ã¡Ä¨
Ã¡Ä¨ÄŃ Ã¡Ä¨
Ã¡Ä¨Ä· Ã¡Ä¨
Ã¡Ä¨Ä» Ã¡Ä¨
Ã¡Ä¨Ä« Ã¡Ä¨
Ã¡Ä¨Ä¿ Ã¡Ä¨
Ã¡Ä¨Ä½ Ã¡Ä¨
Ã¡Ä¨Ä± Ã¡Ä¨
ĠARIS ING
Ã¡Ä§Ä£ Ã¡Ä§
Ã¡Ä§Ä¥ Ã¡Ä§
Ã¡Ä§Ä³ Ã¡Ä§
Ã¡Ä§Ä© Ã¡Ä§
Ã¡Ä§ÄŃ Ã¡Ä§
Ã¡Ä§Ä· Ã¡Ä§
Ã¡Ä§Ä» Ã¡Ä§
Ã¡Ä§Ä« Ã¡Ä§
Ã¡Ä§Ä½ Ã¡Ä§
Ã¡Ä§Ä± Ã¡Ä§
Ä·ÃĬ Ä¸
ĠFacc ioli
ĠCONTRIBUT ORS
) ;
0 320
0 546
0 482
0 76028
1 782
2 3334
2 509
2 898
2 524
2 175
2 388
2 137
2 155
2 375
3 7080
3 780
3 177
4 560
4 898
4 224
4 155
5 769
5 175
5 377
6 768
6 598
6 771
7 380
7 790
7 362
7 304
7 155
8 292
8 161
8 798
8 789
8 157
8 155
8 565
9 224
9 133
9 545
9 542
A CEC
A LL
B CBB
B CDE
B ECA
B ADE
B FFA
C an
C ABC
C ADA
D AAB
D FCF
D FCC
D im
E FDD
E ABE
E CEF
E CDA
E FCA
F or
F unction
I DE
I JK
L M
L a
R AC
R ST
T um
U V
a i
a u
a eaf
a fab
a eee
a fcd
c eff
c eab
c rib
c eac
c ma
c ia
c lin
d ccc
d ecc
e ebd
h igh
j ect
k ef
l at
l im
l icense
m ph
m age
m ulti
m eas
n ame
n orm
o bject
p azi
s ti
s ection
t ection
t anto
u do
v wxy
© ï¼
´ á¦
µ á¤
¶ á´
· á¢
º ï½
º ãĩ
¼ ãģ
¾ ïŃ
¾ áĭ
Ã ¼
Ġ ect
Ġ AAB
Ġ ABB
Ġ CEF
Ġ 377
Ġ FDA
Ġ AEC
Ġ ABA
Ġ ACA
Ġ 341
Ġ 353
Ġ 545
Ġ 153
Ġ 331
Ġ 177
Ġ 375
Ġ FAF
Ġ 006
Ġ FBE
Ġ 008
Ġ 777
Ġ ents
00 19
00 46
00 65
00 25
00 785
00 752
00 538
00 341
00 184
00 283
00 3456
00 5714
00 0311
00 7378
00 1716
00 5837
00 3031
00 7414
00 8119
11 42
11 67
11 95
11 07
11 539
11 714
11 944
11 615
11 891
11 998
11 641
11 5656
11 5749
11 8329
32 32
32 19
32 22
32 13
32 03
32 616
32 818
32 797
32 785
32 530
32 357
32 684
32 992
32 3583
32 8807
32 9385
32 67944
56 12
56 22
56 35
56 57
56 84
56 81
56 127
56 245
56 204
56 6110
56 9969
56 8724
72 16
72 35
72 33
72 84
72 93
72 330
72 734
72 400
72 157
72 546
72 241
72 110
72 993
72 2099
72 9847
72 1541
72 01918
38 36
38 22
38 62
38 61
38 97
38 91
38 617
38 587
38 827
38 7118
12 79
12 52
12 16
12 74
12 22
12 57
12 65
12 41
12 83
12 595
12 708
12 153
12 943
12 1378
12 7409
12 1791
12 3006
39 74
39 502
39 112
39 660
39 091
54 58
54 31
54 23
54 234
54 565
54 861
54 094
54 5870
54 2619
54 2076
54 1707
79 50
79 69
79 86
79 61
79 175
79 403
79 660
79 903
79 294
79 662
79 994
79 3489
79 1378
79 5602
79 6841
79 30079
52 64
52 24
52 73
52 93
52 747
52 067
52 4259
52 9370
52 3575
52 7589
52 1744
52 8492
34 39
34 78
34 15
34 90
34 43
34 03
34 595
34 224
34 279
34 557
34 891
34 3292
34 9939
34 4642
34 8536
34 7361
34 92260
34 27416
36 00
36 52
36 10
36 62
36 09
36 25
36 61
36 105
36 0717
36 38531
16 74
16 57
16 86
16 45
16 792
16 700
16 032
16 865
16 246
16 75409
16 06678
58 20
58 22
58 62
58 24
58 95
58 598
58 339
58 966
58 545
58 575
58 4911
58 3305
58 4674
58 63895
76 16
76 59
76 13
76 94
76 21
76 525
76 998
76 886
76 706
76 583
76 3966
76 2917
76 3141
59 52
59 14
59 88
59 75
59 736
59 133
59 652
59 307
59 392
59 723
59 401
59 553
59 923
59 7811
59 1968
59 1498
30 78
30 27
30 23
30 560
30 528
30 446
30 726
30 553
50 50
50 22
50 88
50 51
50 700
50 521
50 626
50 5158
14 11
14 17
14 84
14 152
14 129
14 124
14 983
14 586
14 845
14 740
14 981
14 5763
14 51686
14 4387
10 67
10 65
10 962
10 13969
19 32
19 14
19 40
19 49
19 13
19 37
19 25
19 21
19 03
19 292
19 557
78 22
78 28
78 45
78 195
78 187
78 999
78 3925
78 2944
78 2252
74 24
74 45
74 93
74 411
74 575
74 222
74 544
74 492
74 061
74 8605
70 77
70 92
70 91
70 179
70 894
70 686
70 2564
70 2361
18 12
18 54
18 18
18 49
18 15
18 454
18 570
18 744
18 120
18 002
18 691
18 867
18 6012
18 5187
18 8496
20 56
20 34
20 88
20 62
20 77
20 84
20 45
20 399
20 789
20 468
20 146
20 4338
20 8321
20 88932
29 70
29 88
29 15
29 77
29 26
29 86
29 63
29 389
29 304
29 810
29 922
29 446
29 291
29 863
29 6880
29 6348
29 9207
80 76
80 74
80 42
80 73
80 27
80 292
80 358
80 458
80 189
80 933
80 3900
80 1125
80 2204
80 87218
66 36
66 58
66 10
66 89
66 98
66 219
66 435
66 585
66 715
66 402
66 1069
66 3170
66 8570
66 0007
66 9016
66 9221
40 20
40 37
40 99
40 86
40 489
40 549
40 911
40 940
40 439
40 198
40 983
40 645
40 987
40 2682
89 39
89 90
89 738
89 4310
89 1025
89 2587
89 5344
49 32
49 22
49 46
49 26
49 92
49 529
49 750
49 130
49 974
49 854
49 184
49 787
49 894
49 766
49 885
49 442
49 1692
49 9682
49 7182
49 373853
AA BB
AA ABA
AA EBF
60 19
60 66
60 49
60 60
60 22
60 13
60 17
60 48
60 33
60 46
60 832
60 240
60 950
60 568
60 347
60 660
60 827
60 3013
60 1016
60 3199
60 6519
60 9721
60 3722
60 3541
60 77334
22 79
22 80
22 45
22 87
22 21
22 780
22 382
22 874
22 840
22 296
22 6552
22 3381
22 6169
22 4688
CE AA
CE AC
CE DE
CE BA
CE CBF
CE CCF
CE FEE
CE BDA
CD AD
CD DF
CD DBE
CD EDC
CD FAF
CD EEE
CD EDFD
FB DF
FB AAD
69 34
69 51
69 86
69 65
69 81
69 338
69 280
69 567
69 737
69 199
69 282
69 8712
69 9383
CB AFE
CB DDB
CB ADA
CB CCC
CB ABDB
44 32
44 34
44 66
44 75
44 55
44 415
44 171
44 7589
44 1745
44 3304
44 4140
44 55848
AB FA
AB DFB
AB ECA
AB CDEF
FE FB
FE CF
FE DE
FE BA
FE CBB
FE AAD
FE EFB
FE AEC
FE FBA
FE BFD
FD CE
FD CD
FD DF
FD FBD
13 30
13 77
13 784
13 544
13 793
88 60
88 51
88 87
88 25
88 599
88 350
88 567
88 498
88 681
88 806
88 6378
15 39
15 33
15 358
15 545
15 327
15 366
15 7298
17 79
17 10
17 78
17 3132
17 599
17 378
17 730
17 5623
AE CC
AE BDE
AE DDF
90 60
90 44
90 42
90 99
90 67
90 85
90 21
90 399
90 704
90 476
90 301
90 323
90 333
90 607
90 171
90 3725
90 9209
35 57
35 331
AD CE
AD EBF
AD EDFD
AD DBDB
62 39
62 51
62 45
62 170
62 701
62 3359
62 5323
62 11531
42 35
42 33
42 320
42 104
42 669
42 515
42 127
42 115
42 345
42 626
42 8612
42 17381
42 1594
37 71
37 129
37 106
37 5188
68 58
68 13
68 75
68 394
68 482
68 783
68 366
68 4006
48 78
48 529
48 435
48 116
48 695
48 661
48 6459
48 4826
48 3593
48 37482
DB CC
DB CEE
DB CDB
DB ADA
DB BAB
DB FED
75 79
75 75
75 51
75 71
75 760
75 732
75 338
75 379
75 542
FC AAC
FC CBA
FC AFBDE
EE FFF
EE BBAFA
33 39
33 79
33 791
33 141
33 507
99 14
99 696
99 880
99 949
99 781
99 964
99 115
99 424
99 451
99 111
99 527
99 963
99 2910
99 2936
99 27679
AC CF
AC ADA
55 52
55 58
55 10
55 708
55 392
55 345
55 1596
55 15847
64 00
64 20
64 89
64 33
64 73
64 599
64 309
64 378
64 752
64 762
64 726
64 686
64 7729
DD AAF
DD DDC
DD DCCB
77 76
77 73
77 785
77 157
77 327
77 727
28 59
28 20
28 17
28 75
28 73
28 256
28 371
28 198
28 3620
BB AFB
BB FDA
BB DAD
BB EDAF
Âª Ã£Ä§
Âª ÃĬ
CC AC
CC CDC
CC FBF
CC FBE
EB FF
EB EFE
EB EDD
EB EEF
en hancement
24 714
24 496
24 5972
24 57089
ED CF
ED CDD
ED FDF
ED FCF
ED EBE
FA CBD
FA FBC
31 54
31 58
ed df
57 13
57 788
57 399
57 786
57 119
82 75
82 33
82 71
82 117
82 669
82 585
82 307
82 002
82 497
82 5795
46 80
46 35
46 77
46 595
46 176
46 723
46 323
46 1804
46 13666
ĠÃ į
EC CE
EC CD
BD AA
BD FED
BD EEF
09 56
09 25
09 220
09 896
09 120
09 6558
09 1206
09 8896
09 3425
09 55802
ca aa
ca be
ca le
26 52
26 59
26 17
26 35
26 719
26 7476
26 3033
53 19
53 704
53 135
53 3915
AF CB
AF CBF
AF CBAE
84 39
84 31
84 57
84 342
84 808
84 603
84 7310
73 704
51 365
51 543
51 5476
86 40
86 22
86 580
71 348
ec db
ec cb
ec df
ec bf
in ci
EF FDD
EF ACA
EF FEA
ea ef
ea dd
ea bb
ea ab
ea bc
EA CBD
Ġa v
Ġa le
Ġt rue
er red
er ved
CA CDC
CA CBC
CF ACF
CF AACBAC
92 39
92 52
92 66
92 60
92 15
92 17
92 55
92 77
92 719
92 774
92 382
92 565
92 303
92 525
92 794
98 12
98 30
98 89
98 28
98 569
98 379
98 896
98 737
98 149
98 6410
98 7810
94 00
94 76
94 30
94 17
94 53
94 370
94 301
94 395
94 361
94 7348
da ff
da bc
da bcf
ef ea
ef bb
ef bc
96 56
96 12
96 30
96 78
96 49
96 88
96 190
96 155
96 521
96 487
96 52433
BE AAC
BE FDD
BE FDB
BE AEEA
08 20
08 66
08 177
08 6656
08 1850
08 5172
08 4907
08 5108
DF AA
DF FB
DF CB
04 79
04 70
04 292
04 343
04 686
04 6839
04 7163
BC FD
BC CDD
BC ABC
BC FBF
BC CEFB
BC ADDFA
DE CDC
DE ADCB
06 80
06 15
06 511
06 727
06 568
06 729
06 5885
06 5232
06 7700
06 8879
06 7383
02 74
02 338
02 759
02 151
02 608
02 118
02 340
02 325
02 448
02 194
02 4856
02 5103
db fc
db ad
db cacb
DA CED
BF ABB
BF FBFC
DC AF
DC ADD
DC FDA
DC FBA
DC ACAB
fa dd
fa aa
fa bb
fa bf
de tect
ba fb
ba bf
ba bd
cc ea
cc da
cc eb
cc df
cc bc
63 728
63 704
63 742
63 0012
67 37
67 395
67 0067
45 781
45 582
45 7738
65 76
65 592
65 1559
65 1062
27 78
27 157
27 173
27 115
27 321
27 1041
27 5234
Äł im
Äł res
Äł ch
Äł ma
Äł IN
87 39
87 35
87 763
87 501
87 002
85 369
85 151
85 193
85 1633
ff bd
eb ed
eb ef
eb ff
25 76
25 74
25 15
25 37
25 564
25 345
25 5496
25 7026
43 00
43 32
43 546
43 5277
23 78
23 74
23 70
23 723
23 795
23 199
23 1071
41 38
41 76
41 3498
41 3848
83 10
83 13
83 503
83 007
83 1338
83 3755
cb ed
cb fa
93 793
61 382
61 004
95 52
95 781
95 766
95 7287
47 547
47 584
47 385
47 7472
47 5920
47 56017
dd da
21 36
21 78
21 391
fb db
97 118
97 113
97 1373
05 72
05 79
05 004
05 364
81 72
81 34
81 36
81 5466
01 7926
01 5447
aa ed
aa db
aa cc
03 35
03 746
03 127
03 166
91 308
bb fa
bb dd
es si
cf ca
cf ee
cf dc
dc ed
dc ca
dc fa
dc dc
ab cdef
al f
al mente
al isi
Âµ Ã£Ä§
Âµ Ã¡Âµ
Âµ Ãİ
Â¶ Â±
Â¶ Â¥
Â¶ Â»
ÃĥÄ Ń
Ä¹ Ã¡Ä¦
Ġc ent
Ä® Ã¡Ä¦
ra s
ðĳ ģ
ðĳ Ľ
Ġs qu
Ġs ano
Ġs ole
Ġp a
Âº Ã£Ä§
Â¬ Â±
Â¬ Â·
Â¬ Â»
be ea
is ing
is ual
Åĥ Ã¡Ä¦
Åĥ Ã£Ä§
Åĥ ÃĬ
Ġo m
Â¾ Â²
bc ba
bc def
ad cc
ad cf
fd ea
Ġin put
Ġin cor
bd fb
bd edc
ae ea
Â¼ Â²
000 36
000 283
000 185
ÅĤ Ã¡Ä§
ÅĤ Ã¡Ä¦
191 365
191 34718
Ġf ra
Ġn ef
Ġn ecro
ÅĢ Ã¡Ä§
ÅĢ Ã¡Ä¦
Ġ6 44
Ġ6 892
âĹĮà »
212 4
212 28
212 9489
ol te
ol tre
Åģ Ã¡Ä§
Åģ Ã¡Ä¦
Ġr if
Ġ1 30
Ġ1 000
Ġ1 728
Ġ1 768
Ġ1 760
Ġ1 384
Ġ1 560
Ġ1 792
Ġ1 360
Ġ1 528
Ġ1 520
Ġ1 704
Ġ1 368
Ġ1 320
Ġ1 304
Ġ1 743
Ġ1 008
Ġ1 392
Ġ1 784
Ġ1 720
Ġ1 568
Ġ1 504
Ġ1 544
Ġ1 584
Ġ1 328
Ġ1 592
Ġ1 344
393 000283
1020 53
1020 111
1011 18
1314 2639
Ġ2 167
Ġ7 145
Ġ7 167
Ġ3 79
Ġ3 70
ðŀ £
Ġ5 54
Ġ5 18
Ġ5 7085
ĠÃĥÂªÃĦ Âº
ri e
Äµ Ã¡Ä¦
se udo
Ġ4 499
Ġ8 58
Ġ8 71
st r
Ä§ Ã¡Ä¦
Ġd en
Ġd ra
Ä¦ Ã¡Ä¦
768 72
om as
om og
616 5358
616 2667
616 94301
Ġb le
Ġb ody
Ġl ea
788 00
788 131
788 669
Ġv a
Ġv it
Ġv iew
Ġi g
4252 462
Ġ9 73
Ġ9 0078
ĠA dditional
Ã¡Ä§ Ä¿
Ã¡Ä§ ÂºÃ¡Ä§
Ã¡Ä§ ÅĥÃ¡Ä§
ĠÃł Åĥ
ect s
818 2
818 3
818 545
Ä¤ Ã¡Ä¦
Ä¤ ÃĬ
Ä¤ Ã¡Ä¨Ä¥Ã¡Ä¨
Ä¤ Ã¡Ä§Ä¥Ã¡Ä§
411 6
411 94
411 87
411 438
411 8398
Ġdi ffic
3738 2
3738 816
Ã¡Ä¦ Ä²
Ã¡Ä¦ Ä´
Ã¡Ä¦ Äª
Ã¡Ä¦ Ä¸
Ã¡Ä¦ Ä¾
Ã¡Ä¦ Ä¬
Ã¡Ä¦ Ä¼
Ã¡Ä¦ Ä°
Ã¡Ä¦ ÂºÃ¡Ä¦
Ã¡Ä¦ Ä®Ã¡Ä¦
Ã¡Ä¦ ÅĢÃ¡Ä¦
Ã¡Ä¦ Ä¦Ã¡Ä¦
Ã¡Ä¦ Ä¤Ã¡Ä¦
Ġ0 4410
Ġ0 8959
696 88
256 6
256 671
256 2324
919 4
919 5
919 08
919 93
919 319
554 991
384 695
Ä¢ Ã¡Ä¦
Ä¢ Ã¢Ä¹Ä®Ãł
Ä¢ Ã¡Ä¨Ä£Ã¡Ä¨
Ä¢ Ã¡Ä§Ä£Ã¡Ä§
644 2
644 42
644 387
512 8
512 133
512 9747
Ä£ Ãķ
Ä£ Ãĳ
Ä² Ã¡Ä©Ä³Ã¡Ä©
Ä² Ã¡Ä¨Ä³Ã¡Ä¨
Ä² Ã¡Ä§Ä³Ã¡Ä§
Ä´ Ãł
Ä´ Ã¡Ä©ÄµÃ¡Ä©
Ä´ Ã¡Ä¨ÄµÃ¡Ä¨
Ä´ Ã¡Ä§ÄµÃ¡Ä§
lg or
Ã£Ä§ ÂªÃ£Ä§
Ã£Ä§ ÂµÃ£Ä§
Ä¨ Ã¡Ä¦
Ä¨ Ã¡Ä¨Ä©Ã¡Ä¨
Ä¨ Ã¡Ä§Ä©Ã¡Ä§
709 20
709 33
709 367
709 703
709 3670859
Äº Ã¡Ä¦
Äº Ã¡Ä©Ä»Ã¡Ä©
Äº Ã¡Ä¨Ä»Ã¡Ä¨
Äº Ã¡Ä§Ä»Ã¡Ä§
Ä¥ Ãª
Ä¥ Ãĳ
Ä¶ Ã¡Ä¦
Ä¶ Ã¡Ä©Ä·Ã¡Ä©
Ä¶ Ã¡Ä¨Ä·Ã¡Ä¨
Ä¶ Ã¡Ä§Ä·Ã¡Ä§
138 709
Äª Ãª
Äª Ã¡Ä¨Ä«Ã¡Ä¨
Äª Ã¡Ä§Ä«Ã¡Ä§
792 35
792 5060
792 525
711 2453
Ä© Ãª
356 41
356 728
356 001
356 296
356 427
356 2041
356 1260
Ä¸ Ãī
Ä¸ Ã¡Ä©Ä¹Ã¡Ä©
Ä¸ Ã¡Ä¨Ä¹Ã¡Ä¨
Ä¸ Ã¡Ä§Ä¹Ã¡Ä§
708 3872
Ä¾ Ã¡Ä©Ä¿Ã¡Ä©
Ä¾ Ã¡Ä¨Ä¿Ã¡Ä¨
312 2
312 961
558 3776
574 7
574 63
574 130
574 396
Ä¬ Ã¡Ä¨ÄŃÃ¡Ä¨
Ä¬ Ã¡Ä§ÄŃÃ¡Ä§
172 316
700 2
700 3
700 88
700 470
700 545
th an
th ough
ÃĬ Ä£
ÃĬ Ä¹ÃĬÄº
ÃĬ ÅģÃĬÅĤ
ÃĬ Ä·ÃĬÄ¸
ÃĬ ÅĥÃĬ
360 46
360 140
360 646
509 286
528 11
528 146
528 50626
ĠF AC
ĠF iles
389 7452
520 190
520 482
520 796841
719 4
719 67
719 098
569 5378
524 8933
358 570
358 2705
534 1
534 968
716 36
716 164
716 3899
716 8060
Ä¼ Ã¡Ä©Ä½Ã¡Ä©
Ä¼ Ã¡Ä¨Ä½Ã¡Ä¨
Ä¼ Ã¡Ä§Ä½Ã¡Ä§
782 5061
CBB CB
CBB DD
CBB DBDA
598 64
454 5642
200 600
200 9095
200 8195
132 5
132 7
132 92
132 8162
734 5
734 06
734 63
734 7674
Ä° Ãª
Ä° Ã¡Ä¨Ä±Ã¡Ä¨
Ä° Ã¡Ä§Ä±Ã¡Ä§
556 13
556 08
556 140
556 06008
ĠPy DataMem
Ã¡Âµ ÅĥÃ¡Âµ
Ã¡Âµ ÂµÃ¡Âµ
339 81
339 612
339 2757
339 9616
219 679
526 50
319 15
319 6957
611 79
611 685
611 111
611 1089
611 3716
529 36
704 72
536 9
536 52
536 28
536 84
536 7926
536 3892
536 2435
754 37
754 84
789 501
789 1600
786 22
ĠÃĥÄ ½
164 298
164 5633
539 134
539 753
539 6622
154 9
154 38613
372 6
372 013
372 8051
332 8
332 94
746 53
746 2224
158 016
758 934
CDF FD
CDF CDC
CDF FED
CDF FBAA
CDF AEBDE
314 8
314 09
314 07
559 2
362 18454
159 78
159 388
159 103
309 5421
FDE ABE
522 51
522 543
522 7967
359 30
359 8096
732 7
732 282
732 1312
732 28122
732 13356
308 385
354 3
354 485
510 7
510 5977
756 17
368 89
368 55
AAD FD
618 3639
AAC CD
338 31
338 393
338 0066
338 3824
CFE BDF
334 8
334 4345
334 40368
634 926
712 6
712 82242
CDD AAD
572 61384
572 48661
EFB C
EFB EF
320 28
320 509286
656 08
656 03
CEE FF
156 49
156 43
174 3
174 60
174 35
174 36076623
518 0
400 2
400 32
400 22
400 361
400 9248
866 1
866 2
866 8
866 90
100 3
Ġper if
304 38
772 7975
310 82
310 735
311 4
739 6
739 394
739 75809
714 574
190 24
190 57
EAE ABE
EAE CCB
718 8
369 1829
858 66
858 618
858 652
858 3561260
169 602
710 7
710 446
710 431
376 3
376 39
376 460
376 906
376 8251
318 1
318 7
318 000311
ĠB EBD
ĠB ell
ĠB EFAB
780 426
780 991
780 39629
780 11615
632 1576
774 78
774 415
BDD DCCE
379 1
379 3
379 44
379 6141
379 79564
750 79
AFB CE
AFB CD
500 57
500 85
514 1
514 2
514 83
514 85348
Ġh ist
Ġh and
CED CBE
CED EEF
612 7
612 8334
214 3
214 01
214 779
214 856
214 5658
214 085108
418 4
418 50
418 699
418 665
211 18
211 450
211 6088
Ãķ Ä¢
270 90
449 77
449 578
449 9961
600 2
600 6
600 60
600 3017
600 0829
600 1606678
600 6111089
Ãİ Ä¶
176 51
176 601
736 8931
736 14739
466 3
466 4
466 45
458 3
458 5
458 68
785 526
269 379
269 462
269 442
ADD AE
229 5
229 02
229 8651
872 5
872 6
872 97
872 343
872 4819
872 528492
FDF ADCC
658 540
658 7168
672 7
672 73
672 624
672 17381
139 7
139 80
234 77
234 96
469 1
469 7
469 12
614 14
614 31
614 051
614 0905
770 89
770 5105977
BDB BFD
CEF AAD
576 1
576 2
576 776
640 474
640 670067
489 45539
516 2499
550 99
DFB AF
CDC FF
CDC ABA
474 2
474 82
474 711
474 947
474 29922
AFE BD
AFE CF
per im
CBE FDFB
579 32
288 4
288 207944
476 1567
476 92794
476 19134718
650 35
650 611
776 1
776 5
776 6
Ġca us
956 11
956 35
956 879
Ġ11 12
Ġ11 52
Ġ11 36
Ġ11 76
Ġ11 60
Ġ11 44
Ġ11 68
Ġ11 28
Ġ11 84
Ġ11 92
Ġ11 04
Ġ11 9713
FFF FDA
422 143
388 444
248 641
416 44
416 37
416 41
416 651
416 477472
779 43
779 679
834 069
834 986
834 471
274 71
179 5
179 63
179 80933
170 6
170 54
170 63
170 1373
258 4
258 104
258 655
258 17436076623
268 75
679 66
679 69422
679 48547
676 7132
676 91919
378 454
EDB BA
EDB DBA
874 812
874 011
874 707
874 1529
DEE A
DEE EE
610 6
610 7
610 560
610 4959
659 2
659 41
659 0159
659 4893043
972 32
972 326
316 240
316 085
CFB E
CFB CDD
CEC CD
532 6
532 11
532 9510
810 94
680 20
680 86
680 6544
432 7
432 668
432 6783
639 026
752 9714
811 03
811 778
811 950
811 443
814 3
814 12
814 50
974 35
974 41667
974 70920
218 3
218 7
218 30
218 27
218 03746
456 60
456 8398
450 6
450 74
450 35
DEB CE
ĠÃ¢Ä¹Ä® Ã¡Ä¢
ĠÃ¢Ä¹Ä® Ãĺ
ĠÃ¢Ä¹Ä® Ãŀ
ĠÃ¢Ä¹Ä® ÃĽ
289 56059
812 0
812 37
812 26
812 1061
911 87
911 81
350 7
350 675
620 75
620 43
620 682
989 89
370 6
370 401
629 0
629 7
629 644
150 384
150 773
688 5015
730 623
730 6267
FCC AEC
472 386
472 6364
472 51485348
440 4
440 6
440 706
918 88
918 94
689 6693
836 36
836 64
836 941
820 759
232 314
232 826
232 905
819 50
276 2
276 6
276 76
276 22
276 57871
276 296348
276 31915
280 6339
280 60568
519 9
839 7
622 1
Ġ16 32
Ġ16 56
Ġ16 72
Ġ16 16
Ġ16 80
Ġ16 40
Ġ16 88
Ġ16 48
Ġ16 64
Ġ16 96
Ġ16 08
940 3
352 41
936 63
936 23
CBD CDD
279 67217381
249 67
ABA CBD
272 77
674 22
674 7934
674 0980
738 1
738 5
738 6
738 90607
988 82
840 485
832 32
832 86
832 75617
966 6760
578 40
578 41
178 7
178 8471
420 3
420 21
420 2936
420 7033
076 39
076 41
076 742
076 5409
050 4
050 77157
018 944
018 421
018 710446
654 32
654 65
870 5
870 6
870 90
870 77
870 166
870 5694
889 783
949 54
949 897
ABD EF
838 69
838 4091
838 2437
838 37388
838 2562324
822 201
FBB ED
438 428
020 4
020 9
020 598
020 15978
439 8
Ġbe cause
032 10
032 91
032 355
099 1878
099 1355
099 276296348
638 83
638 509
638 219
638 4285
868 45
868 65
016 42
016 03127
060 64
060 49885
800 6617
800 4258
800 27471
Ġ10 5
Ġ10 32
Ġ10 72
Ġ10 80
Ġ10 40
Ġ10 88
Ġ10 48
Ġ10 64
Ġ10 96
DDE AB
BEE BCD
066 7
066 24
488 669
488 2010
488 8305
488 0022
878 56
878 31
934 30
934 88
934 467
944 731
944 1627
Ġ12 32
Ġ12 56
Ġ12 72
Ġ12 16
Ġ12 80
Ġ12 40
Ġ12 88
Ġ12 64
Ġ12 24
Ġ12 96
Ġ12 08
058 97
058 7806
216 7
216 50
216 685
478 313
478 105
478 4467
478 9273
478 88599
900 74
900 4696
900 9868
5455 7
AAF CD
239 75
419 3
912 756
019 70
910 9
910 34
968 1638
968 13544
074 0
074 1
080 9
080 44
080 95
080 436
044 2
670 2
670 1290
238 3
238 138
254 97
254 176
938 67
Ġre mo
250 35
250 309
250 6915
250 96487
969 5
969 84
039 6
039 6387
262 6
262 61
262 7811
262 5281
CCA FC
480 528
480 975
538 3
538 47
259 2
230 47
230 242
230 564
230 5860
244 524
244 394
854 310
860 714
860 932
860 3106
922 77
922 39572
011 719
011 674
355 13
Ġ18 56
Ġ18 72
Ġ18 16
Ġ18 40
Ġ18 48
Ġ18 64
Ġ18 24
Ġ18 08
Ġ18 61
960 2
960 218
960 873
069 63
434 6
434 8087218
958 951
236 11
236 97
236 01
236 495
816 7
816 799
816 26137
844 72
844 1587
DBE FD
976 81
BFE CD
BFE DAB
Ġ14 00
Ġ14 32
Ġ14 56
Ġ14 16
Ġ14 80
Ġ14 40
Ġ14 88
Ġ14 48
Ġ14 64
Ġ14 24
Ġ14 96
Ġ14 08
CCC CD
CCC FD
CCF AE
DFE FAD
879 5
879 387
920 17
920 394
079 3
079 4
436 004
932 265
932 70472
932 17435
EDD DEEC
049 8
049 9
049 807
928 68
928 63
928 4796
210 5
210 9
939 2
939 54
939 262
939 4888305
929 55
ĠM il
565 709
842 6
842 61
842 7433
914 68
914 51
970 58
970 668
970 3837
152 7
152 519
012 70
012 46
012 8522
012 00024
642 4
982 14
982 7310
848 67
BEB CC
470 3120
CCB BB
089 612
089 588
089 23601
088 2
088 8
088 35
088 45594
869 8276
869 77600
EAC FB
Ġtra ct
Ġ19 52
Ġ19 36
Ġ19 20
Ġ19 60
Ġ19 28
Ġ19 84
Ġ19 04
675 7791
856 71
856 7533
856 96546
852 3
852 45
852 375188
852 7093670859
052 43
052 9639
052 4311
029 1944
029 00036
042 422
042 4954
636 5
636 7
636 777
990 612
990 30528
DAB BB
FAD EC
EDC AAE
7172 38
7172 42021
775 5
775 11
775 17
775 35
Ã° ÅĢ
Ã° Ä¶
850 1
850 4
850 561
056 2
040 8
040 97
040 605567
260 81
135 75
FEC FF
014 988
am ous
070 3034
CCE BF
464 50
464 118
464 119
916 0
916 2
916 341
ACB BD
BCB BBF
028 56032
962 12
962 331
630 33
630 55261
978 87
978 788
978 203
978 79175
546 57
BBA CDC
034 2684
FAB FFF
FAB DDA
FAB CBEFDFB
331 384695
FAE BDB
FAE AED
264 49
264 62
948 23
BFF CE
BFF AFBCE
575 3700
DCB BC
942 3798
op qr
BFC FF
059 8219
059 6102
ECE BE
ECE EBAEB
743 1518
li p
li es
117 709
CAB DB
054 04
054 07
054 739
237 19252
237 520190
824 74
824 80
DAE E
DAE AEA
DAA DF
BBB AD
FEB AA
FEB EC
Ġma de
930 3058
930 3261
EFD DBCA
038 1831
4858 60
CAE DB
CAE BDC
CAE CCFBF
036 10201
086 1
086 40549
Ġwh at
952 39
952 46
952 86
952 68783
DEC AA
984 49787
735 723
Ġ20 40
Ġ20 24
817 59
817 73
937 7160
613 73021
AFF AED
CAA CF
ACD CC
ACD DA
DAC FE
615 3563
615 34595
FAA AB
FAA BC
FAA DE
950 1
950 710
DFA FEC
DDD EDF
DCE FBD
517 1
517 3057
517 5253
215 779
964 31
725 788
DCD DB
FCD FC
FCD DDAB
BEC CBDDB
ĠR e
455 1
FFB AC
ECB EEBC
2939 62
2939 772
082 673
415 347
415 321
915 38
915 769
390 31549
255 337
DEF AC
DCF AB
DCF CDA
FFD AD
147 569
349 393
217 372
124 304
068 659
535 35
535 1550
Ġ00 6917
026 5
737 191
737 5379
651 3427
986 886
764 52979
733 30
733 3689
CFA CD
722 31
882 31
gra do
148 36855
Py UFunc
717 399
326 571
os a
486 33
Ġval i
Ġ56 68
Ġ13 52
Ġ13 36
213 75
646 153
Ġ72 1645633
Ġ15 12
Ġ15 52
235 7374157
017 512
017 7197
Ġ34 34
973 008
851 70
917 19
917 3186
Ġex erc
731 79
877 528146
cca b
Ġ76 39
437 16
437 13
Ġ17 12
Ġ17 52
Ġ17 36
Ġ17 76
dcb f
Ġ59 54
957 11944
bca a
037 514
bcc b
207 38800
531 76
531 78
531 564
713 336
acc e
su ch
Ġ38 75
606 355
013 15
013 169
951 540
647 7825061
694 304
407 709703
453 74756
577 750
bef d
051 398
ĠÄ¼ Ã¯
231 590
635 70
413 74558
cff c
fed b
Ġ74 356
671 306
fef d
ĠÄ· Ã¯
aef c
aef e
698 4252
ĠÄ§ Ã¯
273 198
Ġres ults
Ġres erved
dfb c
fdd c
ĠÄ© Ã¯
aed b
cef e
pon ent
857 33440368
Ġ33 7023370
913 596
bed d
ĠÄ¹ Ã¡
425 360
Ġes eg
081 52869
Ġ29 69447
ĠÅģ Ã¡
533 147
035 594
pl o
bdd f
473 79
473 34
bl ood
Ġfa se
Ġ64 105
Ġ51 7988
471 780
aca e
dcc b
ure ter
Ġperm an
977 788
vi ew
653 504
653 7243
ser t
ser ved
Ġac tive
Ġac quired
ĠY our
anti vascular
Ġ46 3729
Ġ83 599
Ġ83 167
Ġ61 72
ĠV isual
Ġ84 891
gn u
ĠAE CBB
Ġmodif ication
Get s
Ġ08 461
Ġ93 34
ĠAA FDC
iter ature
ang ue
Äła pp
Ġab ility
el vic
2010 6878
6276 02
Ġk ind
Ġk now
Ġret urns
1029 9884
6459 108
6479 283
4518 1337
4518 13210
cum vention
1069 413848
7853 1886
6037 70
9874 68
9874 360140
Ġdistrib ut
ĠEA CD
7222 6621
3498 513
ABAB AB
Ġinclu ded
ĠEE CBB
ĠEE BCC
3011 8121061
7432 54
7432 52
8062 40811
4480 9009868
AT E
3230 80620
5976 74
5976 9672
ACCA FA
Ġext en
ĠĠĠĠĠĠĠĠĠĠĠĠĠĠĠĠĠĠĠĠĠĠĠĠĠĠĠĠĠĠĠĠ ĠĠĠĠĠĠĠĠĠĠĠĠĠĠĠĠ
1276 560
5268 66
3639 05
3689 6671
3032 69
3032 88
EDFD FD
5218 426
3054 77
7290 690
1200 59860
1559 985
1559 5605
2579 54
2579 783
Ġli ke
3915 35
8979 44
8979 96
7600 103
7618 92
3014 93
5048 30
1456 147569
1456 743254
7802 723
2012 63
ADEB EEE
Ġcorre lazione
5038 03
1488 4149
6880 94
7736 07
BEDD CBB
6011 778
6011 675
8849 810
9939 903
9600 87
9600 2017
0052 56
3966 3242
1902 53
6656 10
6234 308385
8644 611685
36138 44
2054 42522
8920 53
ABED CF
9319 115656
ĠLI ABLE
Ġradi ation
3211 371
1299 25681
1299 526866
5870 79
3057 324
7482 60
5779 169
2619 3989
5312 146806
5312 808383
0419 468
7874 04768
2276 13
2276 07
7330 33
4512 526
2500 34
ĠBB FD
1440 1207
7883 54
8258 50
8258 420
0700 33
Ġrequi res
EAAB AE
0038 8178
3469 75
5869 64
1811 187
2992 759
4410 59
3754 23611
9718 383
0012 79
1166 918
7923 52
3466 26449
2978 69
2978 4444
AACB BBDF
4200 80
6410 87856
9489 70
8158 16
0028 1333
3268 780
5620 13
3411 323
3629 5826
7649 00
7074 9604
8911 245
8980 42
ABEE AC
1700 57
6839 7930079
ECAD ABDA
5376 5019
9637 15983
4576 89
4311 89
6156 786
0374 2636
9179 006
2728 58
2728 15
3895 59
7066 41
1354 858758
1754 90
3316 670
6468 004
8214 230564
8470 423
EAFC FDA
4532 1421
4318 348
4696 59883
5708 79
5708 0055
EFFF AC
0001 0001
1912 31170379
1880 5496
2922 800
8023 1276560
6098 1150
3519 81
7572 21
5579 67
BDCC FD
Ġta moxifen
8378 82
0711 1200
3869 1005
5412 7482
5442 6750
7999 16424
5074 36931
2979 10
CDDC AA
6848 675547
2854 5007
EFFD FC
Ġlimit ed
9198 799
Ġhol ding
EABB AEDE
5436 102
3677 15327
5982 53178
8092 33
1774 3603
3576 78
3576 21
6249 55
6842 563
7338 42
8570 5016
2172 604
ECEB FA
5476 82
5418 33
5836 04
ABCB ACF
ADED DB
3732 501
3358 04
0976 23047
0984 78
9235 17
9610 128
9644 806
6372 03
4519 844
4519 373
Ġpot ential
Ġdes cr
ogra fia
4526 3063
sh ow
3298 13
5688 3413
7229 4049
2964 53
8018 150384
8974 4259
8826 15
6458 824
0811 55342
5210 2116088
3672 85
3049 627
1998 11
2060 631
8044 43
6624 185187
8978 31
8988 58
6944 7459
4442 65
4442 39567
6280 528
6864 78622
4800 891
3338 1016
5500 08
2458 315
2638 447
6570 545
4170 3768251
9759 7432
0719 573
Ġrun time
Ġrequire ments
3246 20
3640 71194
7658 252
1076 59864
8050 57471
AAFD AAC
1500 51371
ADBB FC
5774 55
2679 198
8530 4824
Ġeffect s
6540 7847
AFCC FF
CAAB CA
1240 35
3940 96
5874 70
7821 76
7032 381
2022 302
8845 10
8845 31
3511 154
4889 7062
8252 351
8617 143
0874 01
8716 52
9576 4222
2174 788
ane ur
Ġanimal s
1704 6914
1140 532
5054 758
1974 47692794
8918 6839
6958 15
6214 49
FCCB ED
9962 15
3136 61
0655 7163899
9139 5312808383
Ġser ver
9569 8996
BCED CBCCC
CFDE AE
pos ed
1175 18805496
5655 365
3846 7205
5252 30
5244 756
3015 14
3082 5475
1418 08
2216 442
0938 67948547
4734 17
0156 456
Ġsecon do
Ġlow er
Ġmaggi or
4799 223
8304 33
3229 38
5479 83
5493 11
2234 669
2220 8146
1359 79235
8886 3243
FFCD DD
ECFD FC
2516 05757
8315 387
rou ps
2696 11
EAAF FCF
5262 859
5810 491
7894 37
7072 72226621
2214 799916424
CBCD CE
9070 101
2850 967
4614 930
7352 07
6534 41187
4150 64256
0712 28460
0560 7576
1790 164
3782 69
4508 53
BABB CFFB
1203 302
7925 761
5258 45
1688 58
1642 7506
2052 623
8909 310
1715 35
DDCC CCF
4659 21868804
4539 622
0314 855
0709 396
4790 34
5780 15
9502 50
1185 15
7628 506
5908 1587
1928 604
7462 73228122
7099 870
7063 301
7065 35
2959 05
4055 182
FECB EB
1538 5178
1714 31
9035 321
3553 13363
3750 77
4679 98
8635 15
DEFC AA
8774 37
4130 890
6174 049
0758 999
Ġaccor d
5508 773
5789 791
CCBF CD
5646 35
3962 53
1084 75
7422 227613
2987 76060
6683 008
8924 39990
6095 59923
2272 86
9912 31
0556 50
Ġcast ing
65511 21391
65511 620682
8000 740
Pro gram
1677 3458
1603 5830
59656 98
5094 108877
7819 809
1805 7252
2923 357
9045 16
3554 8066
6836 757
2432 5300
0948 407
8459 04
2319 11
0536 74619
8150 67
ument o
76916 126
ĠEX PR
7389 73
9169 11
CADB ED
1176 189
5643 596
7978 5366
5265 548
80620 6
4082 7975
2268 2313
22700 2
22700 6182
6980 480
3310 9122
9929 128
4636 3383824
9279 560
0440 462
6512 829065
Ġment re
DFEB AAC
02218 595
02218 0398
2362 798
1127 728
32520 79
3933 117
7030 35
6632 138
4920 87
4917 1433
6086 101
2270 2922800
6946 31
4478 54094
4460 186
1712 4220
9019 18
5553 305
0928 77
8600 8505
86358 712
8732 7222
8300 981
4714 261
0734 684006
significa nt
5520 59
5522 792
8399 57549
8569 24
2057 172
AAADC CEFF
4488 505
9048 21
6460 586964
4356 15595605
requi re
Ġ756 83
cons ole
1304 684874
2798 3472
FCBA FD
IR ECT
Ġ447 797
5673 167
3673 168
1953 322
6430 3067
Ġtut tavia
9642 790
0638 77
0280 366
8335 505
Ġpossib ile
0368 19
5788 59
NO PQ
1651 001
5939 398
7455 785
2096 1880
4262 4574
7739 874707
2334 6775
Ġconservati ve
0502 62
90812 83
9959 823
24640 883
9136 389
ard less
Ġcontain s
5502 6855
5884 35548066
30454 3290
9010 263
4260 439
9640 8359
02728 4055182
0152 3498
01064 5058
Ġear ly
1393 301493
2788 14
9509 52
CR T
00436 294
32854 05004
12179 97
39770 55
1938 56661376
7487 743
29010 331
66138 0311
4979 550
13152 97
15332 19
423622 75
4811 87833
31768 35164
94372 9703837
9659 33973
2533 106
0515 3592
Ġsti ll
road cast
21244 429
ĠTum or
57239 028
65011 695
33619 002
62224 157
08029 5218426
97642 8635
ĠRedistrib utions
27336 687
7708 13
11418 690
72708 3513
59318 39112
10836 88806
19418 75
6603 15385178
4060 3230
0839 739394
0830 529
Ġoblig ations
Ġdetail s
33938 562013
6788 75
84252 0
11920 324
38668 75
39680 64752
36356 39
16878 1069
14176 93
20248 4512526
69254 909
9011 504
55304 39
55514 11
98136 22780
94311 051
06352 84
atti a
Ġ988 638219
75856 500
80012 976
002460 433
11689 93
32556 224
32163 164298
56472 954
72678 163
12279 02
54578 80
79792 68
34414 965933973
36579 18
16552 16773458
50159 093425
14229 005
14434 10234
19617 501
18696 4485
18438 46
20156 799
2931 563
29989 55613
89654 432
60382 10270
22312 37
44858 605
90866 50085
905379 37106
68672 107
68248 21
99916 71
55700 858618
55776 1989
55370 11044
BDADA CDA
09274 64
26558 80966
26511 26
51782 40827975
EFCBC AF
06156 690
23788 5810491
Ä¦Ã¡Ä© Ä§Ã¡Ä©Ä¨Ã¡Ä©Ä©Ã¡Ä©
91921 785
57482 5582
700419 97
78210 8006
59839 121
50239 71024
158258 1971
CEBDBB EC
134370 95707
73243 360646
35402 35466
42956 588
Ġpropri et
93910 2298651
97959 2146
08689 1693
8417040 721
gith ub
004318 210
008040 2624
11798 6012
11559 35
32856 1531
327802 57
729538 1354858758
38338 2336
127890 3026
793268 5888
34940 6512829065
34477 37
342248 507436931
36891 529
365714 04
58350 4539622
58619 7552
588062 81103
59618 3230
59640 6378
30289 81
306098 554
14928 5858
145890 90
147036 087401
141140 33
19218 81450
196037 3036
1983914 692
74948 465921868804
74685 5227967
740459 297
705557 130
18268 65
18578 15
2087833 35
29520 388444
29618 0080402624
29855 7981
295098 699
297725 598
80710 29810
805689 004
66323 375
666775 31
40216 53
407958 203
89676 2992759
896318 5300
49632 57
49552 5560
4974878 67
60726 131441
226054 72
69242 750
693359 89
447554 34
13558 89554
88818 16
88449 86
88829 56245
88450 432
15511 341
90739 805
90989 2194
90979 40
906138 696
35530 16608
357779 6660
62190 79
625627 3511154
625488 354
42839 36823
42642 8613
4257980 972
68454 779
68376 081
68239 8196
683090 77
48244 00518
483575 3344345
485739 144
337853 78
99711 016
99476 428
99998 704
994480 193
991827 14983
55727 13575
643872 502
28579 95
282464 56
24738 197
243096 138
FAFDB FEEC
82310 356
82688 532
821103 799
46500 7109
463019 41
463890 9387
097876 4087
093029 93
090029 12
091146 597
26169 76
AFAECE DD
847514 52
86325 373
92109 5350
922964 300
926609 53
984849 56
08782 5201
08738 483
04176 1187
DEDBBB ADB
061966 30446
671844 40
271908 33
85588 696
251314 5164
251832 44
237923 1953322
83746 79
831610 66
475034 327
0578289 082
0172257 797
033284 584
Ä®Ã¡Ä¨ Ä¯Ã¡Ä¨
Ä®Ã¡Ä§ Ä¯Ã¡Ä§
0003866 98
1910094 691
ÅĢÃ¡Ä© ÅģÃ¡Ä©
ÅĢÃ¡Ä¨ ÅģÃ¡Ä¨
Ä§Ã¡Ä¨ Ä¨Ã¡Ä¨Ä©Ã¡Ä¨
Ä§Ã¡Ä§ Ä¨Ã¡Ä§Ä©Ã¡Ä§
Ä¤Ã¡Ä©Ä¥Ã¡Ä© Ä¦Ã¡Ä©Ä§Ã¡Ä©Ä¨Ã¡Ä©Ä©Ã¡Ä©
696295511 89
256916 770
76033798 131
5547027 323
512518 5104
5603925 35
ÄªÃ¡Ä©Ä«Ã¡Ä© Ä¬Ã¡Ä©ÄŃÃ¡Ä©
558864 69629551189
5584860 248
ÃĬÅĢ ÃĬÅģÃĬÅĤ
ÃĬÄ» ÃĬÄ¼
ÃĬÄ½ ÃĬÄ¾
389894 785
3303539 759
719074 960087
7198038 57
5980028 27
76946510 51365
4541755 356
2000354 81
7043456 29304
1645779 789501
164009339 06
362308 461804
FDEFBD CE
359352 99
732959 74653
CFEAFE EE
6348577 545870
712154837 3582705
174114730 41
8660918 060
1004154 01
7505876 71
ĠINT ER
458034 736
658057539 5551
8592012 53
2343144010 6594893043
48954978 765
5502840 370
474337 5094108877
8809046 164
65071100 883
24859656 368
8343301802 576197
530313 1624
3786339 897
266272 259
874928813 364071194
81017269 21
6496276 38
8361056 4545642
8393658 788669
8394170 57399
8395875 189
ADBAFCE CC
2796274 099
674210 25
8328275158 819
966566 53
9662760 79
01666578 38691005
87879634 7168060
9444049 197
0199770 24
9382335 52731321522
9383719 191231170379
2628814 28099
8443011 699
0423336 401
26041724 33
0707201 347
4304959 6520
27829174 17
5135100 39
5137409 2261
9463249 27
0868827 347
Ġsuperi ore
3157078 987
3355999 57
9503759 705
BFAFDBE CBF
5355944 63058
73170214 25
2827736 56
ĠUni vers
603778389 73
27903636 27
30543819 510
81398963558 30
36586200 3498513
104130859854172 0197
04193602 792
8378345359 29389
91587364642 51
70340860 373
28541346910 59839121
80148550307310 950
335891 365
06120229 518
32645241811 15
564473792 40
1846808265 35589
81768261700 6848675547
008779 36896671
436959153815 380
149379275 599
47697202 58
51646256 798
5629195049880 497487867
9317556285242 8499
8799771100 2009095
2961145315130 549311
99807051508 66402
Ä®Ã¡Ä©Ä¯Ã¡Ä© Ä°Ã¡Ä©Ä±Ã¡Ä©
Ġ6892 540
seudo aneur
Ġ90078 999
Ã¡Ä§Ä¿ Ã¡Ä§
Ä¤ÃĬ Ä¥
Ã¡Ä¦Ä² Ã¡Ä¦
Ã¡Ä¦Ä´ Ã¡Ä¦
Ã¡Ä¦Äª Ã¡Ä¦
Ã¡Ä¦Ä¸ Ã¡Ä¦
Ã¡Ä¦Ä¾ Ã¡Ä¦
Ã¡Ä¦Ä¬ Ã¡Ä¦
Ã¡Ä¦Ä¼ Ã¡Ä¦
Ã¡Ä¦Ä° Ã¡Ä¦
Ä£Ãķ Ä¤
Ä£Ãĳ Ä¤
Ä¥Ãĳ Ä¦
Ä¸Ãī Ä¹
Ġ517988 8724819
" .
' .
0 797
0 760
0 384
0 799
0 508
0 526
0 309
0 369
0 785
0 757
0 784
0 781
1 360
1 786
2 520
2 598
2 571
3 399
3 509
3 362
3 157
3 137
4 292
4 528
4 520
4 599
4 303
4 331
4 571
5 528
5 190
5 151
6 728
6 393
6 746
6 309
6 304
6 190
6 369
6 357
7 728
7 384
7 529
7 368
7 175
8 164
8 771
9 595
9 760
9 161
9 380
9 547
9 155
9 355
9 546
9 755
A pp
B ABC
B CBC
B CCF
B EDF
C ABE
C CBA
C ADE
C AAF
D FDD
D ADB
D ABD
D ADE
D ECF
D IT
E G
E NT
F CEB
F ADC
F ABF
I B
I ST
K eccak
K IND
O I
O PY
R IT
R eg
S y
T A
a dcd
a mento
a inst
b eab
c ing
c ead
c ita
d cce
e ece
f faf
f cac
f unction
f ied
h u
i re
k g
k er
m er
m pt
n g
n py
p ica
p ace
p ancrea
r gan
s ent
w ays
y alt
« Ï
® â±
¯ Ñ
¯ Õ
± ï¯
µ á¸
¶ ï¼
· á½
· êŁ
º ê¬
» ï¹
¼ Ç
¼ Ð
½ Æ
½ Î
½ êĶ
½ ïµ
¾ É
¾ Ô
¾ á¼
¿ ¿
Ä į
Ġ :
Ġ CED
Ġ ADC
Ġ CEA
Ġ FFF
Ġ AED
Ġ FCA
Ġ ABD
Ġ ABF
Ġ AAF
Ġ 771
Ġ 557
Ġ 173
Ġ 131
Ġ zione
Ġ 897
Ġ 573
Ġ 589
Ġ 503
Ġ eab
Ġ 283
Ġ 423
Ġ Î¼m
Ĥ Ö
Ĥ ãĢ
ĩ áı
Ī á´
ķ ãĢ
Ĺ ï½
Ľ âĵ
00 70
00 20
00 60
00 35
00 83
00 97
00 81
11 89
11 28
11 43
11 215
32 14
32 17
32 71
32 07
56 11
56 72
72 37
72 85
72 95
38 30
38 51
38 87
12 88
12 48
12 82
39 72
39 79
39 52
39 50
39 43
54 72
54 38
54 78
54 68
54 65
54 814
79 77
79 73
79 51
79 04
79 05
79 91
52 37
52 51
34 28
34 61
34 676
34 067
36 35
36 82
36 93
36 324
16 39
16 37
16 82
16 53
16 95
58 68
58 33
58 82
58 09
58 53
58 23
58 03
58 91
76 40
76 77
76 31
76 63
59 00
59 58
59 30
59 49
59 35
59 84
59 83
59 91
59 770
30 56
30 71
30 45
30 65
50 56
50 67
50 27
50 81
50 91
14 24
10 28
10 252
19 76
19 84
19 65
19 61
19 219
19 489
78 32
78 67
78 07
74 38
74 12
74 65
74 27
74 85
74 258
70 70
70 15
70 84
70 73
70 47
18 79
18 68
18 51
18 41
18 549
Ãĥ Åĥ
20 72
20 50
20 46
20 73
20 94
29 65
29 43
29 47
29 01
29 578
29 072
29 329
80 72
80 55
80 67
66 11
66 12
66 14
66 78
66 82
66 46
66 87
66 97
40 16
40 40
40 15
40 92
40 41
40 81
89 60
89 71
49 18
49 29
49 62
49 06
49 63
49 47
49 610
49 928
AA CF
AA ABE
AA DBD
60 78
60 89
60 42
60 68
60 31
60 53
60 93
60 994
22 60
22 63
CE S
CE EB
CE CF
CD FD
69 38
69 19
69 20
69 62
69 77
69 28
69 31
69 87
69 279
44 31
44 45
44 87
AB CE
AB AF
AB EF
AB DF
FE EE
FE DA
FD EA
FD BF
13 35
13 769
13 749
88 76
88 10
88 63
88 703
15 12
15 36
17 56
17 34
AE DB
AE FF
AE CDD
90 32
90 79
90 66
90 22
90 55
90 64
90 81
35 35
35 319
35 744
62 54
62 20
62 13
62 62
62 57
62 46
62 81
42 88
42 64
42 65
37 79
37 52
37 362
68 50
68 25
48 52
48 43
48 23
DB AEC
75 530
FC AAD
EE AB
EE DB
EE FA
33 13
33 389
33 352
99 18
99 35
99 77
99 84
99 27
99 41
AC AE
55 76
64 38
64 39
64 14
64 29
64 49
64 64
DD DE
77 30
77 35
77 37
77 700
28 69
28 46
28 45
28 23
28 21
BB BD
BB BC
Âª Ãī
CC ABC
en e
24 72
24 76
24 59
24 89
24 33
24 57
24 51
ED EE
FA FE
ed ef
ed eb
ed aa
ed cd
ed bd
ed ing
57 35
82 50
82 69
82 53
46 16
46 20
46 37
46 75
ĠÃ ĸ
EC FB
BD DB
09 16
09 74
09 64
09 47
09 81
ca ea
ca eb
ca ac
ca ad
26 42
26 77
84 52
84 80
84 13
84 68
84 779
73 11
51 303
ec de
ec fb
in put
in vasive
ea ca
ea aa
EA CB
Ġt ali
Ġt ypes
92 54
92 80
92 89
on t
on os
98 29
98 40
98 69
98 15
98 48
94 11
94 34
94 19
94 68
94 64
94 71
da l
da fb
da ab
da ae
ef ed
ef db
ef fa
ef ad
96 32
96 50
96 74
BE AA
08 52
08 16
08 69
08 71
DE FBB
06 405
02 32
02 19
02 78
02 49
02 60
02 17
02 68
02 33
db bf
DC AA
fa fa
fa cb
fa ac
fa be
fa fd
fa fe
de bd
ba db
ba dd
ba ce
ba ee
ba ac
cc ca
cc cb
cc bf
63 11
63 38
63 76
63 30
63 10
63 15
63 366
67 30
67 70
67 17
45 00
45 16
45 14
27 79
27 14
27 10
Äł D
Äł O
Äł un
Äł wh
87 76
87 10
87 70
87 13
87 37
87 75
87 31
85 74
85 15
ff cb
ff dd
ff df
eb ca
eb fa
25 36
âĹĮ ß
83 50
cb ce
93 11
61 50
95 59
95 75
95 77
47 79
47 78
dd fa
dd cb
fb ef
fb ff
fb dd
fb fc
fb cd
97 54
97 16
ti ce
ce ca
05 38
05 17
05 31
07 79
07 13
81 344
01 39
01 76
aa fa
aa eb
aa ce
aa af
aa fd
aa cd
03 38
91 00
91 54
91 52
bb da
bb ef
bb fb
bb fe
df ea
df fa
df ee
cf cb
cf cd
Â´ Â´
ab ef
ab cb
Ġth ree
Â° Â¯
Â° Â®
Â° Â¸
al y
al lation
Âµ Ã¢Ä¹Ä®Ãł
Âµ Ãī
Âµ ÃĶ
Âµ Ã£Ä¦
Ä¹ Ã£Ä§
Ġc m
Ġc our
Ä® Ãª
Ä® Ãł
Ä® Ã£Ä§
Ä® Ãı
Â± Â¢
Â± Â¤
Â± Â®
Â± Â¸
Ġs im
fc db
Ġp rac
Âº ÃĲ
Âº Ãī
Âº Ãİ
Âº Ã£Ä¦
Â¬ Â¢
bf dd
bf ce
bf df
bf ee
Åĥ Ãī
Â¤ Â¥
Ġo ff
Ġo pac
Â® Â¯
Â² Â³
bc ef
bc db
bc ff
ad da
fd da
cd fa
bd cb
bd ist
fe ea
ae eb
re tti
di m
di ms
ro gra
at ori
an alisi
ÅĤ Ã£Ä§
ÅĤ Ãī
Ã¢Ä¹Ä® Ã¡Ä¤
ĠÃ¡ Åĥ
Ġf ee
ÅĢ Ã£Ä§
ic it
Ġ6 54
Ġ6 79
ol low
Åģ Ãª
Åģ Ã£Ä§
Ġr ib
Ġ2 009
Ġ2 007
Ġ7 14
Ġ7 19
Ġ3 34
Ġ3 58
un e
un to
un der
ĠP r
ĠÃ¢ Ä´
Ġ5 72
Ġ5 30
Ġ5 10
ri x
ri ly
Äµ Ãª
Äµ Ã£Ä§
Äµ Ãī
Äµ Ãĳ
Ġ4 54
Ä§ Ã£Ä§
Ä§ Ãķ
Ä§ Ãĳ
414 3
Ġd ing
Ġd one
Ä¦ Ã£Ä§
Ä¦ ÃĬ
Ä¦ Ãı
616 6
Ġl ibrary
Ġl icensed
849 5
849 8
Ġcon tra
Ã¡Ä§ Ä¢Ã¡Ä§Ä£Ã¡Ä§
âĹĮá ¢
Ä¤ Ã£Ä§
Ä¤ Ãı
ĠSHA LL
Ã¡Ä¦ Ä¢Ã¡Ä¦
256 3
384 79
Ä¢ Ã£Ä§
Ä¢ ÃĬÄ£
644 6
512 1
Ä£ Ã£Ä§
Ä£ Ã¡Ä¦Ä¤Ã¡Ä¦
Ä² Ã£Ä§
Ä´ Ãª
Ä´ Ã£Ä§
560 62
Ã£Ä§ Ä©
Ã£Ä§ ÄŃ
Ã£Ä§ Ä·
Ã£Ä§ Ä»
Ã£Ä§ Ä«
Ã£Ä§ Ä¿
Ã£Ä§ Ä½
Ã£Ä§ Ä±
Ã£Ä§ ÂºÃ£Ä§
Ã£Ä§ ÅĥÃ£Ä§
Ã£Ä§ Ä¹Ã£Ä§
Ä¨ ÃĬ
Ä¨ Ãı
Äº Ãī
Ä¥ Ã£Ä§
Ä¥ Ãķ
Ä¥ Ã¡Ä¦Ä¦Ã¡Ä¦
Ä¶ Ãª
Äª ÃĬ
Äª Ãı
711 7
Ä³ Ãª
Ä³ Ã£Ä§
Ä³ Ãķ
Ä³ Ãĳ
Ä³ Ã¡Ä¦Ä´Ã¡Ä¦
Ä© Ãķ
Ä© Ãĳ
Ä© Ã¡Ä¦ÄªÃ¡Ä¦
356 5
Ä¸ Ãª
ÄŃ Ãª
ÄŃ Ãķ
ÄŃ Ãĳ
ÄŃ Ã¡Ä¦Ä®Ã¡Ä¦
Ä· Ãī
Ä· Ã¡Ä¦Ä¸Ã¡Ä¦
Ġor i
Ġor s
Ä¾ Ã¡Ä§Ä¿Ã¡Ä§
558 1
558 4
Ä¬ ÃĬ
Ä¬ Ãı
700 8
ÃĬ ÂªÃĬ
ÃĬ Ä¤ÃĬÄ¥
Ä» Ãª
Ä» Ã¡Ä¦Ä¼Ã¡Ä¦
Ä« Ãķ
Ä« Ãĳ
Ä« Ã¡Ä¦Ä¬Ã¡Ä¦
Ä¿ Ã¡Ä¦ÅĢÃ¡Ä¦
Ä½ Ã¡Ä¦Ä¾Ã¡Ä¦
ÃĲ Âµ
ĠF inally
898 73
358 9
534 3
Ä¼ Ãª
Ä¼ Ãī
Ä¯ Ã£Ä§
Ä¯ Ãķ
Ä¯ Ãĳ
Ä¯ Ã¡Ä¦Ä°Ã¡Ä¦
454 2
200 52
132 4
734 1
734 2
556 4
Ãī ÂºÃī
Ãī ÅĥÃī
339 4
339 7
Ä± Ãķ
Ä± Ãĳ
Ä± Ã¡Ä¦Ä²Ã¡Ä¦
219 0
319 86
536 7
300 3
300 4
300 7
754 0
754 7
754 9
789 54
539 5
539 6
158 8
758 6
314 6
134 3
618 3
334 1
334 3
634 7
712 0
712 05
CDD DB
572 1
572 98
320 99
656 2
156 8
866 3
310 72
311 6
311 9
739 1
714 4
EAE F
718 4
858 0
858 7
AFB B
500 1
514 8
Ġh er
ĠI T
612 1
612 8
214 0
418 2
418 7
418 8
211 8
Ãķ Ä£ÃķÄ¤
449 5
il mente
Ãİ Åĥ
Ãİ Ä·
Ãİ ÂµÃİ
176 3
Ġg o
Ġg u
Ġg over
736 5
466 7
269 4
269 7
ADD CA
229 6
872 09
658 6
ut ure
ut ine
ĠL OSS
614 7
576 6
516 2
516 18
460 9
880 9
476 3
Ġca l
Ġca se
FFE EE
258 8
Ãĳ Ä£ÃĳÄ¤
Ãĳ Ä¥ÃĳÄ¦
378 7
316 8
316 13
316 23
532 4
810 8
AAA CB
680 3
432 6
811 1
ĠN T
ĠN ot
814 4
974 2
218 0
ĠS t
450 20
289 3
289 5
812 8
911 53
620 6
150 6
688 8
730 7
730 32
472 9
AEB CE
820 9
819 3
819 8
280 2
622 5
759 6
940 4
249 8
570 2
674 0
Ġpro per
Ġpro min
Ġpro ble
966 5
654 6
Ġun less
822 6
EBB D
439 5
Ġne gli
220 2
800 7
BEE B
BEE C
066 1
934 0
934 9
944 8
058 7
058 9
478 3
AAF CE
239 6
419 4
419 74
912 1
019 8
910 7
910 8
968 1
080 8
044 4
044 6
238 6
240 7
240 88
938 6
Ġre tain
090 7
039 2
039 7
ch ang
ver y
854 1
922 3
011 8
072 0
960 8
069 3
468 2
958 3
010 5
010 7
879 3
920 3
920 5
Ġst andard
436 6
928 5
939 5
ĠM c
ĠM iles
914 0
152 1
012 1
642 5
619 2
982 3
848 5
BEB D
979 3
252 1
ow er
ul mon
Ġtra tto
Ġ19 89
675 3
675 7
042 38
636 3
636 6
242 5
850 7
056 4
040 3
260 6
260 8
FAC AE
648 1
648 5
648 7
062 6
980 5
028 5
430 1
430 6
962 3
962 4
Ġon c
876 6
978 4
bcb d
862 3
862 7
ÃĶ Âº
948 6
942 8
op e
op ra
te ly
te xt
022 6
946 7
059 78
FED CE
824 5
459 2
038 3
DBB AC
036 5
Ġsu a
Ġsu bject
Ġ20 15
313 79
Ġint ravas
Ġda ti
Ġda te
964 3
964 5
ĠR es
Ã£Ä¦ ÂµÃ£Ä¦
BAD FE
064 1
631 52
eef c
eed b
eed f
def a
Ġmo stra
lu gin
Ġcom mon
Ġcom bin
Ġcom pilation
fba e
tra verso
Ġex ception
pro pag
con ver
afb c
ada d
ada e
Ġra n
Ġra ts
ddb a
olog ica
olog iche
iv a
iv es
Ġse gn
bef e
Ġter m
ĠÄ¬ Ã¯
ĠÄ´ Ã¯
cda a
adb e
adb f
do cum
ĠÄµ Ã¯
fdb d
ĠÄŃ Ã¯
Ġen do
ĠÄ» Ã¯
pon ib
ĠÄ° Ã¯
ĠÅĥ Ã¯
bed a
fda c
ĠÄ¹ Ã¯
cfb b
ĠÄ± Ã¯
Ġes istono
pl or
zi o
zi ale
Ġapp ear
Ġno d
ĠH a
ĠIn st
fcc d
971 34
AR Y
dcf e
iz ation
com e
ne w
lo pers
Ġris pet
__ .
ĠV E
Ġnum py
valu es
Ġpat h
UT E
Ġag ainst
Ġpres er
Ġem atico
Ġred uced
ĠÃħÄ¤ ÃĥÂªÃĦ
Ġspec ial
Ġrec og
urg ical
Ġpre lim
Ġrep ort
Ġtreatment s
soci ation
Ġradi o
mag ine
org an
rect om
Ġmicrovas i
ÃĥÄ¼ ÃĦ
modif ication
wh ich
Ġatt rib
Ġcomp uter
Ġtissu es
GH IJK
vis ion
ogra phy
Ġcir ca
An y
ĠTh er
Ġrequire ment
Ġtion s
ane ously
Ġcell ule
-------------------------------- --------------------------------
ĠÃĥÄ· ÃĦ
Ġquanti fica
ĠÄł ÄłÄłÄłÄł
radi o
Ġhaem aturia
Ġhaem atoma
Ġrecipi ents
Ġfarmac i
ha ve
ĠCONT RAC
ĠCont ributor
Ġpor tion
Ġanatom ical
Ar g
Ġsol id
Ġder ived
ĠOn col
Ġsel ected
copy right
hi p
Ġaut om
Ġpancrea s
omp an
ote li
Ġlar ge
Ġassess ment
Ġgestion e
Ġmeasur ed
Ġstruct ure
ĠHOLDER S
ghijklmn opqr
22334 4556
ĠTH IS
Ġmethod s
Ġpolmon e
Lo op
Ġequival ent
ĠPath ological
Ä¦Ã¡Ä¨ Ä§Ã¡Ä¨Ä¨Ã¡Ä¨Ä©Ã¡Ä¨
Ä¦Ã¡Ä§ Ä§Ã¡Ä§Ä¨Ã¡Ä§Ä©Ã¡Ä§
Ä¢Ã¡Ä©Ä£Ã¡Ä© Ä¤Ã¡Ä©Ä¥Ã¡Ä©Ä¦Ã¡Ä©Ä§Ã¡Ä©Ä¨Ã¡Ä©Ä©Ã¡Ä©
ÃĬÄ¿ ÃĬÅĢÃĬÅģÃĬÅĤ
ĠLicens or
Ġproduc ts
ĠWHE THER
ĠPROVI DED
LM NOPQ
RST UV
pazi enti
vwxy z
ABCDEF GHIJK
inci p
abcdef ghijklmnopqr
Ä¹Ã¡Ä¦ ÄºÃ¡Ä¦
ÅĢÃ¡Ä§ ÅģÃ¡Ä§
ÅģÃ¡Ä¦ ÅĤÃ¡Ä¦
ÄµÃ¡Ä¦ Ä¶Ã¡Ä¦
Ä§Ã¡Ä¦ Ä¨Ã¡Ä¦
omog r
Ä¤Ã¡Ä¨Ä¥Ã¡Ä¨ Ä¦Ã¡Ä¨Ä§Ã¡Ä¨Ä¨Ã¡Ä¨Ä©Ã¡Ä¨
Ä²Ã¡Ä©Ä³Ã¡Ä© Ä´Ã¡Ä©ÄµÃ¡Ä©
Ä²Ã¡Ä¨Ä³Ã¡Ä¨ Ä´Ã¡Ä¨ÄµÃ¡Ä¨
Ä²Ã¡Ä§Ä³Ã¡Ä§ Ä´Ã¡Ä§ÄµÃ¡Ä§
ÄºÃ¡Ä©Ä»Ã¡Ä© Ä¼Ã¡Ä©Ä½Ã¡Ä©
ÄºÃ¡Ä¨Ä»Ã¡Ä¨ Ä¼Ã¡Ä¨Ä½Ã¡Ä¨
ÄºÃ¡Ä§Ä»Ã¡Ä§ Ä¼Ã¡Ä§Ä½Ã¡Ä§
Ä¶Ã¡Ä©Ä·Ã¡Ä© Ä¸Ã¡Ä©Ä¹Ã¡Ä©
Ä¶Ã¡Ä¨Ä·Ã¡Ä¨ Ä¸Ã¡Ä¨Ä¹Ã¡Ä¨
Ä¶Ã¡Ä§Ä·Ã¡Ä§ Ä¸Ã¡Ä§Ä¹Ã¡Ä§
ÄªÃ¡Ä¨Ä«Ã¡Ä¨ Ä¬Ã¡Ä¨ÄŃÃ¡Ä¨
ÄªÃ¡Ä§Ä«Ã¡Ä§ Ä¬Ã¡Ä§ÄŃÃ¡Ä§
Ä¾Ã¡Ä©Ä¿Ã¡Ä© ÅĢÃ¡Ä©ÅģÃ¡Ä©
Ä¾Ã¡Ä¨Ä¿Ã¡Ä¨ ÅĢÃ¡Ä¨ÅģÃ¡Ä¨
ÃĬÄ¹ÃĬÄº ÃĬÄ»ÃĬÄ¼
Ä°Ã¡Ä§Ä±Ã¡Ä§ Ä²Ã¡Ä§Ä³Ã¡Ä§Ä´Ã¡Ä§ÄµÃ¡Ä§
ĠBell omi
ÃķÄ¢ ÃķÄ£ÃķÄ¤
Ä®Ã¡Ä¨Ä¯Ã¡Ä¨ Ä°Ã¡Ä¨Ä±Ã¡Ä¨
ÄªÃ¡Ä©Ä«Ã¡Ä©Ä¬Ã¡Ä©ÄŃÃ¡Ä© Ä®Ã¡Ä©Ä¯Ã¡Ä©Ä°Ã¡Ä©Ä±Ã¡Ä©
Ä®Ãı Ä¯
ÄµÃī Ä¶
ÄµÃĳ Ä¶
Ä§Ãķ Ä¨
Ä§Ãĳ Ä¨
Ä¦ÃĬ Ä§
Ä¦Ãı Ä§
Ã¡Ä§Ä¢Ã¡Ä§Ä£Ã¡Ä§ Ä¤Ã¡Ä§Ä¥Ã¡Ä§
Ä¤Ãı Ä¥
Ã£Ä§Ä© Ã£Ä§
Ã£Ä§ÄŃ Ã£Ä§
Ã£Ä§Ä· Ã£Ä§
Ã£Ä§Ä» Ã£Ä§
Ã£Ä§Ä« Ã£Ä§
Ã£Ä§Ä¿ Ã£Ä§
Ã£Ä§Ä½ Ã£Ä§
Ã£Ä§Ä± Ã£Ä§
Ä¨ÃĬ Ä©
Ä¨Ãı Ä©
ÄºÃī Ä»
Ä¥Ãķ Ä¦
ÄªÃĬ Ä«
ÄªÃı Ä«
Ä³Ãķ Ä´
Ä³Ãĳ Ä´
Ä©Ãķ Äª
Ä©Ãĳ Äª
ÄŃÃķ Ä®
ÄŃÃĳ Ä®
Ä·Ãī Ä¸ÃīÄ¹
Ä¬ÃĬ ÄŃ
Ä¬Ãı ÄŃ
Ä«Ãķ Ä¬
Ä«Ãĳ Ä¬
Ä¼Ãī Ä½
Ä¯Ãķ Ä°
Ä¯Ãĳ Ä°
Ä±Ãķ Ä²
Ä±Ãĳ Ä²
ĠCONTRAC T
ÃĬÄ¹ÃĬÄºÃĬÄ»ÃĬÄ¼ ÃĬÄ½ÃĬÄ¾
' ,
' t
* .
0 393
0 768
0 595
0 708
0 388
0 357
0 133
0 341
0 573
0 307
1 708
2 768
2 799
2 599
2 169
2 357
2 557
2 573
3 000
3 788
3 598
3 785
3 173
4 360
4 389
4 164
4 573
5 798
5 524
5 786
6 191
6 509
6 704
6 377
6 135
6 777
6 351
7 798
7 133
7 173
8 696
8 520
8 368
8 785
8 353
8 467
9 360
9 508
9 528
9 598
9 368
9 371
9 771
9 571
9 333
A P
A CED
A FAF
B FBB
B ABF
C AED
C FCF
C TP
C opyright
C IDE
D CCF
E n
E CDF
E CEE
F CDC
F CDA
F CBC
F AEB
H A
L ex
M ap
N e
O U
P EC
P er
P ar
R U
T O
W X
W h
W hether
Y Z
] ;
a ece
a ecc
a ebb
a faa
a ebe
a hani
b i
b eff
b eaf
b bad
b bac
b baf
b ile
c re
c dbb
c fac
c ecf
c faf
c faa
c king
c fae
d m
d is
d eff
d eaa
d eac
d istrib
f ul
f eaa
f deb
f ecd
g es
g ing
g th
g roups
h ys
i ce
j u
l p
l ef
l ig
m fc
n r
n ection
n ological
o x
p ect
p ly
p il
p tions
p su
r ali
s is
s ource
t r
t yp
v ac
v ival
y ou
¡ âĵ
¡ êŀ
¢ âĵ
£ âĵ
¤ âĵ
¥ âĵ
¥ ê¯
¦ âĵ
§ âĵ
¨ âĵ
« áµ
« ï¼
¯ á¾
° âĦ
° ãĭ
± ãĢ
² á¾
² ãĢ
³ ãĢ
´ ãĢ
µ Î
¶ Ò
¶ âĴ
· êľ
· âĴ
¸ âĴ
¹ ï¼
¹ âĴ
º âĴ
» â²
» âħ
» ï¬
» âĴ
¼ âĦ
¼ âĴ
½ â²
½ á¾
½ âħ
½ âĴ
¾ Î
¾ ãĮ
¾ âĴ
¿ âĵ
Ã ®
Ã ±
Ã ³
Ã ´
Ã µ
Ã ¶
Ã ¸
Ã º
Ã »
Ã ½
Ã ¾
Ã ¿
Ã Ģ
Ã ģ
Ã Į
Ä ¡
Ä Ģ
Ä ģ
Ä Ĥ
Ä ĥ
Ä Ħ
Ä Ī
Ä ī
Ä Ĭ
Ä ĭ
Ä Į
Ä İ
Ä ı
Ä Ĳ
Ä ĳ
Ä Ĵ
Ä ĵ
Ä Ķ
Ä ķ
Ä ĸ
Ä Ĺ
Ä ĺ
Ä Ļ
Ä ļ
Ä Ľ
Ä ľ
Ä Ŀ
Ä ŀ
Ä Ł
Å ¡
Å ¢
Å £
Å ¤
Å ¥
Å ¦
Å §
Å ¨
Å ©
Å ª
Å «
Å ¬
Å ®
Å ¯
Å °
Å ±
Å ²
Å ³
Å ´
Å µ
Å ¶
Å ·
Å ¸
Å ¹
Å º
Å »
Å ¼
Å ¾
Å ¿
Å Ħ
Å ħ
Å Ĩ
Å ĩ
Å Ī
Å ī
Å Ĭ
Å ĭ
Å Į
Å į
Å İ
Å ı
Å Ĳ
Å ĳ
Å Ĵ
Å ĵ
Å Ķ
Å ķ
Å ĸ
Å Ĺ
Å ĺ
Å Ļ
Å ļ
Å Ľ
Å ľ
Å Ŀ
Å ŀ
Å Ł
Å ł
Å Ń
Æ ¡
Æ ¢
Æ £
Æ ¯
Æ °
Æ ³
Æ ´
Æ µ
Æ ¶
Æ ·
Æ ¿
Æ Ģ
Æ Ĩ
Æ ĩ
Æ Ī
Æ Ĭ
Æ İ
Æ ĵ
Æ ķ
Æ ĺ
Æ Ļ
Æ ł
Ç ¡
Ç ¢
Ç £
Ç ¤
Ç ¥
Ç ¦
Ç §
Ç ¨
Ç ©
Ç ª
Ç «
Ç ¬
Ç ®
Ç ¯
Ç °
Ç ±
Ç ³
Ç ´
Ç µ
Ç ¶
Ç ·
Ç ¸
Ç ¹
Ç º
Ç »
Ç ¿
Ç Ĩ
Ç ĩ
Ç ī
Ç Ĭ
Ç Į
Ç į
Ç İ
Ç ı
Ç Ĳ
Ç ĳ
Ç Ĵ
Ç ĵ
Ç Ķ
Ç ķ
Ç ĸ
Ç Ĺ
Ç ĺ
Ç Ļ
Ç ļ
Ç Ľ
Ç ľ
Ç Ŀ
Ç ŀ
Ç Ł
Ç ł
Ç Ń
È ¤
È ¥
È ¦
È §
È ¨
È ©
È ª
È «
È ¬
È ®
È ¯
È °
È ±
È ²
È ³
È Ģ
È ģ
È Ĥ
È ĥ
È Ħ
È ħ
È Ĩ
È ĩ
È Ī
È ī
È Ĭ
È ĭ
È Į
È į
È İ
È ı
È Ĳ
È ĳ
È Ĵ
È ĵ
È ķ
È Ĺ
È ľ
È Ŀ
È ŀ
È Ł
È Ń
É ĵ
É Ķ
É ĸ
É ł
Ê Ĵ
Î ¡
Î £
Î ¤
Î ¥
Î ¦
Î §
Î ¨
Î ©
Î ª
Î ¬
Î ®
Î ¯
Î °
Î ±
Î ²
Î ³
Î ´
Î ·
Î ¸
Î ¹
Î º
Î »
Î Ĩ
Î Ī
Î ī
Î Ĭ
Î Į
Î İ
Î ı
Î ĳ
Î Ĵ
Î ĵ
Î ķ
Î ĸ
Î Ĺ
Î ĺ
Î Ļ
Î ļ
Î Ľ
Î ľ
Î Ŀ
Î ŀ
Î Ł
Î ł
Î Ń
Ï ¢
Ï £
Ï ¤
Ï ¥
Ï ¦
Ï §
Ï ¨
Ï ©
Ï ª
Ï ®
Ï ¯
Ï °
Ï ±
Ï ²
Ï ³
Ï Ģ
Ï Ĥ
Ï ĥ
Ï Ħ
Ï ħ
Ï Ĩ
Ï ĩ
Ï Ī
Ï ī
Ï Ĭ
Ï ĭ
Ï Į
Ï į
Ï İ
Ï Ĳ
Ï ĳ
Ï Ĵ
Ï ĵ
Ï Ķ
Ï ķ
Ï ĸ
Ï ļ
Ï ľ
Ï ŀ
Ï ł
Ð ¡
Ð ¢
Ð £
Ð ¤
Ð ¥
Ð ¦
Ð §
Ð ¨
Ð ©
Ð ª
Ð «
Ð ¬
Ð ®
Ð ±
Ð ²
Ð ³
Ð ´
Ð µ
Ð ¶
Ð ·
Ð ¸
Ð ¹
Ð º
Ð »
Ð ¾
Ð ¿
Ð Ģ
Ð ģ
Ð Ĥ
Ð ĥ
Ð Ħ
Ð ħ
Ð Ĩ
Ð ĩ
Ð Ī
Ð ī
Ð Ĭ
Ð ĭ
Ð Į
Ð į
Ð İ
Ð ı
Ð Ĳ
Ð ĳ
Ð Ĵ
Ð ĵ
Ð Ķ
Ð ķ
Ð ĸ
Ð Ĺ
Ð ĺ
Ð Ļ
Ð ļ
Ð Ľ
Ð ľ
Ð Ŀ
Ð ŀ
Ð Ł
Ð ł
Ð Ń
Ñ Ģ
Ñ ģ
Ñ Ĥ
Ñ ĥ
Ñ Ħ
Ñ ħ
Ñ Ĩ
Ñ ĩ
Ñ Ī
Ñ ī
Ñ Ĭ
Ñ ĭ
Ñ Į
Ñ į
Ñ İ
Ñ ı
Ñ Ĳ
Ñ ĳ
Ñ Ĵ
Ñ ĵ
Ñ Ķ
Ñ ķ
Ñ ĸ
Ñ Ĺ
Ñ ĺ
Ñ Ļ
Ñ ļ
Ñ Ľ
Ñ ľ
Ñ Ŀ
Ñ ŀ
Ñ Ł
Ò ¡
Ò ¢
Ò £
Ò ¤
Ò ¥
Ò ¦
Ò §
Ò ¨
Ò ©
Ò ª
Ò «
Ò ¬
Ò ®
Ò ¯
Ò °
Ò ±
Ò ²
Ò ³
Ò ´
Ò µ
Ò ¹
Ò º
Ò »
Ò ¼
Ò ½
Ò ¾
Ò ¿
Ò Ĭ
Ò ĭ
Ò Į
Ò į
Ò İ
Ò ı
Ò Ĳ
Ò ĳ
Ò Ĵ
Ò ĵ
Ò Ķ
Ò ķ
Ò ĸ
Ò Ĺ
Ò ĺ
Ò Ļ
Ò ļ
Ò Ľ
Ò ľ
Ò Ŀ
Ò ŀ
Ò Ł
Ò ł
Ò Ń
Ó ¡
Ó ¢
Ó £
Ó ¤
Ó ¥
Ó ¦
Ó §
Ó ¨
Ó ©
Ó ª
Ó «
Ó ¬
Ó ®
Ó ¯
Ó °
Ó ±
Ó ²
Ó ³
Ó ´
Ó µ
Ó ¶
Ó ·
Ó ¸
Ó ¹
Ó ģ
Ó Ĥ
Ó ĥ
Ó Ħ
Ó ħ
Ó Ĩ
Ó ĩ
Ó Ī
Ó į
Ó İ
Ó Ĳ
Ó ĳ
Ó Ĵ
Ó ĵ
Ó Ķ
Ó ķ
Ó ĸ
Ó Ĺ
Ó ĺ
Ó Ļ
Ó ļ
Ó Ľ
Ó ľ
Ó Ŀ
Ó ŀ
Ó Ł
Ó ł
Ó Ń
Ô ±
Ô ²
Ô ³
Ô ´
Ô µ
Ô ¶
Ô ·
Ô ¸
Ô ¹
Ô º
Ô »
Ô ¼
Ô ½
Ô ģ
Ô Ĥ
Ô ĥ
Ô Ħ
Ô ħ
Ô Ĩ
Ô ĩ
Ô Ī
Ô ī
Ô Ĭ
Ô ĭ
Ô Į
Ô į
Ô İ
Ô ı
Õ ¢
Õ £
Õ ¤
Õ ¥
Õ ¦
Õ §
Õ ¨
Õ ©
Õ ª
Õ «
Õ ¬
Õ ®
Õ ±
Õ ²
Õ ³
Õ ´
Õ µ
Õ ¶
Õ ·
Õ ¸
Õ ¹
Õ º
Õ »
Õ ¼
Õ ½
Õ ¾
Õ ¿
Õ Ģ
Õ ģ
Õ Ĥ
Õ ĥ
Õ Ħ
Õ ħ
Õ Ĩ
Õ ĩ
Õ Ī
Õ ī
Õ Ĭ
Õ ĭ
Õ Į
Õ į
Õ İ
Õ ı
Õ Ĳ
Õ ĳ
Õ Ĵ
Õ ĵ
Õ Ķ
Õ ķ
Õ ĸ
Õ Ń
Ö Ģ
Ö ģ
Ö Ħ
Ö ħ
Ö Ĩ
Ġ 212
Ġ FDE
Ġ AAE
Ġ ADD
Ġ FDF
Ġ CBF
Ġ FDC
Ġ CDE
Ġ AAA
Ġ ACF
Ġ ADE
Ġ FBA
Ġ FBF
Ġ AEA
Ġ 546
Ġ FEB
Ġ 757
Ġ 773
Ġ 366
Ġ 171
Ġ 305
Ġ 791
Ġ 501
Ġ 906
Ġ 348
Ġ ead
Ġ 467
Ġ ecf
Ģ âĵ
ģ âĵ
Ĥ âĵ
ĥ â°
ĥ âĵ
Ħ â°
Ħ âĵ
Ħ ï¿
ħ âĵ
Ĩ âĵ
ĩ âĵ
Ī ãĢ
Ī âĵ
ī ãĢ
ī âĵ
Ĭ ãĢ
Ĭ âĵ
ĭ ãĢ
ĭ âĵ
Į ãĢ
Į âĵ
į ãĢ
į âĵ
İ ãĢ
İ âĵ
ı ãĢ
ı êĻ
Ĳ ãĢ
Ĳ âĵ
ĳ ãĢ
ĳ âĵ
ĳ â³
Ĵ âĵ
ĵ ãĢ
ĵ âĵ
ĵ â³
Ķ ãĢ
Ķ âĵ
ķ âĵ
ĸ ãĢ
ĸ âĵ
Ĺ ãĢ
Ĺ âĵ
ĺ ãĢ
ĺ âĵ
Ļ ãĢ
Ļ âĵ
Ļ â³
ļ á¸
ļ ãĢ
ļ âĵ
Ľ ãĢ
Ľ âĤ
ľ âĵ
Ŀ âĵ
ŀ ãĢ
ŀ âĵ
Ł âĵ
Ł à¼
ł ãĥ
ł âĵ
00 50
00 99
00 77
00 51
00 27
00 165
11 70
11 37
11 99
32 15
32 35
32 73
32 906
56 38
56 16
56 50
56 60
56 64
56 24
72 11
72 39
72 34
72 59
72 17
72 42
72 71
72 45
72 522
38 29
38 28
38 57
38 27
38 21
12 30
12 78
12 616
39 12
39 30
39 06
39 83
39 81
39 412
54 59
54 35
54 24
54 859
54 9489
79 33
79 31
79 82
79 46
79 65
79 93
79 01
79 263
52 12
52 60
52 48
52 737
34 36
34 16
34 33
34 71
34 63
34 23
34 007
36 50
36 53
36 98
36 04
36 06
36 557
36 9179
16 87
16 252
58 38
58 16
58 50
58 49
58 96
58 06
58 612
58 974
58 396
76 75
76 46
76 73
76 08
76 85
76 23
76 95
59 74
59 17
59 64
59 25
59 23
59 41
59 93
59 07
59 169
30 39
30 53
30 25
30 798
30 4518
30 8658
50 36
14 52
14 50
14 44
14 96
14 83
14 658
14 638
14 042
10 59
10 14
10 68
10 33
10 77
10 57
10 21
10 81
10 539
19 30
19 78
19 15
19 96
19 63
19 67
19 93
19 91
78 38
78 40
78 61
74 54
74 57
74 02
70 76
70 18
70 35
70 31
70 319
70 354
18 89
18 69
18 71
18 08
18 95
18 167
18 908
20 70
20 24
20 53
20 61
20 659
20 472
29 00
29 13
29 06
29 25
29 91
29 336
29 429
80 36
80 78
80 98
80 87
80 81
80 368
80 814
80 452
66 50
66 64
66 26
66 73
66 51
66 944
66 563
40 79
40 57
40 93
40 95
40 503
40 996
89 19
89 23
49 42
49 55
49 31
49 86
49 98
49 85
49 03
49 91
49 069
60 79
60 34
60 75
60 64
60 24
60 57
60 65
60 41
60 21
60 81
22 30
22 18
22 22
22 35
22 37
22 650
CD BC
FB EEA
69 36
69 70
69 89
CB BB
CB CC
44 13
44 35
44 73
44 21
AB FFA
13 51
13 134
88 64
88 46
88 71
17 52
17 30
AE FD
AE CF
90 88
90 71
90 96
90 629
90 980
35 33
AD EF
62 50
62 42
62 37
62 53
62 65
62 858
42 16
42 19
42 41
42 610
42 824
42 333
37 557
68 16
68 469
68 494
48 80
48 67
48 65
DB CE
DB AD
DB BD
DB DFD
DB EAFA
75 19
75 520
75 786
FC AD
FC CEC
EE CCE
EE FEE
33 31
99 52
99 34
99 58
99 19
99 40
99 44
99 17
99 48
99 98
99 85
99 93
99 274
99 988
AC AD
55 18
55 35
55 31
55 71
64 37
64 31
64 65
64 771
77 34
77 74
77 15
77 31
77 774
28 32
28 35
28 63
FF AB
FF FD
BB AA
BB AB
BB EB
EB DBF
en on
24 66
24 358
ED AA
ED CB
ed er
57 11
57 72
57 54
57 36
57 795
82 38
82 29
82 40
82 89
82 77
46 11
46 34
46 53
EC FEB
09 34
09 58
09 50
09 268
ca ed
ca db
ca ba
ca cc
ca bf
ca af
ca fe
ca ae
ca ted
26 10
26 730
53 74
53 765
AF FE
84 62
84 37
73 186
86 10
86 20
ec fa
ec cc
ec cd
in o
in to
ea cc
ea ce
ea dc
ea be
ea bf
ea le
EA FE
Ġa ti
Ġa bd
Ġa di
Ġa im
Ġt s
Ġt ed
er gen
CF AD
CF FBF
92 59
92 10
92 70
92 68
on al
98 56
98 62
94 500
94 7316
da fa
da ce
da ac
da ad
ef de
ef dd
ef aa
ef dc
ef af
96 34
96 17
08 49
08 13
08 35
DF FBA
04 38
04 54
04 76
04 13
04 37
04 73
04 124
BC AED
DE CBA
DE DDE
06 11
06 29
06 17
06 51
06 172
06 758
02 36
db db
db dd
db fb
db cf
db be
DA CE
DA FC
BF FB
BF CB
DC AB
BA FBA
fa ed
fa da
fa cc
fa ae
de ca
de ec
de ba
de eb
ba ed
ba ea
ba ef
ba aa
ba sed
ba tim
cc ed
cc de
cc dc
63 19
67 36
45 30
45 10
45 15
45 31
65 32
65 30
65 14
65 35
65 77
65 385
27 38
27 52
27 33
27 784
Äł G
Äł H
Äł inter
87 30
85 12
85 17
85 393
ff cf
ff dc
ff bc
eb eb
eb df
43 17
43 000
43 004
23 52
83 3989
cb da
cb be
cb cd
93 58
47 54
47 58
dd ff
dd ce
dd fc
21 720
fb ec
fb ea
fb bb
fb fd
97 38
97 78
97 15
97 33
ti ces
ti gu
ce ed
ce eb
05 14
07 59
07 50
07 760
01 00
01 79
01 78
01 70
aa ef
aa ba
aa dd
aa bf
aa ad
03 34
03 10
91 59
bb eb
bb ce
es pace
df ca
df da
df de
df df
df dc
cf ea
cf da
ee p
dc fb
ab ed
ab ea
ab ba
ab dd
ab df
ab led
Â° Â¡
Â° Â°
al itÃł
Â¶ Â°
Â¶ Â¶
Ä¹ Ãª
Ä¹ ÃĲ
Ä¹ Ãĳ
Ġc l
Â± Â±
Â± Â£
Â± Â¦
Â± Â¨
Â± Â»
Â± Â¿
ra ting
ðĳ Ĺ
ðĴ ķ
Ġs ed
Ġs es
Ġs ar
Ġs pon
Ġs ections
Ġs ani
Ġs mall
fc eb
fc dd
fc df
Ġp e
Ġp p
Ġp r
Ġp ref
ac ba
ac eb
ac dd
Âº Ã¡Ä¤
Â¬ Â¦
Â¬ Â¯
Â¬ Â¤
Â¬ Â¿
be ca
be ba
Â¦ Â¨
Â¨ Â¢
Â¨ Â¯
Â¨ Â¤
bf de
bf eb
af fa
af dc
Åĥ Ã¡Ä¤
Â¤ Â¦
Â¤ Â¢
Â¤ Â¤
Ġo ption
Ġo ggi
Â® Â°
Â® Â¤
Â® Â®
Â¥ Â°
bc ca
bc fa
bc dc
ad de
fd de
fd cb
Ġin v
Ġin vas
cd cb
bd ca
bd ec
bd cc
fe ca
di ag
Â» Â¡
Â» Â£
Â» Â¦
Â» Â¢
Â» Â¯
Â» Â¤
Â» Â®
Â» Â¥
ĠÃ¡Ä £Ä
at us
ÅĤ Ãİ
Ã¢Ä¹Ä® Ã¡Ä¿
Ã¢Ä¹Ä® Ã¡Ä¾
ent gen
ĠÃ¡ Åģ
Ġe vent
Ġf unc
Ġf ound
Ġf uture
Ġn d
Ġn or
ÅĢ Ãī
ÅĢ Ãİ
Ġw ide
Ġ6 12
212 0
Åģ ÃĨ
Ġ1 79
Ġ1 34
as sert
1020 8
292 11
292 54
292 48
um ab
Ġ2 34
Ġ2 19
Ġ7 34
Ġ7 16
un d
Ġ5 00
Ġ5 11
Ġ5 78
Äµ ÃĲ
Äµ ÃİÄ¶
Ġ4 12
Ġ8 78
st ro
st rides
Ä§ ÃĲ
Ġd ed
Ġd ensity
Ġd inam
Ġde layed
Ġl u
Ġl ess
Ġl iterature
Ã¡Ä© Ä¢Ã¡Ä©Ä£Ã¡Ä©Ä¤Ã¡Ä©Ä¥Ã¡Ä©Ä¦Ã¡Ä©Ä§Ã¡Ä©Ä¨Ã¡Ä©Ä©Ã¡Ä©
Ġv io
ar ter
Ã¡Ä¨ Ä¢Ã¡Ä¨Ä£Ã¡Ä¨
Ġ9 10
Ġcon clu
Ġcon nection
ĠA rray
818 5
818 23
Ä¤ Ã¢Ä¹Ä®Ãł
Ä¤ Ãĸ
Ġdi min
919 02
Ä¢ Ã£Ä¤
644 5
512 9
512 209
Ä£ ÃĲ
Ä£ Ãı
560 20
Ä¨ Ã£Ä§Ä©Ã£Ä§
709 50
Äº Ãİ
Äº Ã£Ä§Ä»Ã£Ä§
Ä¥ ÃĲ
Ä¶ Ã£Ä§Ä·Ã£Ä§
Äª Ã¡Ä±
Äª Ã£Ä§Ä«Ã£Ä§
711 9
ĠÃª Åģ
Ä³ ÃĲ
Ä³ Ãī
Ä³ Ãİ
Ä© ÃĲ
Ä© Ã¡Ä±
356 8
Ä¸ Ãİ
Ä¸ Ã£Ä§Ä¹Ã£Ä§
ĠT arget
ĠT ORT
ÄŃ ÃĲ
to p
Ä· Ãª
Ä· ÃĲ
Ä· Ãĳ
Ä¾ Ãª
Ä¾ Ãī
Ä¾ Ãİ
Ä¾ Ã£Ä§Ä¿Ã£Ä§
558 5
558 8
574 6
Ä¬ Ã£Ä§ÄŃÃ£Ä§
172 6
th ese
ÃĬ Ä¢ÃĬÄ£
ÃĬ Ä¦ÃĬÄ§
ÃĬ Ä¨ÃĬÄ©
ÃĬ ÄªÃĬÄ«
ÃĬ Ä¬ÃĬÄŃ
Ä» ÃĲ
Ä» Ãĳ
509 20
Ä« ÃĲ
Ä¿ Ãª
Ä½ Ãĳ
ÃĲ Âª
ÃĲ Ä¢
ÃĲ Ä²
ÃĲ Ä¯
ÃĲ Ä°
ÃĲ Ä±
ÃĲ ÂºÃĲ
528 89
ĠF ig
ĠF eder
389 88
330 41
719 8
358 6
534 8
Ä¼ Ãİ
Ä¼ Ã£Ä§Ä½Ã£Ä§
Ä¯ Ãª
Ä¯ Ãł
454 9
200 77
Ä° Ã£Ä§Ä±Ã£Ä§
Ãī Ä²
Ãī Ä±
Ãī ÂªÃī
Ãī ÅĤÃī
Ãī ÄµÃīÄ¶
Ãī ÄºÃīÄ»
Ãī Ä·ÃīÄ¸ÃīÄ¹
Ãī Ä¼ÃīÄ½
339 8
Ä± Ãª
219 3
319 79
300 5
154 4
154 20
332 4
158 2
314 2
314 4
559 4
159 1
FDE FE
134 87
359 1
308 73
510 6
756 1
618 1
618 5
CFE DA
334 72
á¸ ¡
á¸ ¢
á¸ £
á¸ ¤
á¸ ¥
á¸ ¦
á¸ §
á¸ ¨
á¸ ©
á¸ ª
á¸ «
á¸ ¬
á¸ ®
á¸ ¯
á¸ °
á¸ ±
á¸ ²
á¸ ³
á¸ ´
á¸ ¸
á¸ ¹
á¸ º
á¸ »
á¸ ¼
á¸ ½
á¸ ¾
á¸ ¿
á¸ Ĥ
á¸ ĥ
á¸ Ħ
á¸ ħ
á¸ Ĩ
á¸ ĩ
á¸ Ī
á¸ ī
á¸ Ĭ
á¸ ĭ
á¸ Į
á¸ į
á¸ İ
á¸ ı
á¸ Ĳ
á¸ ĳ
á¸ Ĵ
á¸ ĵ
á¸ Ķ
á¸ ķ
á¸ ĸ
á¸ Ĺ
á¸ ĺ
á¸ Ļ
á¸ Ŀ
á¸ ŀ
á¸ Ł
á¸ ł
á¸ Ń
á¹ ¡
á¹ ¢
á¹ £
á¹ ¤
á¹ ¥
á¹ ¦
á¹ §
á¹ ¨
á¹ ©
á¹ ª
á¹ «
á¹ ¬
á¹ ®
á¹ ¯
á¹ °
á¹ ±
á¹ ²
á¹ ³
á¹ ´
á¹ µ
á¹ ¶
á¹ ·
á¹ ¸
á¹ ¹
á¹ º
á¹ »
á¹ ¼
á¹ ½
á¹ ¾
á¹ ¿
á¹ Ģ
á¹ ģ
á¹ Ĥ
á¹ ĥ
á¹ Ħ
á¹ ħ
á¹ Ĩ
á¹ ĩ
á¹ Ī
á¹ ī
á¹ Ĭ
á¹ ĭ
á¹ Į
á¹ į
á¹ İ
á¹ ı
á¹ Ĳ
á¹ ĳ
á¹ Ĵ
á¹ ĵ
á¹ Ķ
á¹ ķ
á¹ ĸ
á¹ Ĺ
á¹ ĺ
á¹ Ļ
á¹ ļ
á¹ Ľ
á¹ ľ
á¹ Ŀ
á¹ ŀ
á¹ Ł
á¹ ł
á¹ Ń
320 38
áº ¡
áº ¢
áº £
áº ¤
áº ¥
áº ¦
áº §
áº ¨
áº ©
áº ª
áº «
áº ¬
áº ®
áº ¯
áº °
áº ±
áº ²
áº ³
áº ´
áº µ
áº ¶
áº ·
áº ¸
áº ¹
áº º
áº »
áº ¼
áº ½
áº ¾
áº ¿
áº Ģ
áº ģ
áº Ĥ
áº ĥ
áº Ħ
áº ħ
áº Ĩ
áº ĩ
áº Ī
áº ī
áº Ĭ
áº ĭ
áº Į
áº į
áº İ
áº ı
áº Ĳ
áº ĳ
áº Ĵ
áº ĵ
áº Ķ
áº ķ
áº ĸ
áº Ĺ
áº ĺ
áº Ļ
áº ļ
áº Ľ
áº ł
áº Ń
CEE ACC
156 5
174 8
á» ¡
á» ¢
á» £
á» ¤
á» ¥
á» ¦
á» §
á» ¨
á» ©
á» ª
á» «
á» ¬
á» ®
á» ¯
á» °
á» ±
á» ²
á» ³
á» ´
á» µ
á» ¶
á» ·
á» ¸
á» ¹
á» Ģ
á» ģ
á» Ĥ
á» ĥ
á» Ħ
á» ħ
á» Ĩ
á» ĩ
á» Ī
á» ī
á» Ĭ
á» ĭ
á» Į
á» į
á» İ
á» ı
á» Ĳ
á» ĳ
á» Ĵ
á» ĵ
á» Ķ
á» ķ
á» ĸ
á» Ĺ
á» ĺ
á» Ļ
á» ļ
á» Ľ
á» ľ
á» Ŀ
á» ŀ
á» Ł
á» ł
á» Ń
400 1
866 9
Ġper tanto
310 26
EAE A
718 6
858 9
ĠB er
632 1
774 8
379 6
AFB AF
514 3
514 4
514 9
ĠD e
ĠI V
CDB CA
AAE BB
612 3
612 234
418 6
418 13
Ãķ Ä§ÃķÄ¨
Ãķ Ä¥ÃķÄ¦
Ãķ Ä³ÃķÄ´
Ãķ Ä©ÃķÄª
Ãķ ÄŃÃķÄ®
Ãķ Ä«ÃķÄ¬
Ãķ Ä¯ÃķÄ°
Ãķ Ä±ÃķÄ²
270 6
600 9
Ãİ ÂºÃİ
176 7
Ġg ru
736 68
458 1
ĠE R
ĠE ach
269 5
872 0
872 3
859 0
859 82
672 1
672 6
672 9
130 88
si vi
ut t
ut to
ĠL ee
Ġal tri
139 2
139 8
139 86
139 83
234 1
234 5
469 2
770 29
BDB CE
489 4
516 7
550 7
474 7
829 3
880 8
476 4
476 7
476 88
776 7
Ġca ll
956 3
956 5
956 01
Ġ11 7
422 6
388 68
416 2
274 4
274 74
530 1
258 1
258 2
679 6
Ãĳ ÄµÃĳÄ¶
Ãĳ Ä§ÃĳÄ¨
Ãĳ Ä³ÃĳÄ´
Ãĳ Ä©ÃĳÄª
Ãĳ ÄŃÃĳÄ®
Ãĳ Ä«ÃĳÄ¬
Ãĳ Ä¯ÃĳÄ°
Ãĳ Ä±ÃĳÄ²
377 35
410 82
378 3
EDB DD
DEE FD
659 4
316 7
CFB D
532 1
532 9
680 5
432 02
752 20
811 8
814 2
974 8
ĠS E
ĠS CC
ĠS CCA
ĠS tu
DEB AF
911 8
350 1
350 69
620 2
989 3
989 4
136 1
136 4
136 58
629 5
629 9
629 73
150 1
472 2
472 4
918 9
689 5
836 3
836 7
â´ ¡
â´ ¢
â´ £
â´ ¤
â´ ¥
â´ ģ
â´ Ĥ
â´ ĥ
â´ Ħ
â´ ħ
â´ Ĩ
â´ ĩ
â´ Ī
â´ ī
â´ Ĭ
â´ ĭ
â´ Į
â´ į
â´ İ
â´ ı
â´ Ĳ
â´ ĳ
â´ Ĵ
â´ ĵ
â´ Ķ
â´ ķ
â´ ĸ
â´ Ĺ
â´ ĺ
â´ Ļ
â´ ļ
â´ Ľ
â´ ľ
â´ Ŀ
â´ ŀ
â´ Ł
â´ ł
232 1
232 16
429 8
276 7
280 8
519 2
519 3
412 3
412 60
759 0
759 7
352 53
279 1
ABA FD
Ġco st
738 54
Ġpro f
Ġpro mo
Ġpro bab
Ġpro grams
Ġpro hibit
840 2
966 4
578 51
178 3
462 1
462 7
420 2
654 28
870 1
870 14
949 4
Ãı Ä°
Ãı Ä®ÃıÄ¯
Ãı Ä¦ÃıÄ§
Ãı Ä¨ÃıÄ©
Ãı ÄªÃıÄ«
Ãı Ä¬ÃıÄŃ
Ġun it
438 5
438 35
im al
ist e
099 77
Ã£Ä¤ Ä¢Ã£Ä¤
Ġne llo
638 6
638 52
060 4
060 7
488 2
934 1
934 4
944 2
944 5
res cita
ãĢ ·
ãĢ ±ãĢ
058 8
216 98
900 1
900 4
419 31
019 3
019 5
910 632
080 2
452 5
238 7
238 19
254 2
254 5
090 87
262 5
479 4
480 8
259 6
244 8
860 9
860 67
355 35
FBF CB
434 25
BFE A
BFE D
778 1
879 1
Ġst ra
436 3
436 20
932 2
049 7
939 8
âĵ Ĳâĵ
ĠM a
ĠM ag
914 1
914 50
970 7
982 36
848 4
ow n
089 807
869 4
869 99
ul ting
Ġtra tt
âĦ ¦
675 73
856 3
áĥ Ģ
áĥ ģ
áĥ Ĥ
áĥ ĥ
áĥ Ħ
áĥ ħ
029 4
042 5
990 5
990 80
FAD DC
áĤ ¡
áĤ ¢
áĤ £
áĤ ¤
áĤ ¥
áĤ ¦
áĤ §
áĤ ¨
áĤ ©
áĤ ª
áĤ «
áĤ ¬
áĤ ®
áĤ ¯
áĤ °
áĤ ±
áĤ ²
áĤ ³
áĤ ´
áĤ µ
áĤ ¶
áĤ ·
áĤ ¸
áĤ ¹
áĤ º
áĤ »
áĤ ¼
áĤ ½
áĤ ¾
áĤ ¿
áĤ ł
áĤ Ń
ECD FE
242 70
056 7
260 2
CCE FB
CCE ED
âĹĮðĳ Ĥ
464 1
962 1
962 8
ded a
ded e
Ã¡Ä¤ Âª
Ã¡Ä¤ Âµ
Ã¡Ä¤ ÅĤ
bcb c
bcb f
034 6
ÃĶ ÂµÃĶ
ĠO N
ĠO penBLAS
278 69
864 65
264 3
264 5
948 2
op elvic
te g
324 55
059 1
EEE AD
855 1
855 3
CCD DC
237 73
DAE BB
Ġma ps
954 8
DCC FE
038 1
435 1
Ġla v
036 7
Ġwh om
952 1
Ġ20 2
145 77
817 70
313 13
DAC CE
Ġint en
Ġint ra
Ġint act
Ġda ys
Ġda mag
950 7
327 33
DFA FB
pi o
DAD CF
046 7
FFB DF
082 7
Ã£Ä¦ ÂºÃ£Ä¦
584 51
068 1
068 6
525 33
986 7
733 12
722 33
ate ly
ced b
ori a
eed d
144 73
DEA FF
853 39
lar y
Ġ30 72
eba f
ÃĥÄ² ÃĦÂª
fba a
tra ns
924 6
048 38
dff b
dff c
Ġex cept
Ġim pi
Ġim age
eca a
eca b
bca d
ĠÄ¤ Ãª
bcc f
075 1
bff c
bff d
bff f
âĴ ¶âĴ
dca f
ada b
Ġra cc
olog ic
olog ico
ĠÄ£ Ã¯
Ġse en
bef c
Ġpar ts
fed c
fed f
Ġany one
Ġany thing
Ġcopy ing
Ġtraum as
aef a
ma rio
adb d
aff d
aff f
fdb a
fdb f
ĠÅĢ Ã¯
Ġres ulting
Ġen er
Ġen for
aed a
Ġqu ell
Ġqu indi
cef a
cef d
bda f
ĠÄ¿ Ã¯
fcb c
cfb e
Ġapp lies
..\ ..\
ĠÄ¦ Ã¯
ĠIn c
ĠIn ter
ĠIn formation
ĠIn fine
aca f
adf e
em aturia
iz zazione
ne tica
rc in
ix ed
Ġar range
ĠY OU
Ġpo co
anti tative
Ġgra de
Ġinter est
ĠK A
ĠK IND
us ed
red ic
NU LL
pt or
Ġro yalt
gn os
Ġnum ero
oca te
Ãĸ Ä¦
Ġpat ents
Ġag reement
mon itor
SE QU
Ġcondi zioni
Ġanti angiogen
Ġref ers
Äłm icro
Ġacc ura
Ġacc ompan
Con clu
Ġadd i
Ġadd ed
ual mente
ST M
Ġdis ponib
perm ission
Ġform ed
Ġinclu des
Ġpos sono
ss a
Ġpre vent
Ġli ver
7036 77
7512 06
ong MsgKAT
Ġele vata
cor rel
CL IP
ves sel
ves sels
ves tig
with standing
org ano
ili ties
Ġapplica tion
Ġapplica tions
Ġmicrovas cular
modif y
Ġimp lied
ass a
cont ro
5579 599
Ġmulti ple
Ġappro ach
Ġappro xim
pec tively
vis ual
7258 29
Ġpot rebbe
ogra phic
ĠÃĥÄ« ÃĦ
ÄłP RO
stu di
stu dio
stu vwxyz
Ġfac tor
Ġul ti
ĠÃĥÄµ ÃĦ
Is Al
ris ul
Ġenti ty
ĠâĢ ľ
Ġmet astas
Ġmicrocir culation
Ġcell s
vol ution
ĠAm erican
Ġdec is
Ġdec rea
Ġholder s
can cer
Ġpropag ation
permeab ility
cs rc
go v
Ġallow ed
==== ====
Ġdiagnos tic
Ġz ona
ĠNo tices
Ġrisul ta
Ġms vc
tumor ale
ĠCON DIT
Ġsignificant ly
album ina
requi res
Ġcap su
Ġdan no
Re p
Re mo
Ġtut ti
tiv ity
Ġric onos
Ġexec utable
IP S
Ġpur pose
Ġpur poses
Ġben ign
Ġgrant s
ĠConvey ing
gres si
Ġj unction
Ġaut ori
Ġexpres s
Ġmat ch
Ġdru g
Ġdeceler ation
ĠAs sociation
Ġrestric tion
tec h
ĠAss ist
ĠSu bject
atica lly
Ġinterac tive
Ġfact ors
Ġlicens ors
00000000000000000000000000000000000000000000000000000000000000000000000000000000000000000000000000000000000000000000000000000000000000000000000000000000000000000000000000000000000000000000000000000000000000000000000000000000000000000000000000000000 00010001
Ġsubstanti al
Ġcompil er
ION S
wor ds
ĠTer ms
identi fica
Ġresol ution
cav p
Ġsperiment ale
ÃĳÄ¢ ÃĳÄ£ÃĳÄ¤
edel ta
compati ble
pher al
Generic Function
Can Cast
crib ed
detect or
bcdef gh
lgor ith
ÃĬÄ·ÃĬÄ¸ ÃĬÄ¹ÃĬÄºÃĬÄ»ÃĬÄ¼ÃĬÄ½ÃĬÄ¾
Ġperif erica
Ġeseg u
Ġperman ently
Ġdistribut ed
ĠEXPR ESS
Ġpropriet ary
Ä®Ã¡Ä§Ä¯Ã¡Ä§ Ä°Ã¡Ä§Ä±Ã¡Ä§Ä²Ã¡Ä§Ä³Ã¡Ä§Ä´Ã¡Ä§ÄµÃ¡Ä§
ĠUnivers ity
Reg ister
Ľâĵ ľâĵ
Ä®Ã£Ä§ Ä¯Ã£Ä§
ÅĢÃ£Ä§ ÅģÃ£Ä§
Ä§Ã£Ä§ Ä¨Ã£Ä§Ä©Ã£Ä§
Ä¤Ã£Ä§ Ä¥Ã£Ä§
Ã¡Ä¦Ä¢Ã¡Ä¦ Ä£Ã¡Ä¦Ä¤Ã¡Ä¦
Ä¢Ã£Ä§ Ä£Ã£Ä§
Ä²Ã£Ä§ Ä³Ã£Ä§
Ä´Ã£Ä§ ÄµÃ£Ä§
Ä¥Ã¡Ä¦Ä¦Ã¡Ä¦ Ä§Ã¡Ä¦Ä¨Ã¡Ä¦
Ä³Ã¡Ä¦Ä´Ã¡Ä¦ ÄµÃ¡Ä¦Ä¶Ã¡Ä¦
Ä©Ã¡Ä¦ÄªÃ¡Ä¦ Ä«Ã¡Ä¦Ä¬Ã¡Ä¦
ÄŃÃ¡Ä¦Ä®Ã¡Ä¦ Ä¯Ã¡Ä¦Ä°Ã¡Ä¦
Ä¾Ã¡Ä§Ä¿Ã¡Ä§ ÅĢÃ¡Ä§ÅģÃ¡Ä§
Ä»Ã¡Ä¦Ä¼Ã¡Ä¦ Ä½Ã¡Ä¦Ä¾Ã¡Ä¦
ÃĲÂµ ÃĲ
ÃİÅĥ Ãİ
Ġgover ned
Ġproble ms
ulmon ary
ÃĶÂº ÃĶ
Ġsegn ale
docum ents
ĠVE GF
ĠTher efore
Ġautom atically
Ä¦Ã¡Ä§Ä§Ã¡Ä§Ä¨Ã¡Ä§Ä©Ã¡Ä§ ÄªÃ¡Ä§Ä«Ã¡Ä§Ä¬Ã¡Ä§ÄŃÃ¡Ä§
ÃĬÄ¿ÃĬÅĢÃĬÅģÃĬÅĤ ÃĬ
LMNOPQ RSTUV
ABCDEFGHIJK LMNOPQRSTUV
abcdefghijklmnopqr stuvwxyz
Ä²Ã¡Ä©Ä³Ã¡Ä©Ä´Ã¡Ä©ÄµÃ¡Ä© Ä¶Ã¡Ä©Ä·Ã¡Ä©Ä¸Ã¡Ä©Ä¹Ã¡Ä©
Ä²Ã¡Ä¨Ä³Ã¡Ä¨Ä´Ã¡Ä¨ÄµÃ¡Ä¨ Ä¶Ã¡Ä¨Ä·Ã¡Ä¨Ä¸Ã¡Ä¨Ä¹Ã¡Ä¨
ÄºÃ¡Ä©Ä»Ã¡Ä©Ä¼Ã¡Ä©Ä½Ã¡Ä© Ä¾Ã¡Ä©Ä¿Ã¡Ä©ÅĢÃ¡Ä©ÅģÃ¡Ä©
ÄºÃ¡Ä¨Ä»Ã¡Ä¨Ä¼Ã¡Ä¨Ä½Ã¡Ä¨ Ä¾Ã¡Ä¨Ä¿Ã¡Ä¨ÅĢÃ¡Ä¨ÅģÃ¡Ä¨
Ä¶Ã¡Ä§Ä·Ã¡Ä§Ä¸Ã¡Ä§Ä¹Ã¡Ä§ ÄºÃ¡Ä§Ä»Ã¡Ä§Ä¼Ã¡Ä§Ä½Ã¡Ä§
ÄªÃ¡Ä¨Ä«Ã¡Ä¨Ä¬Ã¡Ä¨ÄŃÃ¡Ä¨ Ä®Ã¡Ä¨Ä¯Ã¡Ä¨Ä°Ã¡Ä¨Ä±Ã¡Ä¨
Ã¡Ä§Ä¢Ã¡Ä§Ä£Ã¡Ä§Ä¤Ã¡Ä§Ä¥Ã¡Ä§ Ä¦Ã¡Ä§Ä§Ã¡Ä§Ä¨Ã¡Ä§Ä©Ã¡Ä§ÄªÃ¡Ä§Ä«Ã¡Ä§Ä¬Ã¡Ä§ÄŃÃ¡Ä§
¡âĵ ¢âĵ
£âĵ ¤âĵ
¥âĵ ¦âĵ
§âĵ ¨âĵ
²ãĢ ³ãĢ
´ãĢ µ
·âĴ ¸âĴ
¹âĴ ºâĴ
»âĴ ¼âĴ
½âĴ ¾âĴ
¿âĵ Ģâĵ
ģâĵ Ĥâĵ
ĥâĵ Ħâĵ
ħâĵ Ĩâĵ
ĩâĵ Īâĵ
īâĵ Ĭâĵ
ĭâĵ Įâĵ
įâĵ İâĵ
ĳâĵ Ĵâĵ
ĵâĵ Ķâĵ
ķâĵ ĸâĵ
Ĺâĵ ĺâĵ
Ļâĵ ļâĵ
Ŀâĵ ŀâĵ
ŀãĢ Ł
Łâĵ łâĵ
Ä¹ÃĲ Äº
Ä¹Ãĳ Äº
Ġspon t
entgen ol
ÅĢÃī Åģ
ÅĢÃİ Åģ
ÅģÃĨ ÅĤ
ÄµÃĲ Ä¶
ÄµÃİÄ¶ ÃİÄ·
Ä§ÃĲ Ä¨
Ã¡Ä©Ä¢Ã¡Ä©Ä£Ã¡Ä©Ä¤Ã¡Ä©Ä¥Ã¡Ä©Ä¦Ã¡Ä©Ä§Ã¡Ä©Ä¨Ã¡Ä©Ä©Ã¡Ä© ÄªÃ¡Ä©Ä«Ã¡Ä©Ä¬Ã¡Ä©ÄŃÃ¡Ä©Ä®Ã¡Ä©Ä¯Ã¡Ä©Ä°Ã¡Ä©Ä±Ã¡Ä©
Ġvio lation
Ã¡Ä¨Ä¢Ã¡Ä¨Ä£Ã¡Ä¨ Ä¤Ã¡Ä¨Ä¥Ã¡Ä¨Ä¦Ã¡Ä¨Ä§Ã¡Ä¨Ä¨Ã¡Ä¨Ä©Ã¡Ä¨
Ä£ÃĲ Ä¤
Ä£Ãı Ä¤ÃıÄ¥
ÄºÃİ Ä»
Ä¥ÃĲ Ä¦
Ä³ÃĲ Ä´
Ä³Ãī Ä´
Ä³Ãİ Ä´
Ä©ÃĲ Äª
Ä¸Ãİ Ä¹
ÄŃÃĲ Ä®
Ä·ÃĲ Ä¸
Ä·Ãĳ Ä¸
Ä¾Ãī Ä¿
Ä¾Ãİ Ä¿
ÃĬÄ¢ÃĬÄ£ ÃĬÄ¤ÃĬÄ¥
Ä»ÃĲ Ä¼
Ä»Ãĳ Ä¼
Ä«ÃĲ Ä¬
Ä½Ãĳ Ä¾
ĠFeder le
Ä¼Ãİ Ä½
ãĢ±ãĢ ²ãĢ³ãĢ
âĵĲâĵ ĳâĵĴâĵ
âĴ¶âĴ ·âĴ¸âĴ
Ġroyalt y
ĠCONDIT IONS
ÃĳÄ¢ÃĳÄ£ÃĳÄ¤ ÃĳÄ¥ÃĳÄ¦
Ľâĵľâĵ Ŀâĵŀâĵ
Ä³Ã¡Ä¦Ä´Ã¡Ä¦ÄµÃ¡Ä¦Ä¶Ã¡Ä¦ Ä·Ã¡Ä¦Ä¸Ã¡Ä¦
Ä»Ã¡Ä¦Ä¼Ã¡Ä¦Ä½Ã¡Ä¦Ä¾Ã¡Ä¦ Ä¿Ã¡Ä¦ÅĢÃ¡Ä¦
¡âĵ¢âĵ £âĵ¤âĵ
¥âĵ¦âĵ §âĵ¨âĵ
¹âĴºâĴ »âĴ¼âĴ
½âĴ¾âĴ ¿âĵĢâĵ
ģâĵĤâĵ ĥâĵĦâĵ
ħâĵĨâĵ ĩâĵĪâĵ
īâĵĬâĵ ĭâĵĮâĵ
įâĵİâĵ ı
ĵâĵĶâĵ ķâĵĸâĵ
Ĺâĵĺâĵ Ļâĵļâĵ
Łâĵłâĵ ¡âĵ¢âĵ£âĵ¤âĵ
ãĢ±ãĢ²ãĢ³ãĢ ´ãĢµ
âĵĲâĵĳâĵĴâĵ ĵâĵĶâĵķâĵĸâĵ
âĴ¶âĴ·âĴ¸âĴ ¹âĴºâĴ»âĴ¼âĴ
ĽâĵľâĵĿâĵŀâĵ Łâĵłâĵ¡âĵ¢âĵ£âĵ¤âĵ
¥âĵ¦âĵ§âĵ¨âĵ ©
½âĴ¾âĴ¿âĵĢâĵ ģâĵĤâĵĥâĵĦâĵ
ħâĵĨâĵĩâĵĪâĵ īâĵĬâĵĭâĵĮâĵ
ĹâĵĺâĵĻâĵļâĵ ĽâĵľâĵĿâĵŀâĵŁâĵłâĵ¡âĵ¢âĵ£âĵ¤âĵ
âĵĲâĵĳâĵĴâĵĵâĵĶâĵķâĵĸâĵ ĹâĵĺâĵĻâĵļâĵĽâĵľâĵĿâĵŀâĵŁâĵłâĵ¡âĵ¢âĵ£âĵ¤âĵ
âĴ¶âĴ·âĴ¸âĴ¹âĴºâĴ»âĴ¼âĴ ½âĴ¾âĴ¿âĵĢâĵģâĵĤâĵĥâĵĦâĵ
ħâĵĨâĵĩâĵĪâĵīâĵĬâĵĭâĵĮâĵ įâĵİâĵı
âĵĲâĵĳâĵĴâĵĵâĵĶâĵķâĵĸâĵĹâĵĺâĵĻâĵļâĵĽâĵľâĵĿâĵŀâĵŁâĵłâĵ¡âĵ¢âĵ£âĵ¤âĵ ¥âĵ¦âĵ§âĵ¨âĵ©
âĴ¶âĴ·âĴ¸âĴ¹âĴºâĴ»âĴ¼âĴ½âĴ¾âĴ¿âĵĢâĵģâĵĤâĵĥâĵĦâĵ ħâĵĨâĵĩâĵĪâĵīâĵĬâĵĭâĵĮâĵįâĵİâĵı
) )
0 792
0 569
0 524
0 782
0 375
0 755
1 595
2 595
2 360
2 522
2 549
2 151
2 771
3 384
3 789
3 357
3 135
3 373
4 384
4 309
4 368
4 131
5 393
5 384
5 598
5 320
5 153
6 560
6 799
6 526
6 529
6 789
6 303
6 353
6 373
7 509
7 704
7 369
7 388
7 357
7 153
7 171
8 191
8 792
8 389
8 898
8 382
8 357
8 571
8 351
9 768
9 782
9 790
9 746
9 135
9 551
9 751
A CDE
A FCA
A xis
B AAD
B AAC
C AAC
C ode
D CED
D ADC
D FDF
D FFF
D CBC
D FAF
E V
E W
E DDE
F FDD
F AEF
F ADF
F FBE
F IT
N on
O W
P unc
P ack
P TION
S ort
U p
a ccc
a eae
a dfd
b la
b id
b ecf
b eae
b ml
c l
c ecb
c dcd
d ece
d ead
d fab
d fad
d fae
d HA
e eae
f eab
f ecc
f faa
f eee
f ico
g van
h er
h alf
j uries
k ind
k eep
l an
l ine
m d
m ac
m ber
n x
n ess
o ce
r ale
s calar
s cop
t on
t reated
v il
¡ È
¡ É
¡ Ê
¡ Ñ
¡ Ô
¡ â²
¡ êĿ
¡ â°
¡ â±
¡ á´
¡ á¼
¡ á¾
¡ áı
¡ êĻ
¡ á½
¡ â³
¡ áİ
¡ á¿
¡ ï¼
¡ Õ¢
¢ É
¢ Ê
¢ Ñ
¢ Ô
¢ â²
¢ êĿ
¢ â°
¢ â±
¢ á´
¢ á¼
¢ á¾
¢ áı
¢ êĻ
¢ á½
¢ êŀ
¢ â³
¢ áİ
¢ á¿
¢ êľ
¢ ï¼
£ É
£ Ê
£ Ñ
£ Ô
£ â²
£ êĿ
£ â°
£ â±
£ á´
£ á¼
£ á¾
£ áı
£ êĻ
£ á½
£ êŀ
£ â³
£ áİ
£ á¿
£ êľ
£ ï¼
¤ Æ
¤ É
¤ Ê
¤ Ñ
¤ Ô
¤ â²
¤ êĿ
¤ â°
¤ â±
¤ á´
¤ á¼
¤ á¾
¤ áı
¤ êĻ
¤ á½
¤ êŀ
¤ áİ
¤ á¿
¤ êŃ
¤ êľ
¤ ï¼
¥ Æ
¥ É
¥ Ê
¥ Ñ
¥ Ô
¥ â²
¥ êĿ
¥ â°
¥ â±
¥ á´
¥ á¼
¥ á¾
¥ áı
¥ êĻ
¥ á½
¥ êŀ
¥ áİ
¥ á¿
¥ êľ
¥ ï¼
¦ Æ
¦ É
¦ Ê
¦ Ñ
¦ Ô
¦ â²
¦ êĿ
¦ â°
¦ â±
¦ á´
¦ á¼
¦ á¾
¦ áı
¦ êĻ
¦ á½
¦ êŀ
¦ áİ
¦ á¿
¦ êľ
¦ ï¼
§ Æ
§ É
§ Ê
§ Ñ
§ Ô
§ â²
§ êĿ
§ â°
§ â±
§ á´
§ á¼
§ â´
§ á¾
§ áı
§ êĻ
§ á½
§ êŀ
§ áİ
§ á¿
§ êľ
§ ï¼
¨ Æ
¨ É
¨ Ê
¨ Ñ
¨ Ô
¨ â²
¨ êĿ
¨ â°
¨ â±
¨ á´
¨ á¼
¨ áı
¨ êĻ
¨ á½
¨ êŀ
¨ áİ
¨ á¿
¨ êľ
¨ ï¼
© Æ
© É
© Ê
© Ñ
© Ô
© â²
© êĿ
© â°
© â±
© á´
© á¼
© áı
© êĻ
© á½
© êŀ
© áİ
© á¿
© êľ
© áł
ª Æ
ª É
ª Ê
ª Ñ
ª Ô
ª â²
ª êĿ
ª â°
ª â±
ª á´
ª á¼
ª áı
ª êĻ
ª á½
ª êŀ
ª âĦ
ª áİ
ª á¿
ª êľ
ª ï¼
« Æ
« É
« Ê
« Ñ
« Ô
« â²
« êĿ
« â°
« â±
« á¼
« áı
« á½
« êŀ
« âĦ
« â³
« áİ
« á¿
« êľ
¬ Æ
¬ É
¬ Ê
¬ Ñ
¬ Ô
¬ â²
¬ êĿ
¬ â°
¬ â±
¬ á¼
¬ áµ
¬ áı
¬ á½
¬ êļ
¬ êŀ
¬ âĦ
¬ â³
¬ áİ
¬ êľ
¬ ï¼
® É
® Ê
® Ñ
® â²
® êĿ
® á¼
® áµ
® áı
® á½
® áİ
® êľ
® ï¼
® Æ¯
¯ É
¯ â²
¯ êĿ
¯ â±
¯ á¼
¯ áµ
¯ áı
¯ ãĢ
¯ âĦ
¯ áİ
¯ êľ
¯ ê¥
¯ ï¼
° É
° Í
° Ñ
° â²
° â°
° â±
° á¼
° á¾
° áµ
° áı
° ï¾
° á½
° êŀ
° áİ
° êľ
° ê¬
° ï¼
° Ð±
° Õ±
± Æ
± É
± Í
± Ñ
± â²
± êĿ
± â°
± â±
± á¼
± á¾
± áµ
± áı
± á½
± âĦ
± áİ
± êľ
± ê¬
± ï¼
² É
² Í
² Ñ
² â²
² êĿ
² â°
² â±
² á¼
² áµ
² áı
² á½
² âĦ
² áİ
² á¿
² êľ
² ê¬
² ï¼
² Æ³
³ É
³ Í
³ Ñ
³ â²
³ êĿ
³ â°
³ â±
³ á¼
³ á¾
³ áµ
³ áı
³ á½
³ âĦ
³ áİ
³ á¿
³ êľ
³ ê¬
³ ï¼
´ È
´ É
´ Ï
´ Ñ
´ â²
´ êĿ
´ â°
´ â±
´ á¼
´ á¾
´ áµ
´ á½
´ âĦ
´ áİ
´ á¿
´ áĲ
´ êľ
´ ê¬
´ ï¼
µ È
µ É
µ Ñ
µ â²
µ êĿ
µ â°
µ â±
µ á¼
µ áµ
µ á½
µ áİ
µ êľ
µ ê¬
µ ï¼
¶ È
¶ É
¶ Í
¶ Ñ
¶ â²
¶ êĿ
¶ â°
¶ â±
¶ á¼
¶ á¾
¶ áµ
¶ á½
¶ áİ
¶ á¿
¶ êľ
¶ ê¬
¶ Î·
· È
· É
· Í
· Ï
· Ñ
· â²
· êĿ
· â°
· â±
· á¾
· áµ
· áİ
· ê¬
· ï¼
¸ Æ
¸ È
¸ É
¸ Ï
¸ Ñ
¸ â²
¸ êĿ
¸ â°
¸ â±
¸ á¼
¸ á¾
¸ á½
¸ áİ
¸ á¿
¸ êľ
¸ ê¬
¸ ï¼
¸ ï·
¹ Æ
¹ È
¹ É
¹ Ï
¹ Ñ
¹ â²
¹ êĿ
¹ â°
¹ â±
¹ á¼
¹ á¾
¹ áµ
¹ á½
¹ áİ
¹ á¿
¹ êľ
¹ ê¬
º Æ
º È
º É
º Ï
º Ñ
º Ó
º á»
º â²
º êĿ
º â°
º â±
º á¼
º á¾
º áµ
º á½
º áİ
º á¿
º êľ
º àł
» È
» É
» Í
» Ï
» Ñ
» Ó
» á»
» êĿ
» â°
» á¼
» áµ
» ï½
» á½
» áİ
» á¿
» êľ
» ê¤
» ê¬
¼ È
¼ É
¼ Í
¼ Ñ
¼ Ó
¼ á»
¼ â²
¼ êĿ
¼ â°
¼ á¼
¼ áµ
¼ á½
¼ áİ
¼ êľ
¼ ê¬
¼ ï¹
½ È
½ É
½ Ï
½ Ñ
½ Ó
½ á»
½ êĿ
½ â°
½ á¼
½ áµ
½ ï½
½ ãĤ
½ áİ
½ áĲ
½ êľ
½ ê¬
½ Ð¾
¾ Ï
¾ êĿ
¾ â°
¾ â±
¾ áµ
¾ ï½
¾ âĦ
¾ áİ
¾ ê¬
¾ Æ¿
¿ É
¿ Ê
¿ Ò
¿ â²
¿ êĿ
¿ â±
¿ á¼
¿ á¶
¿ áı
¿ ãĥ
¿ á½
¿ ãĤ
¿ êŀ
¿ â³
¿ êŃ
¿ ãĨ
¿ êĴ
¿ êĺ
¿ áŃ
¿ àµ
¿ áŁ
¿ ÏĢ
¿ ÐĢ
¿ ÕĢ
Ä £Ä
Ä ħÄ
Æ Ĥ
Æ ĥ
Æ Ħ
Æ ħ
Æ ī
Æ ĭ
Æ Į
Æ į
Æ ı
Æ Ĳ
Æ ĳ
Æ Ĵ
Æ Ķ
Æ ĸ
Æ Ĺ
Æ ļ
Æ Ľ
Æ ľ
Æ Ŀ
Æ ŀ
Æ Ł
Æ ¤Æ
Æ ±Æ
Æ ¸Æ
Ç ħ
Ç Ī
Ç ĭ
Ç ¼Ç
È Ķ
È ĸ
È ĺ
È Ļ
È ļ
È Ľ
È ł
È ¡È
È ´È
É Ĥ
É ĥ
É Ħ
É ħ
É Ĩ
É ĩ
É Ī
É ī
É Ĭ
É ĭ
É Į
É į
É İ
É ı
É Ĳ
É ĳ
É Ĵ
É ķ
É Ĺ
É ĺ
É Ļ
É ļ
É Ľ
É ľ
É Ŀ
É ŀ
É Ł
É ¡É
É ®É
Ê ģ
Ê Ĥ
Ê ĥ
Ê Ħ
Ê ħ
Ê Ĩ
Ê ĩ
Ê Ī
Ê ī
Ê Ĭ
Ê ĭ
Ê Į
Ê į
Ê İ
Ê ı
Ê Ĳ
Ê ĳ
Ê ĵ
Ê ķ
Ê ĸ
Ê Ĺ
Ê ĺ
Ê Ļ
Ê ļ
Ê Ľ
Ê ľ
Ê Ŀ
Ê ŀ
Ê Ł
Ê ł
Ê ¡Ê
Ê ®Ê
Í °Í
Î ½Î
Î µÎ
Ï ¡
Ï ģ
Ï Ĺ
Ï ĺ
Ï Ļ
Ï Ľ
Ï Ŀ
Ï Ł
Ï «Ï
Ï ´Ï
Ð ¼Ð
Ñ ¡Ñ
Ò ¶Ò
Ó Ģ
Ó ī
Ó Ĭ
Ó ĭ
Ó Į
Ó ı
Ó ºÓ
Ô Ĳ
Ô ĳ
Ô Ĵ
Ô ĵ
Ô Ķ
Ô ķ
Ô ĸ
Ô Ĺ
Ô ĺ
Ô Ļ
Ô ļ
Ô Ľ
Ô ľ
Ô Ŀ
Ô ŀ
Ô Ł
Ô ł
Ô ¾Ô
Ô ¡Ô
Õ ¯Õ
Ö ĤÖ
â ¹
Ġ CDF
Ġ CEB
Ġ ACC
Ġ CBC
Ġ ADB
Ġ CBD
Ġ CBA
Ġ AEF
Ġ ADF
Ġ FBD
Ġ CCF
Ġ 594
Ġ 324
Ġ 743
Ġ 307
Ġ ece
Ġ 564
Ġ 723
Ġ 727
Ġ 323
Ġ 894
Ġ 222
Ġ 607
Ġ 347
Ġ 705
Ġ 361
Ġ 627
Ġ 293
Ġ 766
Ġ 740
Ġ 660
Ġ 442
Ġ ecd
Ġ ection
Ġ ...
Ģ â²
Ģ êĿ
Ģ â°
Ģ â±
Ģ á´
Ģ á¼
Ģ á¶
Ģ á¾
Ģ áı
Ģ êĻ
Ģ á½
Ģ êļ
Ģ êŀ
Ģ â³
Ģ êŃ
Ģ à½
Ģ ï¬
Ģ á§
Ģ â´ģ
Ģ Êģ
ģ â²
ģ êĿ
ģ â°
ģ â±
ģ á´
ģ á¼
ģ á¶
ģ á¾
ģ áı
ģ ï½
ģ ãĢ
ģ êĻ
ģ á½
ģ êļ
ģ êŀ
ģ â³
ģ êŃ
ģ ï¬
ģ ÆĤ
Ĥ â²
Ĥ êĿ
Ĥ â°
Ĥ â±
Ĥ á´
Ĥ á¼
Ĥ á¶
Ĥ á¾
Ĥ áı
Ĥ ï½
Ĥ êĻ
Ĥ á½
Ĥ êļ
Ĥ êŀ
Ĥ â³
Ĥ á¿
Ĥ êŃ
Ĥ ï¬
ĥ â²
ĥ êĿ
ĥ â±
ĥ á´
ĥ á¼
ĥ á¶
ĥ á¾
ĥ áı
ĥ ï½
ĥ êĻ
ĥ á½
ĥ êļ
ĥ êŀ
ĥ â³
ĥ á¿
ĥ êŃ
ĥ ï¬
ĥ ÖĦ
Ħ â²
Ħ êĿ
Ħ â±
Ħ á´
Ħ á¼
Ħ á¶
Ħ á¾
Ħ áı
Ħ ï½
Ħ êĻ
Ħ á½
Ħ êļ
Ħ êŀ
Ħ â³
Ħ á¿
Ħ êŃ
Ħ ï¬
ħ â²
ħ êĿ
ħ â°
ħ â±
ħ á´
ħ á¼
ħ á¶
ħ á¾
ħ áı
ħ ï½
ħ êĻ
ħ á½
ħ êļ
ħ êŀ
ħ â³
ħ êŃ
ħ ï¬
Ĩ â²
Ĩ êĿ
Ĩ â°
Ĩ â±
Ĩ á´
Ĩ á¼
Ĩ á¶
Ĩ á¾
Ĩ áı
Ĩ êĻ
Ĩ êļ
Ĩ êŀ
Ĩ â³
Ĩ á¿
Ĩ êŃ
Ĩ âħ
Ĩ ï¬
ĩ â²
ĩ êĿ
ĩ â°
ĩ â±
ĩ á´
ĩ á¼
ĩ á¶
ĩ á¾
ĩ ï½
ĩ êĻ
ĩ êļ
ĩ êŀ
ĩ áĥ
ĩ â³
ĩ á¿
ĩ êŃ
ĩ âħ
Ī â²
Ī êĿ
Ī â°
Ī â±
Ī á¼
Ī á¶
Ī áı
Ī ï½
Ī êĻ
Ī á½
Ī êļ
Ī â³
Ī á¿
Ī êŃ
Ī âħ
ī â²
ī êĿ
ī â°
ī â±
ī á´
ī á¼
ī á¶
ī áı
ī ï½
ī êĻ
ī á½
ī êļ
ī â³
ī á¿
ī êŃ
ī á¨
ī âħ
Ĭ â²
Ĭ êĿ
Ĭ â°
Ĭ â±
Ĭ á´
Ĭ á¼
Ĭ á¶
Ĭ áı
Ĭ ï½
Ĭ êĻ
Ĭ á½
Ĭ êļ
Ĭ âĦ
Ĭ â³
Ĭ á¿
Ĭ êŃ
ĭ â²
ĭ êĿ
ĭ â°
ĭ â±
ĭ á´
ĭ á¼
ĭ á¶
ĭ áı
ĭ ï½
ĭ êĻ
ĭ á½
ĭ êļ
ĭ êŀ
ĭ âĦ
ĭ â³
ĭ á¿
ĭ êŃ
ĭ à§
Į â²
Į êĿ
Į â°
Į â±
Į á´
Į á¼
Į á¶
Į áı
Į ï½
Į êĻ
Į á½
Į êļ
Į êŀ
Į âĦ
Į â³
Į êŃ
į â²
į êĿ
į â°
į â±
į á´
į á¼
į á¶
į áı
į ï½
į êĻ
į á½
į êļ
į êŀ
į âĦ
į â³
į áİ
į êŃ
İ â²
İ êĿ
İ â°
İ â±
İ á´
İ á¼
İ á¶
İ áı
İ ï½
İ êĻ
İ êļ
İ êŀ
İ âĦ
İ â³
İ êŃ
ı Û
ı â²
ı êĿ
ı â°
ı â±
ı á´
ı á¼
ı á¶
ı áı
ı ï½
ı êļ
ı âĦ
ı â³
ı êŃ
Ĳ â²
Ĳ êĿ
Ĳ â°
Ĳ â±
Ĳ á´
Ĳ á¼
Ĳ á¶
Ĳ á¾
Ĳ áı
Ĳ ï½
Ĳ êĻ
Ĳ á½
Ĳ êļ
Ĳ êŀ
Ĳ âĦ
Ĳ â³
Ĳ á¿
Ĳ êŃ
ĳ â²
ĳ êĿ
ĳ â°
ĳ â±
ĳ á´
ĳ á¼
ĳ á¶
ĳ á¾
ĳ áı
ĳ ï½
ĳ êĻ
ĳ á½
ĳ êļ
ĳ êŀ
ĳ âĦ
ĳ á¿
ĳ êŃ
Ĵ â²
Ĵ êĿ
Ĵ â°
Ĵ â±
Ĵ á´
Ĵ á¼
Ĵ á¶
Ĵ á¾
Ĵ áı
Ĵ ï½
Ĵ êĻ
Ĵ á½
Ĵ êļ
Ĵ êŀ
Ĵ âĦ
Ĵ â³
Ĵ á¿
Ĵ êŃ
ĵ â²
ĵ êĿ
ĵ â°
ĵ â±
ĵ á´
ĵ á¼
ĵ á¶
ĵ á¾
ĵ áı
ĵ ï½
ĵ êĻ
ĵ á½
ĵ êļ
ĵ êŀ
ĵ á¿
ĵ êŃ
ĵ ï¬
Ķ â²
Ķ êĿ
Ķ â°
Ķ â±
Ķ á´
Ķ á¼
Ķ á¶
Ķ á¾
Ķ áı
Ķ ï½
Ķ êĻ
Ķ á½
Ķ êļ
Ķ êŀ
Ķ â³
Ķ êŃ
Ķ ï¬
ķ â²
ķ êĿ
ķ â°
ķ â±
ķ á´
ķ á¼
ķ á¶
ķ á¾
ķ áı
ķ ï½
ķ êĻ
ķ á½
ķ êļ
ķ êŀ
ķ â³
ķ êĢ
ķ êŃ
ķ ï¬
ĸ â²
ĸ êĿ
ĸ â°
ĸ â±
ĸ á´
ĸ á¶
ĸ á¾
ĸ áı
ĸ ï½
ĸ êĻ
ĸ á½
ĸ êļ
ĸ êŀ
ĸ â³
ĸ á¿
ĸ êŃ
ĸ ï¬
Ĺ â²
Ĺ êĿ
Ĺ â°
Ĺ â±
Ĺ á´
Ĺ á¶
Ĺ á¾
Ĺ áı
Ĺ êĻ
Ĺ á½
Ĺ êļ
Ĺ êŀ
Ĺ â³
Ĺ á¿
Ĺ êŃ
ĺ â²
ĺ êĿ
ĺ â°
ĺ â±
ĺ á´
ĺ á¼
ĺ á¶
ĺ áı
ĺ ï½
ĺ êĻ
ĺ êļ
ĺ êŀ
ĺ â³
ĺ á¿
ĺ êŃ
Ļ â²
Ļ êĿ
Ļ â°
Ļ â±
Ļ á´
Ļ á¼
Ļ á¶
Ļ áı
Ļ ï½
Ļ êĻ
Ļ á½
Ļ êļ
Ļ êŀ
Ļ âĦ
Ļ á¿
Ļ êŃ
Ļ á¥
ļ â²
ļ êĿ
ļ â°
ļ â±
ļ á´
ļ á¼
ļ áı
ļ êĻ
ļ êŀ
ļ âĦ
ļ â³
ļ á¿
ļ êľ
Ľ â²
Ľ êĿ
Ľ â°
Ľ â±
Ľ á´
Ľ á¼
Ľ áı
Ľ êĻ
Ľ á½
Ľ êŀ
Ľ âĦ
Ľ â³
ľ áº
ľ â²
ľ êĿ
ľ â°
ľ â±
ľ á´
ľ á¼
ľ áı
ľ ãĢ
ľ êĻ
ľ êŀ
ľ â³
Ŀ áº
Ŀ â²
Ŀ êĿ
Ŀ â°
Ŀ â±
Ŀ á´
Ŀ á¼
Ŀ áı
Ŀ ãĢ
Ŀ êĻ
Ŀ á½
Ŀ êŀ
Ŀ â³
ŀ â²
ŀ êĿ
ŀ â°
ŀ â±
ŀ á´
ŀ áı
ŀ êĻ
ŀ ï¾
ŀ êŀ
ŀ â³
Ł â²
Ł êĿ
Ł â°
Ł á´
Ł áı
Ł êĻ
Ł á½
Ł êŀ
Ł â³
Ł ãĩ
ł â²
ł êĿ
ł â°
ł â±
ł á´
ł á¼
ł á¾
ł áı
ł êĻ
ł á½
ł êŀ
ł â³
ł áİ
ł á¿
Ń Ñ
Ń Ô
Ń â²
Ń êĿ
Ń â°
Ń â±
Ń á¼
Ń áµ
Ń áı
Ń êĻ
Ń á½
Ń êļ
Ń êŀ
Ń â³
Ń áİ
Ń êľ
Ń ï¼
Ń É®É
Ń Ê®Ê
00 40
00 33
00 93
00 734
ÃĦ Ãħ
11 22
11 06
11 61
11 21
11 05
Ã¡ Ã¢
32 20
32 57
32 27
32 01
32 159
32 388
56 41
56 07
56 422
56 848
72 88
72 83
72 47
72 03
72 478
38 96
38 41
12 43
12 21
12 172
39 36
39 16
39 59
39 55
39 28
39 31
39 26
39 92
39 01
54 53
54 98
54 95
54 01
54 91
54 832
54 506
79 00
79 39
79 17
79 97
79 943
52 56
52 70
52 06
52 85
52 771
34 14
34 70
34 40
34 47
34 270
34 960
36 11
36 32
36 49
36 13
36 68
36 47
36 81
36 01
36 414
16 70
16 48
16 23
16 524
58 80
58 89
58 64
58 73
76 38
76 67
76 65
76 41
59 50
59 37
59 28
59 31
59 04
59 87
59 43
59 97
30 38
30 35
30 68
30 41
30 97
30 91
30 159
30 756
30 316
30 745
50 62
50 55
50 84
50 338
14 14
14 97
14 91
10 44
19 19
19 17
19 31
78 72
78 54
78 17
78 64
78 24
78 31
78 26
78 08
78 95
74 37
74 23
74 97
74 07
70 52
70 10
70 49
70 45
70 700
18 76
18 20
18 13
18 88
18 62
18 42
18 94
18 21
Ãĥ ÃĦÃħ
20 16
20 80
20 31
20 26
20 51
20 86
20 85
29 12
29 76
29 14
29 19
29 18
29 89
29 55
29 73
29 449
80 48
80 33
80 77
80 84
80 43
66 00
66 16
66 76
66 15
66 92
66 45
66 91
66 318
40 12
40 39
40 52
40 30
40 68
40 75
40 24
40 98
89 72
89 89
89 37
89 75
89 77
89 94
89 93
49 78
49 88
49 35
49 68
49 33
49 77
49 08
49 254
60 32
60 38
60 16
60 29
60 26
60 87
60 47
22 54
22 75
22 77
CD AA
CD FA
FB AE
69 16
69 85
69 83
69 910
69 430
CB DD
44 40
44 69
44 77
44 86
44 83
AB BC
AB DE
13 52
13 527
88 32
88 754
88 249
15 57
15 794
17 518
AE AE
AE BF
90 12
90 62
90 57
90 51
90 93
90 949
35 59
AD FC
62 19
62 15
62 33
62 71
42 50
42 80
42 48
42 57
42 43
42 412
42 651
37 17
68 23
68 47
Ãª Ã«
48 59
48 46
48 320
75 59
75 55
FC AA
FC CE
EE AA
EE CE
EE BF
33 35
99 56
99 89
99 37
99 71
99 63
99 97
99 738
AC FD
55 36
55 179
64 67
DD CB
DD FE
DD DC
77 773
28 79
28 36
28 55
28 67
28 25
Âª Ã¡Âµ
Âª Ãİ
Âª Ã¡Ä°
CC CE
EB FA
en di
en um
en co
24 38
24 19
24 73
FA IL
31 79
ed ba
ed ce
ed bb
ed af
ed bc
ed ad
57 00
57 160
82 10
82 37
46 50
46 55
EC CB
BD AF
09 11
09 72
09 10
09 70
09 29
09 17
09 24
09 86
09 27
09 23
09 41
ca ca
ca ec
ca fa
ca bb
ca cf
ca ee
ca bd
ca se
26 00
26 13
26 15
26 55
26 57
53 35
53 702
84 36
84 75
84 55
84 64
84 77
84 53
86 38
86 50
86 75
86 57
71 76
ec ec
ec ef
ec ba
ec bb
ec dc
ec be
ec han
in crea
in juries
EF FE
ea da
ea ba
ea cd
ea bd
EA R
Ġa de
Ġa ge
CA CD
92 11
92 76
92 13
92 53
on anza
98 00
98 34
98 16
98 33
98 55
98 64
98 24
94 32
94 54
94 58
94 59
94 714
da cc
da cb
da cf
da dc
ef ff
ef ac
ef ini
96 71
BE FBE
08 36
08 10
08 37
08 48
08 51
DF AD
04 34
04 16
04 14
04 68
BC AD
BC AC
DE DB
06 79
02 69
02 15
db cc
db aa
db fe
DA FD
BA FD
fa ec
fa ces
de ef
de ee
ba da
ba fa
ba af
ba fd
ba fe
cc ba
cc cc
cc fb
63 52
67 12
67 39
67 52
67 76
67 35
67 33
45 78
45 33
45 77
65 11
65 10
65 18
27 32
27 56
27 12
27 19
Äł ÃĥÂª
Äł or
Äł es
Äł al
Äł ÃĦÅĥ
Äł des
87 11
87 50
85 33
ff fa
ff eb
eb y
eb ec
eb de
eb dd
eb fd
25 11
25 72
43 54
23 38
âĹĮ Ò
âĹĮ êļ
41 56
cb db
cb cc
cb dc
cb bc
93 16
93 10
61 00
61 76
95 50
95 70
95 37
Ãł Ã¡Ã¢
47 76
dd ec
dd db
dd de
dd cf
dd fd
dd cd
dd fe
21 76
fb da
fb de
fb fb
fb df
fb bf
97 00
97 35
or do
or ld
or ts
ti t
05 50
05 13
05 33
05 508
07 35
01 72
aa ca
aa fb
aa ae
03 52
03 58
03 18
91 38
91 30
91 74
Ã¯ Ã°
bb ca
bb ee
bb bf
df db
df cf
ee ba
ee ee
dc de
dc ba
ab ca
ab db
ab de
ab cc
ab eb
Âµ Ã¡Ä°
Âµ ÃªÄ¿
Ä¹ Ã¡Ä±
Ġc ust
Ġc rescita
Ä® Ã¡Ä±
Ä® Ã£Ä¤
Ä® Ã£Ä¨
Â± Â¬
Ġs en
Ġs in
Ġs ta
fc da
fc de
fc dc
Ġp s
Ġp las
Ġp seudoaneur
ac ca
ac fb
Âº Ãķ
Âº Ã¡Ä°
be ef
be eb
Â¦ Â¦
Â¦ Â¢
Â¦ Â¤
Â¨ Â¦
bf da
bf ef
bf db
bf fa
is tic
is cono
af ba
af ee
Åĥ Ãķ
Åĥ Ã¡Ä°
Â¤ Â°
Â¤ Â¶
Â¤ Â¨
Â® Â£
Â¥ Â¡
Â¥ Â¢
Â¾ Â¼
bc ec
bc de
ad ju
ĠÃĦ ÅĤ
fd ed
fd ef
fd db
fd fa
Ġin for
Ġin duzione
Ġin oltre
cd ea
Â¸ Â¯
bd fa
fe ed
fe ef
it u
re lation
di ffer
Â¼ Â½
ro le
000 40
ÅĤ Ã£Ä¥
ÅĤ Ã¡Ä±
Ġf o
la ss
Ġn eck
ÅĢ Ãª
ÅĢ Ã¡Ä±
ÅĢ ÃĨ
ic k
ÃĤ ÃĥÃĦÃħ
Ġ6 39
Ġ6 59
Ġ6 18
Ġ6 89
âĹĮà ¦
âĹĮà ¯
212 7
212 9
ol i
ol l
ol der
Åģ ÃĲ
Åģ Ã¡Ä±
Ġr type
Ġ1 70
as e
as k
ou ble
Ġ2 79
Ġ2 78
Ġ2 29
Ġ7 38
Ġ7 30
Ġ7 78
Ġ7 18
Ġ3 38
Ġ3 30
Ġ3 50
Ġ3 74
ĠP OSS
ĠP hys
ĠÃ¢ Ä¨
Ġ5 39
Ġ5 50
Ġ5 19
le tt
Äµ Ã¡Ä±
se p
Ä§ Ã¡Ä±
Ä§ Ã£Ä¤
Ä§ Ã£Ä¨
Ġd uring
Ä¦ Ã¢Ä¹Ä®Ãł
Ä¦ Ã¡Ä±
Ä¦ Ã£Ä¤
Ä¦ Ã£Ä¨
Ġb ec
Ġb it
Ġb und
Ġl ine
Ġl icenses
Ġl angu
Ġl ibraries
788 29
ter ed
ter nal
818 06
âĹĮá į
Ä¤ Ã£Ä¥
Ä¤ Ã¡Ä±
Ä¤ Ã£Ä¤
Ä¤ Ã£Ä¨
411 5
Ã¡Ä¦ ÅĥÃ¡Ä¦
256 0
919 7
554 06
Ä¢ Ã£Ä¥
Ä¢ Ã¡Ä±
Ä¢ Ãĸ
Ä£ Ã£Ä¥
Ä£ Ã¡Ä±
Ä£ Ã£Ä¤
Ä£ Ã£Ä¨
Ä² Ãª
Ä² Ã¡Ä±
Ä´ Ã¡Ä±
Ä¨ Ã¡Ä±
Ä¨ Ã£Ä¤
Ä¨ Ã£Ä¨
709 75
Äº Ãª
Äº Ã¡Ä±
Ä¥ Ã¡Ä±
Ä¥ Ã£Ä¤
Ä¥ Ã£Ä¨
Ä¥ ÃĸÄ¦
Ä¶ Ã¡Ä±
138 1
138 00
138 74
Äª Ã£Ä¤
Äª Ã£Ä¨
Ä³ Ãł
Ä³ Ã¡Ä±
Ä© Ã£Ä¤
Ä© Ã£Ä¨
Ä¸ Ã¡Ä±
Ä¸ ÃĨ
ÄŃ Ã¡Ä±
ÄŃ Ã£Ä¤
ÄŃ Ã£Ä¨
Ä· Ä¸
Ä· Ã¡Ä±
Ġor t
Ä¾ Ã¡Ä±
Ä¾ ÃĨ
Ä¾ Ã¡Âº
558 0
574 8
Ä¬ Ã¡Ä±
Ä¬ Ã£Ä¤
Ä¬ Ã£Ä¨
172 0
th en
ÃĬ Ãĭ
Ä» Ã¡Ä±
Ä» ÃĨ
Ä« Ã¡Ä±
Ä« Ã£Ä¤
Ä« Ã£Ä¨
Ä¿ ÃĲ
Ä¿ Ãĳ
Ä¿ Ã¡Ä±
Ä½ ÃĲ
Ä½ Ã¡Ä±
ÃĲ Ãĳ
ÃĲ Ä¹ÃĲÄº
ÃĲ ÄµÃĲÄ¶
ÃĲ Ä§ÃĲÄ¨
ÃĲ Ä£ÃĲÄ¤
ÃĲ Ä¥ÃĲÄ¦
ÃĲ Ä³ÃĲÄ´
ÃĲ Ä©ÃĲÄª
ÃĲ ÄŃÃĲÄ®
ÃĲ Ä·ÃĲÄ¸
ÃĲ Ä»ÃĲÄ¼
ÃĲ Ä«ÃĲÄ¬
ĠF IPS
719 00
524 32
358 0
534 5
534 04
Ä¼ Ã¡Ä±
Ä¯ Ã¡Ä±
454 7
132 1
132 2
132 6
132 96
734 3
et ter
et to
Ä° Ã¡Ä±
556 8
Ãī ÂµÃī
Ãī ÅĢÃīÅģ
Ãī Ä³ÃīÄ´
Ãī Ä¾ÃīÄ¿
Ãī ÃĬÃĭ
Ã¡Âµ ÂªÃ¡Âµ
Ä± Ã¡Ä±
319 3
754 8
789 10
Ġu ses
ĠÃĥÄ »
164 58
539 4
154 7
372 1
332 50
158 5
758 24
159 0
134 1
732 1
354 4
354 7
756 3
338 2
634 5
634 9
á¸ ģ
á¸ µá¸
á¸ ļá¸
712 3
572 0
572 2
572 3
572 5
572 6
320 20
áº ľáº
á» ºá»
866 6
Ġper it
772 0
310 2
739 5
858 5
858 6
858 8
376 1
318 8
632 3
774 0
774 4
774 7
BDD E
750 15
AFB C
ÃŃ Ã®
Ġh ae
ĠI F
ĠI l
ĠI ter
374 79
418 3
211 2
Ãķ Âª
Ãķ Âµ
Ãķ Ãĸ
449 9
600 5
Ãİ Ãı
Ãİ ÅĤÃİ
Ãİ ÅĢÃİÅģ
Ãİ ÄµÃİÄ¶ÃİÄ·
Ãİ ÄºÃİÄ»
Ãİ Ä³ÃİÄ´
Ãİ Ä¸ÃİÄ¹
Ãİ Ä¾ÃİÄ¿
Ãİ Ä¼ÃİÄ½
736 4
736 6
175 16
859 2
672 0
139 4
139 5
614 6
614 68
516 3
550 4
550 6
550 48
474 5
829 5
AFE D
579 6
Ġfor ma
476 6
Ġca r
422 8
248 5
834 1
834 8
274 1
274 5
274 7
258 3
258 9
268 3
679 1
Ãĳ Ä¹ÃĳÄº
Ãĳ Ä·ÃĳÄ¸
Ãĳ Ä»ÃĳÄ¼
Ãĳ Ä½ÃĳÄ¾
410 5
266 4
266 6
316 39
532 7
810 1
680 4
432 5
639 1
752 1
752 5
ĠN e
ĠN el
814 9
218 8
ĠS PEC
DEB E
ĠÃ¢Ä¹Ä® ÃªÄ»
ĠÃ¢Ä¹Ä® Ã¡ÅĢ
289 0
289 73
Ã£Ä¥ Ä¢Ã£Ä¥
989 1
136 5
370 3
688 5
918 2
EFE CF
820 5
â´ §â´
232 6
429 3
276 4
280 9
519 6
412 4
412 6
622 6
940 9
352 1
279 6
570 5
570 7
674 5
988 1
Ġpro du
840 3
840 6
552 1
832 6
832 8
966 2
462 8
018 7
654 2
654 8
949 2
Ãı Ä£ÃıÄ¤ÃıÄ¥
438 6
439 6
im port
Ġbe half
ist ent
032 9
ï½ ¢
ï½ £
ati a
ati s
ati che
016 2
060 6
ÃĤÂº ÃĦÂºÃĥ
066 2
944 7
res s
ãĢ ĪãĢ
ãĥ ¼
900 5
ig no
912 6
074 7
044 7
Ġre produce
090 9
039 1
480 1
538 6
ver se
230 7
244 3
244 7
244 39
860 4
011 3
011 6
072 3
069 8
434 3
468 1
958 7
236 5
236 6
816 8
976 4
Ġst ring
Ġst ravas
Ġst atus
436 4
049 0
049 2
ÃĨ Ãĩ
929 0
929 7
ĠM o
ĠM ay
842 5
914 8
ÃħÄ£ ÃĥÄ¨
012 0
642 3
470 2
617 1
089 5
Ġtra cking
âĦ ¤
âĦ ¨
âĦ ĩ
âĦ ¼âĦ
âĦ ªâĦ
âĦ ¯âĦ
âĦ ĻâĦ
áĥ ĩáĥ
052 1
990 1
990 4
242 3
850 3
850 6
056 3
040 9
014 1
014 6
014 7
am a
648 3
á¿ ¸á¿
á¿ Ĥá¿
652 3
916 3
959 3
028 7
ded b
Ã¡Ä¤ ÂºÃ¡Ä¤
Ã¡Ä¤ ÅĥÃ¡Ä¤
876 1
ÃĶ ÃķÃĸ
864 3
êŃ ¤êŃ
948 4
948 5
aba c
aba d
op h
te m
022 3
054 8
Ã¡Ä° ÂªÃ¡Ä°
Ã¡Ä° ÂµÃ¡Ä°
459 35
Ġma pp
930 2
828 5
der e
Ġsu re
Ġsu bl
âħ ħ
Ġda i
Ġda mage
ther apeutic
046 3
ÃĪ ÃīÃĬÃĭ
607 15
BBD AF
Ġ00 7
026 3
Ãĵ ÃĶÃķÃĸ
def c
def e
030 29
Ġcom pi
Ġcom mun
ÃĥÄ³ ÃĦÂº
ÃĥÄ³ ÃĦÂª
fba f
tra tta
275 1
048 3
dff f
Ġim pac
pro gram
pro cess
426 33
eca f
bca b
bca e
con di
bcc d
ÃĴ ÃĵÃĶÃķÃĸ
bff b
Ãļ ÃĽ
ĠW RIT
dca c
dca d
ada a
ada c
ĠÄ£ Ãª
ĠÄ£ Ãł
bef b
bfa e
Ġter apeu
Ġch eck
ÃĥÄ¨ ÃĥÄ©
cff d
cff f
fed d
cda c
ma y
aff c
do cument
ĠÄ§ Ãª
fdd d
fdd f
ĠÄ³ Ãª
ĠÃ¢Ä¹Ä®Ãł Âº
dda c
fcf d
vas c
vas i
Ġqu al
Ġqu este
bda a
bda e
Ġdo v
ĠÄ½ Ã¯
bed e
fcb f
ĠÄ¯ Ã¯
cdd c
cdd f
ia mo
cfb f
acb e
bfb c
bfb d
ĠÅĤ Ã¯
fca b
cdb f
ĠÄ¾ Ãª
NT AL
ĠÄ¦ Ãª
ĠÄ® Ãª
ĠIn jury
fcc b
ÃĿ Ãŀ
ĠÄ¢ Ã¢
Ãĺ ÃĻ
ĠÄ¶ Ã¯
ÃĥÄ· ÃĦÂª
val s
iz umab
vi ous
afe ly
efa ult
ne lla
ne ggi
ĠU S
Ġother s
up le
Ġac tivi
Ġar g
Ġar row
Ġris onanza
Ã¹ Ãº
Ġvalu tare
anti angiogenic
Ġinter nal
Ġinter mediate
Ãľ ÃĿÃŀ
Ġcont in
Ġcont ribut
ÃŁ ÃłÃ¡Ã¢
che m
che motherapy
ĠV I
ĠV an
ven ess
ven ous
angiogen esis
Ġro utine
ifica lly
Ġcor rect
valu ation
Ġat traverso
Ã¨ Ã©
Ġset ting
ER VI
Ãĸ Ä¤Ãĸ
ple ment
Ã¤ Ã¥
ĠIN D
ĠIN CIDE
zz ati
Ã£ Ã¤Ã¥
Ã¦ Ã§
Ġpri mo
Ġret roperiton
ĠAD VI
Ġem atoma
Ġmag netica
Ġindica tions
ĠDA TA
Ġrespon sivi
âĹĮÍ ħ
Ġmonitor are
ish ed
Ġevalu ating
oun ds
Ġtumor ali
Ġangiogen ic
Äłt ec
CL AIM
app ro
Ġapplica zioni
vail ability
Ġsignifica tiva
Ãį ÃİÃı
ĠFor tran
man agement
tica l
VE GF
Ã² Ã³
sive ly
ĠĠĠĠĠĠĠĠĠĠĠĠĠĠĠĠĠĠĠĠĠĠĠĠ ĠĠĠĠĠ
tim ate
sib ility
Ġlimit ation
pec ially
Ġatt en
Ġreg ar
Ġclin ica
niqu es
ÎĶ Îķ
Ġly mph
ris pon
tumour s
Ġmisura ta
ĠSU CH
Ġconsider ed
Type Object
Ġhe patic
Ġsur roun
Ġsur vival
ĠIt aly
Ġtrans fer
Ġfla g
Ġnecess ary
Ġlin k
Ġpointer s
Ġcontro llo
Ġcontro lli
permeab ilitÃł
Ġparenchy mal
Ġob served
set up
Ġconf ir
Res et
Ġindex es
Ġlacer ations
ĠCON SEQU
Î¼ Î½Î
Ġinfa r
Ġinfa tti
Ġrepresent ation
ĠCont ribution
Ġinfring ed
Ġtecn iche
Ġsol i
umer ic
ĠPer fusion
Ġdefini tion
rece ive
Ġconse gu
Ġureter opelvic
Ġchemio terapia
Ġidentify ing
ÃĥÄ¸ ÃĦ
Ġmal attia
Ġsugg er
Ġsugg est
ĠWh en
Ġdru gs
Ġeffec tively
Ġaccept ance
SU CCEED
Ġfu ll
Ġdimen sions
Ġdirect ly
Ġexpl icit
Ġeffe tti
Ġaerodiges tive
Ġdiver si
ĠII I
Ġcaratter is
Ġpoor ly
Ġinfringe ment
writ e
ľâĦ Ŀ
dem ark
Ġmam mario
Ġepati co
Ġgro up
Ġitem size
Ġcho ose
Ch eck
Ã¬ ÃŃÃ®
Ĩï½ ĩï½
Ġsangu igno
Ġdevelop ment
token ize
Ġorig inal
©ï¼ ªï¼
Ã¼ Ã½
Ġsole ly
Ġincor por
Ġlea st
Ġexerc ise
ENT IAL
IB ILITY
Keccak Code
®â± ¯â±
¶ï¼ ·ï¼
·á½ ¸á½
ºê¬ »ê¬
½Æ ¾Æ¿
¾É ¿Ê
¾á¼ ¿á½
ĤãĢ ĥ
ĩáı Īáı
Īá´ īá´
ķãĢ ĸãĢ
Ĺï½ ĺï½
Ġprac tice
Ä¦Ã£Ä§ Ä§Ã£Ä§Ä¨Ã£Ä§Ä©Ã£Ä§
Ä±Ã¡Ä¦Ä²Ã¡Ä¦ Ä³Ã¡Ä¦Ä´Ã¡Ä¦ÄµÃ¡Ä¦Ä¶Ã¡Ä¦Ä·Ã¡Ä¦Ä¸Ã¡Ä¦
ĠNot withstanding
Ġpromin ent
plor azione
Ġnod ules
Ä¹Ã¡Ä¦ÄºÃ¡Ä¦ Ä»Ã¡Ä¦Ä¼Ã¡Ä¦Ä½Ã¡Ä¦Ä¾Ã¡Ä¦Ä¿Ã¡Ä¦ÅĢÃ¡Ä¦
Map Iter
WX YZ
vac izumab
«áµ ¬áµ
«ï¼ ¬ï¼
°âĦ ±âĦ
²á¾ ³á¾
½á¾ Ģá¾
¾Î ¿ÏĢ
Ã± Ã²Ã³
Ã´ Ãµ
Ã¸ Ã¹Ãº
Ã» Ã¼Ã½
Ã¾ Ã¿
ÃĢ Ãģ
ÃĮ ÃįÃİÃı
Å¸ Å¹
Å¾ Å¿
ÅĪ Åī
Æ· Æ¸Æ
ÆĨ Æĩ
ÆĬ Æĭ
Æİ Æı
Æĵ ÆĶ
ÆĻ Æļ
Ç¯ Ç°
Ç¶ Ç·
Çľ ÇĿ
È³ È´È
Éĵ ÉĶ
Éĸ ÉĹ
Éł É¡É
ÊĴ Êĵ
Î¡ Î£
Î¤ Î¥
Î¦ Î§
Î¨ Î©
Îª Î
Î¬ ÎŃ
Î® Î¯
Î° Î±
Î² Î³
Î´ ÎµÎ
Î¸ Î¹
Îº Î»
ÎĪ Îī
ÎĬ ÎĮ
Îİ Îı
Îĳ ÎĴ
Îĵ ÎĶÎķ
Îĸ ÎĹ
Îĺ ÎĻ
Îļ ÎĽ
Îľ ÎĿ
Îŀ ÎŁ
Îł Î¡Î£
Ï¯ Ï°
Ï± Ï²
ÏĤ Ïĥ
ÏĦ Ïħ
ÏĨ Ïĩ
ÏĪ Ïī
ÏĬ Ïĭ
ÏĮ Ïį
ÏĲ Ïĳ
ÏĴ Ïĵ
Ïķ Ïĸ
Ð¡ Ð¢
Ð£ Ð¤
Ð¥ Ð¦
Ð§ Ð¨
Ð© Ðª
Ð« Ð¬
Ð® Ð
Ð² Ð³
Ð´ Ðµ
Ð¶ Ð·
Ð¸ Ð¹
Ðº Ð»
Ð¿ ÑĢ
Ðģ ÐĤ
Ðĥ ÐĦ
Ðħ ÐĨ
Ðĩ ÐĪ
Ðī ÐĬ
Ðĭ ÐĮ
Ðį Ðİ
Ðı ÐĲ
Ðĳ ÐĴ
Ðĵ ÐĶ
Ðķ Ðĸ
ÐĹ Ðĺ
ÐĻ Ðļ
ÐĽ Ðľ
ÐĿ Ðŀ
ÐŁ Ðł
ÐŃ Ð®Ð
Ñģ ÑĤ
Ñĥ ÑĦ
Ñħ ÑĨ
Ñĩ ÑĪ
Ñī ÑĬ
Ñĭ ÑĮ
Ñį Ñİ
Ñı ÑĲ
Ñĳ ÑĴ
Ñĵ ÑĶ
Ñķ Ñĸ
ÑĹ Ñĺ
ÑĻ Ñļ
ÑĽ Ñľ
ÑĿ Ñŀ
Óİ Óı
Ô± Ô²
Ô³ Ô´
Ôµ Ô¶
Ô· Ô¸
Ô¹ Ôº
Ô» Ô¼
Ô½ Ô¾Ô
Õ£ Õ¤
Õ¥ Õ¦
Õ§ Õ¨
Õ© Õª
Õ« Õ¬
Õ® Õ¯Õ
Õ² Õ³
Õ´ Õµ
Õ¶ Õ·
Õ¸ Õ¹
Õº Õ»
Õ¼ Õ½
Õ¾ Õ¿
Õģ ÕĤ
Õĥ ÕĦ
Õħ ÕĨ
Õĩ ÕĪ
Õī ÕĬ
Õĭ ÕĮ
Õį Õİ
Õı ÕĲ
Õĳ ÕĴ
Õĵ ÕĶ
Õķ Õĸ
ÕŃ Õ®Õ¯Õ
ÖĢ Öģ
Öħ ÖĨ
ĥâ° Ħâ°
īãĢ ĬãĢ
ĭãĢ ĮãĢ
įãĢ İãĢ
ıãĢ ĲãĢ
ĶãĢ ķãĢĸãĢ
ĹãĢ ĺãĢ
ĻãĢ ļãĢ
ĽãĢ ľãĢ
Ġwide ly
ÄºÃ£Ä§Ä»Ã£Ä§ Ä¼Ã£Ä§Ä½Ã£Ä§
Ä¶Ã£Ä§Ä·Ã£Ä§ Ä¸Ã£Ä§Ä¹Ã£Ä§
ÄªÃ£Ä§Ä«Ã£Ä§ Ä¬Ã£Ä§ÄŃÃ£Ä§
Ä©Ã¡Ä± ÄªÃ¡Ä±
Ä¾Ã£Ä§Ä¿Ã£Ä§ ÅĢÃ£Ä§ÅģÃ£Ä§
ÃĬÄ¦ÃĬÄ§ ÃĬÄ¨ÃĬÄ©
ÃĬÄªÃĬÄ« ÃĬÄ¬ÃĬÄŃ
ÃĲÂª ÃĲ
ÃĲÄ¢ ÃĲÄ£ÃĲÄ¤
ÃĲÄ² ÃĲÄ³ÃĲÄ´
ÃĲÄ¯ ÃĲÄ°
ÃīÄ² ÃīÄ³ÃīÄ´
ÃīÄµÃīÄ¶ ÃīÄ·ÃīÄ¸ÃīÄ¹
ÃīÄºÃīÄ» ÃīÄ¼ÃīÄ½
áºķ áºĸ
áºĹ áºĺ
áºĻ áºļ
áºĽ áºľáº
ÃķÄ§ÃķÄ¨ ÃķÄ©ÃķÄª
ÃķÄŃÃķÄ® ÃķÄ¯ÃķÄ°
ÃķÄ±ÃķÄ² ÃķÄ³ÃķÄ´
ÃĳÄ§ÃĳÄ¨ ÃĳÄ©ÃĳÄª
ÃĳÄ³ÃĳÄ´ ÃĳÄµÃĳÄ¶
ÃĳÄ«ÃĳÄ¬ ÃĳÄŃÃĳÄ®
ÃĳÄ¯ÃĳÄ° ÃĳÄ±ÃĳÄ²
â´¡ â´¢
â´£ â´¤
â´¥ â´§â´
â´Ĥ â´ĥ
â´Ħ â´ħ
â´Ĩ â´ĩ
â´Ī â´ī
â´Ĭ â´ĭ
â´Į â´į
â´İ â´ı
â´Ĳ â´ĳ
â´Ĵ â´ĵ
â´Ķ â´ķ
â´ĸ â´Ĺ
â´ĺ â´Ļ
â´ļ â´Ľ
â´ľ â´Ŀ
â´ŀ â´Ł
â´ł â´¡â´¢
ÃıÄ®ÃıÄ¯ ÃıÄ°
ÃıÄ¦ÃıÄ§ ÃıÄ¨ÃıÄ©
ÃıÄªÃıÄ« ÃıÄ¬ÃıÄŃ
áĥĢ áĥģ
áĥĤ áĥĥ
áĥĦ áĥħ
áĤ¡ áĤ¢
áĤ£ áĤ¤
áĤ¥ áĤ¦
áĤ§ áĤ¨
áĤ© áĤª
áĤ« áĤ¬
áĤ® áĤ¯
áĤ° áĤ±
áĤ² áĤ³
áĤ´ áĤµ
áĤ¶ áĤ·
áĤ¸ áĤ¹
áĤº áĤ»
áĤ¼ áĤ½
áĤ¾ áĤ¿
áĤł áĤ¡áĤ¢
áĤŃ áĤ®áĤ¯
Ã¡Ä¤Âµ Ã¡Ä¤
Ã¡Ä¤ÅĤ Ã¡Ä¤
ÃĬÄ·ÃĬÄ¸ÃĬÄ¹ÃĬÄºÃĬÄ»ÃĬÄ¼ÃĬÄ½ÃĬÄ¾ ÃĬÄ¿ÃĬÅĢÃĬÅģÃĬÅĤÃĬ
Ä®Ã¡Ä§Ä¯Ã¡Ä§Ä°Ã¡Ä§Ä±Ã¡Ä§Ä²Ã¡Ä§Ä³Ã¡Ä§Ä´Ã¡Ä§ÄµÃ¡Ä§ Ä¶Ã¡Ä§Ä·Ã¡Ä§Ä¸Ã¡Ä§Ä¹Ã¡Ä§ÄºÃ¡Ä§Ä»Ã¡Ä§Ä¼Ã¡Ä§Ä½Ã¡Ä§
Ä®Ã£Ä§Ä¯Ã£Ä§ Ä°Ã£Ä§Ä±Ã£Ä§
Ä¤Ã£Ä§Ä¥Ã£Ä§ Ä¦Ã£Ä§Ä§Ã£Ä§Ä¨Ã£Ä§Ä©Ã£Ä§
Ã¡Ä¦Ä¢Ã¡Ä¦Ä£Ã¡Ä¦Ä¤Ã¡Ä¦ Ä¥Ã¡Ä¦Ä¦Ã¡Ä¦Ä§Ã¡Ä¦Ä¨Ã¡Ä¦
Ä²Ã£Ä§Ä³Ã£Ä§ Ä´Ã£Ä§ÄµÃ£Ä§
Ä©Ã¡Ä¦ÄªÃ¡Ä¦Ä«Ã¡Ä¦Ä¬Ã¡Ä¦ ÄŃÃ¡Ä¦Ä®Ã¡Ä¦Ä¯Ã¡Ä¦Ä°Ã¡Ä¦
Ä¾Ã¡Ä§Ä¿Ã¡Ä§ÅĢÃ¡Ä§ÅģÃ¡Ä§ ÅĤÃ¡Ä§
ABCDEFGHIJKLMNOPQRSTUV WXYZ
Ä²Ã¡Ä©Ä³Ã¡Ä©Ä´Ã¡Ä©ÄµÃ¡Ä©Ä¶Ã¡Ä©Ä·Ã¡Ä©Ä¸Ã¡Ä©Ä¹Ã¡Ä© ÄºÃ¡Ä©Ä»Ã¡Ä©Ä¼Ã¡Ä©Ä½Ã¡Ä©Ä¾Ã¡Ä©Ä¿Ã¡Ä©ÅĢÃ¡Ä©ÅģÃ¡Ä©
ÄºÃ¡Ä¨Ä»Ã¡Ä¨Ä¼Ã¡Ä¨Ä½Ã¡Ä¨Ä¾Ã¡Ä¨Ä¿Ã¡Ä¨ÅĢÃ¡Ä¨ÅģÃ¡Ä¨ ÅĤÃ¡Ä¨
ÄªÃ¡Ä¨Ä«Ã¡Ä¨Ä¬Ã¡Ä¨ÄŃÃ¡Ä¨Ä®Ã¡Ä¨Ä¯Ã¡Ä¨Ä°Ã¡Ä¨Ä±Ã¡Ä¨ Ä²Ã¡Ä¨Ä³Ã¡Ä¨Ä´Ã¡Ä¨ÄµÃ¡Ä¨Ä¶Ã¡Ä¨Ä·Ã¡Ä¨Ä¸Ã¡Ä¨Ä¹Ã¡Ä¨
Ã¡Ä§Ä¢Ã¡Ä§Ä£Ã¡Ä§Ä¤Ã¡Ä§Ä¥Ã¡Ä§Ä¦Ã¡Ä§Ä§Ã¡Ä§Ä¨Ã¡Ä§Ä©Ã¡Ä§ÄªÃ¡Ä§Ä«Ã¡Ä§Ä¬Ã¡Ä§ÄŃÃ¡Ä§ Ä®Ã¡Ä§Ä¯Ã¡Ä§Ä°Ã¡Ä§Ä±Ã¡Ä§Ä²Ã¡Ä§Ä³Ã¡Ä§Ä´Ã¡Ä§ÄµÃ¡Ä§Ä¶Ã¡Ä§Ä·Ã¡Ä§Ä¸Ã¡Ä§Ä¹Ã¡Ä§ÄºÃ¡Ä§Ä»Ã¡Ä§Ä¼Ã¡Ä§Ä½Ã¡Ä§
Ã¡Ä¨Ä¢Ã¡Ä¨Ä£Ã¡Ä¨Ä¤Ã¡Ä¨Ä¥Ã¡Ä¨Ä¦Ã¡Ä¨Ä§Ã¡Ä¨Ä¨Ã¡Ä¨Ä©Ã¡Ä¨ ÄªÃ¡Ä¨Ä«Ã¡Ä¨Ä¬Ã¡Ä¨ÄŃÃ¡Ä¨Ä®Ã¡Ä¨Ä¯Ã¡Ä¨Ä°Ã¡Ä¨Ä±Ã¡Ä¨Ä²Ã¡Ä¨Ä³Ã¡Ä¨Ä´Ã¡Ä¨ÄµÃ¡Ä¨Ä¶Ã¡Ä¨Ä·Ã¡Ä¨Ä¸Ã¡Ä¨Ä¹Ã¡Ä¨
âĴ¶âĴ·âĴ¸âĴ¹âĴºâĴ»âĴ¼âĴ½âĴ¾âĴ¿âĵĢâĵģâĵĤâĵĥâĵĦâĵħâĵĨâĵĩâĵĪâĵīâĵĬâĵĭâĵĮâĵįâĵİâĵı âĵĲâĵĳâĵĴâĵĵâĵĶâĵķâĵĸâĵĹâĵĺâĵĻâĵļâĵĽâĵľâĵĿâĵŀâĵŁâĵłâĵ¡âĵ¢âĵ£âĵ¤âĵ¥âĵ¦âĵ§âĵ¨âĵ©
¡â° ¢â°
¡á´ ¢á´
¡á¼ ¢á¼
¡á¾ ¢á¾
¡áı ¢áı
¡á½ ¢á½
¡áİ ¢áİ
¡á¿ ¢á¿
¡ï¼ ¢ï¼
¡Õ¢ Õ£Õ¤
¢É £É
¢Ê £Ê
¢â± £â±
£â° ¤â°
£á´ ¤á´
£á¼ ¤á¼
£á¾ ¤á¾
£áı ¤áı
£á½ ¤á½
£â³ ¤
£áİ ¤áİ
£á¿ ¤á¿
£ï¼ ¤ï¼
¤É ¥É
¤Ê ¥Ê
¥â° ¦â°
¥â± ¦â±
¥á´ ¦á´
¥á¼ ¦á¼
¥á¾ ¦á¾
¥áı ¦áı
¥á½ ¦á½
¥áİ ¦áİ
¥á¿ ¦á¿
¥ï¼ ¦ï¼
¦Æ §Æ
¦É §É
¦Ê §Ê
§â° ¨â°
§á´ ¨á´
§áı ¨áı
§áİ ¨áİ
§ï¼ ¨ï¼
¨É ©É
¨Ê ©Ê
¨á¼ ©á¼
¨á½ ©á½
¨á¿ ©á¿
©â° ªâ°
©á´ ªá´
©áı ªáı
©áİ ªáİ
ªÆ «Æ
ªÉ «É
ªÊ «Ê
ªá¼ «á¼
ªá½ «á½
ªêŀ «êŀ
ªá¿ «á¿
«â° ¬â°
«áı ¬áı
«âĦ ¬âĦ
«áİ ¬áİ
¬É ŃÉ®É
¬Ê ŃÊ®Ê
¬á¼ Ńá¼
¬á½ Ńá½
¬êŀ Ńêŀ
®á¼ ¯á¼
®áµ ¯áµ
®áı ¯áı
®áİ ¯áİ
®ï¼ ¯ï¼
¯É °É
¯êľ °êľ
°â° ±â°
°á¼ ±á¼
°á¾ ±á¾
°áµ ±áµ
°áı ±áı
°á½ ±á½
°êŀ ±
°áİ ±áİ
°ê¬ ±ê¬
°ï¼ ±ï¼
°Ð± Ð²Ð³
°Õ± Õ²Õ³
±É ²É
±êĿ ²êĿ
²â° ³â°
²á¼ ³á¼
²áµ ³áµ
²áı ³áı
²á½ ³á½
²âĦ ³âĦ
²áİ ³áİ
²á¿ ³á¿
²ê¬ ³ê¬
²ï¼ ³ï¼
³É ´É
³êĿ ´êĿ
³â± ´â±
´â° µâ°
´á¼ µá¼
´á¾ ¶á¾
´áµ µáµ
´á½ µá½
´áİ µáİ
´á¿ ¶á¿
´ê¬ µê¬
´ï¼ µï¼
µÈ ¶È
µÉ ¶É
µêĿ ¶êĿ
¶â° ·â°
¶â± ·â±
¶áµ ·áµ
¶á½ ·á½¸á½
¶áİ ·áİ
¶ê¬ ·ê¬
¶Î· Î¸Î¹
·È ¸È
·É ¸É
·êĿ ¸êĿ
¸â° ¹â°
¸â± ¹â±
¸á¼ ¹á¼
¸á¾ ¹á¾
¸áİ ¹áİ
¸ê¬ ¹ê¬
¸ï¼ ¹ï¼
¹Æ ºÆ
¹É ºÉ
¹Ï ºÏ
¹áµ ºáµ
¹á½ ºá½
¹á¿ ºá¿
ºÈ »È
ºâ° »â°
ºá¼ »á¼
ºáİ »áİ
»É ¼É
»Í ¼Í
»áµ ¼áµ
»á½ ¼á½
¼â° ½â°
¼á¼ ½á¼
¼áİ ½áİ
¼ê¬ ½ê¬
½É ¾É¿Ê
½Ï ¾Ï
½áµ ¾áµ
½Ð¾ Ð¿ÑĢ
¾â° ¿â±
¾â± ¿â²
¾âĦ ¿
¾áİ ¿áı
¾ê¬ ¿êŃ
¿É Ģ
¿á¼ Ģá¼
¿á¶ Ģá¶
¿ÐĢ ÐģÐĤ
¿ÕĢ ÕģÕĤ
Æī ÆĬÆĭ
ÆĮ Æį
ÆĲ Æĳ
Æĸ ÆĹ
Æľ ÆĿ
ÆŁ Æł
Æ±Æ ²Æ³
Éĥ ÉĦ
Éħ ÉĨ
Éı ÉĲ
Éĳ ÉĴ
Éķ ÉĸÉĹ
Éĺ ÉĻ
Éļ ÉĽ
Éľ ÉĿ
Éŀ ÉŁ
ÊĤ Êĥ
ÊĦ Êħ
ÊĨ Êĩ
ÊĪ Êī
ÊĬ Êĭ
ÊĮ Êį
Êİ Êı
ÊĲ Êĳ
Êķ Êĸ
ÊĹ Êĺ
ÊĻ Êļ
ÊĽ Êľ
ÊĿ Êŀ
ÊŁ Êł
Ê¡Ê ¢Ê£Ê
Ïģ ÏĤÏĥ
Ð¼Ð ½Ð¾Ð¿ÑĢ
ÓĢ Óģ
ÖĤÖ ĥÖĦ
Ģâ° ģâ°
Ģâ± ģâ±
Ģá´ ģá´
Ģáı ģáı
Ģá½ ģá½
ĢêŃ ģêŃ
Ģï¬ ģï¬
Ģâ´ģ â´Ĥâ´ĥ
ĢÊģ ÊĤÊĥ
ģá¼ Ĥá¼
ģá¶ Ĥá¶
ģá¾ Ĥá¾
ģï½ Ĥï½
ģãĢ ĤãĢĥ
Ĥâ° ĥâ°Ħâ°
Ĥâ± ĥâ±
Ĥá´ ĥá´
Ĥáı ĥáı
Ĥá½ ĥá½
ĤêŃ ĥêŃ
Ĥï¬ ĥï¬
ĥá¼ Ħá¼
ĥá¶ Ħá¶
ĥá¾ Ħá¾
ĥï½ Ħï½
ĥá¿ Ħá¿
Ħâ± ħâ±
Ħá´ ħá´
Ħáı ħáı
Ħá½ ħá½
ĦêŃ ħêŃ
Ħï¬ ħï¬
ħâ° Ĩâ°
ħá¼ Ĩá¼
ħá¶ Ĩá¶
ħá¾ Ĩá¾
ħï½ Ĩï½ĩï½
Ĩâ± ĩâ±
Ĩá´ ĩá´
Ĩáı ĩáıĪáı
Ĩá¿ ĩá¿
ĨêŃ ĩêŃ
Ĩâħ ĩâħ
Ĩï¬ ĵï¬
ĩâ° Īâ°
ĩá¶ Īá¶
Īâ± īâ±
Īá¼ īá¼
Īï½ īï½
Īá½ īá½
Īá¿ īá¿
ĪêŃ īêŃ
īâ° Ĭâ°
īá¶ Ĭá¶
īáı Ĭáı
Ĭâ± ĭâ±
Ĭá´ ĭá´
Ĭá¼ ĭá¼
Ĭï½ ĭï½
Ĭá½ ĭá½
Ĭá¿ ĭá¿
ĬêŃ ĭêŃ
ĭâ° Įâ°
ĭá¶ Įá¶
ĭáı Įáı
ĭâĦ ĮâĦ
Įâ± įâ±
Įá´ įá´
Įá¼ įá¼
Įï½ įï½
Įá½ įá½
ĮêŃ įêŃ
įâ° İâ°
įá¶ İá¶
įáı İáı
İâ± ıâ±
İá´ ıá´
İá¼ ıá¼
İï½ ıï½
İâĦ ıâĦ
İêŃ ıêŃ
ıâ° Ĳâ°
ıá¶ Ĳá¶
ıáı Ĳáı
Ĳâ± ĳâ±
Ĳá´ ĳá´
Ĳá¼ ĳá¼
Ĳá¾ ĳá¾
Ĳï½ ĳï½
Ĳá½ ĳá½
ĲâĦ ĳâĦ
Ĳá¿ ĳá¿
ĲêŃ ĳêŃ
ĳâ° Ĵâ°
ĳá¶ Ĵá¶
ĳáı Ĵáı
Ĵâ± ĵâ±
Ĵá´ ĵá´
Ĵá¼ ĵá¼
Ĵá¾ ĵá¾
Ĵï½ ĵï½
Ĵá½ ĵá½
Ĵá¿ ĵá¿
ĴêŃ ĵêŃ
ĵâ° Ķâ°
ĵá¶ Ķá¶
ĵáı Ķáı
ĵêŀ Ķêŀ
Ķâ± ķâ±
Ķá´ ķá´
Ķá¼ ķá¼
Ķá¾ ķá¾
Ķï½ ķï½
Ķá½ ķá½
ĶêŃ ķêŃ
Ķï¬ ķï¬
ķâ° ĸâ°
ķá¶ ĸá¶
ķáı ĸáı
ĸâ± Ĺâ±
ĸá´ Ĺá´
ĸá¾ Ĺá¾
ĸï½ Ĺï½ĺï½
ĸá½ Ĺá½
ĸá¿ Ĺá¿
ĸêŃ ĹêŃ
Ĺâ° ĺâ°
Ĺá¶ ĺá¶
Ĺáı ĺáı
ĺâ± Ļâ±
ĺá´ Ļá´
ĺá¼ Ļá¼
ĺá¿ Ļá¿
ĺêŃ ĻêŃ
Ļâ° ļâ°
Ļáı ļáı
Ļï½ ļ
Ļá½ Ľá½
ļâ± Ľâ±
ļá´ Ľá´
ļá¼ Ľá¼
ļâĦ ĽâĦ
ļá¿ Ľ
Ľâ° ľâ°
Ľáı ľáı
ľâ± Ŀâ±
ľá´ Ŀá´
ľá¼ Ŀá¼
Ŀâ° ŀâ°
Ŀáı ŀáı
ĿãĢ ŀãĢŁ
Ŀá½ Łá½
ŀá´ Łá´
ŀï¾ Ł
Łâ° łâ°
Łáı łáı
łá´ ¡á´¢á´
łá¼ ¡á¼¢á¼
łá¾ ¡á¾¢á¾
łá½ ¡á½¢á½
łáİ ¡áİ¢áİ
łá¿ ¡á¿¢á¿
Ńâ± ®â±¯â±
Ńáµ ®áµ¯áµ
Ńáı ®áı¯áı
Ńáİ ®áİ¯áİ
Ńï¼ ®ï¼¯ï¼
ÃªÃ« Ã¬ÃŃÃ®
Ã¯Ã° Ã±Ã²Ã³
istic s
ÅĢÃĨ ÅģÃĨÅĤ
ÃĤÃĥÃĦÃħ ÃĨÃĩ
ÅģÃĲ ÅĤ
ĠPOSS IBILITY
Ä¢Ãĸ Ä£
Ä¸ÃĨ Ä¹
Ä¾ÃĨ Ä¿
Ä»ÃĨ Ä¼
Ä¿ÃĲ ÅĢ
Ä¿Ãĳ ÅĢ
Ä½ÃĲ Ä¾
ÃĲÃĳ ÃĴÃĵÃĶÃķÃĸ
ĠSPEC IAL
ãĢĪãĢ īãĢĬãĢ
âĦªâĦ «âĦ¬âĦ
âĦĻâĦ ļâĦĽâĦ
á¿¸á¿ ¹á¿ºá¿
á¿Ĥá¿ ĥá¿Ħá¿
ÃĪÃīÃĬÃĭ ÃĮÃįÃİÃı
Ġcommun ication
Ġimpac t
ÃļÃĽ ÃľÃĿÃŀ
ÃĺÃĻ ÃļÃĽÃľÃĿÃŀ
Ġcontribut ors
ÃŁÃłÃ¡Ã¢ Ã£Ã¤Ã¥
Ã¨Ã© ÃªÃ«Ã¬ÃŃÃ®
ĠINCIDE NTAL
Ã¦Ã§ Ã¨Ã©ÃªÃ«Ã¬ÃŃÃ®
ĠADVI SED
Ġsurroun ding
ĠCONSEQU ENTIAL
Î¼Î½Î ¾Î¿ÏĢ
©ï¼ªï¼ «ï¼¬ï¼
¶ï¼·ï¼ ¸ï¼¹ï¼
ºê¬»ê¬ ¼ê¬½ê¬
Īá´īá´ Ĭá´ĭá´
«áµ¬áµ Ńáµ®áµ¯áµ
°âĦ±âĦ ²âĦ³âĦ
²á¾³á¾ ´á¾¶á¾
½á¾Ģá¾ ģá¾Ĥá¾
Ã´Ãµ Ã¶
Ã¸Ã¹Ãº Ã»Ã¼Ã½
ÃĢÃģ ÃĤÃĥÃĦÃħÃĨÃĩ
Å¾Å¿ ÆĢ
ÆİÆı ÆĲÆĳ
ÆĻÆļ ÆĽ
Ç¶Ç· Ç¸
È³È´È µÈ¶È
ÉĵÉĶ ÉķÉĸÉĹ
ÉłÉ¡É ¢É£É
Î¤Î¥ Î¦Î§
Î¨Î© ÎªÎ
Î¬ÎŃ Î®Î¯
Î°Î± Î²Î³
Î´ÎµÎ ¶Î·Î¸Î¹
ÎºÎ» Î¼Î½Î¾Î¿ÏĢ
ÎĪÎī ÎĬÎĮ
ÎĳÎĴ ÎĵÎĶÎķ
ÎĸÎĹ ÎĺÎĻ
ÎļÎĽ ÎľÎĿ
ÎŀÎŁ ÎłÎ¡Î£
Ï¯Ï° Ï±Ï²
ÏĦÏħ ÏĨÏĩ
ÏĪÏī ÏĬÏĭ
ÏĮÏį Ïİ
ÏĴÏĵ ÏĶ
ÏķÏĸ ÏĹ
Ð¡Ð¢ Ð£Ð¤
Ð¥Ð¦ Ð§Ð¨
Ð©Ðª Ð«Ð¬
Ð´Ðµ Ð¶Ð·
Ð¸Ð¹ ÐºÐ»
ÐĥÐĦ ÐħÐĨ
ÐĩÐĪ ÐīÐĬ
ÐĭÐĮ ÐįÐİ
ÐıÐĲ ÐĳÐĴ
ÐĵÐĶ ÐķÐĸ
ÐĹÐĺ ÐĻÐļ
ÐĽÐľ ÐĿÐŀ
ÐŁÐł Ð¡Ð¢Ð£Ð¤
ÑģÑĤ ÑĥÑĦ
ÑħÑĨ ÑĩÑĪ
ÑīÑĬ ÑĭÑĮ
ÑįÑİ ÑıÑĲ
ÑĳÑĴ ÑĵÑĶ
ÑķÑĸ ÑĹÑĺ
ÑĻÑļ ÑĽÑľ
ÑĿÑŀ ÑŁ
Ô±Ô² Ô³Ô´
ÔµÔ¶ Ô·Ô¸
Ô¹Ôº Ô»Ô¼
Ô½Ô¾Ô ¿ÕĢÕģÕĤ
Õ¥Õ¦ Õ§Õ¨
Õ©Õª Õ«Õ¬
Õ´Õµ Õ¶Õ·
Õ¸Õ¹ ÕºÕ»
Õ¼Õ½ Õ¾Õ¿
ÕĥÕĦ ÕħÕĨ
ÕĩÕĪ ÕīÕĬ
ÕĭÕĮ ÕįÕİ
ÕıÕĲ ÕĳÕĴ
ÕĵÕĶ ÕķÕĸ
ÕŃÕ®Õ¯Õ °Õ±Õ²Õ³
ÖĢÖģ ÖĤÖĥÖĦ
ÖħÖĨ Ö
ĭãĢĮãĢ įãĢİãĢ
ıãĢĲãĢ ĳãĢ
ĶãĢķãĢĸãĢ ĹãĢĺãĢ
ĻãĢļãĢ ĽãĢľãĢ
áºķáºĸ áºĹáºĺ
áºĻáºļ áºĽáºľáº
ÃķÄ§ÃķÄ¨ÃķÄ©ÃķÄª ÃķÄ«ÃķÄ¬
â´£â´¤ â´¥â´§â´
â´Ħâ´ħ â´Ĩâ´ĩ
â´Īâ´ī â´Ĭâ´ĭ
â´Įâ´į â´İâ´ı
â´Ĳâ´ĳ â´Ĵâ´ĵ
â´Ķâ´ķ â´ĸâ´Ĺ
â´ĺâ´Ļ â´ļâ´Ľ
â´ľâ´Ŀ â´ŀâ´Ł
â´łâ´¡â´¢ â´£â´¤â´¥â´§â´
áĥĢáĥģ áĥĤáĥĥ
áĥĦáĥħ áĥĩáĥ
áĤ£áĤ¤ áĤ¥áĤ¦
áĤ§áĤ¨ áĤ©áĤª
áĤ«áĤ¬ áĤŃáĤ®áĤ¯
áĤ°áĤ± áĤ²áĤ³
áĤ´áĤµ áĤ¶áĤ·
áĤ¸áĤ¹ áĤºáĤ»
áĤ¼áĤ½ áĤ¾áĤ¿
áĤłáĤ¡áĤ¢ áĤ£áĤ¤áĤ¥áĤ¦
¡â°¢â° £â°¤â°
¡áı¢áı £áı¤áı
¡ï¼¢ï¼ £ï¼¤ï¼
¡Õ¢Õ£Õ¤ Õ¥Õ¦Õ§Õ¨
¢â±£â± ¤â±
£á´¤á´ ¥á´¦á´
£á¼¤á¼ ¥á¼¦á¼
£á¾¤á¾ ¥á¾¦á¾
£á½¤á½ ¥á½¦á½
£áİ¤áİ ¥áİ¦áİ
£á¿¤á¿ ¥á¿¦á¿
¤É¥É ¦É§É
¤Ê¥Ê ¦Ê§Ê
¥â°¦â° §â°¨â°
¥áı¦áı §áı¨áı
¥ï¼¦ï¼ §ï¼¨ï¼
§á´¨á´ ©á´ªá´
§áİ¨áİ ©áİªáİ
¨É©É ªÉ«É
¨Ê©Ê ªÊ«Ê
¨á¼©á¼ ªá¼«á¼
¨á½©á½ ªá½«á½
¨á¿©á¿ ªá¿«á¿
©â°ªâ° «â°¬â°
©áıªáı «áı¬áı
ªêŀ«êŀ ¬êŀŃêŀ
«áİ¬áİ Ńáİ®áİ¯áİ
¬ÉŃÉ®É ¯É°É
¬ÊŃÊ®Ê ¯
¬á¼Ńá¼ ®á¼¯á¼
¬á½Ńá½ ®á½
¯êľ°êľ ±êľ
°â°±â° ²â°³â°
°á¼±á¼ ²á¼³á¼
°á¾±á¾ ²á¾³á¾´á¾¶á¾
°áµ±áµ ²áµ³áµ
°áı±áı ²áı³áı
°á½±á½ ²á½³á½
°áİ±áİ ²áİ³áİ
°ê¬±ê¬ ²ê¬³ê¬
°ï¼±ï¼ ²ï¼³ï¼
°Ð±Ð²Ð³ Ð´ÐµÐ¶Ð·
±É²É ³É´É
±êĿ²êĿ ³êĿ´êĿ
²á¿³á¿ ´á¿¶á¿
´â°µâ° ¶â°·â°
´á¼µá¼ ¶á¼
´áµµáµ ¶áµ·áµ
´á½µá½ ¶á½·á½¸á½
´áİµáİ ¶áİ·áİ
´ê¬µê¬ ¶ê¬·ê¬
´ï¼µï¼ ¶ï¼·ï¼¸ï¼¹ï¼
µÉ¶É ·É¸É
µêĿ¶êĿ ·êĿ¸êĿ
¶â±·â± ¸â±¹â±
·È¸È ¹È
¸â°¹â° ºâ°»â°
¸á¼¹á¼ ºá¼»á¼
¸á¾¹á¾ ºá¾
¸áİ¹áİ ºáİ»áİ
¸ê¬¹ê¬ ºê¬»ê¬¼ê¬½ê¬
¹ÉºÉ »É¼É
¹áµºáµ »áµ¼áµ
¹á½ºá½ »á½¼á½
¼â°½â° ¾â°¿â±
¼á¼½á¼ ¾á¼¿á½
¼áİ½áİ ¾áİ¿áı
½É¾É¿Ê ĢÊģÊĤÊĥ
½Ï¾Ï ¿ÐĢÐģÐĤ
½áµ¾áµ ¿á¶Ģá¶
¾â±¿â² Ģâ²
¾ê¬¿êŃ ĢêŃģêŃ
¿á¼Ģá¼ ģá¼Ĥá¼
ÆĸÆĹ Æĺ
ÉĥÉĦ ÉħÉĨ
ÉıÉĲ ÉĳÉĴ
ÉĺÉĻ ÉļÉĽ
ÉľÉĿ ÉŀÉŁ
ÊĦÊħ ÊĨÊĩ
ÊĪÊī ÊĬÊĭ
ÊĮÊį ÊİÊı
ÊĲÊĳ ÊĴÊĵ
ÊķÊĸ ÊĹÊĺ
ÊĻÊļ ÊĽÊľ
ÊĿÊŀ ÊŁÊł
Ê¡Ê¢Ê£Ê ¤Ê¥Ê¦Ê§Ê
ÏģÏĤÏĥ ÏĦÏħÏĨÏĩ
Ð¼Ð½Ð¾Ð¿ÑĢ ÑģÑĤÑĥÑĦ
Ģâ°ģâ° Ĥâ°ĥâ°Ħâ°
Ģâ±ģâ± Ĥâ±ĥâ±
Ģá´ģá´ Ĥá´ĥá´
Ģáıģáı Ĥáıĥáı
Ģá½ģá½ Ĥá½ĥá½
Ģï¬ģï¬ Ĥï¬ĥï¬
Ģâ´ģâ´Ĥâ´ĥ â´Ħâ´ħâ´Ĩâ´ĩ
ģá¶Ĥá¶ ĥá¶Ħá¶
ģï½Ĥï½ ĥï½Ħï½
ĤêŃĥêŃ ĦêŃħêŃ
ĥá¼Ħá¼ ħá¼Ĩá¼
ĥá¾Ħá¾ ħá¾Ĩá¾
Ħâ±ħâ± Ĩâ±ĩâ±
Ħá´ħá´ Ĩá´ĩá´
Ħáıħáı ĨáıĩáıĪáı
Ħï¬ħï¬ Ĩï¬ĵï¬
ħâ°Ĩâ° ĩâ°Īâ°
ħá¶Ĩá¶ ĩá¶Īá¶
ħï½Ĩï½ĩï½ Īï½īï½
ĨêŃĩêŃ ĪêŃīêŃ
Ĩâħĩâħ Īâħ
Īâ±īâ± Ĭâ±ĭâ±
Īá¼īá¼ Ĭá¼ĭá¼
Īá½īá½ Ĭá½ĭá½
Īá¿īá¿ Ĭá¿ĭá¿
īâ°Ĭâ° ĭâ°Įâ°
īá¶Ĭá¶ ĭá¶Įá¶
īáıĬáı ĭáıĮáı
Ĭï½ĭï½ Įï½įï½
ĬêŃĭêŃ ĮêŃįêŃ
ĭâĦĮâĦ įâĦ
Įâ±įâ± İâ±ıâ±
Įá´įá´ İá´ıá´
Įá¼įá¼ İá¼ıá¼
įâ°İâ° ıâ°Ĳâ°
įá¶İá¶ ıá¶Ĳá¶
įáıİáı ıáıĲáı
İï½ıï½ Ĳï½ĳï½
İêŃıêŃ ĲêŃĳêŃ
Ĳâ±ĳâ± Ĵâ±ĵâ±
Ĳá´ĳá´ Ĵá´ĵá´
Ĳá¼ĳá¼ Ĵá¼ĵá¼
Ĳá¾ĳá¾ Ĵá¾ĵá¾
Ĳá½ĳá½ Ĵá½ĵá½
ĲâĦĳâĦ ĴâĦ
Ĳá¿ĳá¿ Ĵá¿ĵá¿
ĳâ°Ĵâ° ĵâ°Ķâ°
ĳá¶Ĵá¶ ĵá¶Ķá¶
ĳáıĴáı ĵáıĶáı
Ĵï½ĵï½ Ķï½ķï½
ĴêŃĵêŃ ĶêŃķêŃ
ĵêŀĶêŀ ķêŀ
Ķâ±ķâ± ĸâ±Ĺâ±
Ķá´ķá´ ĸá´Ĺá´
Ķá¾ķá¾ ĸá¾Ĺá¾
Ķá½ķá½ ĸá½Ĺá½
Ķï¬ķï¬ ĸï¬
ķâ°ĸâ° Ĺâ°ĺâ°
ķá¶ĸá¶ Ĺá¶ĺá¶
ķáıĸáı Ĺáıĺáı
ĸï½Ĺï½ĺï½ Ļï½ļ
ĸêŃĹêŃ ĺêŃĻêŃ
ĺâ±Ļâ± ļâ±Ľâ±
ĺá´Ļá´ ļá´Ľá´
ĺá¼Ļá¼ ļá¼Ľá¼
ĺá¿Ļá¿ ļá¿Ľ
Ļâ°ļâ° Ľâ°ľâ°
Ļáıļáı Ľáıľáı
Ļá½Ľá½ Ŀá½Łá½
ľâ±Ŀâ± ŀâ±
ľá´Ŀá´ ŀá´Łá´
Ŀâ°ŀâ° Łâ°łâ°
Ŀáıŀáı Łáıłáı
łá´¡á´¢á´ £á´¤á´¥á´¦á´
łá¼¡á¼¢á¼ £á¼¤á¼¥á¼¦á¼
łá¾¡á¾¢á¾ £á¾¤á¾¥á¾¦á¾
łá½¡á½¢á½ £á½¤á½¥á½¦á½
łáİ¡áİ¢áİ £áİ¤áİ¥áİ¦áİ
łá¿¡á¿¢á¿ £á¿¤á¿¥á¿¦á¿
Ńâ±®â±¯â± °â±
Ńáı®áı¯áı °áı±áı²áı³áı
Ńï¼®ï¼¯ï¼ °ï¼±ï¼²ï¼³ï¼
Ã¯Ã°Ã±Ã²Ã³ Ã´ÃµÃ¶
ãĢĪãĢīãĢĬãĢ ĭãĢĮãĢįãĢİãĢ
âĦªâĦ«âĦ¬âĦ Ń
âĦĻâĦļâĦĽâĦ ľâĦĿ
á¿Ĥá¿ĥá¿Ħá¿ Ĩá¿ĩá¿
ÃĪÃīÃĬÃĭÃĮÃįÃİÃı ÃĲÃĳÃĴÃĵÃĶÃķÃĸ
ÃŁÃłÃ¡Ã¢Ã£Ã¤Ã¥ Ã¦Ã§Ã¨Ã©ÃªÃ«Ã¬ÃŃÃ®
©ï¼ªï¼«ï¼¬ï¼ Ńï¼®ï¼¯ï¼°ï¼±ï¼²ï¼³ï¼
Īá´īá´Ĭá´ĭá´ Įá´įá´İá´ıá´
«áµ¬áµŃáµ®áµ¯áµ °áµ±áµ²áµ³áµ
½á¾Ģá¾ģá¾Ĥá¾ ĥá¾Ħá¾ħá¾Ĩá¾
Ã¸Ã¹ÃºÃ»Ã¼Ã½ Ã¾Ã¿
ÃĢÃģÃĤÃĥÃĦÃħÃĨÃĩ ÃĪÃīÃĬÃĭÃĮÃįÃİÃıÃĲÃĳÃĴÃĵÃĶÃķÃĸ
È³È´ÈµÈ¶È ·È¸È¹È
ÉĵÉĶÉķÉĸÉĹ ÉĺÉĻÉļÉĽ
ÉłÉ¡É¢É£É ¤É¥É¦É§É
Î¤Î¥Î¦Î§ Î¨Î©ÎªÎ
Î¬ÎŃÎ®Î¯ Î°Î±Î²Î³
Î´ÎµÎ¶Î·Î¸Î¹ ÎºÎ»Î¼Î½Î¾Î¿ÏĢ
ÎĪÎīÎĬÎĮ ÎİÎı
ÎĳÎĴÎĵÎĶÎķ ÎĸÎĹÎĺÎĻ
ÎļÎĽÎľÎĿ ÎŀÎŁÎłÎ¡Î£
Ï¯Ï°Ï±Ï² Ï³
ÏĪÏīÏĬÏĭ ÏĮÏįÏİ
Ð¥Ð¦Ð§Ð¨ Ð©ÐªÐ«Ð¬
Ð¸Ð¹ÐºÐ» Ð¼Ð½Ð¾Ð¿ÑĢÑģÑĤÑĥÑĦ
ÐĥÐĦÐħÐĨ ÐĩÐĪÐīÐĬ
ÐĭÐĮÐįÐİ ÐıÐĲÐĳÐĴ
ÐĵÐĶÐķÐĸ ÐĹÐĺÐĻÐļ
ÐĽÐľÐĿÐŀ ÐŁÐłÐ¡Ð¢Ð£Ð¤
ÑħÑĨÑĩÑĪ ÑīÑĬÑĭÑĮ
ÑįÑİÑıÑĲ ÑĳÑĴÑĵÑĶ
ÑķÑĸÑĹÑĺ ÑĻÑļÑĽÑľ
Ô±Ô²Ô³Ô´ ÔµÔ¶Ô·Ô¸
Ô¹ÔºÔ»Ô¼ Ô½Ô¾Ô¿ÕĢÕģÕĤ
Õ©ÕªÕ«Õ¬ ÕŃÕ®Õ¯Õ°Õ±Õ²Õ³
Õ´ÕµÕ¶Õ· Õ¸Õ¹ÕºÕ»
Õ¼Õ½Õ¾Õ¿ ÖĢÖģÖĤÖĥÖĦ
ÕĥÕĦÕħÕĨ ÕĩÕĪÕīÕĬ
ÕĭÕĮÕįÕİ ÕıÕĲÕĳÕĴ
ĶãĢķãĢĸãĢĹãĢĺãĢ ĻãĢļãĢĽãĢľãĢ
áºķáºĸáºĹáºĺ áºĻáºļáºĽáºľáº
â´Īâ´īâ´Ĭâ´ĭ â´Įâ´įâ´İâ´ı
â´Ĳâ´ĳâ´Ĵâ´ĵ â´Ķâ´ķâ´ĸâ´Ĺ
â´ĺâ´Ļâ´ļâ´Ľ â´ľâ´Ŀâ´ŀâ´Ł
áĥĢáĥģáĥĤáĥĥ áĥĦáĥħáĥĩáĥ
áĤ§áĤ¨áĤ©áĤª áĤ«áĤ¬áĤŃáĤ®áĤ¯
áĤ°áĤ±áĤ²áĤ³ áĤ´áĤµáĤ¶áĤ·
áĤ¸áĤ¹áĤºáĤ» áĤ¼áĤ½áĤ¾áĤ¿
áĤłáĤ¡áĤ¢áĤ£áĤ¤áĤ¥áĤ¦ áĤ§áĤ¨áĤ©áĤªáĤ«áĤ¬áĤŃáĤ®áĤ¯
¡â°¢â°£â°¤â° ¥â°¦â°§â°¨â°
¡áı¢áı£áı¤áı ¥áı¦áı§áı¨áı
¡ï¼¢ï¼£ï¼¤ï¼ ¥ï¼¦ï¼§ï¼¨ï¼
¡Õ¢Õ£Õ¤Õ¥Õ¦Õ§Õ¨ Õ©ÕªÕ«Õ¬ÕŃÕ®Õ¯Õ°Õ±Õ²Õ³
§áİ¨áİ©áİªáİ «áİ¬áİŃáİ®áİ¯áİ
¨É©ÉªÉ«É ¬ÉŃÉ®É¯É°É
¨Ê©ÊªÊ«Ê ¬ÊŃÊ®Ê¯
¨á¼©á¼ªá¼«á¼ ¬á¼Ńá¼®á¼¯á¼
¨á½©á½ªá½«á½ ¬á½Ńá½®á½
¨á¿©á¿ªá¿«á¿ ¬
©â°ªâ°«â°¬â° Ńâ°
©áıªáı«áı¬áı Ńáı®áı¯áı°áı±áı²áı³áı
°â°±â°²â°³â° ´â°µâ°¶â°·â°
°á¼±á¼²á¼³á¼ ´á¼µá¼¶á¼
°á¾±á¾²á¾³á¾´á¾¶á¾ ·á¾
°á½±á½²á½³á½ ´á½µá½¶á½·á½¸á½
°áİ±áİ²áİ³áİ ´áİµáİ¶áİ·áİ
°ê¬±ê¬²ê¬³ê¬ ´ê¬µê¬¶ê¬·ê¬
°Ð±Ð²Ð³Ð´ÐµÐ¶Ð· Ð¸Ð¹ÐºÐ»Ð¼Ð½Ð¾Ð¿ÑĢÑģÑĤÑĥÑĦ
±É²É³É´É µÉ¶É·É¸É
±êĿ²êĿ³êĿ´êĿ µêĿ¶êĿ·êĿ¸êĿ
²á¿³á¿´á¿¶á¿ ·
¶â±·â±¸â±¹â± ºâ±
¸â°¹â°ºâ°»â° ¼â°½â°¾â°¿â±
¸á¼¹á¼ºá¼»á¼ ¼á¼½á¼¾á¼¿á½
¸áİ¹áİºáİ»áİ ¼áİ½áİ¾áİ¿áı
¸ê¬¹ê¬ºê¬»ê¬¼ê¬½ê¬ ¾ê¬¿êŃĢêŃģêŃ
¹ÉºÉ»É¼É ½É¾É¿ÊĢÊģÊĤÊĥ
¹áµºáµ»áµ¼áµ ½áµ¾áµ¿á¶Ģá¶
¹á½ºá½»á½¼á½ ½á¾Ģá¾ģá¾Ĥá¾ĥá¾Ħá¾ħá¾Ĩá¾
½Ï¾Ï¿ÐĢÐģÐĤ ÐĥÐĦÐħÐĨÐĩÐĪÐīÐĬ
¿á¼Ģá¼ģá¼Ĥá¼ ĥá¼Ħá¼ħá¼Ĩá¼
ÉıÉĲÉĳÉĴ ÉĵÉĶÉķÉĸÉĹÉĺÉĻÉļÉĽ
ÉľÉĿÉŀÉŁ ÉłÉ¡É¢É£É¤É¥É¦É§É
ÊĦÊħÊĨÊĩ ÊĪÊīÊĬÊĭ
ÊĮÊįÊİÊı ÊĲÊĳÊĴÊĵ
ÊķÊĸÊĹÊĺ ÊĻÊļÊĽÊľ
ÊĿÊŀÊŁÊł Ê¡Ê¢Ê£Ê¤Ê¥Ê¦Ê§Ê
ÏģÏĤÏĥÏĦÏħÏĨÏĩ ÏĪÏīÏĬÏĭÏĮÏįÏİ
Ģâ°ģâ°Ĥâ°ĥâ°Ħâ° ħâ°Ĩâ°ĩâ°Īâ°
Ģâ±ģâ±Ĥâ±ĥâ± Ħâ±ħâ±Ĩâ±ĩâ±
Ģá´ģá´Ĥá´ĥá´ Ħá´ħá´Ĩá´ĩá´
ĢáıģáıĤáıĥáı ĦáıħáıĨáıĩáıĪáı
Ģá½ģá½Ĥá½ĥá½ Ħá½ħá½
Ģï¬ģï¬Ĥï¬ĥï¬ Ħï¬ħï¬Ĩï¬ĵï¬
Ģâ´ģâ´Ĥâ´ĥâ´Ħâ´ħâ´Ĩâ´ĩ â´Īâ´īâ´Ĭâ´ĭâ´Įâ´įâ´İâ´ı
ģá¶Ĥá¶ĥá¶Ħá¶ ħá¶Ĩá¶ĩá¶Īá¶
ģï½Ĥï½ĥï½Ħï½ ħï½Ĩï½ĩï½Īï½īï½
ĤêŃĥêŃĦêŃħêŃ ĨêŃĩêŃĪêŃīêŃ
Īâ±īâ±Ĭâ±ĭâ± Įâ±įâ±İâ±ıâ±
Īá¼īá¼Ĭá¼ĭá¼ Įá¼įá¼İá¼ıá¼
Īá½īá½Ĭá½ĭá½ Įá½įá½
īâ°Ĭâ°ĭâ°Įâ° įâ°İâ°ıâ°Ĳâ°
īá¶Ĭá¶ĭá¶Įá¶ įá¶İá¶ıá¶Ĳá¶
īáıĬáıĭáıĮáı įáıİáııáıĲáı
Ĭï½ĭï½Įï½įï½ İï½ıï½Ĳï½ĳï½
ĬêŃĭêŃĮêŃįêŃ İêŃıêŃĲêŃĳêŃ
Ĳâ±ĳâ±Ĵâ±ĵâ± Ķâ±ķâ±ĸâ±Ĺâ±
Ĳá´ĳá´Ĵá´ĵá´ Ķá´ķá´ĸá´Ĺá´
Ĳá¼ĳá¼Ĵá¼ĵá¼ Ķá¼ķá¼
Ĳá¾ĳá¾Ĵá¾ĵá¾ Ķá¾ķá¾ĸá¾Ĺá¾
Ĳá½ĳá½Ĵá½ĵá½ Ķá½ķá½ĸá½Ĺá½
Ĳá¿ĳá¿Ĵá¿ĵá¿ ĸá¿Ĺá¿
ĳâ°Ĵâ°ĵâ°Ķâ° ķâ°ĸâ°Ĺâ°ĺâ°
ĳá¶Ĵá¶ĵá¶Ķá¶ ķá¶ĸá¶Ĺá¶ĺá¶
ĳáıĴáıĵáıĶáı ķáıĸáıĹáıĺáı
Ĵï½ĵï½Ķï½ķï½ ĸï½Ĺï½ĺï½Ļï½ļ
ĴêŃĵêŃĶêŃķêŃ ĸêŃĹêŃĺêŃĻêŃ
ĺâ±Ļâ±ļâ±Ľâ± ľâ±Ŀâ±ŀâ±
ĺá´Ļá´ļá´Ľá´ ľá´Ŀá´ŀá´Łá´
ĺá¼Ļá¼ļá¼Ľá¼ ľá¼Ŀá¼
Ļâ°ļâ°Ľâ°ľâ° Ŀâ°ŀâ°Łâ°łâ°
ĻáıļáıĽáıľáı ĿáıŀáıŁáıłáı
łá´¡á´¢á´£á´¤á´¥á´¦á´ §á´¨á´©á´ªá´
łá¼¡á¼¢á¼£á¼¤á¼¥á¼¦á¼ §á¼
łá¾¡á¾¢á¾£á¾¤á¾¥á¾¦á¾ §á¾
łá½¡á½¢á½£á½¤á½¥á½¦á½ §á½
łáİ¡áİ¢áİ£áİ¤áİ¥áİ¦áİ §áİ¨áİ©áİªáİ«áİ¬áİŃáİ®áİ¯áİ
łá¿¡á¿¢á¿£á¿¤á¿¥á¿¦á¿ §á¿
ãĢĪãĢīãĢĬãĢĭãĢĮãĢįãĢİãĢ ıãĢĲãĢĳãĢ
ÃŁÃłÃ¡Ã¢Ã£Ã¤Ã¥Ã¦Ã§Ã¨Ã©ÃªÃ«Ã¬ÃŃÃ® Ã¯Ã°Ã±Ã²Ã³Ã´ÃµÃ¶
©ï¼ªï¼«ï¼¬ï¼Ńï¼®ï¼¯ï¼°ï¼±ï¼²ï¼³ï¼ ´ï¼µï¼¶ï¼·ï¼¸ï¼¹ï¼
Īá´īá´Ĭá´ĭá´Įá´įá´İá´ıá´ Ĳá´ĳá´Ĵá´ĵá´Ķá´ķá´ĸá´Ĺá´
«áµ¬áµŃáµ®áµ¯áµ°áµ±áµ²áµ³áµ ´áµµáµ¶áµ·áµ
Î¬ÎŃÎ®Î¯Î°Î±Î²Î³ Î´ÎµÎ¶Î·Î¸Î¹ÎºÎ»Î¼Î½Î¾Î¿ÏĢ
ÎĳÎĴÎĵÎĶÎķÎĸÎĹÎĺÎĻ ÎļÎĽÎľÎĿÎŀÎŁÎłÎ¡Î£
Ð¥Ð¦Ð§Ð¨Ð©ÐªÐ«Ð¬ ÐŃÐ®Ð
ÐĭÐĮÐįÐİÐıÐĲÐĳÐĴ ÐĵÐĶÐķÐĸÐĹÐĺÐĻÐļ
ÐĽÐľÐĿÐŀÐŁÐłÐ¡Ð¢Ð£Ð¤ Ð¥Ð¦Ð§Ð¨Ð©ÐªÐ«Ð¬ÐŃÐ®Ð
ÑħÑĨÑĩÑĪÑīÑĬÑĭÑĮ ÑįÑİÑıÑĲÑĳÑĴÑĵÑĶ
ÑķÑĸÑĹÑĺÑĻÑļÑĽÑľ ÑĿÑŀÑŁ
Ô±Ô²Ô³Ô´ÔµÔ¶Ô·Ô¸ Ô¹ÔºÔ»Ô¼Ô½Ô¾Ô¿ÕĢÕģÕĤ
Õ´ÕµÕ¶Õ·Õ¸Õ¹ÕºÕ» Õ¼Õ½Õ¾Õ¿ÖĢÖģÖĤÖĥÖĦ
ÕĥÕĦÕħÕĨÕĩÕĪÕīÕĬ ÕĭÕĮÕįÕİÕıÕĲÕĳÕĴ
ĶãĢķãĢĸãĢĹãĢĺãĢĻãĢļãĢĽãĢľãĢ ĿãĢŀãĢŁ
áºķáºĸáºĹáºĺáºĻáºļáºĽáºľáº Ŀáº
â´Ĳâ´ĳâ´Ĵâ´ĵâ´Ķâ´ķâ´ĸâ´Ĺ â´ĺâ´Ļâ´ļâ´Ľâ´ľâ´Ŀâ´ŀâ´Ł
áĤ°áĤ±áĤ²áĤ³áĤ´áĤµáĤ¶áĤ· áĤ¸áĤ¹áĤºáĤ»áĤ¼áĤ½áĤ¾áĤ¿
áĤłáĤ¡áĤ¢áĤ£áĤ¤áĤ¥áĤ¦áĤ§áĤ¨áĤ©áĤªáĤ«áĤ¬áĤŃáĤ®áĤ¯ áĤ°áĤ±áĤ²áĤ³áĤ´áĤµáĤ¶áĤ·áĤ¸áĤ¹áĤºáĤ»áĤ¼áĤ½áĤ¾áĤ¿
¡â°¢â°£â°¤â°¥â°¦â°§â°¨â° ©â°ªâ°«â°¬â°Ńâ°
¡áı¢áı£áı¤áı¥áı¦áı§áı¨áı ©áıªáı«áı¬áıŃáı®áı¯áı°áı±áı²áı³áı
¡ï¼¢ï¼£ï¼¤ï¼¥ï¼¦ï¼§ï¼¨ï¼ ©ï¼ªï¼«ï¼¬ï¼Ńï¼®ï¼¯ï¼°ï¼±ï¼²ï¼³ï¼´ï¼µï¼¶ï¼·ï¼¸ï¼¹ï¼
¡Õ¢Õ£Õ¤Õ¥Õ¦Õ§Õ¨Õ©ÕªÕ«Õ¬ÕŃÕ®Õ¯Õ°Õ±Õ²Õ³ Õ´ÕµÕ¶Õ·Õ¸Õ¹ÕºÕ»Õ¼Õ½Õ¾Õ¿ÖĢÖģÖĤÖĥÖĦ
¨É©ÉªÉ«É¬ÉŃÉ®É¯É°É ±É²É³É´ÉµÉ¶É·É¸É
°â°±â°²â°³â°´â°µâ°¶â°·â° ¸â°¹â°ºâ°»â°¼â°½â°¾â°¿â±
°á½±á½²á½³á½´á½µá½¶á½·á½¸á½ ¹á½ºá½»á½¼á½½á¾Ģá¾ģá¾Ĥá¾ĥá¾Ħá¾ħá¾Ĩá¾
°áİ±áİ²áİ³áİ´áİµáİ¶áİ·áİ ¸áİ¹áİºáİ»áİ¼áİ½áİ¾áİ¿áı
°ê¬±ê¬²ê¬³ê¬´ê¬µê¬¶ê¬·ê¬ ¸ê¬¹ê¬ºê¬»ê¬¼ê¬½ê¬¾ê¬¿êŃĢêŃģêŃ
°Ð±Ð²Ð³Ð´ÐµÐ¶Ð·Ð¸Ð¹ÐºÐ»Ð¼Ð½Ð¾Ð¿ÑĢÑģÑĤÑĥÑĦ ÑħÑĨÑĩÑĪÑīÑĬÑĭÑĮÑįÑİÑıÑĲÑĳÑĴÑĵÑĶ
¹ÉºÉ»É¼É½É¾É¿ÊĢÊģÊĤÊĥ ÊĦÊħÊĨÊĩÊĪÊīÊĬÊĭ
¹áµºáµ»áµ¼áµ½áµ¾áµ¿á¶Ģá¶ ģá¶Ĥá¶ĥá¶Ħá¶ħá¶Ĩá¶ĩá¶Īá¶
½Ï¾Ï¿ÐĢÐģÐĤÐĥÐĦÐħÐĨÐĩÐĪÐīÐĬ ÐĭÐĮÐįÐİÐıÐĲÐĳÐĴÐĵÐĶÐķÐĸÐĹÐĺÐĻÐļ
¿á¼Ģá¼ģá¼Ĥá¼ĥá¼Ħá¼ħá¼Ĩá¼ ĩá¼
ÉıÉĲÉĳÉĴÉĵÉĶÉķÉĸÉĹÉĺÉĻÉļÉĽ ÉľÉĿÉŀÉŁÉłÉ¡É¢É£É¤É¥É¦É§É
ÊķÊĸÊĹÊĺÊĻÊļÊĽÊľ ÊĿÊŀÊŁÊłÊ¡Ê¢Ê£Ê¤Ê¥Ê¦Ê§Ê
Ģâ°ģâ°Ĥâ°ĥâ°Ħâ°ħâ°Ĩâ°ĩâ°Īâ° īâ°Ĭâ°ĭâ°Įâ°įâ°İâ°ıâ°Ĳâ°
Ģâ±ģâ±Ĥâ±ĥâ±Ħâ±ħâ±Ĩâ±ĩâ± Īâ±īâ±Ĭâ±ĭâ±Įâ±įâ±İâ±ıâ±
Ģá´ģá´Ĥá´ĥá´Ħá´ħá´Ĩá´ĩá´ Īá´īá´Ĭá´ĭá´Įá´įá´İá´ıá´Ĳá´ĳá´Ĵá´ĵá´Ķá´ķá´ĸá´Ĺá´
ĢáıģáıĤáıĥáıĦáıħáıĨáıĩáıĪáı īáıĬáıĭáıĮáıįáıİáııáıĲáı
Ģï¬ģï¬Ĥï¬ĥï¬Ħï¬ħï¬Ĩï¬ĵï¬ Ķï¬ķï¬ĸï¬
Ģâ´ģâ´Ĥâ´ĥâ´Ħâ´ħâ´Ĩâ´ĩâ´Īâ´īâ´Ĭâ´ĭâ´Įâ´įâ´İâ´ı â´Ĳâ´ĳâ´Ĵâ´ĵâ´Ķâ´ķâ´ĸâ´Ĺâ´ĺâ´Ļâ´ļâ´Ľâ´ľâ´Ŀâ´ŀâ´Ł
ģï½Ĥï½ĥï½Ħï½ħï½Ĩï½ĩï½Īï½īï½ Ĭï½ĭï½Įï½įï½İï½ıï½Ĳï½ĳï½
ĤêŃĥêŃĦêŃħêŃĨêŃĩêŃĪêŃīêŃ ĬêŃĭêŃĮêŃįêŃİêŃıêŃĲêŃĳêŃ
īá¶Ĭá¶ĭá¶Įá¶įá¶İá¶ıá¶Ĳá¶ ĳá¶Ĵá¶ĵá¶Ķá¶ķá¶ĸá¶Ĺá¶ĺá¶
Ĳâ±ĳâ±Ĵâ±ĵâ±Ķâ±ķâ±ĸâ±Ĺâ± ĺâ±Ļâ±ļâ±Ľâ±ľâ±Ŀâ±ŀâ±
ĳâ°Ĵâ°ĵâ°Ķâ°ķâ°ĸâ°Ĺâ°ĺâ° Ļâ°ļâ°Ľâ°ľâ°Ŀâ°ŀâ°Łâ°łâ°
ĳáıĴáıĵáıĶáıķáıĸáıĹáıĺáı ĻáıļáıĽáıľáıĿáıŀáıŁáıłáı
ĴêŃĵêŃĶêŃķêŃĸêŃĹêŃĺêŃĻêŃ ļ
ĺá´Ļá´ļá´Ľá´ľá´Ŀá´ŀá´Łá´ łá´¡á´¢á´£á´¤á´¥á´¦á´§á´¨á´©á´ªá´
łáİ¡áİ¢áİ£áİ¤áİ¥áİ¦áİ§áİ¨áİ©áİªáİ«áİ¬áİŃáİ®áİ¯áİ °áİ±áİ²áİ³áİ´áİµáİ¶áİ·áİ¸áİ¹áİºáİ»áİ¼áİ½áİ¾áİ¿áı
Î¬ÎŃÎ®Î¯Î°Î±Î²Î³Î´ÎµÎ¶Î·Î¸Î¹ÎºÎ»Î¼Î½Î¾Î¿ÏĢ ÏģÏĤÏĥÏĦÏħÏĨÏĩÏĪÏīÏĬÏĭÏĮÏįÏİ
ÎĳÎĴÎĵÎĶÎķÎĸÎĹÎĺÎĻÎļÎĽÎľÎĿÎŀÎŁÎłÎ¡Î£ Î¤Î¥Î¦Î§Î¨Î©ÎªÎ
Ô±Ô²Ô³Ô´ÔµÔ¶Ô·Ô¸Ô¹ÔºÔ»Ô¼Ô½Ô¾Ô¿ÕĢÕģÕĤ ÕĥÕĦÕħÕĨÕĩÕĪÕīÕĬÕĭÕĮÕįÕİÕıÕĲÕĳÕĴ
áĤłáĤ¡áĤ¢áĤ£áĤ¤áĤ¥áĤ¦áĤ§áĤ¨áĤ©áĤªáĤ«áĤ¬áĤŃáĤ®áĤ¯áĤ°áĤ±áĤ²áĤ³áĤ´áĤµáĤ¶áĤ·áĤ¸áĤ¹áĤºáĤ»áĤ¼áĤ½áĤ¾áĤ¿ áĥĢáĥģáĥĤáĥĥáĥĦáĥħáĥĩáĥ
¡Õ¢Õ£Õ¤Õ¥Õ¦Õ§Õ¨Õ©ÕªÕ«Õ¬ÕŃÕ®Õ¯Õ°Õ±Õ²Õ³Õ´ÕµÕ¶Õ·Õ¸Õ¹ÕºÕ»Õ¼Õ½Õ¾Õ¿ÖĢÖģÖĤÖĥÖĦ ÖħÖĨÖ
¨É©ÉªÉ«É¬ÉŃÉ®É¯É°É±É²É³É´ÉµÉ¶É·É¸É ¹ÉºÉ»É¼É½É¾É¿ÊĢÊģÊĤÊĥÊĦÊħÊĨÊĩÊĪÊīÊĬÊĭ
°â°±â°²â°³â°´â°µâ°¶â°·â°¸â°¹â°ºâ°»â°¼â°½â°¾â°¿â± Ģâ±ģâ±Ĥâ±ĥâ±Ħâ±ħâ±Ĩâ±ĩâ±Īâ±īâ±Ĭâ±ĭâ±Įâ±įâ±İâ±ıâ±
°á½±á½²á½³á½´á½µá½¶á½·á½¸á½¹á½ºá½»á½¼á½½á¾Ģá¾ģá¾Ĥá¾ĥá¾Ħá¾ħá¾Ĩá¾ ĩá¾
°ê¬±ê¬²ê¬³ê¬´ê¬µê¬¶ê¬·ê¬¸ê¬¹ê¬ºê¬»ê¬¼ê¬½ê¬¾ê¬¿êŃĢêŃģêŃ ĤêŃĥêŃĦêŃħêŃĨêŃĩêŃĪêŃīêŃĬêŃĭêŃĮêŃįêŃİêŃıêŃĲêŃĳêŃ
°Ð±Ð²Ð³Ð´ÐµÐ¶Ð·Ð¸Ð¹ÐºÐ»Ð¼Ð½Ð¾Ð¿ÑĢÑģÑĤÑĥÑĦÑħÑĨÑĩÑĪÑīÑĬÑĭÑĮÑįÑİÑıÑĲÑĳÑĴÑĵÑĶ ÑķÑĸÑĹÑĺÑĻÑļÑĽÑľÑĿÑŀÑŁ
¹áµºáµ»áµ¼áµ½áµ¾áµ¿á¶Ģá¶ģá¶Ĥá¶ĥá¶Ħá¶ħá¶Ĩá¶ĩá¶Īá¶ īá¶Ĭá¶ĭá¶Įá¶įá¶İá¶ıá¶Ĳá¶ĳá¶Ĵá¶ĵá¶Ķá¶ķá¶ĸá¶Ĺá¶ĺá¶
½Ï¾Ï¿ÐĢÐģÐĤÐĥÐĦÐħÐĨÐĩÐĪÐīÐĬÐĭÐĮÐįÐİÐıÐĲÐĳÐĴÐĵÐĶÐķÐĸÐĹÐĺÐĻÐļ ÐĽÐľÐĿÐŀÐŁÐłÐ¡Ð¢Ð£Ð¤Ð¥Ð¦Ð§Ð¨Ð©ÐªÐ«Ð¬ÐŃÐ®Ð
ÉıÉĲÉĳÉĴÉĵÉĶÉķÉĸÉĹÉĺÉĻÉļÉĽÉľÉĿÉŀÉŁÉłÉ¡É¢É£É¤É¥É¦É§É ¨É©ÉªÉ«É¬ÉŃÉ®É¯É°É±É²É³É´ÉµÉ¶É·É¸É¹ÉºÉ»É¼É½É¾É¿ÊĢÊģÊĤÊĥÊĦÊħÊĨÊĩÊĪÊīÊĬÊĭ
ÊķÊĸÊĹÊĺÊĻÊļÊĽÊľÊĿÊŀÊŁÊłÊ¡Ê¢Ê£Ê¤Ê¥Ê¦Ê§Ê ¨Ê©ÊªÊ«Ê¬ÊŃÊ®Ê¯
Ģâ°ģâ°Ĥâ°ĥâ°Ħâ°ħâ°Ĩâ°ĩâ°Īâ°īâ°Ĭâ°ĭâ°Įâ°įâ°İâ°ıâ°Ĳâ° ĳâ°Ĵâ°ĵâ°Ķâ°ķâ°ĸâ°Ĺâ°ĺâ°Ļâ°ļâ°Ľâ°ľâ°Ŀâ°ŀâ°Łâ°łâ°
Ģá´ģá´Ĥá´ĥá´Ħá´ħá´Ĩá´ĩá´Īá´īá´Ĭá´ĭá´Įá´įá´İá´ıá´Ĳá´ĳá´Ĵá´ĵá´Ķá´ķá´ĸá´Ĺá´ ĺá´Ļá´ļá´Ľá´ľá´Ŀá´ŀá´Łá´łá´¡á´¢á´£á´¤á´¥á´¦á´§á´¨á´©á´ªá´
ĢáıģáıĤáıĥáıĦáıħáıĨáıĩáıĪáıīáıĬáıĭáıĮáıįáıİáııáıĲáı ĳáıĴáıĵáıĶáıķáıĸáıĹáıĺáıĻáıļáıĽáıľáıĿáıŀáıŁáıłáı
Ģâ´ģâ´Ĥâ´ĥâ´Ħâ´ħâ´Ĩâ´ĩâ´Īâ´īâ´Ĭâ´ĭâ´Įâ´įâ´İâ´ıâ´Ĳâ´ĳâ´Ĵâ´ĵâ´Ķâ´ķâ´ĸâ´Ĺâ´ĺâ´Ļâ´ļâ´Ľâ´ľâ´Ŀâ´ŀâ´Ł â´łâ´¡â´¢â´£â´¤â´¥â´§â´
ģï½Ĥï½ĥï½Ħï½ħï½Ĩï½ĩï½Īï½īï½Ĭï½ĭï½Įï½įï½İï½ıï½Ĳï½ĳï½ Ĵï½ĵï½Ķï½ķï½ĸï½Ĺï½ĺï½Ļï½ļ
łáİ¡áİ¢áİ£áİ¤áİ¥áİ¦áİ§áİ¨áİ©áİªáİ«áİ¬áİŃáİ®áİ¯áİ°áİ±áİ²áİ³áİ´áİµáİ¶áİ·áİ¸áİ¹áİºáİ»áİ¼áİ½áİ¾áİ¿áı ĢáıģáıĤáıĥáıĦáıħáıĨáıĩáıĪáıīáıĬáıĭáıĮáıįáıİáııáıĲáıĳáıĴáıĵáıĶáıķáıĸáıĹáıĺáıĻáıļáıĽáıľáıĿáıŀáıŁáıłáı
Ô±Ô²Ô³Ô´ÔµÔ¶Ô·Ô¸Ô¹ÔºÔ»Ô¼Ô½Ô¾Ô¿ÕĢÕģÕĤÕĥÕĦÕħÕĨÕĩÕĪÕīÕĬÕĭÕĮÕįÕİÕıÕĲÕĳÕĴ ÕĵÕĶÕķÕĸ
°â°±â°²â°³â°´â°µâ°¶â°·â°¸â°¹â°ºâ°»â°¼â°½â°¾â°¿â±Ģâ±ģâ±Ĥâ±ĥâ±Ħâ±ħâ±Ĩâ±ĩâ±Īâ±īâ±Ĭâ±ĭâ±Įâ±įâ±İâ±ıâ± Ĳâ±ĳâ±Ĵâ±ĵâ±Ķâ±ķâ±ĸâ±Ĺâ±ĺâ±Ļâ±ļâ±Ľâ±ľâ±Ŀâ±ŀâ±
°ê¬±ê¬²ê¬³ê¬´ê¬µê¬¶ê¬·ê¬¸ê¬¹ê¬ºê¬»ê¬¼ê¬½ê¬¾ê¬¿êŃĢêŃģêŃĤêŃĥêŃĦêŃħêŃĨêŃĩêŃĪêŃīêŃĬêŃĭêŃĮêŃįêŃİêŃıêŃĲêŃĳêŃ ĴêŃĵêŃĶêŃķêŃĸêŃĹêŃĺêŃĻêŃļ
¹áµºáµ»áµ¼áµ½áµ¾áµ¿á¶Ģá¶ģá¶Ĥá¶ĥá¶Ħá¶ħá¶Ĩá¶ĩá¶Īá¶īá¶Ĭá¶ĭá¶Įá¶įá¶İá¶ıá¶Ĳá¶ĳá¶Ĵá¶ĵá¶Ķá¶ķá¶ĸá¶Ĺá¶ĺá¶ Ļá¶
ÉıÉĲÉĳÉĴÉĵÉĶÉķÉĸÉĹÉĺÉĻÉļÉĽÉľÉĿÉŀÉŁÉłÉ¡É¢É£É¤É¥É¦É§É¨É©ÉªÉ«É¬ÉŃÉ®É¯É°É±É²É³É´ÉµÉ¶É·É¸É¹ÉºÉ»É¼É½É¾É¿ÊĢÊģÊĤÊĥÊĦÊħÊĨÊĩÊĪÊīÊĬÊĭ ÊĮÊįÊİÊıÊĲÊĳÊĴÊĵ
Ģâ°ģâ°Ĥâ°ĥâ°Ħâ°ħâ°Ĩâ°ĩâ°Īâ°īâ°Ĭâ°ĭâ°Įâ°įâ°İâ°ıâ°Ĳâ°ĳâ°Ĵâ°ĵâ°Ķâ°ķâ°ĸâ°Ĺâ°ĺâ°Ļâ°ļâ°Ľâ°ľâ°Ŀâ°ŀâ°Łâ°łâ° ¡â°¢â°£â°¤â°¥â°¦â°§â°¨â°©â°ªâ°«â°¬â°Ńâ°
łáİ¡áİ¢áİ£áİ¤áİ¥áİ¦áİ§áİ¨áİ©áİªáİ«áİ¬áİŃáİ®áİ¯áİ°áİ±áİ²áİ³áİ´áİµáİ¶áİ·áİ¸áİ¹áİºáİ»áİ¼áİ½áİ¾áİ¿áıĢáıģáıĤáıĥáıĦáıħáıĨáıĩáıĪáıīáıĬáıĭáıĮáıįáıİáııáıĲáıĳáıĴáıĵáıĶáıķáıĸáıĹáıĺáıĻáıļáıĽáıľáıĿáıŀáıŁáıłáı ¡áı¢áı£áı¤áı¥áı¦áı§áı¨áı©áıªáı«áı¬áıŃáı®áı¯áı°áı±áı²áı³áı
" ),
) [
) \
+ +
0 292
0 696
0 389
0 520
0 135
0 301
0 773
0 306
0 171
1 5060
1 788
1 508
1 769
2 292
2 369
2 780
2 785
2 157
3 599
4 191
4 1011
4 780
4 353
4 375
4 373
5 161
5 599
5 773
6 595
6 384
6 769
6 320
7 000
7 598
7 785
7 157
7 135
7 131
8 790
8 746
8 377
8 7172
8 7576
8 373
9 797
9 520
9 704
9 164
9 320
9 137
9 303
9 331
9 245
: \
A dditional
A vailability
B V
B CEF
B CDA
B ST
B ase
C AAA
C UR
D ate
E Y
E CBD
E ABA
E MPL
F CBD
G en
I FC
K ey
K ps
L X
L etter
M S
N R
N ALL
N umeric
O pen
O OD
S D
S CA
S ig
S EAR
T Y
T ER
V ED
V er
V ATE
W rit
] :
a ebd
a ecb
a faf
a cac
a ebf
a uth
b ra
b ut
b fac
b ebd
b bab
b cfc
b ebe
b ilitÃł
c fab
c dee
c baa
d fac
d ecd
d uction
d types
e ecf
e ecd
e lo
f s
f ccc
f fac
f ecb
f ebc
f fad
f tware
f PV
g ono
g reg
h ij
h ape
i u
i er
k idney
m our
n d
n do
p ur
p ot
p ato
p ublic
p ass
p redic
r sa
s qu
s li
s ame
t v
t Ãł
t ure
u ser
u ating
v est
v ate
v olum
w ap
w ide
y our
y ama
z dHA
¡ Ë
¡ á¶
¡ áµ
¡ ãĥ
¡ áĦ
¡ áħ
¡ áĨ
¡ áĩ
¡ ãħ
¡ ï¾
¡ ãģ
¡ ãĤ
¡ íŁ
¡ âħ
¡ ê¥
¡ ð¯ł
¡ ï½¢
¢ Ë
¢ á¶
¢ áµ
¢ ãĥ
¢ áĦ
¢ áħ
¢ áĨ
¢ áĩ
¢ ãħ
¢ ï¾
¢ ãģ
¢ ãĤ
¢ íŁ
¢ âħ
¢ ê¥
£ Ë
£ á¶
£ áµ
£ ãĥ
£ áĦ
£ áħ
£ áĨ
£ áĩ
£ ãħ
£ ï¾
£ ãģ
£ ãĤ
£ íŁ
£ âħ
£ ê¥
¤ á¶
¤ áµ
¤ ï½
¤ ãĥ
¤ áĦ
¤ áħ
¤ áĨ
¤ áĩ
¤ ãħ
¤ ï¾
¤ ãģ
¤ ãĤ
¤ íŁ
¤ âħ
¤ ê¥
¥ á¶
¥ áµ
¥ ãĥ
¥ áĦ
¥ áħ
¥ áĨ
¥ áĩ
¥ ãħ
¥ ï¾
¥ ãģ
¥ ãĤ
¥ íŁ
¥ âħ
¥ ê¥
¦ á¶
¦ áµ
¦ ï½
¦ ãĥ
¦ áĦ
¦ áħ
¦ áĨ
¦ áĩ
¦ ãħ
¦ ï¾
¦ ãģ
¦ ãĤ
¦ íŁ
¦ âħ
¦ ê¥
§ á¶
§ áµ
§ ï½
§ ãĥ
§ áĦ
§ áħ
§ áĨ
§ áĩ
§ ãħ
§ ï¾
§ ãģ
§ ãĤ
§ íŁ
§ âħ
§ ê¥
¨ á¶
¨ á¾
¨ áµ
¨ ï½
¨ ãĥ
¨ áĦ
¨ áħ
¨ áĨ
¨ áĩ
¨ ãħ
¨ ï¾
¨ ãģ
¨ ãĤ
¨ íŁ
¨ áĲ
¨ âħ
¨ ê¥
© á¶
© á¾
© áµ
© ï½
© ãĥ
© áĦ
© áħ
© áĨ
© áĩ
© ãħ
© ï¾
© ãģ
© ãĤ
© íŁ
© ï®
© âħ
© ê¥
© êĽ
ª á¶
ª á¾
ª áµ
ª ï½
ª ãĥ
ª áĦ
ª áħ
ª áĨ
ª áĩ
ª ãħ
ª ï¾
ª ãģ
ª ãĤ
ª íŁ
ª âħ
ª ê¥
« á´
« á¶
« á¾
« ï½
« ãĥ
« áĦ
« áħ
« áĨ
« áĩ
« ãħ
« ï¾
« ãģ
« ãĤ
« íŁ
« ï´
« âħ
« ê¥
¬ á´
¬ á¶
¬ á¾
¬ ï½
¬ ãĥ
¬ áĦ
¬ áħ
¬ áĨ
¬ áĩ
¬ ãħ
¬ ï¾
¬ ãģ
¬ ãĤ
¬ íŁ
¬ âħ
¬ ê¥
® á´
® á¶
® á¾
® ï½
® ãĥ
® áĦ
® áħ
® áĨ
® áĩ
® ãħ
® ï¾
® ãģ
® ãĤ
® íŁ
® â³
® áļ
® âħ
® ê¥
¯ á´
¯ á¶
¯ ï½
¯ ãĥ
¯ áĦ
¯ áħ
¯ áĨ
¯ áĩ
¯ ãħ
¯ ï¾
¯ ãģ
¯ ãĤ
¯ íŁ
¯ ÃĥÄ°
° Ê
° êĿ
° á´
° á¶
° ï½
° ãĥ
° áĦ
° áħ
° áĨ
° áĩ
° ãħ
° ãģ
° ãĤ
° íŁ
° âħ
° ê¥
° ãĩ
° íŀ
± Ê
± á´
± á¶
± ï½
± ãĥ
± áĦ
± áħ
± áĨ
± áĩ
± ãħ
± ï¾
± ãģ
± ãĤ
± íŁ
± ãĦ
± âħ
± ê¥
± ãĩ
± íŀ
² Ê
² á´
² á¶
² ï½
² ãĥ
² áĦ
² áħ
² áĨ
² áĩ
² ãħ
² ï¾
² ãģ
² ãĤ
² íŁ
² ãĦ
² âħ
² ê¥
² ãĩ
² íŀ
³ Ê
³ á´
³ á¶
³ ï½
³ ãĥ
³ áĦ
³ áħ
³ áĨ
³ áĩ
³ ãħ
³ ï¾
³ ãģ
³ ãĤ
³ íŁ
³ ãĦ
³ âħ
³ ê¥
³ ãĩ
³ íŀ
´ Ê
´ Ø
´ á´
´ á¶
´ ï½
´ ãĥ
´ áĦ
´ áħ
´ áĨ
´ áĩ
´ ãħ
´ ï¾
´ ãģ
´ ãĤ
´ íŁ
´ ãĦ
´ âħ
´ ê¥
´ ãĩ
´ íŀ
µ Ê
µ Ï
µ á´
µ á¶
µ ï½
µ ãĥ
µ áĦ
µ áħ
µ áĨ
µ áĩ
µ ãħ
µ ï¾
µ ãģ
µ ãĤ
µ íŁ
µ ãĦ
µ âħ
µ ê¥
µ ä¸
µ ãĩ
µ íŀ
µ ê£
¶ Ê
¶ á¶
¶ ï½
¶ ãĥ
¶ áĦ
¶ áħ
¶ áĨ
¶ áĩ
¶ ãħ
¶ ï¾
¶ ãģ
¶ ãĤ
¶ íŁ
¶ ãĦ
¶ âħ
¶ ê¥
¶ ãĩ
¶ íŀ
· Ê
· á´
· á¶
· ï½
· ãĥ
· áĦ
· áħ
· áĨ
· áĩ
· ãħ
· ï¾
· ãģ
· ãĤ
· íŁ
· ê¢
· ãĦ
· âħ
· ê¥
· ãĩ
· íŀ
¸ á´
¸ á¶
¸ áµ
¸ ï½
¸ ãĥ
¸ áĦ
¸ áħ
¸ áĨ
¸ áĩ
¸ ãħ
¸ ï¾
¸ ãģ
¸ ãĤ
¸ íŁ
¸ ãĦ
¸ âħ
¸ ê¥
¸ ãĩ
¸ íŀ
¸ êŁ
¹ á´
¹ á¶
¹ ï½
¹ ãĥ
¹ áĦ
¹ áħ
¹ áĨ
¹ áĩ
¹ ãħ
¹ ï¾
¹ ãģ
¹ ãĤ
¹ íŁ
¹ ãĦ
¹ âħ
¹ ê¥
¹ á±
¹ ï¬
¹ ãĩ
¹ íŀ
¹ áł
¹ ï·
¹ êŁ
¹ âĦ¼âĦ
º Í
º á´
º á¶
º áĦ
º áħ
º áĨ
º áĩ
º ãħ
º ï¾
º ãģ
º ãĤ
º íŁ
º ãĦ
º ê¤
º âħ
º ê¥
º íŀ
» â±
» á´
» á¶
» ãĢ
» áĦ
» áħ
» áĨ
» áĩ
» ãħ
» ï¾
» ãģ
» ãĤ
» ãĦ
» ê¥
» êĵ
» ãĩ
» íŀ
¼ â±
¼ á´
¼ á¶
¼ ï½
¼ áĦ
¼ áħ
¼ áĨ
¼ áĩ
¼ ãħ
¼ ï¾
¼ ãĤ
¼ áļ
¼ ãĦ
¼ âħ
¼ ãĩ
¼ íŀ
½ á´
½ á¶
½ ãĥ
½ áĦ
½ áħ
½ áĨ
½ áĩ
½ ãħ
½ ï¾
½ ãģ
½ áļ
½ ãĦ
½ ê¤
½ ãĩ
½ íŀ
½ ï¹
¾ á´
¾ á¶
¾ ãĥ
¾ áĦ
¾ áħ
¾ áĨ
¾ áĩ
¾ ãħ
¾ ãģ
¾ ãĤ
¾ ãĦ
¾ âħ
¾ ãĩ
¾ íŀ
¾ ï¹
¾ ðĿķ
¾ ï¿
¾ á¿Ĥá¿ĥá¿Ħá¿Ĩá¿ĩá¿
¿ áµ
¿ áħ
¿ áĨ
¿ áĩ
¿ ãħ
¿ ï¾
¿ íŁ
¿ âµ
¿ ÎĨ
Ä ĩ
Å ½
Ç ²
Ç ¾
Ç Ħ
Ê °Ê
Ë Ģ
Ë ģ
Ë ł
Ë ¡Ë
Î Ĳ
Ï Ń
Ò ¸
Ô Ģ
× ¡
× ¢
× £
× ¤
× ¥
× ¦
× §
× ¨
× ©
× ª
× Ĳ
× ĳ
× Ĵ
× ĵ
× Ķ
× ķ
× ĸ
× Ĺ
× ĺ
× Ļ
× ļ
× Ľ
× ľ
× Ŀ
× ŀ
× Ł
× ł
Ø ¡
Ø ¢
Ø £
Ø ¤
Ø ¥
Ø ¦
Ø §
Ø ¨
Ø ©
Ø ª
Ø «
Ø ¬
Ø ®
Ø ¯
Ø °
Ø ±
Ø ²
Ø ³
Ø ¶
Ø ·
Ø ¸
Ø ¹
Ø º
Ø Ń
Ù ¹
Ù ¾
Ù Ģ
Ù ģ
Ù Ĥ
Ù ĥ
Ù Ħ
Ù ħ
Ù Ĩ
Ù ĩ
Ù Ī
Ù ī
Ù Ĭ
Ú ©
Ú ¯
Ú º
Ú Ĩ
Ú Ī
Ú ĳ
Ú ĺ
Û Ģ
Û Ĵ
Û ĵ
Ġ >
Ġ X
Ġ 1011
Ġ ECA
Ġ FFA
Ġ EDC
Ġ 567
Ġ icense
Ġ 669
Ġ 397
Ġ 505
Ġ 585
Ġ 306
Ġ 781
Ġ 783
Ġ 351
Ġ 396
Ġ 290
Ġ 365
Ġ 755
Ġ 363
Ġ 726
Ġ 398
Ġ 563
Ġ 386
Ġ 498
Ġ 291
Ġ 699
Ġ 586
Ġ 401
Ġ 745
Ġ 492
Ġ 805
Ġ 495
Ġ ebd
Ġ ecc
Ġ ces
Ġ ecb
Ġ 444
Ġ 023
Ġ cess
Ģ áµ
Ģ ãĥ
Ģ áĦ
Ģ áħ
Ģ áĨ
Ģ áĩ
Ģ ãħ
Ģ ï¾
Ģ ãĤ
Ģ íŁ
Ģ áĻ
Ģ ãĨ
ģ áµ
ģ ãĥ
ģ áĦ
ģ áħ
ģ áĨ
ģ áĩ
ģ ãħ
ģ ï¾
ģ ãģ
ģ ãĤ
ģ íŁ
ģ ãĨ
ģ ï·
Ĥ áµ
Ĥ ãĥ
Ĥ áĦ
Ĥ áħ
Ĥ áĨ
Ĥ áĩ
Ĥ ãħ
Ĥ ï¾
Ĥ ãģ
Ĥ ãĤ
Ĥ íŁ
Ĥ ãĨ
Ĥ ï¿
Ĥ âĦĩ
ĥ áµ
ĥ ãĥ
ĥ áĦ
ĥ áħ
ĥ áĨ
ĥ áĩ
ĥ ãħ
ĥ ï¾
ĥ ãģ
ĥ ãĤ
ĥ íŁ
ĥ ãĨ
ĥ ï¿
Ħ áµ
Ħ ãĥ
Ħ áĦ
Ħ áħ
Ħ áĨ
Ħ áĩ
Ħ ãħ
Ħ ï¾
Ħ ãģ
Ħ ãĤ
Ħ íŁ
Ħ ãĨ
ħ áµ
ħ ãĥ
ħ áĦ
ħ áħ
ħ áĨ
ħ áĩ
ħ ãħ
ħ ï¾
ħ ãģ
ħ ãĤ
ħ íŁ
ħ á¨
ħ ãĨ
ħ ï¹
ħ ï¿
Ĩ áµ
Ĩ ãĥ
Ĩ áĦ
Ĩ áħ
Ĩ áĨ
Ĩ áĩ
Ĩ ãħ
Ĩ ï¾
Ĩ ãģ
Ĩ ãĤ
Ĩ íŁ
Ĩ ãĨ
Ĩ ï¿
ĩ áµ
ĩ ãĥ
ĩ áĦ
ĩ áħ
ĩ áĨ
ĩ áĩ
ĩ ãħ
ĩ ï¾
ĩ ãģ
ĩ ãĤ
ĩ ãĨ
ĩ ï¿
Ī á¾
Ī áµ
Ī ãĥ
Ī áĦ
Ī áħ
Ī áĨ
Ī áĩ
Ī ãħ
Ī ï¾
Ī ãģ
Ī ãĤ
Ī ãĨ
ī á¾
ī áµ
ī ãĥ
ī áĦ
ī áħ
ī áĨ
ī áĩ
ī ãħ
ī ï¾
ī ãģ
ī ãĤ
ī ãĨ
ī à¥
Ĭ á¾
Ĭ áµ
Ĭ ãĥ
Ĭ áĦ
Ĭ áħ
Ĭ áĨ
Ĭ áĩ
Ĭ ãħ
Ĭ ï¾
Ĭ ãģ
Ĭ ãĤ
Ĭ ãĨ
Ĭ ï¿
ĭ á¾
ĭ áµ
ĭ ãĥ
ĭ áĦ
ĭ áħ
ĭ áĨ
ĭ áĩ
ĭ ãħ
ĭ ï¾
ĭ ãģ
ĭ ãĤ
ĭ íŁ
ĭ ãĨ
ĭ ï¿
Į á¾
Į áµ
Į ãĥ
Į áĦ
Į áħ
Į áĨ
Į áĩ
Į ãħ
Į ï¾
Į ãģ
Į ãĤ
Į íŁ
Į ãĨ
Į ï¿
į ß
į á¾
į áµ
į ãĥ
į áĦ
į áħ
į áĨ
į áĩ
į ãħ
į ï¾
į ãģ
į ãĤ
į íŁ
į ãĨ
į ï¿
İ á¾
İ áµ
İ ãĥ
İ áĦ
İ áħ
İ áĨ
İ áĩ
İ ãħ
İ ï¾
İ ãģ
İ ãĤ
İ íŁ
İ ï¿
ı á¾
ı áµ
ı ãĥ
ı áĦ
ı áħ
ı áĨ
ı áĩ
ı ãħ
ı ï¾
ı ãģ
ı ãĤ
ı íŁ
ı ï¿
Ĳ áµ
Ĳ ãĥ
Ĳ áĦ
Ĳ áħ
Ĳ áĨ
Ĳ áĩ
Ĳ ãħ
Ĳ ï¾
Ĳ ãģ
Ĳ ãĤ
Ĳ íŁ
Ĳ âĤ
ĳ áµ
ĳ ãĥ
ĳ áĦ
ĳ áħ
ĳ áĨ
ĳ áĩ
ĳ ãħ
ĳ ï¾
ĳ ãģ
ĳ ãĤ
ĳ íŁ
ĳ âĤ
Ĵ áµ
Ĵ ãĥ
Ĵ áĦ
Ĵ áħ
Ĵ áĨ
Ĵ áĩ
Ĵ ãħ
Ĵ ï¾
Ĵ ãģ
Ĵ ãĤ
Ĵ íŁ
Ĵ âĤ
Ĵ ï¿
ĵ áµ
ĵ ãĥ
ĵ áĦ
ĵ áħ
ĵ áĨ
ĵ áĩ
ĵ ãħ
ĵ ï¾
ĵ ãģ
ĵ ãĤ
ĵ íŁ
ĵ âĤ
ĵ ï¿
Ķ Ü
Ķ áµ
Ķ ãĥ
Ķ áĦ
Ķ áħ
Ķ áĨ
Ķ áĩ
Ķ ãħ
Ķ ï¾
Ķ ãģ
Ķ ãĤ
Ķ íŁ
Ķ âĤ
Ķ ï¿
ķ áµ
ķ ãĥ
ķ áĦ
ķ áħ
ķ áĨ
ķ áĩ
ķ ãħ
ķ ï¾
ķ ãģ
ķ ãĤ
ķ íŁ
ķ âĤ
ķ ï¿
ķ âĦĻâĦļâĦĽâĦľâĦĿ
ĸ áµ
ĸ ãĥ
ĸ áĦ
ĸ áħ
ĸ áĨ
ĸ áĩ
ĸ ãħ
ĸ ï¾
ĸ ãģ
ĸ íŁ
ĸ âĤ
ĸ ï¿
Ĺ áµ
Ĺ ãĥ
Ĺ áĦ
Ĺ áħ
Ĺ áĨ
Ĺ áĩ
Ĺ ãħ
Ĺ ï¾
Ĺ ãģ
Ĺ íŁ
Ĺ âĤ
Ĺ ï¿
ĺ á¾
ĺ áµ
ĺ ãĥ
ĺ áĦ
ĺ áħ
ĺ áĨ
ĺ áĩ
ĺ ãħ
ĺ ï¾
ĺ ãģ
ĺ íŁ
ĺ âĤ
Ļ á¾
Ļ áµ
Ļ ãĥ
Ļ áĦ
Ļ áħ
Ļ áĨ
Ļ áĩ
Ļ ãħ
Ļ ï¾
Ļ ãģ
Ļ íŁ
Ļ ê¤
Ļ ê¯
Ļ á®
Ļ âĤ
Ļ áį
ļ á¶
ļ á¾
ļ áµ
ļ ãĥ
ļ áĦ
ļ áħ
ļ áĨ
ļ áĩ
ļ ãħ
ļ ï¾
ļ ãģ
ļ íŁ
ļ áģ
ļ âĤ
ļ ï¿
Ľ á¶
Ľ á¾
Ľ áµ
Ľ ãĥ
Ľ áĦ
Ľ áħ
Ľ áĨ
Ľ áĩ
Ľ ãħ
Ľ ï¾
Ľ ãģ
Ľ êļ
Ľ íŁ
Ľ êľ
Ľ á¥
Ľ ï¿
ľ á¶
ľ á¾
ľ áµ
ľ ãĥ
ľ áĦ
ľ áħ
ľ áĨ
ľ áĩ
ľ ãħ
ľ ï¾
ľ ãģ
ľ êļ
ľ íŁ
ľ êŃ
ľ áĽ
Ŀ á¶
Ŀ á¾
Ŀ áµ
Ŀ ãĥ
Ŀ áĦ
Ŀ áħ
Ŀ áĨ
Ŀ áĩ
Ŀ ãħ
Ŀ ï¾
Ŀ ãģ
Ŀ ãĤ
Ŀ íŁ
Ŀ ï´
Ŀ êŃ
Ŀ êľ
ŀ á¶
ŀ á¾
ŀ áµ
ŀ ãĥ
ŀ áĦ
ŀ áħ
ŀ áĨ
ŀ áĩ
ŀ ãħ
ŀ ãģ
ŀ ãĤ
ŀ íŁ
ŀ êŃ
ŀ à¥
Ł á¶
Ł á¾
Ł áµ
Ł ãĥ
Ł áĦ
Ł áħ
Ł áĨ
Ł áĩ
Ł ãħ
Ł ãģ
Ł íŁ
ł á¶
ł áµ
ł áĦ
ł áħ
ł áĨ
ł áĩ
ł ãħ
ł ï¾
ł ãģ
ł íŁ
ł âħ
ł ê¥
ł á¯
Ń á´
Ń á¶
Ń á¾
Ń ï½
Ń ãĥ
Ń áĦ
Ń áħ
Ń áĨ
Ń áĩ
Ń ãħ
Ń ï¾
Ń ãģ
Ń ãĤ
Ń íŁ
Ń âħ
Ń ê¥
Ń áľ
00 42
00 61
00 550
00 832
11 36
11 80
11 71
11 91
11 554
11 700
11 288
11 278
11 222
11 305
Ã¡ Åĥ
32 78
32 60
32 09
32 21
32 379
32 211
32 234
32 248
32 958
32 305
56 62
56 92
56 509
56 898
56 718
56 576
56 868
56 281
72 13
72 09
72 26
72 96
72 41
72 788
72 200
72 058
72 069
72 463
38 11
38 03
38 379
38 104
12 80
12 45
12 618
12 472
12 230
12 979
12 592
39 19
39 60
39 35
39 75
39 63
39 555
54 50
54 10
54 07
54 536
54 880
54 622
54 438
79 10
79 15
79 68
79 789
52 57
52 45
52 380
52 774
34 20
34 44
34 17
34 68
34 24
34 26
34 73
34 96
34 95
34 91
34 874
34 912
34 506
34 997
36 30
36 64
36 24
36 07
36 789
16 32
16 56
16 16
16 73
16 07
16 898
16 274
16 730
16 622
16 007
58 13
58 77
58 818
58 412
58 944
58 538
76 47
76 97
76 03
76 91
76 538
76 391
76 329
59 36
59 70
59 09
59 05
59 219
59 610
59 639
59 465
59 7543
30 55
30 73
30 51
30 83
30 238
50 13
50 33
50 85
50 339
14 58
14 48
14 75
14 77
14 94
14 45
14 47
14 734
14 549
10 43
10 23
10 47
10 314
19 83
19 500
19 274
19 918
19 239
78 12
78 29
74 30
74 73
74 94
74 04
74 05
74 782
74 758
74 880
74 557
70 69
70 88
70 90
70 86
70 98
70 380
70 210
18 26
18 85
18 23
18 01
18 336
18 069
18 088
18 584
20 38
20 92
20 27
20 87
20 43
20 81
20 319
20 859
20 838
20 538
20 470
20 897
29 32
29 52
29 21
29 81
29 572
29 050
29 678
29 803
80 56
80 20
80 22
80 35
80 46
80 572
80 896
80 945
66 63
66 772
66 752
66 959
66 217
40 78
40 22
40 27
40 23
40 866
40 412
40 976
40 283
40 348
89 34
89 16
89 58
89 02
89 95
89 05
89 07
89 03
89 256
89 400
89 311
89 774
89 194
49 56
49 80
49 73
49 96
49 65
49 93
49 61
49 21
49 872
49 329
AA FF
AA CA
60 334
60 174
22 38
22 69
22 44
22 43
22 41
22 81
22 712
22 710
22 752
22 765
CE CE
CE ADE
FB EF
FB DE
69 12
69 52
69 04
69 67
69 05
69 03
69 219
69 519
69 840
CB AF
CB DA
CB CFE
CB CDB
CB CDA
44 39
44 37
44 718
44 139
44 422
AB CDC
AB ABA
FE AD
FE DF
FE FBE
13 782
13 374
88 30
88 18
88 17
88 33
88 24
88 43
88 41
88 61
15 52
15 15
15 55
15 137
15 571
17 73
AE BE
90 59
90 89
90 454
90 756
90 639
90 279
90 816
90 261
35 15
35 17
35 71
AD BE
62 41
62 336
62 620
62 472
62 352
62 552
62 341
42 11
42 56
42 15
42 792
42 172
42 689
42 636
42 802
37 14
37 78
37 74
37 560
37 792
37 312
37 379
68 19
68 69
68 15
68 62
68 26
68 45
68 21
68 518
48 75
48 77
DB DF
75 53
75 716
EE BB
EE EEA
33 54
33 76
33 33
99 32
99 51
99 86
99 94
99 65
99 312
99 572
99 310
99 489
99 268
99 378
99 930
55 56
55 54
55 50
55 73
64 34
64 40
64 35
64 518
64 311
28 58
28 49
28 44
28 77
28 31
28 53
28 384
28 782
28 640
28 249
28 654
28 157
28 419
28 252
28 515
BB FD
BB AD
BB ED
BB EC
Âª Ã£Ä¤
Âª Ã£Ä£
CC AF
EB AE
EB DDB
EB DBA
en al
en cy
24 16
ED FB
31 38
ed ca
ed ea
ed da
ed de
ed cb
ed ab
ed fd
ed fe
82 32
82 30
82 80
82 389
82 612
46 13
46 73
46 51
46 574
46 199
46 801
EC TION
BD EC
BD CAB
09 40
09 35
09 62
09 33
09 31
09 51
09 772
09 540
09 463
09 348
26 11
26 56
26 58
26 30
26 73
26 51
26 380
26 334
26 176
26 592
53 56
53 52
53 157
84 69
84 17
84 554
84 179
73 56
73 79
51 789
71 594
71 787
ec ee
in it
in ing
EF ABE
ea m
ea ea
ea df
ea ae
Ġa bb
Ġa ted
Ġa ree
Ġa us
Ġa van
Ġa xes
Ġt y
Ġt ic
Ġt ive
ÃĥÂª ÃħÄ¢
92 72
92 38
92 78
92 74
92 57
92 514
92 741
92 498
92 293
92 426
on nx
98 57
98 51
98 359
94 56
94 16
94 78
94 74
94 18
94 572
94 116
94 647
da ca
da de
da dd
da fe
ef ca
ef cc
ef fb
ef ab
ef fd
ef bd
ef it
96 22
96 51
BE AEB
BE CCF
08 28
08 530
04 18
04 89
04 75
04 53
06 14
06 19
06 42
06 33
06 358
06 369
06 763
02 16
02 35
02 48
db ed
db ca
db df
db ac
db bd
DA TE
fa ca
fa ff
fa af
fa ad
fa bd
ba ff
ba cb
ba df
ba bc
ba ae
cc fc
cc io
63 70
63 789
67 79
65 31
65 305
27 37
27 31
Äł U
Äł V
Äł en
Äł ac
Äł as
Äł ter
Äł ÃĦÂµ
Äł ÃĦÂº
Äł ÃĦÂª
Äł eff
Äł ÃħÄ¥
Äł acc
Äł ÃħÄ¤
Äł no
Äł perm
87 790
85 13
85 35
85 562
ff ea
ff cc
ff ce
ff bf
ff cd
eb db
eb ba
eb ce
eb fc
eb bf
25 54
25 59
25 70
25 17
25 129
25 101
43 76
43 70
23 12
23 30
âĹĮ ãĤ
41 729
83 79
83 52
83 18
83 324
83 125
cb ea
cb ef
cb de
cb ba
cb fb
cb bb
cb ee
cb bf
93 56
61 32
[...]
