{"<s>":0,"<pad>":1,"</s>":2,"<unk>":3,"<mask>":4,"!":5,"\"":6,"#":7,"$":8,"%":9,"&":10,"'":11,"(":12,")":13,"*":14,"+":15,",":16,"-":17,".":18,"/":19,"0":20,"1":21,"2":22,"3":23,"4":24,"5":25,"6":26,"7":27,"8":28,"9":29,":":30,";":31,"<":32,"=":33,">":34,"?":35,"@":36,"A":37,"B":38,"C":39,"D":40,"E":41,"F":42,"G":43,"H":44,"I":45,"J":46,"K":47,"L":48,"M":49,"N":50,"O":51,"P":52,"Q":53,"R":54,"S":55,"T":56,"U":57,"V":58,"W":59,"X":60,"Y":61,"Z":62,"[":63,"\\":64,"]":65,"^":66,"_":67,"`":68,"a":69,"b":70,"c":71,"d":72,"e":73,"f":74,"g":75,"h":76,"i":77,"j":78,"k":79,"l":80,"m":81,"n":82,"o":83,"p":84,"q":85,"r":86,"s":87,"t":88,"u":89,"v":90,"w":91,"x":92,"y":93,"z":94,"{":95,"|":96,"}":97,"~":98,"¡":99,"¢":100,"£":101,"¤":102,"¥":103,"¦":104,"§":105,"¨":106,"©":107,"ª":108,"«":109,"¬":110,"®":111,"¯":112,"°":113,"±":114,"²":115,"³":116,"´":117,"µ":118,"¶":119,"·":120,"¸":121,"¹":122,"º":123,"»":124,"¼":125,"½":126,"¾":127,"¿":128,"À":129,"Á":130,"Â":131,"Ã":132,"Ä":133,"Å":134,"Æ":135,"Ç":136,"È":137,"É":138,"Ê":139,"Ë":140,"Ì":141,"Í":142,"Î":143,"Ï":144,"Ð":145,"Ñ":146,"Ò":147,"Ó":148,"Ô":149,"Õ":150,"Ö":151,"×":152,"Ø":153,"Ù":154,"Ú":155,"Û":156,"Ü":157,"Ý":158,"Þ":159,"ß":160,"à":161,"á":162,"â":163,"ã":164,"ä":165,"å":166,"æ":167,"ç":168,"è":169,"é":170,"ê":171,"ë":172,"ì":173,"í":174,"î":175,"ï":176,"ð":177,"ñ":178,"ò":179,"ó":180,"ô":181,"õ":182,"ö":183,"÷":184,"ø":185,"ù":186,"ú":187,"û":188,"ü":189,"ý":190,"þ":191,"ÿ":192,"Ā":193,"ā":194,"Ă":195,"ă":196,"Ą":197,"ą":198,"Ć":199,"ć":200,"Ĉ":201,"ĉ":202,"Ċ":203,"ċ":204,"Č":205,"č":206,"Ď":207,"ď":208,"Đ":209,"đ":210,"Ē":211,"ē":212,"Ĕ":213,"ĕ":214,"Ė":215,"ė":216,"Ę":217,"ę":218,"Ě":219,"ě":220,"Ĝ":221,"ĝ":222,"Ğ":223,"ğ":224,"Ġ":225,"ġ":226,"Ģ":227,"ģ":228,"Ĥ":229,"ĥ":230,"Ħ":231,"ħ":232,"Ĩ":233,"ĩ":234,"Ī":235,"ī":236,"Ĭ":237,"ĭ":238,"Į":239,"į":240,"İ":241,"ı":242,"Ĳ":243,"ĳ":244,"Ĵ":245,"ĵ":246,"Ķ":247,"ķ":248,"ĸ":249,"Ĺ":250,"ĺ":251,"Ļ":252,"ļ":253,"Ľ":254,"ľ":255,"Ŀ":256,"ŀ":257,"Ł":258,"ł":259,"Ń":260,"00":261,"ÃĦ":262,"11":263,"Ã¡":264,"32":265,"56":266,"72":267,"38":268,"12":269,"39":270,"54":271,"79":272,"52":273,"34":274,"36":275,"16":276,"58":277,"76":278,"59":279,"30":280,"50":281,"14":282,"10":283,"19":284,"78":285,"74":286,"70":287,"18":288,"Ġ=":289,"Ãĥ":290,"20":291,"ð¡":292,"ð¢":293,"ð£":294,"ð¤":295,"ð¥":296,"ð¦":297,"ð§":298,"ð¨":299,"ð©":300,"ðł":301,"ð«":302,"29":303,"ðª":304,"80":305,"66":306,"40":307,"89":308,"49":309,"AA":310,"ð¬":311,"60":312,"22":313,"CE":314,"CD":315,"FB":316,"69":317,"CB":318,"44":319,"čĊ":320,"AB":321,"FE":322,"FD":323,"13":324,"88":325,"15":326,"17":327,"AE":328,"90":329,"35":330,"AD":331,"62":332,"42":333,"37":334,"Ã¡Ä":335,"68":336,"Ãª":337,"48":338,"DB":339,"75":340,"FC":341,"EE":342,"33":343,"ðĹ":344,"99":345,"AC":346,"55":347,"64":348,"DD":349,"77":350,"28":351,"FF":352,"BB":353,"Âª":354,"CC":355,"EB":356,"en":357,"24":358,"ED":359,"FA":360,"31":361,"ed":362,"57":363,"82":364,"46":365,"ĠÃ":366,"ÃªÄ":367,"EC":368,"BD":369,"09":370,"ca":371,"26":372,"53":373,"AF":374,"84":375,"73":376,"ĠĠ":377,"51":378,"86":379,"71":380,"Â¡":381,"ec":382,"in":383,"ðĺ":384,"EF":385,"ea":386,"EA":387,"Ġa":388,"Ġt":389,"er":390,"0000":391,"CA":392,"ÃĥÂª":393,"CF":394,"92":395,"on":396,"98":397,"94":398,"ÃĥÂªÃĦ":399,"da":400,"ef":401,"ĠÄ":402,"96":403,"BE":404,"ĠÂ":405,"08":406,"DF":407,"04":408,"BC":409,"DE":410,"06":411,"02":412,"Ã¢":413,"db":414,"DA":415,"BF":416,"DC":417,"BA":418,"fa":419,"de":420,"ba":421,"cc":422,"ðĲ":423,"63":424,"67":425,"45":426,"sg":427,"65":428,"Msg":429,"âĹ":430,"27":431,"Äł":432,"87":433,"85":434,"ff":435,"eb":436,"25":437,"43":438,"23":439,"âĹĮ":440,"41":441,"83":442,"cb":443,"93":444,"61":445,"95":446,"Ãł":447,"47":448,"dd":449,"21":450,"fb":451,"97":452,"or":453,"ti":454,"ce":455,"05":456,"07":457,"81":458,"01":459,"aa":460,"03":461,"91":462,"Ã¯":463,"bb":464,"es":465,"df":466,"£Ä":467,"cf":468,"Â´":469,"ðĿ":470,"ee":471,"MD":472,"Len":473,"dc":474,"ab":475,"Ġth":476,"Â°":477,"al":478,"Âµ":479,"Â¶":480,"ÃĥÄ":481,"Ä¹":482,"Ġc":483,"Ã£Ä":484,"00000000":485,"Ä®":486,"Â±":487,"ra":488,"ðĳ":489,"ðĴ":490,"Ġs":491,"fc":492,"Â£":493,"Ġp":494,"ac":495,"Âº":496,"Â¬":497,"be":498,"ĠĠĠĠ":499,"Â¦":500,"Â¨":501,"bf":502,"Â¢":503,"Â¯":504,"is":505,"af":506,"Åĥ":507,"Â¤":508,"Ġo":509,"Â½":510,"Â®":511,"Â²":512,"ðĵ":513,"Â¥":514,"Â¾":515,"bc":516,"Â§":517,"ad":518,"ĠÃĦ":519,"Â©":520,"fd":521,"Ġin":522,"cd":523,"Â¸":524,"Ä¹Ä®":525,"bd":526,"Â³":527,"fe":528,"Ġthe":529,"ae":530,"it":531,"Â·":532,"re":533,"ĠÃªÄ":534,"Â¹":535,"ðĸ":536,"ĠÃĥ":537,"di":538,"Â»":539,"Â¼":540,"Ġm":541,"ĠÃ¡Ä":542,"ro":543,"ð¯":544,"Â«":545,"at":546,"000":547,"an":548,"ÅĤ":549,"Ã¢Ä¹Ä®":550,"ħÄ":551,"ent":552,"Ġan":553,"SH":554,"191":555,"Ġof":556,"ĠÃ¡":557,"tion":558,"Ġe":559,"Ġf":560,"la":561,"Â¿":562,"Ġn":563,"ÅĢ":564,"728":565,"ic":566,"Ġw":567,"ing":568,"ÃĤ":569,"0000000000000000":570,"Ġ6":571,"âĹĮà":572,"212":573,"ol":574,"Åģ":575,"Ġr":576,"Ġ1":577,"393":578,"ðĶ":579,"ÃħÄ":580,"as":581,"ou":582,"1020":583,"292":584,"um":585,"1011":586,"5060":587,"1314":588,"ion":589,"Ġ2":590,"7080":591,"3040":592,"1516":593,"Ġ7":594,"0001020":595,"Ġ3":596,"00010203040":597,"000102030405060":598,"1718":599,"0001020304050607080":600,"000102030405060708090":601,"un":602,"ĠP":603,"101112":604,"1011121314":605,"10111213141516":606,"ĠÃ¢":607,"101112131415161718":608,"101112131415161718191":609,"ðŀ":610,"Ġ5":611,"ĠÃĥÂªÃĦ":612,"le":613,"ri":614,"Äµ":615,"ĠÃ¯":616,"se":617,"Ġ4":618,"Ġ8":619,"st":620,"ĠĠĠĠĠĠĠĠ":621,"Ä§":622,"Ġto":623,"414":624,"Ġd":625,"Ġde":626,"Ä¦":627,"ĠC":628,"768":629,"--":630,"ĠÃ°":631,"py":632,"om":633,"616":634,"Ġb":635,"Ġl":636,"849":637,"788":638,"Ã¡Ä©":639,"Ġv":640,"ar":641,"ter":642,"Ã¡Ä¨":643,"Ġi":644,"he":645,"595":646,"4252":647,"Ġ9":648,"Ġand":649,"Ġcon":650,"ĠA":651,"Ã¡Ä§":652,"ĠÃł":653,"ect":654,"818":655,"âĹĮá":656,"Ä¤":657,"411":658,"SHA":659,"Ġdi":660,"3738":661,"3132":662,"ĠSHA":663,"2232":664,"Ã¡Ä¦":665,"Ġ*":666,"797":667,"Ġ0":668,"696":669,"3334":670,"256":671,"âĢ":672,"760":673,"ll":674,"919":675,"554":676,"384":677,"20212":678,"Ä¢":679,"644":680,"202122232":681,"512":682,"3536":683,"2021222324252":684,"Ġ(":685,"202122232425262":686,"202122232425262728":687,"202122232425262728292":688,"Ä£":689,"Ä²":690,"Ä´":691,"lg":692,"560":693,"Ã£Ä§":694,"ey":695,"303132":696,"3031323334":697,"Ä¨":698,"709":699,"AAlg":700,"SHAAlg":701,"30313233343536":702,"303132333435363738":703,"303132333435363738393":704,"Äº":705,"Ä¥":706,"Ä¶":707,"138":708,"Äª":709,"792":710,"ta":711,"ĠÃĤ":712,"711":713,"ment":714,"ĠÃª":715,"Ä³":716,"Ä©":717,"356":718,"Ä¸":719,"ĠT":720,"ÄŃ":721,"to":722,"Ä·":723,"161":724,"708":725,"ray":726,"Ġor":727,"Ä¾":728,"399":729,"312":730,"558":731,"574":732,"Ã¢Ä¹Ä®Ãł":733,"has":734,"Ä¬":735,"172":736,"700":737,"th":738,"799":739,"00000000000000000000000000000000":740,"ÃĬ":741,"Ä»":742,"ÃĦÂµ":743,"360":744,"508":745,"rray":746,"509":747,"Ä«":748,"Ä¿":749,"Ä½":750,"ÃĲ":751,"528":752,"ĠF":753,"389":754,"798":755,"520":756,"898":757,"330":758,"719":759,"569":760,"524":761,"358":762,"534":763,"716":764,"Ä¼":765,"599":766,"Ä¯":767,"782":768,"CBB":769,"598":770,"769":771,"454":772,"200":773,"132":774,"734":775,"380":776,"et":777,"Ä°":778,"556":779,"bj":780,"Ãī":781,"ĠPy":782,"Ã¡Âµ":783,"339":784,"ith":785,"Ä±":786,"219":787,"526":788,"319":789,"611":790,"529":791,"704":792,"536":793,"300":794,"502":795,"754":796,"790":797,"789":798,"ica":799,"AAB":800,"786":801,"Ġu":802,"ĠÃĥÄ":803,"224":804,"164":805,"539":806,"154":807,"372":808,"332":809,"746":810,"158":811,"758":812,"CDF":813,"key":814,"314":815,"559":816,"362":817,"CEB":818,"159":819,"309":820,"FDE":821,"511":822,"522":823,"134":824,"359":825,"732":826,"308":827,"354":828,"510":829,"756":830,"bject":831,"ve":832,"368":833,"AAD":834,"618":835,"AAC":836,"338":837,"CFE":838,"334":839,"634":840,"á¸":841,"á¹":842,"hash":843,"712":844,"CDD":845,"572":846,"EFB":847,"320":848,"656":849,"áº":850,"CEE":851,"156":852,"174":853,"á»":854,"518":855,"400":856,"866":857,"Ġis":858,"100":859,"Ġper":860,"304":861,"772":862,"FDD":863,"310":864,"311":865,"739":866,"714":867,"190":868,"EAE":869,"ÃĦÂº":870,"718":871,"369":872,"858":873,"169":874,"710":875,"376":876,"318":877,"ly":878,"ĠB":879,"780":880,"632":881,"774":882,"BDD":883,"379":884,"750":885,"AFB":886,"sion":887,"500":888,"ÃŃ":889,"514":890,"ĠD":891,"Ġh":892,"ĠI":893,"CED":894,"CDB":895,"374":896,"AAE":897,"612":898,"ag":899,"214":900,"418":901,"211":902,"Ãķ":903,"ABE":904,"270":905,"449":906,"600":907,"il":908,"Ãİ":909,"176":910,"Ġg":911,"540":912,"736":913,"ADC":914,"466":915,"458":916,"ĠE":917,"175":918,"785":919,"269":920,"CEA":921,"ADD":922,"229":923,"872":924,"FDF":925,"ABB":926,"658":927,"859":928,"672":929,"130":930,"Array":931,"382":932,"si":933,"ut":934,"ĠL":935,"Ġal":936,"139":937,"234":938,"469":939,"614":940,"770":941,"BDB":942,"CEF":943,"576":944,"640":945,"489":946,"ur":947,"516":948,"550":949,"DFB":950,"mo":951,"547":952,"CDC":953,"474":954,"829":955,"qu":956,"AFE":957,"per":958,"Ġwith":959,"460":960,"880":961,"DDB":962,"CBE":963,"ACC":964,"CBF":965,"579":966,"â²":967,"Ġfor":968,"288":969,"476":970,"650":971,"776":972,"êĿ":973,"Ġca":974,"956":975,"Ġ11":976,"FFF":977,"422":978,"388":979,"248":980,"416":981,"ABC":982,"779":983,"834":984,"FDC":985,"274":986,"530":987,"FFE":988,"179":989,"170":990,"258":991,"268":992,"679":993,"Ãĳ":994,"â°":995,"CDE":996,"377":997,"676":998,"410":999,"â±":1000,"378":1001,"AED":1002,"EDB":1003,"266":1004,"CDA":1005,"FDA":1006,"874":1007,"DEE":1008,"AEC":1009,"610":1010,"FCA":1011,"659":1012,"972":1013,"316":1014,"CFB":1015,"CEC":1016,"532":1017,"810":1018,"AAA":1019,"680":1020,"á´":1021,"549":1022,"FDB":1023,"432":1024,"639":1025,"752":1026,"811":1027,"ĠN":1028,"our":1029,"814":1030,"974":1031,"218":1032,"336":1033,"ĠS":1034,"2434":1035,"456":1036,"450":1037,"DEB":1038,"ĠÃ¢Ä¹Ä®":1039,"289":1040,"812":1041,"911":1042,"Ã£Ä¥":1043,"350":1044,"620":1045,"989":1046,"á¼":1047,"FCF":1048,"136":1049,"370":1050,"629":1051,"649":1052,"150":1053,"688":1054,"CBC":1055,"730":1056,"og":1057,"FCC":1058,"472":1059,"440":1060,"918":1061,"EFE":1062,"AEB":1063,"689":1064,"836":1065,"820":1066,"â´":1067,"232":1068,"429":1069,"819":1070,"ACF":1071,"ECA":1072,"276":1073,"280":1074,"519":1075,"839":1076,"412":1077,"622":1078,"759":1079,"á¶":1080,"Ġ16":1081,"940":1082,"352":1083,"4454":1084,"357":1085,"ADB":1086,"936":1087,"CBD":1088,"279":1089,"249":1090,"ABA":1091,"á¾":1092,"ÃĦÂª":1093,"ÃĦÅĥ":1094,"Ġco":1095,"272":1096,"ACA":1097,"570":1098,"674":1099,"738":1100,"988":1101,"áµ":1102,"6474":1103,"Ġpro":1104,"840":1105,"id":1106,"552":1107,"832":1108,"966":1109,"Ġdel":1110,"578":1111,"178":1112,"462":1113,"áı":1114,"420":1115,"076":1116,"050":1117,"018":1118,"654":1119,"870":1120,"157":1121,"ĠÃ£Ä":1122,"889":1123,"949":1124,"Ãı":1125,"Ġun":1126,"FBC":1127,"137":1128,"Ġy":1129,"CBA":1130,"ABD":1131,"838":1132,"822":1133,"FBB":1134,"Ã¡Ä±":1135,"438":1136,"EBB":1137,"020":1138,"439":1139,"im":1140,"Ġbe":1141,"ADE":1142,"ist":1143,"032":1144,"099":1145,"Ã£Ä¤":1146,"Ġne":1147,"AEF":1148,"638":1149,"ï½":1150,"dbb":1151,"868":1152,"ati":1153,"rea":1154,"151":1155,"ÄłÄł":1156,"016":1157,"060":1158,"220":1159,"800":1160,"Ġ10":1161,"DDE":1162,"BEE":1163,"Object":1164,"5152":1165,"ÃĤÂº":1166,"066":1167,"488":1168,"878":1169,"934":1170,"944":1171,"res":1172,"zion":1173,"ãĢ":1174,"ãĥ":1175,"Ġ12":1176,"155":1177,"ADF":1178,"5758":1179,"áĦ":1180,"áħ":1181,"áĨ":1182,"áĩ":1183,"ãħ":1184,"ïº":1185,"058":1186,"216":1187,"40414":1188,"FBD":1189,"êĻ":1190,"ABF":1191,"478":1192,"900":1193,"ig":1194,"5455":1195,"AAF":1196,"239":1197,"419":1198,"912":1199,"ï¾":1200,"ÃħÄ¢":1201,"019":1202,"910":1203,"968":1204,"074":1205,"080":1206,"044":1207,"452":1208,"á½":1209,"ãģ":1210,"8494":1211,"404142434":1212,"670":1213,"icen":1214,"238":1215,"254":1216,"240":1217,"938":1218,"êļ":1219,"Ġre":1220,"----":1221,"090":1222,"250":1223,"969":1224,"039":1225,"262":1226,"479":1227,"ch":1228,"CCA":1229,"480":1230,"538":1231,"678":1232,"ver":1233,"4041424344454":1234,"259":1235,"230":1236,"244":1237,"854":1238,"860":1239,"922":1240,"011":1241,"072":1242,"355":1243,"Ġ18":1244,"FBA":1245,"960":1246,"ot":1247,"FBF":1248,"069":1249,"434":1250,"468":1251,"958":1252,"40414243444546474":1253,"ï»":1254,"236":1255,"816":1256,"844":1257,"DBE":1258,"976":1259,"BFE":1260,"Ġ14":1261,"ADA":1262,"CCC":1263,"CCF":1264,"010":1265,"DFE":1266,"778":1267,"879":1268,"920":1269,"371":1270,"771":1271,"Ġst":1272,"404142434445464748494":1273,"079":1274,"FCE":1275,"436":1276,"932":1277,"EDD":1278,"ãĤ":1279,"AEA":1280,"049":1281,"928":1282,"ÃĨ":1283,"210":1284,"939":1285,"929":1286,"âĵ":1287,"ĠM":1288,"133":1289,"565":1290,"842":1291,"914":1292,"970":1293,"alt":1294,"ÃħÄ£":1295,"152":1296,"012":1297,"642":1298,"à¤":1299,"Ġ[":1300,"619":1301,"982":1302,"ÃŃÅģ":1303,"848":1304,"BFD":1305,"BEB":1306,"505152":1307,"DBF":1308,"2636":1309,"470":1310,"979":1311,"252":1312,"CCB":1313,"ow":1314,"617":1315,"5666":1316,"50515253":1317,"089":1318,"êŀ":1319,"088":1320,"869":1321,"ul":1322,"EAC":1323,"303":1324,"Ġtra":1325,"est":1326,"âĦ":1327,"Ġ19":1328,"675":1329,"856":1330,"áĥ":1331,"505152535455":1332,"852":1333,"ACE":1334,"à´":1335,"50515253545556":1336,"052":1337,"029":1338,"042":1339,"636":1340,"Salt":1341,"FFA":1342,"Val":1343,"Ġit":1344,"990":1345,"DAB":1346,"FAD":1347,"áĤ":1348,"íŁ":1349,"341":1350,"353":1351,"557":1352,"EDC":1353,"EDF":1354,"â³":1355,"7172":1356,"Ġthat":1357,"505152535455565758":1358,"áİ":1359,"ĠPyArray":1360,"775":1361,"ECD":1362,"Ã°":1363,"594":1364,"242":1365,"850":1366,"056":1367,"040":1368,"260":1369,"545":1370,"135":1371,"ECF":1372,"SaltVal":1373,"505152535455565758595":1374,"FAC":1375,"pp":1376,"FEC":1377,"014":1378,"BCC":1379,"EAA":1380,"am":1381,"648":1382,"à²":1383,"Ġas":1384,"062":1385,"á¿":1386,"070":1387,"CCE":1388,"à¶":1389,"âĹĮðĳ":1390,"830":1391,"à°":1392,"ïŃ":1393,"60616":1394,"464":1395,"652":1396,"916":1397,"980":1398,"ACB":1399,"BAE":1400,"153":1401,"EBE":1402,"7374":1403,"959":1404,"BCB":1405,"áĪ":1406,"áĳ":1407,"áĴ":1408,"áĵ":1409,"áĶ":1410,"áķ":1411,"áĸ":1412,"áĹ":1413,"áĺ":1414,"ê¢":1415,"êĢ":1416,"êģ":1417,"êĤ":1418,"êĥ":1419,"êĦ":1420,"êħ":1421,"êĨ":1422,"êĩ":1423,"êĪ":1424,"êī":1425,"êĬ":1426,"êĭ":1427,"êĮ":1428,"êį":1429,"êİ":1430,"êı":1431,"êĲ":1432,"êĳ":1433,"êĶ":1434,"êķ":1435,"êĸ":1436,"êĹ":1437,"ï°":1438,"ï±":1439,"ï²":1440,"ï³":1441,"EDE":1442,"028":1443,"430":1444,"962":1445,"ded":1446,"630":1447,"áĲ":1448,"Ġon":1449,"Ã¡Ä¤":1450,"ê¦":1451,"êª":1452,"ï´":1453,"876":1454,"978":1455,"bcb":1456,"áĻ":1457,"546":1458,"7576":1459,"BBA":1460,"606162636":1461,"034":1462,"862":1463,"ÃĶ":1464,"173":1465,"EAB":1466,"àª":1467,"ĠO":1468,"60616263646":1469,"278":1470,"FAB":1471,"FFC":1472,"ation":1473,"ï¶":1474,"331":1475,"864":1476,"FAE":1477,"177":1478,"375":1479,"BDE":1480,"êŃ":1481,"542":1482,"EED":1483,"264":1484,"DFC":1485,"ĠÃħÄ":1486,"948":1487,"BFF":1488,"CFC":1489,"aba":1490,"ork":1491,"606162636465666":1492,"575":1493,"BFB":1494,"áĮ":1495,"êľ":1496,"FAF":1497,"ess":1498,"CAD":1499,"DCB":1500,"006":1501,"580":1502,"513":1503,"942":1504,"606162636465666768":1505,"FCB":1506,"op":1507,"567":1508,"ĠĠĠĠĠĠĠĠĠĠĠĠĠĠĠĠ":1509,"::":1510,"te":1511,"324":1512,"022":1513,"BAB":1514,"á¦":1515,"áĢ":1516,"áĭ":1517,"â·":1518,"ï®":1519,"icense":1520,"946":1521,"BFC":1522,"à¦":1523,"059":1524,"BCD":1525,"CAC":1526,"ECE":1527,"EEE":1528,"âĢĻ":1529,"606162636465666768696":1530,"743":1531,"7778":1532,"li":1533,"áļ":1534,"117":1535,"131":1536,"EBD":1537,"eff":1538,"Ã£Ä£":1539,"ãĦ":1540,"855":1541,"AFD":1542,"CCD":1543,"CAB":1544,"FED":1545,"054":1546,"237":1547,"824":1548,"BEF":1549,"CAF":1550,"DAE":1551,"104":1552,"669":1553,"Ã¡Ä°":1554,"EEA":1555,"459":1556,"DAA":1557,"DBA":1558,"BBB":1559,"BDF":1560,"FEB":1561,"Ġma":1562,"954":1563,"930":1564,"EFF":1565,"á¨":1566,"DDA":1567,"zione":1568,"828":1569,"EFD":1570,"der":1571,"757":1572,"EBF":1573,"âĹĮà¾":1574,"DCC":1575,"FEE":1576,"038":1577,"435":1578,"655":1579,"ir":1580,"á¢":1581,"ðĽ":1582,"Ġla":1583,"397":1584,"505":1585,"707172":1586,"608":1587,"373":1588,"âĢĵ":1589,"gi":1590,"áī":1591,"áĬ":1592,"ĠG":1593,"897":1594,"4858":1595,"DBB":1596,"2838":1597,"573":1598,"CAE":1599,"004":1600,"036":1601,"086":1602,"301":1603,"ê¤":1604,"FBE":1605,"BBC":1606,"Ġwh":1607,"CFF":1608,"ãĨ":1609,"773":1610,"7071727374":1611,"yp":1612,"á¡":1613,"Ġsu":1614,"952":1615,"DEC":1616,"DBC":1617,"984":1618,"589":1619,"315":1620,"735":1621,"Ġ20":1622,"008":1623,"145":1624,"ore":1625,"0000000000000000000000000000000000000000000000000000000000000000":1626,"817":1627,"937":1628,"à¨":1629,"áĽ":1630,"585":1631,"307":1632,"BBF":1633,"70717273747576":1634,"313":1635,"EAD":1636,"áŀ":1637,"ê¨":1638,"118":1639,"129":1640,"ece":1641,"613":1642,"AFF":1643,"AFA":1644,"âħ":1645,"CAA":1646,"392":1647,"ACD":1648,"DAC":1649,"ê¥":1650,"ê¬":1651,"ï¼":1652,"588":1653,"784":1654,"Ġint":1655,"335":1656,"Ġda":1657,"720":1658,"140":1659,"744":1660,"BDA":1661,"ĠĠĠ":1662,"707172737475767778":1663,"615":1664,"FAA":1665,"á£":1666,"FEA":1667,"950":1668,"327":1669,"DFD":1670,"ê¡":1671,"340":1672,"571":1673,"ÃĤÂµ":1674,"515":1675,"DFA":1676,"Ġtum":1677,"564":1678,"394":1679,"180":1680,"707172737475767778797":1681,"BAA":1682,"EFC":1683,"EAF":1684,"á¬":1685,"593":1686,"189":1687,"DDD":1688,"777":1689,"926":1690,"DFF":1691,"482":1692,"DCE":1693,"723":1694,"306":1695,"503":1696,"781":1697,"727":1698,"Ã¢Ä¹Ä®Ã¡":1699,"024":1700,"517":1701,"pi":1702,"à½":1703,"506":1704,"783":1705,"701":1706,"EEF":1707,"EBC":1708,"ther":1709,"215":1710,"964":1711,"DAD":1712,"725":1713,"127":1714,"046":1715,"DCD":1716,"DCA":1717,"FCD":1718,"ÃĪ":1719,"á±":1720,"80818":1721,"4959":1722,"Ã¢Äµ":1723,"BCE":1724,"BEC":1725,"ht":1726,"343":1727,"767":1728,"184":1729,"FEF":1730,"ĠR":1731,"323":1732,"ÃªÄ¿":1733,"455":1734,"FFB":1735,"xt":1736,"¡ë":1737,"¡ì":1738,"¢ë":1739,"¢ì":1740,"£ë":1741,"£ì":1742,"¤ë":1743,"¤ì":1744,"¥ë":1745,"¥ì":1746,"¦ë":1747,"¦ì":1748,"§ë":1749,"§ì":1750,"¨ë":1751,"¨ì":1752,"©ë":1753,"©ì":1754,"ªë":1755,"ªì":1756,"«ë":1757,"«ì":1758,"¬ë":1759,"¬ì":1760,"®ë":1761,"®ì":1762,"¯ë":1763,"¯ì":1764,"°ë":1765,"°ì":1766,"±ë":1767,"±ì":1768,"²ë":1769,"²ì":1770,"³ë":1771,"³ì":1772,"´ë":1773,"´ì":1774,"µë":1775,"µì":1776,"¶ë":1777,"¶ì":1778,"·ë":1779,"·ì":1780,"¸ë":1781,"¸ì":1782,"¹ë":1783,"¹ì":1784,"ºë":1785,"ºì":1786,"»ë":1787,"»ì":1788,"¼ë":1789,"¼ì":1790,"½ë":1791,"½ì":1792,"¾ë":1793,"¾ì":1794,"¿ë":1795,"¿ì":1796,"ãĮ":1797,"ä¸":1798,"ä¹":1799,"äº":1800,"ä»":1801,"ä¼":1802,"ä½":1803,"ä¾":1804,"ä¿":1805,"å¡":1806,"å¢":1807,"å£":1808,"å¤":1809,"å¥":1810,"å¦":1811,"å§":1812,"å¨":1813,"å©":1814,"åª":1815,"å«":1816,"å¬":1817,"å®":1818,"å¯":1819,"å°":1820,"å±":1821,"å²":1822,"å³":1823,"å´":1824,"åµ":1825,"å¶":1826,"å·":1827,"å¸":1828,"å¹":1829,"åº":1830,"å»":1831,"å¼":1832,"å½":1833,"å¾":1834,"å¿":1835,"åĢ":1836,"åģ":1837,"åĤ":1838,"åĥ":1839,"åĦ":1840,"åħ":1841,"åĨ":1842,"åĩ":1843,"åĪ":1844,"åī":1845,"åĬ":1846,"åĭ":1847,"åĮ":1848,"åį":1849,"åİ":1850,"åı":1851,"åĲ":1852,"åĳ":1853,"åĴ":1854,"åĵ":1855,"åĶ":1856,"åķ":1857,"åĸ":1858,"åĹ":1859,"åĺ":1860,"åĻ":1861,"åļ":1862,"åĽ":1863,"åľ":1864,"åĿ":1865,"åŀ":1866,"åŁ":1867,"åł":1868,"åŃ":1869,"æ¡":1870,"æ¢":1871,"æ£":1872,"æ¤":1873,"æ¥":1874,"æ¦":1875,"æ§":1876,"æ¨":1877,"æ©":1878,"æª":1879,"æ«":1880,"æ¬":1881,"æ®":1882,"æ¯":1883,"æ°":1884,"æ±":1885,"æ²":1886,"æ³":1887,"æ´":1888,"æµ":1889,"æ¶":1890,"æ·":1891,"æ¸":1892,"æ¹":1893,"æº":1894,"æ»":1895,"æ¼":1896,"æ½":1897,"æ¾":1898,"æ¿":1899,"æĢ":1900,"æģ":1901,"æĤ":1902,"æĥ":1903,"æĦ":1904,"æħ":1905,"æĨ":1906,"æĩ":1907,"æĪ":1908,"æī":1909,"æĬ":1910,"æĭ":1911,"æĮ":1912,"æį":1913,"æİ":1914,"æı":1915,"æĲ":1916,"æĳ":1917,"æĴ":1918,"æĵ":1919,"æĶ":1920,"æķ":1921,"æĸ":1922,"æĹ":1923,"æĺ":1924,"æĻ":1925,"æļ":1926,"æĽ":1927,"æľ":1928,"æĿ":1929,"æŀ":1930,"æŁ":1931,"æł":1932,"æŃ":1933,"ç¡":1934,"ç¢":1935,"ç£":1936,"ç¤":1937,"ç¥":1938,"ç¦":1939,"ç§":1940,"ç¨":1941,"ç©":1942,"çª":1943,"ç«":1944,"ç¬":1945,"ç®":1946,"ç¯":1947,"ç°":1948,"ç±":1949,"ç²":1950,"ç³":1951,"ç´":1952,"çµ":1953,"ç¶":1954,"ç·":1955,"ç¸":1956,"ç¹":1957,"çº":1958,"ç»":1959,"ç¼":1960,"ç½":1961,"ç¾":1962,"ç¿":1963,"çĢ":1964,"çģ":1965,"çĤ":1966,"çĥ":1967,"çĦ":1968,"çħ":1969,"çĨ":1970,"çĩ":1971,"çĪ":1972,"çī":1973,"çĬ":1974,"çĭ":1975,"çĮ":1976,"çį":1977,"çİ":1978,"çı":1979,"çĲ":1980,"çĳ":1981,"çĴ":1982,"çĵ":1983,"çĶ":1984,"çķ":1985,"çĸ":1986,"çĹ":1987,"çĺ":1988,"çĻ":1989,"çļ":1990,"çĽ":1991,"çľ":1992,"çĿ":1993,"çŀ":1994,"çŁ":1995,"çł":1996,"çŃ":1997,"è¡":1998,"è¢":1999,"è£":2000,"è¤":2001,"è¥":2002,"è¦":2003,"è§":2004,"è¨":2005,"è©":2006,"èª":2007,"è«":2008,"è¬":2009,"è®":2010,"è¯":2011,"è°":2012,"è±":2013,"è²":2014,"è³":2015,"è´":2016,"èµ":2017,"è¶":2018,"è·":2019,"è¸":2020,"è¹":2021,"èº":2022,"è»":2023,"è¼":2024,"è½":2025,"è¾":2026,"è¿":2027,"èĢ":2028,"èģ":2029,"èĤ":2030,"èĥ":2031,"èĦ":2032,"èħ":2033,"èĨ":2034,"èĩ":2035,"èĪ":2036,"èī":2037,"èĬ":2038,"èĭ":2039,"èĮ":2040,"èį":2041,"èİ":2042,"èı":2043,"èĲ":2044,"èĳ":2045,"èĴ":2046,"èĵ":2047,"èĶ":2048,"èķ":2049,"èĸ":2050,"èĹ":2051,"èĺ":2052,"èĻ":2053,"èļ":2054,"èĽ":2055,"èľ":2056,"èĿ":2057,"èŀ":2058,"èŁ":2059,"èł":2060,"èŃ":2061,"é¡":2062,"é¢":2063,"é£":2064,"é¤":2065,"é¥":2066,"é¦":2067,"é§":2068,"é¨":2069,"é©":2070,"éª":2071,"é«":2072,"é¬":2073,"é®":2074,"é¯":2075,"é°":2076,"é±":2077,"é²":2078,"é³":2079,"é´":2080,"éµ":2081,"é¶":2082,"é·":2083,"é¸":2084,"é¹":2085,"éº":2086,"é»":2087,"é¼":2088,"é½":2089,"éĢ":2090,"éģ":2091,"éĤ":2092,"éĥ":2093,"éĦ":2094,"éħ":2095,"éĨ":2096,"éĩ":2097,"éĪ":2098,"éī":2099,"éĬ":2100,"éĭ":2101,"éĮ":2102,"éį":2103,"éİ":2104,"éı":2105,"éĲ":2106,"éĳ":2107,"éĴ":2108,"éĵ":2109,"éĶ":2110,"éķ":2111,"éĸ":2112,"éĹ":2113,"éĺ":2114,"éĻ":2115,"éļ":2116,"éĽ":2117,"éľ":2118,"éĿ":2119,"éŀ":2120,"éŁ":2121,"éł":2122,"éŃ":2123,"ê®":2124,"ê°":2125,"ê±":2126,"ê²":2127,"ê³":2128,"ê´":2129,"êµ":2130,"ê¶":2131,"ê·":2132,"ê¸":2133,"ê¹":2134,"êº":2135,"ê»":2136,"ê¼":2137,"ê½":2138,"ê¾":2139,"ê¿":2140,"íĢ":2141,"íģ":2142,"íĤ":2143,"íĥ":2144,"íĦ":2145,"íħ":2146,"íĨ":2147,"íĩ":2148,"íĪ":2149,"íī":2150,"íĬ":2151,"íĭ":2152,"íĮ":2153,"íį":2154,"íİ":2155,"íı":2156,"íĲ":2157,"íĳ":2158,"íĴ":2159,"íĵ":2160,"íĶ":2161,"íķ":2162,"íĸ":2163,"íĹ":2164,"íĺ":2165,"íĻ":2166,"íļ":2167,"íĽ":2168,"íľ":2169,"íĿ":2170,"Ģë":2171,"Ģì":2172,"ģë":2173,"ģì":2174,"Ĥë":2175,"Ĥì":2176,"ĥë":2177,"ĥì":2178,"Ħë":2179,"Ħì":2180,"ħë":2181,"ħì":2182,"Ĩë":2183,"Ĩì":2184,"ĩë":2185,"ĩì":2186,"Īë":2187,"Īì":2188,"īë":2189,"īì":2190,"Ĭë":2191,"Ĭì":2192,"ĭë":2193,"ĭì":2194,"Įë":2195,"Įì":2196,"įë":2197,"įì":2198,"İë":2199,"İì":2200,"ıë":2201,"ıì":2202,"Ĳë":2203,"Ĳì":2204,"ĳë":2205,"ĳì":2206,"Ĵë":2207,"Ĵì":2208,"ĵë":2209,"ĵì":2210,"Ķë":2211,"Ķì":2212,"ķë":2213,"ķì":2214,"ĸë":2215,"ĸì":2216,"Ĺë":2217,"Ĺì":2218,"ĺë":2219,"ĺì":2220,"Ļë":2221,"Ļì":2222,"ļë":2223,"ļì":2224,"Ľë":2225,"Ľì":2226,"ľë":2227,"ľì":2228,"Ŀë":2229,"Ŀì":2230,"ŀë":2231,"ŀì":2232,"Łë":2233,"Łì":2234,"łë":2235,"łì":2236,"Ńë":2237,"Ńì":2238,"122":2239,"787":2240,"28411":2241,"ale":2242,"ECB":2243,"ses":2244,"â¶":2245,"êĵ":2246,"387":2247,"342":2248,"2939":2249,"BEA":2250,"à¸":2251,"êĽ":2252,"32161":2253,"366":2254,"762":2255,"894":2256,"EEB":2257,"64471":2258,"2841166":2259,"082":2260,"165":2261,"582":2262,"765":2263,"668":2264,"351":2265,"333":2266,"EBA":2267,"enti":2268,"415":2269,"Ã£Ä¦":2270,"915":2271,"Ãĩ":2272,"115":2273,"Ã¡Âº":2274,"390":2275,"396":2276,"521":2277,"597":2278,"222":2279,"690":2280,"à¬":2281,"ê©":2282,"146":2283,"741":2284,"290":2285,"607":2286,"446":2287,"171":2288,"BFA":2289,"ê¯":2290,"365":2291,"107":2292,"896":2293,"ãĭ":2294,"128":2295,"763":2296,"808182838":2297,"âµ":2298,"305":2299,"193":2300,"198":2301,"755":2302,"BBD":2303,"255":2304,"BAD":2305,"DEF":2306,"DCF":2307,"FFD":2308,"ãį":2309,"568":2310,"685":2311,"BBE":2312,"so":2313,"005":2314,"543":2315,"345":2316,"363":2317,"147":2318,"8081828384858":2319,"325":2320,"395":2321,"504":2322,"891":2323,"496":2324,"rom":2325,"381":2326,"548":2327,"791":2328,"349":2329,"166":2330,"103":2331,"205":2332,"225":2333,"447":2334,"eab":2335,"ccc":2336,"Ġthis":2337,"217":2338,"726":2339,"544":2340,"808182838485868":2341,"á®":2342,"áģ":2343,"ï¬":2344,"391":2345,"398":2346,"501":2347,"707":2348,"807":2349,"933":2350,"á°":2351,"ãĩ":2352,"íŀ":2353,"ïµ":2354,"329":2355,"724":2356,"124":2357,"584":2358,"109":2359,"AEE":2360,"068":2361,"535":2362,"525":2363,"906":2364,"BDC":2365,"Ã¢Ä¹Ä®Ã":2366,"808182838485868788":2367,"064":2368,"631":2369,"BCF":2370,"Ġ00":2371,"112":2372,"563":2373,"7989":2374,"347":2375,"unc":2376,"026":2377,"737":2378,"ðŁ":2379,"141":2380,"EFA":2381,"168":2382,"507":2383,"705":2384,"182":2385,"188":2386,"eef":2387,"386":2388,"793":2389,"498":2390,"998":2391,"AFC":2392,"ECC":2393,"566":2394,"361":2395,"DDF":2396,"EDA":2397,"808182838485868788898":2398,"651":2399,"986":2400,"Ãĵ":2401,"385":2402,"120":2403,"764":2404,"105":2405,"241":2406,"733":2407,"à¥":2408,"ãĪ":2409,"CFA":2410,"110":2411,"328":2412,"591":2413,"á¤":2414,"é¾":2415,"742":2416,"299":2417,"983":2418,"ï¯":2419,"009":2420,"364":2421,"627":2422,"461":2423,"BAF":2424,"à®":2425,"321":2426,"722":2427,"126":2428,"592":2429,"692":2430,"882":2431,"883":2432,"Ġyou":2433,"084":2434,"gra":2435,"562":2436,"163":2437,"590":2438,"148":2439,"293":2440,"ate":2441,"417":2442,"477":2443,"ced":2444,"886":2445,"Ã¡Ä¥":2446,"ori":2447,"tic":2448,"Ġren":2449,"á¯":2450,"192":2451,"424":2452,"DDC":2453,"BAC":2454,"DAF":2455,"Py":2456,"if":2457,"001":2458,"002":2459,"796":2460,"766":2461,"90919":2462,"555":2463,"Ġwork":2464,"431":2465,"835":2466,"ãı":2467,"203":2468,"686":2469,"Ã¢Ä§":2470,"eed":2471,"729":2472,"101":2473,"206":2474,"291":2475,"403":2476,"245":2477,"078":2478,"721":2479,"367":2480,"909":2481,"624":2482,"717":2483,"def":2484,"326":2485,"162":2486,"596":2487,"196":2488,"747":2489,"463":2490,"Ġmo":2491,"Ġby":2492,"451":2493,"BED":2494,"êł":2495,"160":2496,"106":2497,"703":2498,"809":2499,"283":2500,"min":2501,"os":2502,"111":2503,"142":2504,"666":2505,"699":2506,"âĤ":2507,"348":2508,"144":2509,"491":2510,"626":2511,"486":2512,"753":2513,"030":2514,"055":2515,"DED":2516,"114":2517,"794":2518,"523":2519,"167":2520,"586":2521,"587":2522,"143":2523,"149":2524,"681":2525,"845":2526,"909192939":2527,"lu":2528,"195":2529,"401":2530,"Ã¯Âº":2531,"Ġcom":2532,"Ġval":2533,"DEA":2534,"Ġ56":2535,"740":2536,"702":2537,"183":2538,"297":2539,"665":2540,"881":2541,"BCA":2542,"108":2543,"181":2544,"186":2545,"885":2546,"9091929394959":2547,"á¥":2548,"áł":2549,"383":2550,"803":2551,"448":2552,"ead":2553,"853":2554,"Ġ13":2555,"003":2556,"322":2557,"761":2558,"706":2559,"660":2560,"dig":2561,"213":2562,"745":2563,"749":2564,"408":2565,"895":2566,"693":2567,"lar":2568,"909192939495969":2569,"715":2570,"êĴ":2571,"795":2572,"527":2573,"748":2574,"185":2575,"683":2576,"684":2577,"646":2578,"Ġ30":2579,"ÃĥÄ³":2580,"Ġ72":2581,"197":2582,"296":2583,"223":2584,"645":2585,"823":2586,"927":2587,"ĠÂ£":2588,"..":2589,"199":2590,"992":2591,"553":2592,"Ã£Ä¨":2593,"Ġ15":2594,"102":2595,"187":2596,"806":2597,"493":2598,"423":2599,"and":2600,"9091929394959697989":2601,"235":2602,"116":2603,"605":2604,"443":2605,"826":2606,"eaf":2607,"963":2608,"ĠÂ¢":2609,"ÃħÄ¥":2610,"017":2611,"are":2612,"eba":2613,"492":2614,"904":2615,"EEC":2616,"ĠÂ¤":2617,"ÃĥÄ²":2618,"fba":2619,"tra":2620,"Ġ34":2621,"025":2622,"909192939495969798999":2623,"275":2624,"973":2625,"903":2626,"943":2627,"475":2628,"831":2629,"851":2630,"924":2631,"048":2632,"119":2633,"583":2634,"Ã¡Ä¢":2635,"917":2636,"dff":2637,"ÃªÅĥ":2638,"993":2639,"int":2640,"ê§":2641,"490":2642,"625":2643,"682":2644,"267":2645,"Ġex":2646,"rib":2647,"731":2648,"877":2649,"CFD":2650,"cca":2651,"ï¹":2652,"Ġ79":2653,"Ġ76":2654,"DBD":2655,"fac":2656,"Ġim":2657,"437":2658,"813":2659,"pro":2660,"Ġ32":2661,"Ġ17":2662,"892":2663,"426":2664,"551":2665,"ÃªÄ»":2666,"092":2667,"ĠÂ¦":2668,"ĠÂ¨":2669,"ĠÂ²":2670,"dcb":2671,"eca":2672,"âĮ":2673,"Ġ59":2674,"346":2675,"805":2676,"402":2677,"691":2678,"281":2679,"467":2680,"085":2681,"tions":2682,"433":2683,"957":2684,"bca":2685,"con":2686,"487":2687,"ecf":2688,"037":2689,"¡ð¡":2690,"¡ð¢":2691,"¡ð£":2692,"¡ð¤":2693,"¡ð¥":2694,"¡ð¦":2695,"¡ð§":2696,"¡ð¨":2697,"¡ð©":2698,"¡ðł":2699,"¡ð«":2700,"¢ð¡":2701,"¢ð¢":2702,"¢ð£":2703,"¢ð¤":2704,"¢ð¥":2705,"¢ð¦":2706,"¢ð§":2707,"¢ð¨":2708,"¢ð©":2709,"¢ðł":2710,"¢ð«":2711,"£ð¡":2712,"£ð¢":2713,"£ð£":2714,"£ð¤":2715,"£ð¥":2716,"£ð¦":2717,"£ð§":2718,"£ð¨":2719,"£ð©":2720,"£ðł":2721,"£ð«":2722,"¤ð¡":2723,"¤ð¢":2724,"¤ð£":2725,"¤ð¤":2726,"¤ð¥":2727,"¤ð¦":2728,"¤ð§":2729,"¤ð¨":2730,"¤ð©":2731,"¤ðł":2732,"¤ð«":2733,"¥ð¡":2734,"¥ð¢":2735,"¥ð£":2736,"¥ð¤":2737,"¥ð¥":2738,"¥ð¦":2739,"¥ð§":2740,"¥ð¨":2741,"¥ð©":2742,"¥ðł":2743,"¥ð«":2744,"¦ð¡":2745,"¦ð¢":2746,"¦ð£":2747,"¦ð¤":2748,"¦ð¥":2749,"¦ð¦":2750,"¦ð§":2751,"¦ð¨":2752,"¦ð©":2753,"¦ðł":2754,"¦ð«":2755,"§ð¡":2756,"§ð¢":2757,"§ð£":2758,"§ð¤":2759,"§ð¥":2760,"§ð¦":2761,"§ð§":2762,"§ð¨":2763,"§ð©":2764,"§ðł":2765,"§ð«":2766,"¨ð¡":2767,"¨ð¢":2768,"¨ð£":2769,"¨ð¤":2770,"¨ð¥":2771,"¨ð¦":2772,"¨ð§":2773,"¨ð¨":2774,"¨ð©":2775,"¨ðł":2776,"¨ð«":2777,"©ð¡":2778,"©ð¢":2779,"©ð£":2780,"©ð¤":2781,"©ð¥":2782,"©ð¦":2783,"©ð§":2784,"©ð¨":2785,"©ð©":2786,"©ðł":2787,"©ð«":2788,"ªð¡":2789,"ªð¢":2790,"ªð£":2791,"ªð¤":2792,"ªð¥":2793,"ªð¦":2794,"ªð§":2795,"ªð¨":2796,"ªð©":2797,"ªðł":2798,"ªð«":2799,"«ð¡":2800,"«ð¢":2801,"«ð£":2802,"«ð¤":2803,"«ð¥":2804,"«ð¦":2805,"«ð§":2806,"«ð¨":2807,"«ð©":2808,"«ðł":2809,"«ð«":2810,"¬ð¡":2811,"¬ð¢":2812,"¬ð£":2813,"¬ð¤":2814,"¬ð¥":2815,"¬ð¦":2816,"¬ð§":2817,"¬ð¨":2818,"¬ð©":2819,"¬ðł":2820,"¬ð«":2821,"®ð¡":2822,"®ð¢":2823,"®ð£":2824,"®ð¤":2825,"®ð¥":2826,"®ð¦":2827,"®ð§":2828,"®ð¨":2829,"®ð©":2830,"®ðł":2831,"®ð«":2832,"¯ð¡":2833,"¯ð¢":2834,"¯ð£":2835,"¯ð¤":2836,"¯ð¥":2837,"¯ð¦":2838,"¯ð§":2839,"¯ð¨":2840,"¯ð©":2841,"¯ðł":2842,"¯ð«":2843,"°ð¡":2844,"°ð¢":2845,"°ð£":2846,"°ð¤":2847,"°ð¥":2848,"°ð¦":2849,"°ð§":2850,"°ð¨":2851,"°ð©":2852,"°ðł":2853,"°ð«":2854,"±ð¡":2855,"±ð¢":2856,"±ð£":2857,"±ð¤":2858,"±ð¥":2859,"±ð¦":2860,"±ð§":2861,"±ð¨":2862,"±ð©":2863,"±ðł":2864,"±ð«":2865,"²ð¡":2866,"²ð¢":2867,"²ð£":2868,"²ð¤":2869,"²ð¥":2870,"²ð¦":2871,"²ð§":2872,"²ð¨":2873,"²ð©":2874,"²ðł":2875,"²ð«":2876,"³ð¡":2877,"³ð¢":2878,"³ð£":2879,"³ð¤":2880,"³ð¥":2881,"³ð¦":2882,"³ð§":2883,"³ð¨":2884,"³ð©":2885,"³ðł":2886,"³ð«":2887,"´ð¡":2888,"´ð¢":2889,"´ð£":2890,"´ð¤":2891,"´ð¥":2892,"´ð¦":2893,"´ð§":2894,"´ð¨":2895,"´ð©":2896,"´ðł":2897,"´ð«":2898,"µð¡":2899,"µð¢":2900,"µð£":2901,"µð¤":2902,"µð¥":2903,"µð¦":2904,"µð§":2905,"µð¨":2906,"µð©":2907,"µðł":2908,"¶ð¡":2909,"¶ð¢":2910,"¶ð£":2911,"¶ð¤":2912,"¶ð¥":2913,"¶ð¦":2914,"¶ð§":2915,"¶ð¨":2916,"¶ð©":2917,"¶ðł":2918,"·ð¡":2919,"·ð¢":2920,"·ð£":2921,"·ð¤":2922,"·ð¥":2923,"·ð¦":2924,"·ð§":2925,"·ð¨":2926,"·ð©":2927,"·ðł":2928,"¸ð¡":2929,"¸ð¢":2930,"¸ð£":2931,"¸ð¤":2932,"¸ð¥":2933,"¸ð¦":2934,"¸ð§":2935,"¸ð¨":2936,"¸ð©":2937,"¸ðł":2938,"¹ð¡":2939,"¹ð¢":2940,"¹ð£":2941,"¹ð¤":2942,"¹ð¥":2943,"¹ð¦":2944,"¹ð§":2945,"¹ð¨":2946,"¹ð©":2947,"¹ðł":2948,"ºð¡":2949,"ºð¢":2950,"ºð£":2951,"ºð¤":2952,"ºð¥":2953,"ºð¦":2954,"ºð§":2955,"ºð¨":2956,"ºð©":2957,"ºðł":2958,"»ð¡":2959,"»ð¢":2960,"»ð£":2961,"»ð¤":2962,"»ð¥":2963,"»ð¦":2964,"»ð§":2965,"»ð¨":2966,"»ð©":2967,"»ðł":2968,"¼ð¡":2969,"¼ð¢":2970,"¼ð£":2971,"¼ð¤":2972,"¼ð¥":2973,"¼ð¦":2974,"¼ð§":2975,"¼ð¨":2976,"¼ð©":2977,"¼ðł":2978,"½ð¡":2979,"½ð¢":2980,"½ð£":2981,"½ð¤":2982,"½ð¥":2983,"½ð¦":2984,"½ð§":2985,"½ð¨":2986,"½ð©":2987,"½ðł":2988,"¾ð¡":2989,"¾ð¢":2990,"¾ð£":2991,"¾ð¤":2992,"¾ð¥":2993,"¾ð¦":2994,"¾ð§":2995,"¾ð¨":2996,"¾ð©":2997,"¾ðł":2998,"¿ð¡":2999,"¿ð¢":3000,"¿ð£":3001,"¿ð¤":3002,"¿ð¥":3003,"¿ð¦":3004,"¿ð§":3005,"¿ð¨":3006,"¿ð©":3007,"â¡":3008,"â¢":3009,"â£":3010,"âĶ":3011,"âķ":3012,"âĺ":3013,"âļ":3014,"âĽ":3015,"âł":3016,"ã¡":3017,"ã¢":3018,"ã£":3019,"ã¤":3020,"ã¥":3021,"ã¦":3022,"ã§":3023,"ã¨":3024,"ã©":3025,"ãª":3026,"ã«":3027,"ã¬":3028,"ã®":3029,"ã¯":3030,"ã°":3031,"ã±":3032,"ã²":3033,"ã³":3034,"ã´":3035,"ãµ":3036,"ã¶":3037,"ã·":3038,"ã¸":3039,"ã¹":3040,"ãº":3041,"ã»":3042,"ã¼":3043,"ã½":3044,"ã¾":3045,"ã¿":3046,"ãİ":3047,"ãĲ":3048,"ãĳ":3049,"ãĴ":3050,"ãĵ":3051,"ãĶ":3052,"ãķ":3053,"ãĸ":3054,"ãĹ":3055,"ãĺ":3056,"ãĻ":3057,"ãļ":3058,"ãĽ":3059,"ãľ":3060,"ãĿ":3061,"ãŀ":3062,"ãŁ":3063,"ãł":3064,"ãŃ":3065,"ä¡":3066,"ä¢":3067,"ä£":3068,"ä¤":3069,"ä¥":3070,"ä¦":3071,"ä§":3072,"ä¨":3073,"ä©":3074,"äª":3075,"ä«":3076,"ä¬":3077,"ä®":3078,"ä¯":3079,"ä°":3080,"ä±":3081,"ä²":3082,"ä³":3083,"ä´":3084,"äµ":3085,"ä·":3086,"äĢ":3087,"äģ":3088,"äĤ":3089,"äĥ":3090,"äĦ":3091,"äħ":3092,"äĨ":3093,"äĩ":3094,"äĪ":3095,"äī":3096,"äĬ":3097,"äĭ":3098,"äĮ":3099,"äį":3100,"äİ":3101,"äı":3102,"äĲ":3103,"äĳ":3104,"äĴ":3105,"äĵ":3106,"äĶ":3107,"äķ":3108,"äĸ":3109,"äĹ":3110,"äĺ":3111,"äĻ":3112,"äļ":3113,"äĽ":3114,"äľ":3115,"äĿ":3116,"äŀ":3117,"äŁ":3118,"äł":3119,"äŃ":3120,"ï¤":3121,"ï¥":3122,"ï¦":3123,"ï§":3124,"ï¨":3125,"ïª":3126,"Ģð¡":3127,"Ģð¢":3128,"Ģð£":3129,"Ģð¤":3130,"Ģð¥":3131,"Ģð¦":3132,"Ģð§":3133,"Ģð¨":3134,"Ģð©":3135,"Ģðł":3136,"Ģð«":3137,"Ģðª":3138,"ģð¡":3139,"ģð¢":3140,"ģð£":3141,"ģð¤":3142,"ģð¥":3143,"ģð¦":3144,"ģð§":3145,"ģð¨":3146,"ģð©":3147,"ģðł":3148,"ģð«":3149,"ģðª":3150,"Ĥð¡":3151,"Ĥð¢":3152,"Ĥð£":3153,"Ĥð¤":3154,"Ĥð¥":3155,"Ĥð¦":3156,"Ĥð§":3157,"Ĥð¨":3158,"Ĥð©":3159,"Ĥðł":3160,"Ĥð«":3161,"Ĥðª":3162,"ĥð¡":3163,"ĥð¢":3164,"ĥð£":3165,"ĥð¤":3166,"ĥð¥":3167,"ĥð¦":3168,"ĥð§":3169,"ĥð¨":3170,"ĥð©":3171,"ĥðł":3172,"ĥð«":3173,"ĥðª":3174,"Ħð¡":3175,"Ħð¢":3176,"Ħð£":3177,"Ħð¤":3178,"Ħð¥":3179,"Ħð¦":3180,"Ħð§":3181,"Ħð¨":3182,"Ħð©":3183,"Ħðł":3184,"Ħð«":3185,"Ħðª":3186,"ħð¡":3187,"ħð¢":3188,"ħð£":3189,"ħð¤":3190,"ħð¥":3191,"ħð¦":3192,"ħð§":3193,"ħð¨":3194,"ħð©":3195,"ħðł":3196,"ħð«":3197,"ħðª":3198,"Ĩð¡":3199,"Ĩð¢":3200,"Ĩð£":3201,"Ĩð¤":3202,"Ĩð¥":3203,"Ĩð¦":3204,"Ĩð§":3205,"Ĩð¨":3206,"Ĩð©":3207,"Ĩðł":3208,"Ĩð«":3209,"Ĩðª":3210,"ĩð¡":3211,"ĩð¢":3212,"ĩð£":3213,"ĩð¤":3214,"ĩð¥":3215,"ĩð¦":3216,"ĩð§":3217,"ĩð¨":3218,"ĩð©":3219,"ĩðł":3220,"ĩð«":3221,"ĩðª":3222,"Īð¡":3223,"Īð¢":3224,"Īð£":3225,"Īð¤":3226,"Īð¥":3227,"Īð¦":3228,"Īð§":3229,"Īð¨":3230,"Īð©":3231,"Īðł":3232,"Īð«":3233,"Īðª":3234,"īð¡":3235,"īð¢":3236,"īð£":3237,"īð¤":3238,"īð¥":3239,"īð¦":3240,"īð§":3241,"īð¨":3242,"īð©":3243,"īðł":3244,"īð«":3245,"īðª":3246,"Ĭð¡":3247,"Ĭð¢":3248,"Ĭð£":3249,"Ĭð¤":3250,"Ĭð¥":3251,"Ĭð¦":3252,"Ĭð§":3253,"Ĭð¨":3254,"Ĭð©":3255,"Ĭðł":3256,"Ĭð«":3257,"Ĭðª":3258,"ĭð¡":3259,"ĭð¢":3260,"ĭð£":3261,"ĭð¤":3262,"ĭð¥":3263,"ĭð¦":3264,"ĭð§":3265,"ĭð¨":3266,"ĭð©":3267,"ĭðł":3268,"ĭð«":3269,"ĭðª":3270,"Įð¡":3271,"Įð¢":3272,"Įð£":3273,"Įð¤":3274,"Įð¥":3275,"Įð¦":3276,"Įð§":3277,"Įð¨":3278,"Įð©":3279,"Įðł":3280,"Įð«":3281,"Įðª":3282,"įð¡":3283,"įð¢":3284,"įð£":3285,"įð¤":3286,"įð¥":3287,"įð¦":3288,"įð§":3289,"įð¨":3290,"įð©":3291,"įðł":3292,"įð«":3293,"įðª":3294,"İð¡":3295,"İð¢":3296,"İð£":3297,"İð¤":3298,"İð¥":3299,"İð¦":3300,"İð§":3301,"İð¨":3302,"İð©":3303,"İðł":3304,"İð«":3305,"İðª":3306,"ıð¡":3307,"ıð¢":3308,"ıð£":3309,"ıð¤":3310,"ıð¥":3311,"ıð¦":3312,"ıð§":3313,"ıð¨":3314,"ıð©":3315,"ıðł":3316,"ıð«":3317,"ıðª":3318,"Ĳð¡":3319,"Ĳð¢":3320,"Ĳð£":3321,"Ĳð¤":3322,"Ĳð¥":3323,"Ĳð¦":3324,"Ĳð§":3325,"Ĳð¨":3326,"Ĳð©":3327,"Ĳðł":3328,"Ĳð«":3329,"Ĳðª":3330,"ĳð¡":3331,"ĳð¢":3332,"ĳð£":3333,"ĳð¤":3334,"ĳð¥":3335,"ĳð¦":3336,"ĳð§":3337,"ĳð¨":3338,"ĳð©":3339,"ĳðł":3340,"ĳð«":3341,"ĳðª":3342,"Ĵð¡":3343,"Ĵð¢":3344,"Ĵð£":3345,"Ĵð¤":3346,"Ĵð¥":3347,"Ĵð¦":3348,"Ĵð§":3349,"Ĵð¨":3350,"Ĵð©":3351,"Ĵðł":3352,"Ĵð«":3353,"Ĵðª":3354,"ĵð¡":3355,"ĵð¢":3356,"ĵð£":3357,"ĵð¤":3358,"ĵð¥":3359,"ĵð¦":3360,"ĵð§":3361,"ĵð¨":3362,"ĵð©":3363,"ĵðł":3364,"ĵð«":3365,"ĵðª":3366,"Ķð¡":3367,"Ķð¢":3368,"Ķð£":3369,"Ķð¤":3370,"Ķð¥":3371,"Ķð¦":3372,"Ķð§":3373,"Ķð¨":3374,"Ķð©":3375,"Ķðł":3376,"Ķð«":3377,"Ķðª":3378,"ķð¡":3379,"ķð¢":3380,"ķð£":3381,"ķð¤":3382,"ķð¥":3383,"ķð¦":3384,"ķð§":3385,"ķð¨":3386,"ķð©":3387,"ķðł":3388,"ķð«":3389,"ķðª":3390,"ĸð¡":3391,"ĸð¢":3392,"ĸð£":3393,"ĸð¤":3394,"ĸð¥":3395,"ĸð¦":3396,"ĸð§":3397,"ĸð¨":3398,"ĸð©":3399,"ĸðł":3400,"ĸð«":3401,"ĸðª":3402,"Ĺð¡":3403,"Ĺð¢":3404,"Ĺð£":3405,"Ĺð¤":3406,"Ĺð¥":3407,"Ĺð¦":3408,"Ĺð§":3409,"Ĺð¨":3410,"Ĺð©":3411,"Ĺðł":3412,"Ĺð«":3413,"ĺð¡":3414,"ĺð¢":3415,"ĺð£":3416,"ĺð¤":3417,"ĺð¥":3418,"ĺð¦":3419,"ĺð§":3420,"ĺð¨":3421,"ĺð©":3422,"ĺðł":3423,"ĺð«":3424,"Ļð¡":3425,"Ļð¢":3426,"Ļð£":3427,"Ļð¤":3428,"Ļð¥":3429,"Ļð¦":3430,"Ļð§":3431,"Ļð¨":3432,"Ļð©":3433,"Ļðł":3434,"Ļð«":3435,"ļð¡":3436,"ļð¢":3437,"ļð£":3438,"ļð¤":3439,"ļð¥":3440,"ļð¦":3441,"ļð§":3442,"ļð¨":3443,"ļð©":3444,"ļðł":3445,"ļð«":3446,"Ľð¡":3447,"Ľð¢":3448,"Ľð£":3449,"Ľð¤":3450,"Ľð¥":3451,"Ľð¦":3452,"Ľð§":3453,"Ľð¨":3454,"Ľð©":3455,"Ľðł":3456,"Ľð«":3457,"ľð¡":3458,"ľð¢":3459,"ľð£":3460,"ľð¤":3461,"ľð¥":3462,"ľð¦":3463,"ľð§":3464,"ľð¨":3465,"ľð©":3466,"ľðł":3467,"ľð«":3468,"Ŀð¡":3469,"Ŀð¢":3470,"Ŀð£":3471,"Ŀð¤":3472,"Ŀð¥":3473,"Ŀð¦":3474,"Ŀð§":3475,"Ŀð¨":3476,"Ŀð©":3477,"Ŀðł":3478,"Ŀð«":3479,"ŀð¡":3480,"ŀð¢":3481,"ŀð£":3482,"ŀð¤":3483,"ŀð¥":3484,"ŀð¦":3485,"ŀð§":3486,"ŀð¨":3487,"ŀð©":3488,"ŀðł":3489,"Łð¡":3490,"Łð¢":3491,"Łð£":3492,"Łð¤":3493,"Łð¥":3494,"Łð¦":3495,"Łð§":3496,"Łð¨":3497,"Łð©":3498,"Łðł":3499,"łð¡":3500,"łð¢":3501,"łð£":3502,"łð¤":3503,"łð¥":3504,"łð¦":3505,"łð§":3506,"łð¨":3507,"łð©":3508,"łðł":3509,"łð«":3510,"Ńð¡":3511,"Ńð¢":3512,"Ńð£":3513,"Ńð¤":3514,"Ńð¥":3515,"Ńð¦":3516,"Ńð§":3517,"Ńð¨":3518,"Ńð©":3519,"Ńðł":3520,"Ńð«":3521,"561":3522,"ð¬¡":3523,"ð¬¢":3524,"ð¬£":3525,"ð¬¤":3526,"ð¬¥":3527,"ð¬¦":3528,"ð¬§":3529,"ð¬¨":3530,"ð¬©":3531,"ð¬ª":3532,"ð¬«":3533,"ð¬¬":3534,"ð¬®":3535,"ð¬¯":3536,"ð¬°":3537,"ð¬±":3538,"ð¬²":3539,"ð¬³":3540,"ð¬´":3541,"ð¬µ":3542,"ð¬¶":3543,"ð¬·":3544,"ð¬¸":3545,"ð¬¹":3546,"ð¬Ģ":3547,"ð¬ģ":3548,"ð¬Ĥ":3549,"ð¬ĥ":3550,"ð¬Ħ":3551,"ð¬ħ":3552,"ð¬Ĩ":3553,"ð¬ĩ":3554,"ð¬Ī":3555,"ð¬ī":3556,"ð¬Ĭ":3557,"ð¬ĭ":3558,"ð¬Į":3559,"ð¬į":3560,"ð¬İ":3561,"ð¬ı":3562,"ð¬Ĳ":3563,"ð¬ĳ":3564,"ð¬Ĵ":3565,"ð¬ĵ":3566,"ð¬Ķ":3567,"ð¬ķ":3568,"ð¬ĸ":3569,"ð¬Ĺ":3570,"ð¬ĺ":3571,"ð¬Ļ":3572,"ð¬ļ":3573,"ð¬Ľ":3574,"ð¬ľ":3575,"ð¬Ŀ":3576,"ð¬ŀ":3577,"ð¬Ł":3578,"ð¬ł":3579,"ð¬Ń":3580,"ÃĥÂªÃĦÂª":3581,"ÃĥÂªÃĦÅĥ":3582,"067":3583,"ðĲĲ":3584,"ÄłÃĦ":3585,"ðĿĲ":3586,"ðĿĸ":3587,"ðĿĹ":3588,"ðĿĺ":3589,"ðĿĻ":3590,"ali":3591,"ð¯¡":3592,"ð¯¢":3593,"ð¯£":3594,"ð¯¤":3595,"ð¯¥":3596,"ð¯¦":3597,"ð¯§":3598,"ð¯ł":3599,"ðŀ¤":3600,"457":3601,"âį":3602,"âĸ":3603,"âĻ":3604,"âľ":3605,"ãĬ":3606,"êĺ":3607,"541":3608,"495":3609,"ĠÄ¤":3610,"bcc":3611,"ÃĴ":3612,"Ġ36":3613,"ĠÂª":3614,"207":3615,"405":3616,"623":3617,"867":3618,"075":3619,"077":3620,"bff":3621,"¡ðª":3622,"¢ðª":3623,"£ðª":3624,"¤ðª":3625,"¥ðª":3626,"¦ðª":3627,"§ðª":3628,"¨ðª":3629,"©ðª":3630,"ªðª":3631,"«ðª":3632,"¬ðª":3633,"®ðª":3634,"¯ðª":3635,"°ðª":3636,"±ðª":3637,"²ðª":3638,"³ðª":3639,"´ðª":3640,"µð«":3641,"µðª":3642,"¶ð«":3643,"¶ðª":3644,"·ð«":3645,"·ðª":3646,"¸ð«":3647,"¸ðª":3648,"¹ð«":3649,"¹ðª":3650,"ºð«":3651,"ºðª":3652,"»ð«":3653,"»ðª":3654,"¼ð«":3655,"¼ðª":3656,"½ð«":3657,"½ðª":3658,"¾ð«":3659,"¾ðª":3660,"¿ðł":3661,"¿ð«":3662,"¿ðª":3663,"Ĺðª":3664,"ĺðª":3665,"Ļðª":3666,"ļðª":3667,"Ľðª":3668,"ľðª":3669,"Ŀðª":3670,"ŀð«":3671,"ŀðª":3672,"Łð«":3673,"Łðª":3674,"łðª":3675,"Ńðª":3676,"007":3677,"907":3678,"999":3679,"985":3680,"ðĿĳ":3681,"ðĿĵ":3682,"531":3683,"Ãļ":3684,"Ġ39":3685,"294":3686,"442":3687,"ĠÂ±":3688,"ĠÂ³":3689,"Ġche":3690,"digest":3691,"713":3692,"837":3693,"acc":3694,"su":3695,"Ġ38":3696,"302":3697,"801":3698,"662":3699,"994":3700,"cada":3701,"ebd":3702,"ity":3703,"âĴ":3704,"ï©":3705,"ĠW":3706,"Ġ58":3707,"406":3708,"601":3709,"606":3710,"821":3711,"ĠÂ«":3712,"fab":3713,"ðĿļ":3714,"ðĿľ":3715,"ðĿĿ":3716,"ðĿŀ":3717,"afb":3718,"ãī":3719,"194":3720,"808":3721,"ĠÂ¬":3722,"ype":3723,"013":3724,"951":3725,"dca":3726,"fu":3727,"404":3728,"647":3729,"ecc":3730,"eaa":3731,"ĠÂ¥":3732,"ÃĥÄ¬":3733,"ada":3734,"á§":3735,"âĨ":3736,"201":3737,"694":3738,"996":3739,"ÃªÄ¼":3740,"091":3741,"deb":3742,"Ã¯Åĥ":3743,"ðĿĽ":3744,"Ġnot":3745,"337":3746,"875":3747,"Ġ54":3748,"Ġra":3749,"905":3750,"827":3751,"ĠÄ¨":3752,"of":3753,"123":3754,"204":3755,"407":3756,"421":3757,"282":3758,"286":3759,"847":3760,"861":3761,"865":3762,"941":3763,"065":3764,"833":3765,"113":3766,"ĠÂ®":3767,"ĠÂ·":3768,"453":3769,"ddb":3770,"áľ":3771,"Ġ52":3772,"581":3773,"209":3774,"609":3775,"695":3776,"ĠÄ¥":3777,"ĠÄ¸":3778,"olog":3779,"233":3780,"577":3781,"iv":3782,"908":3783,"096":3784,"ĠÄ£":3785,"ĠÂ¯":3786,"Ġse":3787,"ĠĠĠĠĠ":3788,"ĠLicense":3789,"bef":3790,"bfa":3791,"ĠÂ¡":3792,"494":3793,"ðĿķ":3794,"Ġpar":3795,"051":3796,"251":3797,"873":3798,"co":3799,"â¬":3800,"âĩ":3801,"121":3802,"641":3803,"Ġter":3804,"ĠÄ¬":3805,"ĠÄ´":3806,"ĠÄ¼":3807,"Ġch":3808,"231":3809,"635":3810,"604":3811,"481":3812,"485":3813,"eae":3814,"ĠÂ©":3815,"ĠÂµ":3816,"ÃĥÄ¨":3817,"ted":3818,"663":3819,"899":3820,"497":3821,"863":3822,"413":3823,"cff":3824,"fed":3825,"áį":3826,"Ġ74":3827,"603":3828,"441":3829,"628":3830,"428":3831,"eac":3832,"Ġany":3833,"Ġcopy":3834,"537":3835,"671":3836,"fef":3837,"sac":3838,"âĿ":3839,"ï¿":3840,"208":3841,"687":3842,"ĠÄ·":3843,"033":3844,"657":3845,"673":3846,"Ġ50":3847,"Ġ70":3848,"991":3849,"947":3850,"ĠÂ¶":3851,"ebb":3852,"ces":3853,"ðĿĶ":3854,"Ġtraum":3855,"aef":3856,"cda":3857,"ma":3858,"áĿ":3859,"125":3860,"344":3861,"221":3862,"698":3863,"287":3864,"ecd":3865,"ÃłÂª":3866,"ÄłÄłÄłÄł":3867,"adb":3868,"aff":3869,"do":3870,"751":3871,"243":3872,"Ġare":3873,"ĠÄ§":3874,"ĠÄµ":3875,"273":3876,"935":3877,"fdb":3878,"Ãħ":3879,"Ġ80":3880,"ĠÅĢ":3881,"095":3882,"263":3883,"ecb":3884,"eafb":3885,"ĠÄŃ":3886,"061":3887,"ðĲĵ":3888,"Ġres":3889,"].":3890,"dfb":3891,"fdd":3892,"âİ":3893,"202":3894,"ĠÄ©":3895,"ĠÂ¹":3896,"aaaba":3897,"ÃħÄ¤":3898,"253":3899,"953":3900,"IT":3901,"uc":3902,"Ġ78":3903,"Ġen":3904,"295":3905,"ĠÄ³":3906,"ĠÄ»":3907,"ebc":3908,"aed":3909,"ĠÂº":3910,"faf":3911,"Ġus":3912,"ĠÃ¢Ä¹Ä®Ãł":3913,"dda":3914,"fcf":3915,"vas":3916,"âı":3917,"Ġqu":3918,"226":3919,"227":3920,"261":3921,"923":3922,"961":3923,"021":3924,"Ġsh":3925,"015":3926,"cef":3927,"pon":3928,"661":3929,"987":3930,"ĠÄ°":3931,"857":3932,"931":3933,"bda":3934,"ä¶":3935,"ĠÅĥ":3936,"445":3937,"427":3938,"643":3939,"ĠÄ¿":3940,"047":3941,"cce":3942,"ðĿĴ":3943,"Ġdo":3944,"aaabacada":3945,"Ġ33":3946,"664":3947,"Ã¡Äª":3948,"045":3949,"remo":3950,"icro":3951,"--------":3952,"tw":3953,"àº":3954,"á©":3955,"890":3956,"ĠÄ½":3957,"faa":3958,"âĹĮâ·":3959,"ich":3960,"677":3961,"913":3962,"bed":3963,"ding":3964,"eeb":3965,"fda":3966,"fcb":3967,"cac":3968,"ere":3969,"ono":3970,"ĠÄ¯":3971,"955":3972,"bdb":3973,"cdd":3974,"ms":3975,"887":3976,"888":3977,"995":3978,"246":3979,"098":3980,"ĠÄ¹":3981,"dfd":3982,"fusion":3983,"aaabacadaeafb":3984,"ia":3985,"409":3986,"228":3987,"465":3988,"ĠÄ«":3989,"ĠÂ´":3990,"041":3991,"bab":3992,"053":3993,"cfb":3994,"po":3995,"àł":3996,"602":3997,"484":3998,"825":3999,"ĠÄ±":4000,"ÃĤÂª":4001,"ðŁħ":4002,"sacremo":4003,"acb":4004,"902":4005,"483":4006,"284":4007,"ĠÂ¾":4008,"Ġfrom":4009,"Ġil":4010,"ogen":4011,"sacremoses":4012,"073":4013,"637":4014,"IN":4015,"425":4016,"Ã¡Ä¼":4017,"ĠÂ»":4018,"Ã¢Ä¦":4019,"Ġes":4020,"804":4021,"667":4022,"Ã¡Ä³":4023,"Ã¡Ä´":4024,"Ã¡Äµ":4025,"Ã¡Ä¶":4026,"Ã¡Ä·":4027,"Ã¡Ä¸":4028,"Ã¡Ä¹":4029,"Ã¡Äº":4030,"ÃªÄ¢":4031,"ÃªÄ¤":4032,"ÃªÄ¥":4033,"ÃªÄ¦":4034,"ÃªÄ§":4035,"ÃªÄ¨":4036,"ÃªÄ©":4037,"ÃªÄª":4038,"ÃªÄ«":4039,"ÃªÄ¬":4040,"ÃªÄ®":4041,"ÃªÄ¯":4042,"ÃªÄ°":4043,"ÃªÄ±":4044,"ÃªÄ²":4045,"ÃªÄ³":4046,"ÃªÄ¶":4047,"ÃªÄ·":4048,"ÃªÄ¸":4049,"ÃªÄ¹":4050,"ÃªÄŃ":4051,"925":4052,"081":4053,"ðĲ²":4054,"ðĲ³":4055,"Ġnel":4056,"633":4057,"bfb":4058,"ps":4059,"à·":4060,"áŃ":4061,"âŀ":4062,"Ġ29":4063,"ĠÅģ":4064,"843":4065,"981":4066,"ĠÂ½":4067,"071":4068,"533":4069,"846":4070,"â¸":4071,"499":4072,"444":4073,"621":4074,"bae":4075,"for":4076,"ns":4077,"ref":4078,"â¦":4079,"Ġ40":4080,"Ġ35":4081,"Ã¡Ä®":4082,"PY":4083,"à¼":4084,"Ġ37":4085,"Ġ31":4086,"ĠÅĤ":4087,"Ã¡Ä²":4088,"Ã¡Ä»":4089,"ÃªÂª":4090,"ÃªÅĢ":4091,"ĠÂ¿":4092,"dfc":4093,"ical":4094,"035":4095,"fca":4096,"pl":4097,"901":4098,"Ã¡ÄŃ":4099,"921":4100,"083":4101,"277":4102,"bdd":4103,"cdb":4104,"zi":4105,"àµ":4106,"997":4107,"ede":4108,"ĠÂ§":4109,"023":4110,"fad":4111,"babb":4112,"dcd":4113,"mente":4114,"HE":4115,"884":4116,"247":4117,"841":4118,"ffer":4119,"473":4120,"non":4121,"ĠÃĥÂª":4122,"data":4123,"ĠÂ°":4124,"dee":4125,"ĠPyObject":4126,"giogen":4127,"815":4128,"ara":4129,"cr":4130,"Ġ68":4131,"087":4132,"ðĲĳ":4133,"ÄłÃĥ":4134,"Ã¡ÅĢ":4135,"265":4136,"ĠÄ¾":4137,"bad":4138,"cfc":4139,"ÃĥÄ«":4140,"NT":4141,"bl":4142,"Ġfa":4143,"893":4144,"Ġapp":4145,"baa":4146,"Ġno":4147,"âĹĮà£":4148,"..\\":4149,"king":4150,"nt":4151,"Ġ64":4152,"Ġ77":4153,"063":4154,"dbeb":4155,"eee":4156,"Ġver":4157,"057":4158,"fdf":4159,"âŁ":4160,"697":4161,"efb":4162,"ĠÄ²":4163,"bbb":4164,"dea":4165,"the":4166,"Ġ\"":4167,"Ġ51":4168,"298":4169,"ĠÄ¦":4170,"ebe":4171,"Ġnpy":4172,"Ġdella":4173,"Ã¡Ä½":4174,"ÃªÄ£":4175,"ĠÄª":4176,"Ġet":4177,"ÃĥÄ³ÃĦ":4178,"ĠH":4179,"Ġ75":4180,"802":4181,"ĠÄ®":4182,"ĠCT":4183,"ĠIn":4184,"471":4185,"bea":4186,"bcf":4187,"ffa":4188,"fcc":4189,"ld":4190,"âŃ":4191,"Ġed":4192,"bac":4193,"ffb":4194,"ents":4195,"257":4196,"dec":4197,"ÃĿ":4198,"à§":4199,"ê«":4200,"ĠĊ":4201,"ĠÄ¢":4202,"Ã¢Âµ":4203,"aca":4204,"add":4205,"ght":4206,"â§":4207,"ÃªÄ¾":4208,"ffc":4209,"babbbcb":4210,"971":4211,"va":4212,"Ãĺ":4213,"094":4214,"ĠÄ¶":4215,"ebf":4216,"cbb":4217,"fcd":4218,"AR":4219,"no":4220,"à³":4221,"Ã¡Ä«":4222,"Ã¡Ä¬":4223,"285":4224,"efe":4225,"965":4226,"967":4227,"cee":4228,"able":4229,"Ã£Ä¢":4230,"Ġwhich":4231,"dcc":4232,"ts":4233,"ure":4234,"Ġ53":4235,"093":4236,"Ġall":4237,"fae":4238,"ÃĥÄ·":4239,"right":4240,"Ġperm":4241,"adf":4242,"cdf":4243,"val":4244,"łðĹ":4245,"cfd":4246,"ÃĥÄ§":4247,"Ġmay":4248,"317":4249,"cec":4250,"clu":4251,"fdc":4252,"txt":4253,"ĠÄº":4254,"ated":4255,"babbbcbdbeb":4256,"271":4257,"fea":4258,"fce":4259,"¡ðĹ":4260,"¢ðĹ":4261,"£ðĹ":4262,"¤ðĹ":4263,"¥ðĹ":4264,"¦ðĹ":4265,"§ðĹ":4266,"¨ðĹ":4267,"©ðĹ":4268,"ªðĹ":4269,"«ðĹ":4270,"¬ðĹ":4271,"®ðĹ":4272,"¯ðĹ":4273,"°ðĹ":4274,"±ðĹ":4275,"²ðĹ":4276,"³ðĹ":4277,"´ðĹ":4278,"µðĹ":4279,"¶ðĹ":4280,"·ðĹ":4281,"¸ðĹ":4282,"¹ðĹ":4283,"ºðĹ":4284,"»ðĹ":4285,"¼ðĹ":4286,"½ðĹ":4287,"¾ðĹ":4288,"â¤":4289,"â¥":4290,"â¨":4291,"â©":4292,"âª":4293,"â«":4294,"âĪ":4295,"âī":4296,"âĬ":4297,"âĭ":4298,"Ġ24":4299,"ĢðĹ":4300,"ģðĹ":4301,"ĤðĹ":4302,"ĥðĹ":4303,"ĦðĹ":4304,"ħðĹ":4305,"ĨðĹ":4306,"ĩðĹ":4307,"ĪðĹ":4308,"īðĹ":4309,"ĬðĹ":4310,"ĭðĹ":4311,"ĮðĹ":4312,"įðĹ":4313,"İðĹ":4314,"ıðĹ":4315,"ĲðĹ":4316,"ĳðĹ":4317,"ĴðĹ":4318,"ĵðĹ":4319,"ĶðĹ":4320,"ķðĹ":4321,"ĸðĹ":4322,"ĹðĹ":4323,"ĺðĹ":4324,"ĻðĹ":4325,"ļðĹ":4326,"ĽðĹ":4327,"ľðĹ":4328,"ĿðĹ":4329,"ŀðĹ":4330,"ŁðĹ":4331,"ŃðĹ":4332,"ðĺ¡":4333,"ðĺ¢":4334,"ðĺ£":4335,"ðĺ¤":4336,"ðĺ¥":4337,"ðĺ¦":4338,"ðĺ§":4339,"ðĺ¨":4340,"ðĺ©":4341,"ðĺª":4342,"ðĺĢ":4343,"ðĺģ":4344,"ðĺĤ":4345,"ðĺĥ":4346,"ðĺĦ":4347,"ðĺħ":4348,"ðĺĨ":4349,"ðĺĩ":4350,"ðĺĪ":4351,"ðĺī":4352,"ðĺĬ":4353,"ðĺĭ":4354,"ðĺĮ":4355,"ðĺį":4356,"ðĺİ":4357,"ðĺı":4358,"ðĺĲ":4359,"ðĺĳ":4360,"ðĺĴ":4361,"ðĺĵ":4362,"ðĺĶ":4363,"ðĺķ":4364,"ðĺĸ":4365,"ðĺĹ":4366,"ðĺĺ":4367,"ðĺĻ":4368,"ðĺļ":4369,"ðĺĽ":4370,"ðĺľ":4371,"ðĺĿ":4372,"ðĺŀ":4373,"ðĺł":4374,"ðĲ°":4375,"ðĲĤ":4376,"ðĲĺ":4377,"ðĲĻ":4378,"ðĲļ":4379,"ðĲĽ":4380,"ÃĥÄ©":4381,"ðĴĢ":4382,"ðĴģ":4383,"ðĴĤ":4384,"ðĴĥ":4385,"ðĴĦ":4386,"ðĴħ":4387,"ðĴĨ":4388,"ðĴĩ":4389,"ðĴĪ":4390,"ðĴī":4391,"ðĴĬ":4392,"ðĴĭ":4393,"ðĴĮ":4394,"ðĴį":4395,"ðĴĲ":4396,"ðĴĴ":4397,"ðĴĵ":4398,"ðĴĶ":4399,"ðĵĢ":4400,"ðĵģ":4401,"ðĵĤ":4402,"ðĵĥ":4403,"ðĵĦ":4404,"ðĵħ":4405,"ðĵĨ":4406,"ðĵĩ":4407,"ðĵĪ":4408,"ðĵī":4409,"ðĵĬ":4410,"ðĵĭ":4411,"ðĵĮ":4412,"ðĵį":4413,"ðĵİ":4414,"ðĵı":4415,"ðĸ¡":4416,"ðĸ¢":4417,"ðĸ£":4418,"ðĸ¤":4419,"ðĸ¥":4420,"ðĸ¦":4421,"ðĸ§":4422,"ðĸ¼":4423,"ðĸł":4424,"ðĶĲ":4425,"ðĶĳ":4426,"ðĶĴ":4427,"ðĶĵ":4428,"ðĶĶ":4429,"ðĶķ":4430,"ðĶĸ":4431,"ðĶĹ":4432,"ðĶĺ":4433,"ðŀ¡":4434,"ðŀ¢":4435,"ðŀł":4436,"ðĽ°":4437,"Ġtumour":4438,"975":4439,"977":4440,"Iter":4441,"em":4442,"ÃĹ":4443,"à¡":4444,"Ġ22":4445,"ence":4446,"cacb":4447,"aec":4448,"abb":4449,"dcf":4450,"iz":4451,"ular":4452,"¿ðĹ":4453,"baf":4454,"dif":4455,"babbbcbdbebfc":4456,"bdf":4457,"vi":4458,"Ġ66":4459,"Ġ69":4460,"Ġ48":4461,"dba":4462,"dbd":4463,"afd":4464,"ÃĤÂºÃĦ":4465,"031":4466,"ree":4467,"tt":4468,"ĠJ":4469,"Ġ62":4470,"Ġad":4471,"945":4472,"027":4473,"ðĲİ":4474,"ffd":4475,"Ġpi":4476,"afe":4477,"low":4478,"oid":4479,"edd":4480,"caa":4481,"aaa":4482,"bfd":4483,"bfe":4484,"ÃĥÄ²ÃĦ":4485,"653":4486,"com":4487,"ile":4488,"ph":4489,"cab":4490,"caf":4491,"043":4492,"ðĲĬ":4493,"cbf":4494,"abd":4495,"ato":4496,"afa":4497,"bdc":4498,"ceb":4499,"ib":4500,"pdf":4501,"097":4502,"daa":4503,"efa":4504,"ĠÂ¸":4505,"dbe":4506,"ðĲĢ":4507,"oma":4508,"Ġcan":4509,"Ġstu":4510,"cea":4511,"fec":4512,"ne":4513,"rc":4514,"ĠU":4515,"Ġ89":4516,"Ġ57":4517,"ÃªÄµ":4518,"âĹĮÖ":4519,"itÃł":4520,"ata":4521,"bde":4522,"dbf":4523,"cbe":4524,"abe":4525,"Ġother":4526,"bec":4527,"dde":4528,"fee":4529,"â®":4530,"ê£":4531,"Ġ42":4532,"ÃĦÅĤ":4533,"ðĲĥ":4534,"ðĲĴ":4535,"ddf":4536,"bcd":4537,"00000000000000000000000000000000000000000000000000000000000000000000000000000000000000000000000000000000000000000000000000000000":4538,"tware":4539,"âĲ":4540,"ccf":4541,"gram":4542,"ser":4543,"za":4544,"à¯":4545,"Ġ44":4546,"Ġ55":4547,"Ġ73":4548,"eda":4549,"ĠÃ¨":4550,"cad":4551,"efc":4552,"ðĲ¦":4553,"ddd":4554,"Ġdei":4555,"Ġperfusion":4556,"RI":4557,"acf":4558,"cba":4559,"eea":4560,"ge":4561,"lo":4562,"à¢":4563,"Ġ49":4564,"Ġ88":4565,"edf":4566,"Ġarray":4567,"dab":4568,"efd":4569,"Ã£Ä£Ä":4570,"ĠThe":4571,"eec":4572,"ix":4573,"ener":4574,"daf":4575,"âĹĮÙ":4576,"ddc":4577,"aac":4578,"ðĳ«":4579,"acd":4580,"ðĸ¨":4581,"Ã¢Ä¹Ä®Ãª":4582,"âĹĮá·":4583,"Ġunder":4584,"up":4585,"vid":4586,"Ġac":4587,"Ġar":4588,"Ã¯Âµ":4589,"abf":4590,"ource":4591,"me":4592,"Ġ71":4593,"dae":4594,"ðĲĶ":4595,"fbe":4596,"ort":4597,"tive":4598,"bbe":4599,"ðĳĲ":4600,"ðĳĴ":4601,"adi":4602,"Ġris":4603,"ðĽ±":4604,"intp":4605,"bce":4606,"Ġ60":4607,"cbd":4608,"Ã¹":4609,"ĠY":4610,"ÃªÄ½":4611,"ĠÂ¼":4612,"ðĲľ":4613,"ðĲł":4614,"ffe":4615,"fbb":4616,"aab":4617,"dfe":4618,"ðĳĢ":4619,"ðĳĸ":4620,"ðĸ¬":4621,"Ġrenal":4622,"Ġvalu":4623,"dfa":4624,"edc":4625,"dbc":4626,"ðĲį":4627,"Ġpo":4628,"istrib":4629,"oftware":4630,"ade":4631,"cde":4632,"dce":4633,"ðĲ¬":4634,"abc":4635,"ÃĥÄµ":4636,"ðĳ£":4637,"ðĳĺ":4638,"anti":4639,"Ġtrauma":4640,"aea":4641,"aeb":4642,"aee":4643,"ï·":4644,"Ġer":4645,"aae":4646,"Ġif":4647,"resent":4648,"ÃħÄ£ÃĥÂªÃĦ":4649,"ace":4650,"fde":4651,"áŁ":4652,"dad":4653,"ccb":4654,"ðĲħ":4655,"ðĳĨ":4656,"ðĳĬ":4657,"Ġgra":4658,"ÃħÄ¢ÃĥÂªÃĦ":4659,"PyArray":4660,"ÃĥÄ¬ÃĦ":4661,"):":4662,"Ãŀ":4663,"edb":4664,"dac":4665,"ccd":4666,"bbc":4667,"Ġcol":4668,"Ġinter":4669,"âĹĮá©":4670,"age":4671,"871":4672,"Ãľ":4673,"Ġ46":4674,"cae":4675,"ðĸ½":4676,"ðŀº":4677,"Ġvoid":4678,"sions":4679,"peri":4680,"pref":4681,"ÃĻ":4682,"Ġ28":4683,"ĠFA":4684,"fff":4685,"cbc":4686,"Ġcont":4687,"Ġha":4688,"bfc":4689,"brea":4690,"ÃŁ":4691,"Ġ82":4692,"Ġle":4693,"ð¬º":4694,"Ã¡Ä¿":4695,"ðĺ«":4696,"aad":4697,"ÃĥÄ¶":4698,"ðĳĤ":4699,"ðĳĮ":4700,"Ġobject":4701,"out":4702,"ðŀ¸":4703,"beb":4704,"bee":4705,"che":4706,"ial":4707,"Ã¡Ä¾":4708,"Ġsp":4709,"nonbrea":4710,"prefix":4711,"ubl":4712,"Ġ83":4713,"cccdc":4714,"unction":4715,"nonbreaking":4716,"),":4717,"àŃ":4718,"ĠK":4719,"Ġ61":4720,"end":4721,"ecfd":4722,"ine":4723,"ould":4724,"ĠTC":4725,"OR":4726,"bba":4727,"pyIter":4728,"Ġvas":4729,"Ġuse":4730,"aging":4731,"Des":4732,"adc":4733,"feb":4734,"us":4735,"Ġ23":4736,"Ġ47":4737,"Ġ21":4738,"Ã¡ÅĤ":4739,"all":4740,"ÃĥÂªÃĦÂªÃĦ":4741,"ÃĥÂªÃĦÅĥÃĦ":4742,"cacbcccdc":4743,"ĠpiÃ¹":4744,"od":4745,"vey":4746,"ðĲ¤":4747,"ðĲĮ":4748,"ðĳ¢":4749,"ðĳ°":4750,"ðĳĪ":4751,"Ġconst":4752,"ÃĦÂµÃĥÂªÃĦ":4753,"ÃŃÅĢ":4754,"__":4755,"ble":4756,"cdc":4757,"his":4758,"han":4759,"red":4760,"âģ":4761,"ï¸":4762,"ĠV":4763,"ility":4764,"ĠOR":4765,").":4766,"NU":4767,"afc":4768,"cfa":4769,"ven":4770,"Ġea":4771,"aaf":4772,"ÃĥÄ¦":4773,"ðĴĳ":4774,"ðĵĲ":4775,"Ġmea":4776,"Ġnon":4777,"âĹĮàł":4778,"ÃĥÄ¨ÃĦ":4779,"cacbcccdcecfd":4780,"type":4781,"Ġ84":4782,"bbd":4783,"cfe":4784,"lation":4785,"ign":4786,"pt":4787,"Ġ01":4788,"ðĳļ":4789,"Ġmicro":4790,"Qy":4791,"ci":4792,"put":4793,"áª":4794,"fbd":4795,"angiogen":4796,"Ġfol":4797,"ary":4798,"ĠNPY":4799,"reat":4800,"uct":4801,"Qx":4802,"à±":4803,"ection":4804,"ðĺŁ":4805,"ðĲ¡":4806,"fbf":4807,"Ġsono":4808,"ð¯¨":4809,"ĠPro":4810,"Ġcode":4811,"Ġ03":4812,"Ġro":4813,"ĠÃĤÂµ":4814,"tum":4815,"ðĲ¨":4816,"Äłp":4817,"fbc":4818,"ÃĥÄ°":4819,"Ġinj":4820,"Ġindi":4821,"Descr":4822,"gn":4823,"lin":4824,"Ġ96":4825,"Ġba":4826,"ÃĥÄ±":4827,"Ġmed":4828,"Ġnum":4829,"ĠAN":4830,"ĠÃĤÂª":4831,"ĠÃĤÂº":4832,"col":4833,"ura":4834,"Ġ86":4835,"ors":4836,"bbf":4837,"ÃĦÂµÃĥ":4838,"ÃĦÂºÃĥÂªÃĦ":4839,"==":4840,"uri":4841,"ĠAE":4842,"Ġ26":4843,"Ġ94":4844,"âĹĮÜ":4845,"ight":4846,"ifica":4847,"ls":4848,"à©":4849,"des":4850,"Ġcor":4851,"ðĳĦ":4852,"Ġuna":4853,"vered":4854,"valu":4855,"],":4856,"api":4857,"Ġ90":4858,"inoma":4859,"ÃłÂº":4860,"ðĿŁ":4861,"Ã¢Ä¹Ä®Ã¢":4862,"Ġmodif":4863,"miner":4864,"ÃĥÄ·ÃĦ":4865,"ap":4866,"ĠCB":4867,"Ġ41":4868,"Ġat":4869,"dadb":4870,"ðĲŃ":4871,"Äłs":4872,"stra":4873,"ame":4874,"pdfminer":4875,"Ġstudi":4876,"ĠFD":4877,"Ã¡Ä£":4878,"ÃĥÄª":4879,"ĠTHE":4880,"ÃħÄ¢Ãĥ":4881,"Ġcopyright":4882,"ES":4883,"Get":4884,"gh":4885,"ys":4886,"ÃĽ":4887,"à«":4888,"à»":4889,"Ġ63":4890,"Ġ25":4891,"dcdd":4892,"âĹĮà¥":4893,"Ġyour":4894,"eg":4895,"lun":4896,"ust":4897,"Ã¨":4898,"á³":4899,"Ġ09":4900,"Ġ08":4901,"Ġ93":4902,"ĠÃħÄ¥":4903,"apy":4904,"ï«":4905,"âĹĮðŀ":4906,"ðĳĭ":4907,"Ġset":4908,"ano":4909,"âĹĮà½":4910,"ÃĦÂµÃĦ":4911,"ÃĦÂºÃĥ":4912,"PyArrayObject":4913,"ER":4914,"IL":4915,"Ġ67":4916,"Ġ**":4917,"Ä¢Ã¡":4918,"iles":4919,"ÃħÄ£Ãĥ":4920,"ni":4921,"oca":4922,"par":4923,"Ġ06":4924,"Ġ87":4925,"Ġaf":4926,"esion":4927,"ols":4928,"ðŀ¹":4929,"ÃĦÅĥÃĥ":4930,"ĠOF":4931,"ING":4932,"form":4933,"Ġhave":4934,"âĹĮðŀĢ":4935,"cer":4936,"cular":4937,"ied":4938,"ill":4939,"ke":4940,"pet":4941,"Ã©":4942,"Ãĸ":4943,"Ã¢Ä¤":4944,"âĹĮÛ":4945,"Ġpat":4946,"Ä¤Ã¡":4947,"ÃĦÂªÃĥ":4948,"ĠÃħÄ¢":4949,"ÃĥÄ«ÃĦ":4950,"UT":4951,"ple":4952,"sed":4953,"ĠAA":4954,"Ġ65":4955,"Ġ43":4956,"Ġce":4957,"ÃªÄº":4958,"Ġag":4959,"itor":4960,"ente":4961,"trast":4962,"Func":4963,"Ã¤":4964,"ĠFE":4965,"ĠFC":4966,"Ġ95":4967,"ÃªÅĤ":4968,"AFCE":4969,"ĠIN":4970,"qui":4971,"ulti":4972,"ĠÃħÄ£":4973,"azi":4974,"ie":4975,"zz":4976,"Ã£":4977,"Ã¥":4978,"Ã¦":4979,"Ã§":4980,"Ġ98":4981,"ĠBF":4982,"ðĲ«":4983,"ðĲķ":4984,"ðĳħ":4985,"iter":4986,"ðĸ©":4987,"thon":4988,"ĠÃ¢Ä¹Ä®Ã¡":4989,"Ġcovered":4990,"Ġiter":4991,"Ġfollow":4992,"reatment":4993,"ber":4994,"mon":4995,"à¹":4996,"Ġef":4997,"Ġ27":4998,"ĠÃŃ":4999,"ater":5000,"tional":5001,"Ä¦Ã¡":5002,"Ä£Ã¡":5003,"Ä¥Ã¡":5004,"mento":5005,"Ġsuch":5006,"PyObject":5007,"Ġterms":5008,"----------------":5009,"rcinoma":5010,"SE":5011,"ari":5012,"ĠÃĦÅĥ":5013,"ang":5014,"Ġlicense":5015,"Ġcondi":5016,"Ġconvey":5017,"ĠYou":5018,"dadbdcdd":5019,"RA":5020,"ive":5021,"pri":5022,"ĠAB":5023,"Ġ99":5024,"Ġ45":5025,"Ġ97":5026,"inter":5027,"Äła":5028,"âĹĮáĢ":5029,"Ä²Ã¡":5030,"ÄªÃ¡":5031,"ute":5032,"LL":5033,"PL":5034,"io":5035,"à¿":5036,"ĠCE":5037,"ðĳľ":5038,"Ġpara":5039,"ĠÃĦÂµ":5040,"Ġanti":5041,"Ġfunction":5042,"Ġref":5043,"ous":5044,"Ä¬Ã¡":5045,"Ġmode":5046,"ution":5047,"ĠCA":5048,"Ġ04":5049,"ÃĥÅĤ":5050,"ÂªÃ¡":5051,"enza":5052,"ĠÃĪ":5053,"Ġab":5054,"Äłm":5055,"Ġpati":5056,"âĹĮà±":5057,"Ä§Ã¡":5058,"Ä´Ã¡":5059,"tools":5060,"Ä«Ã¡":5061,"ÃĦÅĥÃĥÂªÃĦ":5062,"respon":5063,"adiol":5064,"ze":5065,"é¿":5066,"Ġ81":5067,"Ġhas":5068,"ear":5069,"Ġacc":5070,"ese":5071,"Ġpri":5072,"ðĸŃ":5073,"ĠCO":5074,"Ä¨Ã¡":5075,"ĠIf":5076,"âĹĮðĳ²":5077,"ÄłÄłÄłÄłÄłÄłÄłÄł":5078,"Ġused":5079,"eneral":5080,"ublic":5081,"Con":5082,"el":5083,"ex":5084,"gs":5085,"men":5086,"ru":5087,"âĳ":5088,"Ġadd":5089,"Ġsoftware":5090,"ĠÃĥÅĤ":5091,"Ġmon":5092,"Ġright":5093,"Ġdiffer":5094,"tati":5095,"ÃĦÂºÃĦ":5096,"igh":5097,"Ġnoti":5098,"Ġversion":5099,"ÃĥÄ§ÃĦ":5100,"ÃĥÄ©ÃĦ":5101,"dadbdcddded":5102,"TI":5103,"ual":5104,"â¼":5105,"â½":5106,"â¾":5107,"ĠCC":5108,"2010":5109,"6276":5110,"ĠÃ«":5111,"ĠÃ¬":5112,"ĠÃĬ":5113,"ĠÃĲ":5114,"ĠÃĳ":5115,"âĹĮÌ":5116,"Ä®Ã¡":5117,"Ġsign":5118,"ĠÃªÄ£":5119,"ĠÃªÄ¤":5120,"ĠÃªÄ¥":5121,"ĠÃªÄ¦":5122,"ĠÃªÄ§":5123,"ĠÃªÄ¨":5124,"ĠÃªÄ©":5125,"ĠÃªÄª":5126,"ĠÃªÄ«":5127,"ĠÃªÄ¬":5128,"ĠÃªÄ®":5129,"ĠÃªÄ¯":5130,"ĠÃªÄ°":5131,"ĠÃªÄ±":5132,"ĠÃªÄ²":5133,"ĠÃªÄ³":5134,"ĠÃªÄ·":5135,"ĠÃªÄ¸":5136,"ĠÃªÄ¹":5137,"ĠÃªÄ¿":5138,"ĠÃªÄŃ":5139,"ĠÃ¡Ä¦":5140,"ĠÃ¡Ä§":5141,"ĠÃ¡Ä¨":5142,"ĠÃ¡Ä©":5143,"ĠÃ¡Äª":5144,"ĠÃ¡Ä³":5145,"ĠÃ¡Ä´":5146,"ĠÃ¡Äµ":5147,"ĠÃ¡Ä¶":5148,"ĠÃ¡Ä·":5149,"ĠÃ¡Ä¸":5150,"ĠÃ¡Ä¹":5151,"ĠÃ¡Äº":5152,"ĠÃ¡Âµ":5153,"ÄµÃ¡":5154,"ĠÃ°Âª":5155,"ĠÃ°Ä¹":5156,"ĠÃ°ÅĤ":5157,"Ä³Ã¡":5158,"ÄŃÃ¡":5159,"ĠÃ£Ä§":5160,"zioni":5161,"ST":5162,"xis":5163,"âº":5164,"Ġk":5165,"ĠCD":5166,"ĠAC":5167,"ĠCF":5168,"Ġ92":5169,"Ġess":5170,"5890":5171,"7554":5172,"ĠÃĨ":5173,"ĠÃī":5174,"0939":5175,"ers":5176,"Ã£Ä©":5177,"ĠÃªÄ¢":5178,"ĠÃªÄ¶":5179,"Ġlesion":5180,"tain":5181,"Ġret":5182,"ĠAD":5183,"Ġ85":5184,"Ġeff":5185,"3989":5186,"5299":5187,"1029":5188,"6459":5189,"ĠÃı":5190,"8612":5191,"eas":5192,"ðĲ¢":5193,"Ġther":5194,"Ġpres":5195,"ĠÃªÄ¼":5196,"ĠÃ¡Ä²":5197,"Ġdis":5198,"Ġdell":5199,"Ä¶Ã¡":5200,"ĠÃ£Ä£":5201,"ĠÃ£Ä¥":5202,"dadbdcdddedfe":5203,"ml":5204,"7990":5205,"6479":5206,"4518":5207,"ĠÃĦÂº":5208,"Ġman":5209,"ĠÃ¡Ä®":5210,"ĠÃ¡Ä»":5211,"ator":5212,"Ġem":5213,"âĹĮà©":5214,"ĠÃ¯Åĥ":5215,"Ä¯Ã¡":5216,"vided":5217,"cum":5218,"cri":5219,"ipro":5220,"ĠFB":5221,"Ġec":5222,"1069":5223,"7853":5224,"6037":5225,"5539":5226,"eaeb":5227,"Ã¢Ä´":5228,"ðĲĿ":5229,"9714":5230,"ðĳĥ":5231,"ðĸ«":5232,"Ä¸Ã¡":5233,"Ġur":5234,"perm":5235,"Ġchar":5236,"ples":5237,"ose":5238,"sam":5239,"ty":5240,"Ãĭ":5241,"Ġ91":5242,"3292":5243,"2422":5244,"ĠÃĶ":5245,"Ġtype":5246,"9874":5247,"4574":5248,"ĠÃĦÂª":5249,"ĠÃ¡ÄŃ":5250,"ÅĤÃ¡":5251,"ico":5252,"olo":5253,"Ġred":5254,"sel":5255,"Ġdistrib":5256,"ÄºÃ¡":5257,"ments":5258,"Ä·Ã¡":5259,"Ä°Ã¡":5260,"Ġform":5261,"ÃĦÂªÃĥÂªÃĦ":5262,"ĠCTP":5263,"Ġconditions":5264,"iprops":5265,"crea":5266,"ell":5267,"â¿":5268,"ĠEA":5269,"ĠBE":5270,"Ġ07":5271,"7222":5272,"3498":5273,"ABAB":5274,"4860":5275,"ench":5276,"ĠÃĩ":5277,"ĠÃĵ":5278,"7310":5279,"ðĲ©":5280,"ðĲª":5281,"Ġinclu":5282,"Ġmag":5283,"ance":5284,"ĠÃ¡Âº":5285,"perlun":5286,"ĠÃħÄ¤":5287,"Ġspec":5288,"ĠTCp":5289,"Ġindica":5290,"samples":5291,"perluniprops":5292,"pati":5293,"uti":5294,"van":5295,"ĠEE":5296,"ĠAF":5297,"3872":5298,"3011":5299,"3013":5300,"7432":5301,"8062":5302,"CEFB":5303,"4480":5304,"ĠÃļ":5305,"one":5306,"orm":5307,"Ġpos":5308,"ĠÃ¡Ä«":5309,"ĠÃ¡Ä¬":5310,"ĠÃ¯Âº":5311,"ĠThis":5312,"Ä»Ã¡":5313,"Ä½Ã¡":5314,"ize":5315,"AT":5316,"In":5317,"RO":5318,"UFunc":5319,"ĠFF":5320,"ĠDE":5321,"ĠDA":5322,"3230":5323,"5976":5324,"5016":5325,"4479":5326,"ACCA":5327,"ini":5328,"ðĲģ":5329,"Ġmust":5330,"ĠÃ¡Ä¼":5331,"Ġext":5332,"Ġrec":5333,"Ä©Ã¡":5334,"urg":5335,"ĠSource":5336,"ĠÃ£Ä¤":5337,"ĠÃ£Ä¦":5338,"Ġnei":5339,"ĠĠĠĠĠĠĠĠĠĠĠĠĠĠĠĠĠĠĠĠĠĠĠĠĠĠĠĠĠĠĠĠ":5340,"uptools":5341,"ĠÃŃÅģ":5342,"2790":5343,"lica":5344,"ting":5345,"vo":5346,"ĠEC":5347,"1276":5348,"ĠÃİ":5349,"dex":5350,"âĹĮØ":5351,"âĹĮÞ":5352,"âĹĮê¥":5353,"Ä¹Ã¡":5354,"âĹĮà«":5355,"Ġprovided":5356,"opo":5357,"Ġimaging":5358,"cola":5359,"Ġrespon":5360,"duct":5361,"ss":5362,"5630":5363,"5268":5364,"3639":5365,"3689":5366,"3032":5367,"1719":5368,"Ã¡Ä¯":5369,"EDFD":5370,"ĠÃķ":5371,"Ġtec":5372,"ero":5373,"âĹĮÍ":5374,"Ġsi":5375,"Ġpre":5376,"ise":5377,"âĹĮáģ":5378,"ĠÃªÂª":5379,"Ä¼Ã¡":5380,"Ä±Ã¡":5381,"ĠNpyIter":5382,"Ġrep":5383,"Ġits":5384,"Ã¢Ä¹Ä®ÃĻ":5385,"Ġnella":5386,"Ġvalues":5387,"uries":5388,"responding":5389,"Ġmonitor":5390,"fica":5391,"ry":5392,"vati":5393,"Ġ-":5394,"3911":5395,"5218":5396,"5918":5397,"3054":5398,"7476":5399,"CBAA":5400,"ĠÃ¡Ä±":5401,"ĠÃ¡ÅĢ":5402,"Ä¿Ã¡":5403,"sign":5404,"Ġdata":5405,"Ġshow":5406,"Ġsetuptools":5407,"SED":5408,"opy":5409,"rm":5410,"â»":5411,"ĠDB":5412,"7290":5413,"1200":5414,"7975":5415,"1559":5416,"Ġtreatment":5417,"DFAC":5418,"2579":5419,"Ġthan":5420,"ðĴİ":5421,"ish":5422,"ÅĥÃ¡":5423,"ĠÃ¡Ä½":5424,"Ġli":5425,"ÃĥÄ¶ÃĦ":5426,"apia":5427,"petto":5428,"Ġrefer":5429,"rit":5430,"ring":5431,"Ġ02":5432,"1132":5433,"3915":5434,"5229":5435,"2089":5436,"8979":5437,"inf":5438,"Ġaxis":5439,"8139":5440,"Ġpazi":5441,"ĠÃ¡Ä¥":5442,"ast":5443,"Ġid":5444,"âĹĮá¬":5445,"âĹĮá®":5446,"imit":5447,"dy":5448,"gen":5449,"pac":5450,"Ġ05":5451,"7906":5452,"7600":5453,"7618":5454,"7660":5455,"3014":5456,"5048":5457,"1456":5458,"1900":5459,"7811":5460,"7802":5461,"7036":5462,"2012":5463,"4049":5464,"CDFB":5465,"ADEB":5466,"7512":5467,"ĠÃĴ":5468,"5300":5469,"eced":5470,"ong":5471,"BACE":5472,"âĹĮê¨":5473,"ÃłÂµ":5474,"ties":5475,"Ġsca":5476,"Ġevalu":5477,"Ġwill":5478,"ole":5479,"Ġbut":5480,"Ġcontrast":5481,"Ã¢Ä¹Ä®ÃłÅĤ":5482,"Ġhigh":5483,"Ġprogram":5484,"Ġonly":5485,"Ġvalori":5486,"ological":5487,"Ġdoes":5488,"ÃĥÄµÃĦ":5489,"prefixes":5490,"Ġcorre":5491,"Ġafter":5492,"Ġpatients":5493,"du":5494,"tti":5495,"êŁ":5496,"7244":5497,"1294":5498,"3456":5499,"3489":5500,"3658":5501,"3019":5502,"5038":5503,"1488":5504,"1041":5505,"2910":5506,"6880":5507,"5534":5508,"7736":5509,"2436":5510,"4654":5511,"BEDD":5512,"ÃĥÄ´":5513,"Ġso":5514,"ÂºÃ¡":5515,"Ġmin":5516,"ature":5517,"Ġri":5518,"oun":5519,"ĠCor":5520,"Ġalla":5521,"ĠPyArrayObject":5522,"Ġpermis":5523,"ĠProgram":5524,"cir":5525,"ext":5526,"itional":5527,"met":5528,"ption":5529,"tto":5530,"7205":5531,"6011":5532,"8849":5533,"3558":5534,"4259":5535,"9939":5536,"5379":5537,"EACD":5538,"9600":5539,"4336":5540,"ÃłÅĤ":5541,"Ġanim":5542,"laim":5543,"ÅģÃ¡":5544,"ĠNO":5545,"EBBA":5546,"Ġtumor":5547,"ðŁĦ":5548,"ITY":5549,"Ġrights":5550,"nam":5551,"uth":5552,"0052":5553,"0078":5554,"1100":5555,"3966":5556,"1433":5557,"1902":5558,"7459":5559,"1878":5560,"6656":5561,"4062":5562,"4940":5563,"8814":5564,"6234":5565,"8644":5566,"inst":5567,"9639":5568,"ĠÃªÄ»":5569,"ĠÃªÄ½":5570,"Ġele":5571,"ĠÃ¯Âµ":5572,"ĠCom":5573,"Ä¾Ã¡":5574,"ilitÃł":5575,"soci":5576,"tico":5577,"Ġinjuries":5578,"Fig":5579,"THE":5580,"dll":5581,"pres":5582,"ten":5583,"3212":5584,"3900":5585,"3929":5586,"36138":5587,"3090":5588,"2054":5589,"8920":5590,"8996":5591,"4913":5592,"ABED":5593,"6810":5594,"6476":5595,"ĠÃĿ":5596,"âĹĮêĻ":5597,"9319":5598,"time":5599,"ĠÃ¡Ä°":5600,"rol":5601,"Ġangiogen":5602,"ĠPyUFunc":5603,"ĠLI":5604,"ĠGNU":5605,"ĠGeneral":5606,"therapy":5607,"Ġradi":5608,"Ġshould":5609,"periment":5610,"ÃĥÄ±ÃĦ":5611,"//":5612,"cor":5613,"ij":5614,"mag":5615,"ner":5616,"ren":5617,"tta":5618,"0032":5619,"3211":5620,"7201":5621,"1299":5622,"7926":5623,"3483":5624,"5870":5625,"3057":5626,"1474":5627,"1016":5628,"1950":5629,"7482":5630,"CEBE":5631,"FDAC":5632,"1711":5633,"3759":5634,"7514":5635,"7573":5636,"6419":5637,"5779":5638,"2619":5639,"5312":5640,"eck":5641,"0419":5642,"Äłt":5643,"0372":5644,"Ġsom":5645,"ĠÃªÄµ":5646,"Ġml":5647,"ici":5648,"âĹĮàº":5649,"ĠCon":5650,"ark":5651,"Ã°Ä³":5652,"Ġrenale":5653,"Ġtumours":5654,"Ġperfusione":5655,"Ġmeans":5656,"ĠANY":5657,"ape":5658,"://":5659,"BAAB":5660,"BFDD":5661,"CL":5662,"NpyIter":5663,"ft":5664,"use":5665,"uto":5666,"ves":5667,"with":5668,"ĠEB":5669,"Ġeb":5670,"3620":5671,"5014":5672,"1968":5673,"7874":5674,"7433":5675,"ÃĥÅĢ":5676,"2076":5677,"2276":5678,"ABDD":5679,"1378":5680,"DDAE":5681,"7330":5682,"8674":5683,"Ġtim":5684,"efore":5685,"0610":5686,"6339":5687,"6378":5688,"4512":5689,"2500":5690,"9378":5691,"org":5692,"Ġsource":5693,"ating":5694,"Ġdopo":5695,"ĠÃłÂª":5696,"ĠÃªÅĢ":5697,"urns":5698,"Ġbeen":5699,"Ã°Äº":5700,"Ġass":5701,"ribut":5702,"ILITY":5703,"\\__":5704,"app":5705,"rect":5706,"ĠBB":5707,"3654":5708,"5915":5709,"1440":5710,"1989":5711,"7816":5712,"7883":5713,"7448":5714,"7017":5715,"1737":5716,"EEAD":5717,"DDFD":5718,"FFAE":5719,"3100":5720,"8258":5721,"4648":5722,"8466":5723,"econ":5724,"0700":5725,"esis":5726,"ability":5727,"las":5728,"Ġrece":5729,"python":5730,"ili":5731,"quir":5732,"istra":5733,"Ġnew":5734,"Ġrequi":5735,"ations":5736,"Ġtumore":5737,"Ã¢Ä¹Ä®Ãĸ":5738,"ĠWork":5739,"Ġapplica":5740,"vail":5741,"Ġmicrovas":5742,"Ġsignifica":5743,"Ġidenti":5744,"1798":5745,"CCDD":5746,"EAAB":5747,"VC":5748,"ue":5749,"Ãį":5750,"Ġdb":5751,"0038":5752,"1114":5753,"3866":5754,"3458":5755,"3469":5756,"3634":5757,"1680":5758,"5869":5759,"5960":5760,"1088":5761,"7012":5762,"1811":5763,"2992":5764,"8070":5765,"CDEF":5766,"4410":5767,"FEBE":5768,"1312":5769,"6259":5770,"3754":5771,"DBBB":5772,"3332":5773,"ACFE":5774,"FACE":5775,"FACB":5776,"3170":5777,"ðĲ£":5778,"9718":5779,"ÂµÃ¡":5780,"Ġmore":5781,"ÅĢÃ¡":5782,"iche":5783,"ĠPublic":5784,"ĠÃ¢Äµ":5785,"âĹĮá°":5786,"ĠFor":5787,"Ġwithout":5788,"Ġdelle":5789,"ĠÃ£Ä¨":5790,"Ġparench":5791,"Ġnumber":5792,"Ġpatent":5793,"Ret":5794,"ct":5795,"func":5796,"man":5797,"ĠED":5798,"Ġcb":5799,"Ġcf":5800,"0012":5801,"1166":5802,"3249":5803,"5627":5804,"7252":5805,"7923":5806,"3466":5807,"1638":5808,"7662":5809,"3080":5810,"3043":5811,"5076":5812,"5028":5813,"5098":5814,"1034":5815,"1908":5816,"1844":5817,"2079":5818,"2978":5819,"4928":5820,"AACB":5821,"2210":5822,"2248":5823,"3532":5824,"3572":5825,"4200":5826,"4220":5827,"3359":5828,"6410":5829,"ens":5830,"2632":5831,"eal":5832,"9489":5833,"Äłl":5834,"8550":5835,"âĹĮê¦":5836,"tica":5837,"8158":5838,"ÃĥÄ¼":5839,"ÅĥÃħÄ£":5840,"ĠÃ¡Ä¢":5841,"uma":5842,"lly":5843,"DFBA":5844,"modif":5845,"char":5846,"Ã¢Ä¹Ä®Ãľ":5847,"Ġimp":5848,"Ġrapp":5849,"Ġtraumi":5850,"0000000000000000000000000000000000000000000000000000000000000000000000000000000000000000000000000000000000000000000000000000000000000000000000000000000000000000000000000000000000000000000000000000000000000000000000000000000000000000000000000000000000000000":5851,"Ġfollowing":5852,"Ġreference":5853,"ON":5854,"VE":5855,"bo":5856,"ds":5857,"dist":5858,"mi":5859,"Ã²":5860,"ĠBA":5861,"0072":5862,"0028":5863,"3268":5864,"5620":5865,"5690":5866,"3880":5867,"3411":5868,"3629":5869,"1633":5870,"7672":5871,"7649":5872,"5999":5873,"5019":5874,"1971":5875,"7472":5876,"7074":5877,"2048":5878,"2099":5879,"2956":5880,"8911":5881,"8980":5882,"6012":5883,"6059":5884,"FBDB":5885,"ABEE":5886,"1355":5887,"1700":5888,"9080":5889,"6261":5890,"6839":5891,"FCFD":5892,"5714":5893,"ECAD":5894,"5376":5895,"5178":5896,"9637":5897,"BFAC":5898,"4556":5899,"4576":5900,"Äłr":5901,"4311":5902,"6156":5903,"0374":5904,"9179":5905,"ðĳ±":5906,"Ġout":5907,"âĹĮà¸":5908,"ass":5909,"ury":5910,"DEEC":5911,"ĠSoftware":5912,"Ã°Ä²":5913,"ðĽ²":5914,"Ġtumori":5915,"Ġusing":5916,"ibra":5917,"Ġarter":5918,"ÃĥÄ°ÃĦ":5919,"aterial":5920,"Ġspecif":5921,"ĠCorresponding":5922,"2728":5923,"ACEA":5924,"med":5925,"wh":5926,"Ġfb":5927,"0082":5928,"3258":5929,"3832":5930,"3895":5931,"1290":5932,"7959":5933,"5239":5934,"3622":5935,"5885":5936,"5034":5937,"1058":5938,"1966":5939,"7066":5940,"1856":5941,"1850":5942,"4482":5943,"1354":5944,"8856":5945,"1518":5946,"1754":5947,"3539":5948,"6286":5949,"3710":5950,"4849":5951,"7532":5952,"3316":5953,"ACCB":5954,"6468":5955,"2450":5956,"EDAB":5957,"FAFF":5958,"5712":5959,"8214":5960,"8470":5961,"7372":5962,"ecca":5963,"EAFC":5964,"4532":5965,"6558":5966,"2711":5967,"4318":5968,"8334":5969,"ran":5970,"Ġnu":5971,"ĠPRO":5972,"6110":5973,"EAEB":5974,"sive":5975,"ĠNU":5976,"Ġone":5977,"ĠĠĠĠĠĠĠĠĠĠĠĠĠĠĠĠĠĠĠĠĠĠĠĠ":5978,"cont":5979,"ARRA":5980,"Ġrispetto":5981,"self":5982,"4696":5983,"5708":5984,"8709":5985,"BAAF":5986,"EAAC":5987,"EFFF":5988,"FFDF":5989,"FAEC":5990,"een":5991,"ever":5992,"gli":5993,"mand":5994,"pag":5995,"0048":5996,"0001":5997,"1286":5998,"7941":5999,"3449":6000,"3636":6001,"1668":6002,"5932":6003,"5906":6004,"5058":6005,"1434":6006,"1071":6007,"1912":6008,"1880":6009,"2922":6010,"8023":6011,"6660":6012,"6098":6013,"2258":6014,"CEFE":6015,"9091":6016,"3519":6017,"3776":6018,"DBDB":6019,"7572":6020,"5511":6021,"5579":6022,"6418":6023,"BDCC":6024,"7354":6025,"7158":6026,"7174":6027,"ecess":6028,"Ġauth":6029,"Ġta":6030,"CFFC":6031,"9876":6032,"DER":6033,"DCFB":6034,"Äłin":6035,"2300":6036,"2335":6037,"8378":6038,"9359":6039,"9534":6040,"tim":6041,"0711":6042,"0311":6043,"9158":6044,"ðĳ²":6045,"ÅĥÃ¯":6046,"Ġing":6047,"Ġmulti":6048,"ant":6049,"pycac":6050,"Ä¢Ã¢":6051,"ĠÃĥÄ²":6052,"sib":6053,"BDBA":6054,"mod":6055,"AFEE":6056,"Ġcarcinoma":6057,"EFEC":6058,"Ġcopi":6059,"ult":6060,"soft":6061,"Ã¢Ä¹Ä®ÃĽ":6062,"Ġrenali":6063,"ministra":6064,"icrosoft":6065,"ĠAND":6066,"Ġstudies":6067,"ÃĥÄªÃĦ":6068,"eaebeced":6069,"BCEB":6070,"BCEA":6071,"Radiol":6072,"This":6073,"UR":6074,"cpython":6075,"free":6076,"nos":6077,"ĠDD":6078,"Ġee":6079,"3240":6080,"5656":6081,"7212":6082,"3869":6083,"3914":6084,"3925":6085,"5412":6086,"5488":6087,"5442":6088,"7999":6089,"3472":6090,"3688":6091,"3093":6092,"5074":6093,"7034":6094,"2979":6095,"8066":6096,"CDDC":6097,"FEFD":6098,"FEBD":6099,"3578":6100,"6848":6101,"2854":6102,"CCAB":6103,"AFCD":6104,"inary":6105,"EFFD":6106,"Ġtis":6107,"9653":6108,"6314":6109,"8518":6110,"4310":6111,"9770":6112,"tiva":6113,"Ġthese":6114,"Ġsize":6115,"Ġpresent":6116,"ĠĠĠĠĠĠ":6117,"ĠÃªÄ¾":6118,"dimen":6119,"âĹĮà§":6120,"âĹĮàµ":6121,"olum":6122,"ĠÃ¢Âµ":6123,"ĠÃĥÂªÃĦÂª":6124,"ĠÃĥÂªÃĦÅĥ":6125,"pyc":6126,"Ġlimit":6127,"âĹĮáŀ":6128,"9198":6129,"ĠÃĥÄ¬":6130,"Ġhol":6131,"Ġalso":6132,"urn":6133,"Ġ115":6134,"9116":6135,"ative":6136,"lizz":6137,"Ġwhere":6138,"Ġsub":6139,"Ġcome":6140,"Ġques":6141,"Ġappro":6142,"hance":6143,"Ġnotice":6144,"Ġpazienti":6145,"THER":6146,"ĠNULL":6147,"pycache":6148,"8153":6149,"BAAE":6150,"DCEB":6151,"EABB":6152,"ew":6153,"not":6154,"obj":6155,"pec":6156,"uzione":6157,"ved":6158,"work":6159,"á²":6160,"ĠEF":6161,"Ġdc":6162,"1112":6163,"1149":6164,"3291":6165,"5689":6166,"7298":6167,"3889":6168,"5436":6169,"7909":6170,"5232":6171,"3677":6172,"1684":6173,"5920":6174,"5982":6175,"3012":6176,"5035":6177,"1026":6178,"1909":6179,"1804":6180,"8038":6181,"8040":6182,"8092":6183,"4090":6184,"4091":6185,"8900":6186,"2200":6187,"CEFC":6188,"CDDB":6189,"1338":6190,"1318":6191,"1373":6192,"1774":6193,"9034":6194,"3576":6195,"ADCB":6196,"6249":6197,"6842":6198,"EECF":6199,"7756":6200,"ÂªÃ¯":6201,"4619":6202,"ECFC":6203,"7338":6204,"5100":6205,"inal":6206,"Ġatt":6207,"0819":6208,"ðĲ®":6209,"8570":6210,"âĹĮêª":6211,"9514":6212,"2172":6213,"Ġinto":6214,"ite":6215,"ĠÃ¡Ä¤":6216,"âĹĮàŃ":6217,"ĠÃ¢Ä§":6218,"ĠÃ¢Ä¦":6219,"Ä¦Ã¯":6220,"Ä¤Ã¢":6221,"llo":6222,"Ä£Ã¢":6223,"17269":6224,"ither":6225,"ĠÃĥÄ³":6226,"AFBF":6227,"6793":6228,"icens":6229,"Ġcomp":6230,"ived":6231,"uction":6232,"phy":6233,"ÃĥÄ¦ÃĦ":6234,"Ġmedi":6235,"Ġiterator":6236,"Conver":6237,"Ġtissu":6238,"AL":6239,"DADF":6240,"ECEB":6241,"FCEA":6242,"GH":6243,"cul":6244,"ipi":6245,"tter":6246,"vis":6247,"ynam":6248,"Ġent":6249,"Ġ760":6250,"0056":6251,"0094":6252,"3236":6253,"7258":6254,"3867":6255,"1211":6256,"3934":6257,"5476":6258,"5418":6259,"5204":6260,"3418":6261,"5836":6262,"5840":6263,"7630":6264,"7627":6265,"3088":6266,"3042":6267,"1070":6268,"1910":6269,"1832":6270,"1840":6271,"8014":6272,"AABA":6273,"CDCA":6274,"FBCD":6275,"4444":6276,"ABCB":6277,"ABDA":6278,"8837":6279,"9074":6280,"ADED":6281,"3732":6282,"3734":6283,"3719":6284,"DBFC":6285,"7533":6286,"3336":6287,"3358":6288,"3318":6289,"0976":6290,"0984":6291,"8414":6292,"7378":6293,"7156":6294,"9235":6295,"9460":6296,"9610":6297,"9644":6298,"6372":6299,"6750":6300,"6775":6301,"4519":6302,"6552":6303,"9370":6304,"4730":6305,"Ġpot":6306,"Ġmaterial":6307,"ante":6308,"ances":6309,"Ġfiles":6310,"ste":6311,"Ġdes":6312,"Ġblu":6313,"ĠÃĥÄ¨":6314,"EFBD":6315,"ĠBV":6316,"BDDC":6317,"sider":6318,"ogra":6319,"Ġreg":6320,"irst":6321,"gio":6322,"ology":6323,"tween":6324,"agement":6325,"Ġparamet":6326,"cument":6327,"info":6328,"Ġcopies":6329,"eaebecedee":6330,"4526":6331,"5155":6332,"9799":6333,"AS":6334,"FAAB":6335,"From":6336,"TP":6337,"UNU":6338,"lla":6339,"para":6340,"sh":6341,"tor":6342,"â¯":6343,"Ġcc":6344,"Ġff":6345,"Ġdd":6346,"3234":6347,"3259":6348,"3298":6349,"5640":6350,"5688":6351,"7229":6352,"3991":6353,"7958":6354,"3678":6355,"3683":6356,"1658":6357,"7699":6358,"76269":6359,"3058":6360,"3066":6361,"3022":6362,"5065":6363,"1060":6364,"1954":6365,"7876":6366,"7062":6367,"2069":6368,"2936":6369,"2917":6370,"2964":6371,"2902":6372,"8018":6373,"6666":6374,"6649":6375,"8974":6376,"CEEC":6377,"FBFC":6378,"FBFF":6379,"ABILITY":6380,"FDCA":6381,"8826":6382,"1511":6383,"1716":6384,"AECE":6385,"3300":6386,"9969":6387,"9990":6388,"5516":6389,"6458":6390,"7700":6391,"BBCF":6392,"4642":6393,"BDAE":6394,"5314":6395,"ind":6396,"EAFF":6397,"0811":6398,"0612":6399,"ðĲĭ":6400,"ðĲı":6401,"Äło":6402,"ebbe":6403,"4374":6404,"Ġcir":6405,"Ġclin":6406,"rant":6407,"ðĳį":6408,"Ġsul":6409,"isura":6410,"ĠÃ¡Ä¾":6411,"Ġnorm":6412,"Ä§Ã¢":6413,"Ä§Ã¯":6414,"Ġdef":6415,"Ġbi":6416,"79739":6417,"Ä¨Ã¢":6418,"ĠÃĥÄ§":6419,"ĠÃĥÄ©":6420,"ĠÃĥÄ«":6421,"DDBF":6422,"ĠÃ¢Ä¹Ä®Ãª":6423,"reated":6424,"sure":6425,"cess":6426,"Ġend":6427,"Ġstudy":6428,"meter":6429,"Ġcolori":6430,"endenti":6431,"Ġvascular":6432,"__\\":6433,"Ġessere":6434,"rmac":6435,"Ġangiogenesis":6436,"ARRANT":6437,"An":6438,"ACEE":6439,"CH":6440,"DEDC":6441,"IS":6442,"If":6443,"ay":6444,"gg":6445,"gu":6446,"sso":6447,"à¾":6448,"âĥ":6449,"Ġ`":6450,"Ġdf":6451,"Ġ792":6452,"0066":6453,"0069":6454,"0090":6455,"1118":6456,"1125":6457,"3264":6458,"5644":6459,"7294":6460,"7267":6461,"7287":6462,"1246":6463,"3976":6464,"5434":6465,"5466":6466,"5210":6467,"5269":6468,"3672":6469,"5844":6470,"5837":6471,"5934":6472,"3029":6473,"3049":6474,"1421":6475,"1025":6476,"1988":6477,"1998":6478,"1994":6479,"7450":6480,"7409":6481,"1890":6482,"1846":6483,"2060":6484,"2944":6485,"2953":6486,"8049":6487,"8044":6488,"6668":6489,"6624":6490,"8978":6491,"8969":6492,"8988":6493,"AADD":6494,"AAED":6495,"CECB":6496,"6944":6497,"4442":6498,"ABFC":6499,"FEAE":6500,"1310":6501,"8827":6502,"AEBC":6503,"9084":6504,"6212":6505,"6280":6506,"4212":6507,"6864":6508,"4800":6509,"DBEE":6510,"3338":6511,"5500":6512,"2458":6513,"EDFA":6514,"5776":6515,"5719":6516,"8265":6517,"2638":6518,"5350":6519,"Ġtess":6520,"CFCD":6521,"0860":6522,"0659":6523,"6336":6524,"6772":6525,"6570":6526,"ÄłC":6527,"ÄłP":6528,"Äłre":6529,"8758":6530,"8556":6531,"âĹĮâĥ":6532,"4170":6533,"9759":6534,"0719":6535,"8176":6536,"0354":6537,"Ġthose":6538,"ĠÃĥÅĥÃħÄ£":6539,"Ġme":6540,"old":6541,"Ġrun":6542,"stu":6543,"Ä¦Ã¢":6544,"âĹĮá¤":6545,"Ġdiag":6546,"Ä¥Ã¢":6547,"ĠÃªÅĤ":6548,"ĠTh":6549,"3199":6550,"3008":6551,"7102":6552,"AFBD":6553,"ĠÃ£Ä¢":6554,"BEBA":6555,"ĠÃĤÂºÃĥ":6556,"Ġmodify":6557,"ESS":6558,"niqu":6559,"Ġdifferent":6560,"Ġtech":6561,"Ġrequire":6562,"Returns":6563,"hancement":6564,"UNUSED":6565,"3389":6566,"7786":6567,"CFCA":6568,"DCEE":6569,"EFCF":6570,"FABB":6571,"MRI":6572,"SS":6573,"The":6574,"claim":6575,"fy":6576,"gan":6577,"ler":6578,"mp":6579,"Ġ<":6580,"ĠDF":6581,"Ġ560":6582,"Ġfac":6583,"0029":6584,"1116":6585,"3279":6586,"3246":6587,"3284":6588,"3854":6589,"3899":6590,"1218":6591,"5496":6592,"5280":6593,"3640":6594,"1629":6595,"7658":6596,"3020":6597,"5032":6598,"5063":6599,"1466":6600,"1072":6601,"1076":6602,"7429":6603,"7442":6604,"7022":6605,"2017":6606,"8050":6607,"4038":6608,"4034":6609,"4043":6610,"4964":6611,"AAFD":6612,"CEFF":6613,"FBAD":6614,"ABAA":6615,"ABDB":6616,"FEAA":6617,"1317":6618,"1500":6619,"1755":6620,"AEFE":6621,"AEEA":6622,"3575":6623,"ADBB":6624,"4255":6625,"4838":6626,"7534":6627,"ACAA":6628,"6478":6629,"2840":6630,"FFAA":6631,"BBAE":6632,"2464":6633,"3139":6634,"5759":6635,"5774":6636,"8268":6637,"ĠÃħ":6638,"2679":6639,"5359":6640,"7350":6641,"5172":6642,"Ġaa":6643,"BEDB":6644,"0422":6645,"DAFE":6646,"DCFE":6647,"8572":6648,"8530":6649,"2372":6650,"8319":6651,"8174":6652,"Ä®Ã¢":6653,"Ġsection":6654,"ðĸ®":6655,"ĠÃ¡Ä¿":6656,"Ġfile":6657,"Ä¤Ã¯":6658,"Ä¨Ã¯":6659,"Ä¶Ã¯":6660,"ÄªÃ¢":6661,"tazione":6662,"ĠÃªÅĥ":6663,"2007":6664,"Ġul":6665,"ĠÃĥÄµ":6666,"vel":6667,"3381":6668,"5002":6669,"mostra":6670,"1791":6671,"2587":6672,"3504":6673,"Ġassoci":6674,"Ã¢Ä¹Ä®Ãŀ":6675,"ĠWARRANT":6676,"ÄłÃĥÅĥ":6677,"Ġpermeab":6678,"command":6679,"angiogenic":6680,"ĠÃĤÂªÃĥ":6681,"ghij":6682,"Ġeffect":6683,"Ġevaluation":6684,"Ġrappresent":6685,"3169":6686,"6540":6687,"AFCC":6688,"CAAB":6689,"CABA":6690,"EFDE":6691,"Is":6692,"License":6693,"MA":6694,"ove":6695,"pen":6696,"ruct":6697,"wise":6698,"ÎĶ":6699,"Ġ,":6700,"0055":6701,"1184":6702,"3243":6703,"5674":6704,"5694":6705,"3860":6706,"3892":6707,"1240":6708,"1206":6709,"3956":6710,"3940":6711,"5414":6712,"7979":6713,"7943":6714,"5234":6715,"5209":6716,"5296":6717,"3492":6718,"1624":6719,"5874":6720,"5866":6721,"5801":6722,"7626":6723,"5972":6724,"5926":6725,"3084":6726,"1409":6727,"1056":6728,"7820":6729,"7860":6730,"7821":6731,"7032":6732,"7038":6733,"7054":6734,"7014":6735,"7087":6736,"7095":6737,"2022":6738,"8029":6739,"4018":6740,"4948":6741,"4984":6742,"AAAE":6743,"AAEA":6744,"2283":6745,"CEDB":6746,"4438":6747,"8838":6748,"8854":6749,"8845":6750,"3511":6751,"6872":6752,"4889":6753,"ACFB":6754,"2811":6755,"2848":6756,"EBCB":6757,"EBAC":6758,"EDCE":6759,"8252":6760,"8266":6761,"4689":6762,"ĠÃŀ":6763,"ĠÃŁ":6764,"BDEB":6765,"8489":6766,"7316":6767,"8613":6768,"8617":6769,"Ġavail":6770,"Ġtion":6771,"9212":6772,"9818":6773,"0874":6774,"0213":6775,"BFAB":6776,"face":6777,"6332":6778,"6318":6779,"4558":6780,"Äłc":6781,"Äłd":6782,"Äłpro":6783,"8716":6784,"2534":6785,"4334":6786,"9576":6787,"2174":6788,"0312":6789,"ÂµÃ¯":6790,"ach":6791,"isi":6792,"aem":6793,"row":6794,"ane":6795,"ancrea":6796,"Ã¢Ä¹Ä®Ã¡Ä¢":6797,"ĠÃ¡ÅĤ":6798,"Ġfree":6799,"Ġfirst":6800,"Ġrid":6801,"ÄµÃ¢":6802,"Ġly":6803,"ĠAn":6804,"8187":6805,"âĹĮá¯":6806,"Ä´Ã¢":6807,"Ä¶Ã¢":6808,"7114":6809,"Ä³Ã¢":6810,"Ä¸Ã¢":6811,"ĠTO":6812,"ÄŃÃ¢":6813,"Ä·Ã¢":6814,"Ġorder":6815,"Ä¬Ã¢":6816,"Ä¯Ã¢":6817,"38034":6818,"Ä°Ã¢":6819,"7543":6820,"1567":6821,"4006":6822,"Ġgli":6823,"ĠÃ¢Ä¹Ä®Ã¢":6824,"2495":6825,"Ġbetween":6826,"0801":6827,"8424":6828,"ypes":6829,"ticular":6830,"../":6831,"post":6832,"Ġeach":6833,"ĠÃĤÂµÃĥ":6834,"egg":6835,"Ġtherapy":6836,"colari":6837,"Ġanimal":6838,"ributor":6839,"1704":6840,"ACBC":6841,"BAAA":6842,"DAAC":6843,"DAEB":6844,"kl":6845,"less":6846,"rec":6847,"ris":6848,"ric":6849,"ui":6850,"Ġ'":6851,"Ġ728":6852,"Ġ704":6853,"Ġenti":6854,"0016":6855,"0087":6856,"1140":6857,"3242":6858,"5677":6859,"7225":6860,"3868":6861,"3848":6862,"1210":6863,"3958":6864,"3978":6865,"5419":6866,"5236":6867,"3409":6868,"3427":6869,"3666":6870,"1600":6871,"1635":6872,"5978":6873,"5977":6874,"5961":6875,"3072":6876,"3031":6877,"3067":6878,"5054":6879,"5070":6880,"1420":6881,"1979":6882,"1974":6883,"7890":6884,"7843":6885,"7418":6886,"7490":6887,"7078":6888,"8051":6889,"6618":6890,"8918":6891,"8929":6892,"4911":6893,"4954":6894,"CDCB":6895,"6958":6896,"CBAE":6897,"1576":6898,"1519":6899,"AEFB":6900,"6214":6901,"3711":6902,"7539":6903,"7552":6904,"7558":6905,"7570":6906,"FCCB":6907,"3314":6908,"3370":6909,"9962":6910,"5559":6911,"5557":6912,"6432":6913,"7738":6914,"BBAC":6915,"EDAF":6916,"3136":6917,"ĠÃĺ":6918,"8680":6919,"Ġtendenti":6920,"BCCE":6921,"DECD":6922,"DEAF":6923,"0655":6924,"6356":6925,"6316":6926,"6572":6927,"ÄłÃĥÂªÃĦ":6928,"ÄłÃĤ":6929,"2550":6930,"2359":6931,"âĹĮï¸":6932,"6134":6933,"0554":6934,"9139":6935,"esi":6936,"Ġser":6937,"Ġpred":6938,"Ġwas":6939,"ÄµÃ¯":6940,"Ġvolum":6941,"5549":6942,"Ä²Ã¢":6943,"ÄºÃ¢":6944,"Ä¥Ã¯":6945,"Ä©Ã¢":6946,"Ä«Ã¢":6947,"ĠFOR":6948,"3583":6949,"Ä¼Ã¢":6950,"ĠÃĥÄ¦":6951,"ĠÃĥÄª":6952,"EAEC":6953,"7187":6954,"Ġhtt":6955,"2685":6956,"8197":6957,"9405":6958,"Ġproduct":6959,"9663":6960,"Ġneed":6961,"0112":6962,"2527":6963,"owever":6964,"Ã¢Ä¹Ä®Ãĺ":6965,"ðŁĨ":6966,"Ġterapia":6967,"ĠÃĥÂªÃĤÂª":6968,"ublish":6969,"tumour":6970,"priate":6971,"Ġtime":6972,"ynamic":6973,"eaebecedeeeff":6974,"\",":6975,"'s":6976,"2320":6977,"2757":6978,"4369":6979,"8528":6980,"9569":6981,"BCED":6982,"BADC":6983,"CFDE":6984,"DACC":6985,"EADC":6986,"EABD":6987,"FFDE":6988,"UD":6989,"azione":6990,"ode":6991,"pos":6992,"pts":6993,"pend":6994,"vent":6995,"ĠâĢ":6996,"Ġ368":6997,"0036":6998,"1175":6999,"3290":7000,"5618":7001,"5655":7002,"5623":7003,"7240":7004,"7249":7005,"3846":7006,"3808":7007,"3946":7008,"5420":7009,"7936":7010,"7930":7011,"5252":7012,"5244":7013,"1689":7014,"7634":7015,"7619":7016,"7666":7017,"7669":7018,"3015":7019,"3082":7020,"5049":7021,"1430":7022,"1418":7023,"1499":7024,"7488":7025,"7039":7026,"7048":7027,"1819":7028,"1827":7029,"6693":7030,"4934":7031,"2216":7032,"CDDE":7033,"FBAA":7034,"CBCA":7035,"CBDE":7036,"4449":7037,"4453":7038,"FDAA":7039,"8812":7040,"8884":7041,"1571":7042,"1738":7043,"1739":7044,"6258":7045,"6800":7046,"ÃªÅģ":7047,"4866":7048,"DBAB":7049,"7538":7050,"7513":7051,"ACAB":7052,"DDFC":7053,"EBEC":7054,"3159":7055,"5739":7056,"8272":7057,"8264":7058,"BDAC":7059,"0938":7060,"5316":7061,"7317":7062,"8611":7063,"8676":7064,"Ġti":7065,"9810":7066,"0822":7067,"DEFB":7068,"0259":7069,"DCCB":7070,"2770":7071,"Äłf":7072,"8558":7073,"8577":7074,"4379":7075,"9510":7076,"4734":7077,"4710":7078,"tial":7079,"0156":7080,"Ä®Ã¯":7081,"ravas":7082,"Ġsecon":7083,"Ġpu":7084,"ita":7085,"ĠÃªÄº":7086,"Ġmet":7087,"Ġmisura":7088,"lay":7089,"lare":7090,"Ġlow":7091,"Ġloca":7092,"hether":7093,"ĠÃłÂº":7094,"76034":7095,"7111":7096,"Ä¸Ã¯":7097,"Ä·Ã¯":7098,"Ä¾Ã¢":7099,"Ä»Ã¢":7100,"7163":7101,"2004":7102,"30014":7103,"ĠÃĥÄ¶":7104,"3725":7105,"33211":7106,"5104":7107,"3767":7108,"AFBE":7109,"sione":7110,"Ġhan":7111,"4498":7112,"1766":7113,"perfusion":7114,"5795":7115,"ĠSU":7116,"8398":7117,"Ġmake":7118,"Ġwhen":7119,"Ġexam":7120,"Ġparticular":7121,"Ġshall":7122,"Ġcancer":7123,"Ġmicrocir":7124,"Ġinjury":7125,"uria":7126,"Ġcell":7127,"Ġmaggi":7128,"Ġresponse":7129,"quired":7130,"ranty":7131,"1522":7132,"2164":7133,"3560":7134,"4799":7135,"4704":7136,"8529":7137,"8304":7138,"9000":7139,"ACDA":7140,"AFCF":7141,"CFDF":7142,"CACA":7143,"DCDF":7144,"DCEA":7145,"ECBB":7146,"KAT":7147,"ME":7148,"OF":7149,"VI":7150,"cu":7151,"ko":7152,"tu":7153,"Ġ384":7154,"0007":7155,"1120":7156,"3229":7157,"3277":7158,"3245":7159,"5628":7160,"5602":7161,"7274":7162,"7248":7163,"7292":7164,"3870":7165,"3815":7166,"3837":7167,"1291":7168,"5479":7169,"5430":7170,"5493":7171,"5447":7172,"7988":7173,"5279":7174,"5277":7175,"3434":7176,"1610":7177,"5876":7178,"5871":7179,"5867":7180,"5015":7181,"5068":7182,"1416":7183,"1428":7184,"1404":7185,"1493":7186,"1024":7187,"1958":7188,"1944":7189,"7810":7190,"7899":7191,"7871":7192,"7474":7193,"7060":7194,"7027":7195,"1858":7196,"8052":7197,"6620":7198,"4094":7199,"AAAF":7200,"2234":7201,"2220":7202,"CECD":7203,"CEBB":7204,"CDBD":7205,"FBEE":7206,"4470":7207,"4464":7208,"ABFD":7209,"FECC":7210,"1300":7211,"1359":7212,"8879":7213,"8886":7214,"1558":7215,"AECD":7216,"AEAB":7217,"AEDC":7218,"9016":7219,"3570":7220,"6878":7221,"4830":7222,"DBEB":7223,"7500":7224,"3372":7225,"9987":7226,"9923":7227,"DDAB":7228,"DDEE":7229,"2870":7230,"FFCD":7231,"FFAD":7232,"2460":7233,"EDCC":7234,"EDEC":7235,"3150":7236,"8278":7237,"ĠÃĹ":7238,"ÃªÄ´":7239,"ECFD":7240,"BDCE":7241,"7313":7242,"8670":7243,"7178":7244,"ina":7245,"ins":7246,"ery":7247,"CAFA":7248,"9450":7249,"dation":7250,"DFAB":7251,"0466":7252,"BCAB":7253,"0634":7254,"DCAE":7255,"BACB":7256,"6731":7257,"Äłn":7258,"2516":7259,"âĹĮê¤":7260,"8359":7261,"8315":7262,"ÃłÅĥ":7263,"4739":7264,"0576":7265,"0714":7266,"8138":7267,"815229":7268,"ÂºÃ¯":7269,"Ġoper":7270,"rou":7271,"Ġwar":7272,"ĠPS":7273,"Ġdeter":7274,"args":7275,"lled":7276,"5544336":7277,"Ä£Ã¯":7278,"3120":7279,"Ä¿Ã¢":7280,"Ä½Ã¢":7281,"3305":7282,"5561":7283,"5563":7284,"3192":7285,"5004":7286,"7703":7287,"BDBD":7288,"motherapy":7289,"AFEB":7290,"4606":7291,"4787":7292,"âĹĮðĳĦ":7293,"2641":7294,"ĠGCC":7295,"Ġdocument":7296,"Ġapply":7297,"Ġpermit":7298,"Ġgran":7299,"Ġgrado":7300,"hanced":7301,"--------------------------------":7302,"Ġlesioni":7303,"opyright":7304,"Ġhigher":7305,"Ġnuances":7306,"dimensions":7307,"Ġavailable":7308,"1529":7309,"1502":7310,"2696":7311,"2384":7312,"4769":7313,"4771":7314,"6782":7315,"8522":7316,"AFDC":7317,"BFCA":7318,"DCDC":7319,"DFFA":7320,"EAAD":7321,"EAAF":7322,"WAR":7323,"jor":7324,"ney":7325,"vol":7326,"Ġ768":7327,"Ġ360":7328,"Ġ520":7329,"Ġ157":7330,"0049":7331,"1169":7332,"3252":7333,"3210":7334,"3274":7335,"3270":7336,"5658":7337,"5665":7338,"3835":7339,"5416":7340,"7934":7341,"7929":7342,"5266":7343,"5262":7344,"5231":7345,"5286":7346,"5223":7347,"3457":7348,"3602":7349,"3687":7350,"5810":7351,"5821":7352,"7686":7353,"7698":7354,"7606":7355,"5912":7356,"5979":7357,"5990":7358,"3036":7359,"3046":7360,"1960":7361,"1942":7362,"7869":7363,"7894":7364,"7435":7365,"7492":7366,"7072":7367,"7059":7368,"7061":7369,"1800":7370,"1898":7371,"1897":7372,"2920":7373,"2962":7374,"6688":7375,"6617":7376,"40100":7377,"8935":7378,"4914":7379,"4907":7380,"AAFC":7381,"AABE":7382,"AADC":7383,"6054":7384,"6014":7385,"2214":7386,"CDCD":7387,"CDFC":7388,"FBAF":7389,"6969":7390,"6968":7391,"6948":7392,"CBCD":7393,"CBCF":7394,"ABBB":7395,"FEDD":7396,"FEFF":7397,"FDEF":7398,"1376":7399,"1337":7400,"1353":7401,"1732":7402,"1758":7403,"AEAA":7404,"9070":7405,"3512":7406,"3510":7407,"ADAA":7408,"6248":7409,"3700":7410,"6812":7411,"6854":7412,"4840":7413,"4842":7414,"4828":7415,"7511":7416,"7536":7417,"7577":7418,"3350":7419,"9946":7420,"9983":7421,"7711":7422,"7719":7423,"7717":7424,"2850":7425,"2889":7426,"BBCA":7427,"CCAD":7428,"2449":7429,"5750":7430,"8263":7431,"4658":7432,"4614":7433,"ĠÃľ":7434,"calar":7435,"7352":7436,"5158":7437,"Ġtem":7438,"CAFC":7439,"CFFD":7440,"9433":7441,"0859":7442,"0824":7443,"0429":7444,"DEAE":7445,"0637":7446,"0240":7447,"63569":7448,"6738":7449,"6734":7450,"6534":7451,"6519":7452,"2734":7453,"2556":7454,"âĹĮ×":7455,"4150":7456,"8311":7457,"2100":7458,"0516":7459,"0712":7460,"8170":7461,"Ä¹Ã¯":7462,"ĠĠĠĠĠĠĠ":7463,"Ġow":7464,"Ġoffer":7465,"ĠÃ¡Ä¯":7466,"aturia":7467,"ÅĢÃ¢":7468,"Ġru":7469,"Ġlo":7470,"Ġconsider":7471,"ected":7472,"âĹĮá³":7473,"Ä¢Ã¯":7474,"Ä¯Ã¯":7475,"Ä±Ã¢":7476,"ication":7477,"ĠÃĥÄ·":7478,"7589":7479,"1005":7480,"7729":7481,"EAED":7482,"3764":7483,"Ġgener":7484,"FFEB":7485,"2185":7486,"3364":7487,"6298":7488,"44038034":7489,"EFEB":7490,"0999":7491,"reater":7492,"2503":7493,"05279":7494,"0297":7495,"0282":7496,"ĠOTHER":7497,"Ġquanti":7498,"netic":7499,"Ġerr":7500,"Ġrole":7501,"formation":7502,"49135544336":7503,"061068":7504,"ibrary":7505,"Ġtissue":7506,"steps":7507,"UDING":7508,"Ġhanno":7509,"0560":7510,"1790":7511,"3798":7512,"3782":7513,"3164":7514,"4508":7515,"6760":7516,"ACBF":7517,"BABB":7518,"BCDC":7519,"BADA":7520,"ECCF":7521,"Ma":7522,"MPL":7523,"NPY":7524,"St":7525,"Type":7526,"bin":7527,"ies":7528,"iol":7529,"Ġ528":7530,"Ġ304":7531,"1165":7532,"5680":7533,"3844":7534,"3823":7535,"1203":7536,"3942":7537,"3999":7538,"7925":7539,"5258":7540,"5282":7541,"5284":7542,"3402":7543,"3692":7544,"3695":7545,"1688":7546,"1642":7547,"7614":7548,"5954":7549,"5980":7550,"5924":7551,"59399":7552,"3096":7553,"1089":7554,"1046":7555,"1964":7556,"7813":7557,"7804":7558,"7806":7559,"7847":7560,"7420":7561,"7421":7562,"7491":7563,"7040":7564,"1810":7565,"1829":7566,"1899":7567,"2032":7568,"2052":7569,"2090":7570,"2042":7571,"2954":7572,"2974":7573,"2927":7574,"8079":7575,"6609":7576,"4026":7577,"8909":7578,"4972":7579,"4936":7580,"AADA":7581,"2278":7582,"2288":7583,"CEBD":7584,"CDBE":7585,"4428":7586,"4467":7587,"44634":7588,"FEAC":7589,"8872":7590,"8836":7591,"8828":7592,"8857":7593,"8865":7594,"1550":7595,"1577":7596,"1551":7597,"1715":7598,"9046":7599,"6267":7600,"4847":7601,"DBAA":7602,"DBCF":7603,"EEBE":7604,"ACAF":7605,"DDCC":7606,"7714":7607,"BBCE":7608,"BBDF":7609,"ÂªÃł":7610,"CCAA":7611,"EBEA":7612,"enoca":7613,"enze":7614,"enhanced":7615,"2452":7616,"2435":7617,"2475":7618,"3172":7619,"5737":7620,"4659":7621,"ĠÃĻ":7622,"BDFB":7623,"7314":7624,"8639":7625,"7152":7626,"EFAB":7627,"EFAE":7628,"CAFB":7629,"onance":7630,"BEAF":7631,"0872":7632,"0459":7633,"0480":7634,"0455":7635,"0654":7636,"DACD":7637,"DCCE":7638,"6713":7639,"4511":7640,"4539":7641,"2717":7642,"ÄłA":7643,"8712":7644,"8536":7645,"4338":7646,"2314":7647,"9500":7648,"9539":7649,"0733":7650,"0314":7651,"Ä¹Ã¢":7652,"Ġpublish":7653,"Ġinf":7654,"ito":7655,"ðĸ¾":7656,"ath":7657,"Ġwe":7658,"Ġwere":7659,"Ġwould":7660,"olec":7661,"Ġ512":7662,"Ġve":7663,"Ġvari":7664,"arg":7665,"ĠAm":7666,"ectal":7667,"554318":7668,"Ä©Ãł":7669,"Ä©Ã¯":7670,"Ä«Ãł":7671,"5565":7672,"1540":7673,"1587":7674,"1744":7675,"7181":7676,"2111":7677,"8594":7678,"sible":7679,"BDBE":7680,"4740":7681,"8294":7682,"Ġcases":7683,"4165":7684,"9364":7685,"55224":7686,"0183":7687,"Ġbeing":7688,"atic":7689,"259061068":7690,"0725":7691,"13576034":7692,"âĹĮðĳ°":7693,"ĠRadiol":7694,"Ġexperiment":7695,"Ġpart":7696,"ĠÃĥÂªÃħÄ¥":7697,"servati":7698,"lood":7699,"tively":7700,"puted":7701,"Ġbas":7702,"ĠÃħÄ¢Ãĥ":7703,"Ġparameter":7704,"Ġadditional":7705,"39895630":7706,"861244038034":7707,"Ġmonitoring":7708,"Ġpermission":7709,"Ġparametri":7710,"Ġnormal":7711,"79739270":7712,"Ġvolume":7713,"33211138":7714,"81522949135544336":7715,"0709":7716,"3151":7717,"4790":7718,"4522":7719,"5526":7720,"5164":7721,"5780":7722,"5357":7723,"7399":7724,"7526":7725,"9502":7726,"ACDF":7727,"AFDA":7728,"BCDF":7729,"CADD":7730,"CFFF":7731,"CFDC":7732,"CCDE":7733,"CCEC":7734,"DCDA":7735,"DTP":7736,"EN":7737,"TT":7738,"ggi":7739,"mb":7740,"uffer":7741,"ww":7742,"xy":7743,"Ġum":7744,"Ġhe":7745,"0010":7746,"0062":7747,"1150":7748,"1185":7749,"1123":7750,"1141":7751,"3216":7752,"3206":7753,"5614":7754,"5613":7755,"5696":7756,"5663":7757,"3824":7758,"1234":7759,"3944":7760,"3988":7761,"3990":7762,"3964":7763,"5462":7764,"5482":7765,"7976":7766,"7964":7767,"7981":7768,"5281":7769,"5203":7770,"3450":7771,"3410":7772,"1628":7773,"1683":7774,"5858":7775,"5860":7776,"5835":7777,"5875":7778,"7688":7779,"7648":7780,"7628":7781,"5908":7782,"3034":7783,"1489":7784,"1482":7785,"1498":7786,"1436138":7787,"1083":7788,"1999":7789,"1928":7790,"7879":7791,"7818":7792,"7837":7793,"7449":7794,"7462":7795,"74469":7796,"7099":7797,"7028":7798,"7063":7799,"7065":7800,"1874":7801,"1893":7802,"2959":7803,"8089":7804,"6619":7805,"6642":7806,"4054":7807,"4066":7808,"4044":7809,"4055":7810,"8956":7811,"8959":7812,"4960":7813,"4990":7814,"AACD":7815,"6069":7816,"609714":7817,"2266":7818,"2285":7819,"FBDA":7820,"6954":7821,"6999":7822,"CBFC":7823,"4457":7824,"ABBA":7825,"FECB":7826,"FEAB":7827,"FDBE":7828,"1375":7829,"8800":7830,"8816":7831,"8888":7832,"1538":7833,"1534":7834,"1714":7835,"AEBD":7836,"9035":7837,"3553":7838,"6200":7839,"4234":7840,"42450":7841,"3736":7842,"3750":7843,"3773":7844,"4816":7845,"4826":7846,"EEDD":7847,"9900":7848,"9949":7849,"5533":7850,"6455":7851,"DDAF":7852,"BBCB":7853,"CCFC":7854,"EDAC":7855,"5715":7856,"57746":7857,"4679":7858,"0959":7859,"0967":7860,"2620":7861,"8460":7862,"5134":7863,"5176":7864,"8656":7865,"8614":7866,"8635":7867,"8642":7868,"7132":7869,"9868":7870,"981900":7871,"ĠÄł":7872,"BEFE":7873,"0800":7874,"0812":7875,"0436":7876,"BCFC":7877,"DECB":7878,"DEFC":7879,"0266":7880,"BFAE":7881,"6758":7882,"4550":7883,"MsgKAT":7884,"Äłb":7885,"Äłh":7886,"8774":7887,"2512":7888,"4339":7889,"4154":7890,"4130":7891,"6172":7892,"6174":7893,"4719":7894,"ception":7895,"0758":7896,"Ġcd":7897,"radi":7898,"Ġsur":7899,"Ġph":7900,"ÂºÃ¢":7901,"atom":7902,"anto":7903,"ange":7904,"âĹĮà·":7905,"2122790":7906,"Ġ576":7907,"Ä§Ãł":7908,"4141":7909,"4149":7910,"Ġdec":7911,"Ġdimostra":7912,"7118":7913,"3563":7914,"356248":7915,"ĠTra":7916,"Ä¾Ãł":7917,"3124":7918,"5749":7919,"Ã¢Ä¹Ä®ÃłÂº":7920,"3308":7921,"2008":7922,"ĠPython":7923,"7564":7924,"CFEC":7925,"5188":7926,"Ġperform":7927,"ĠIS":7928,"ĠIt":7929,"3742":7930,"2705":7931,"1765":7932,"466679":7933,"46905279":7934,"FFEC":7935,"13633211138":7936,"4291":7937,"ÃĦÂªÃĦ":7938,"6385":7939,"87833":7940,"icenses":7941,"96955224":7942,"Ġstate":7943,"9701":7944,"4701":7945,"Ġtrans":7946,"4646":7947,"lib":7948,"ird":7949,"ival":7950,"Ġdose":7951,"pose":7952,"Ġversions":7953,"Ġnumer":7954,"ĠÃĤÂªÃĥÂªÃĦ":7955,"ĠÃĦÅĥÃĥ":7956,"Ġaccor":7957,"627659399":7958,"Ġpresence":7959,"79908139":7960,"Ġmanagement":7961,"2422259061068":7962,"Ġdistribute":7963,"urgery":7964,"17197532":7965,"5918554318":7966,"113263569":7967,"6476861244038034":7968,"CLUDING":7969,"Ġholder":7970,"ĠpuÃ²":7971,"135760342422259061068":7972,"3989563081522949135544336":7973,"0547":7974,"2502":7975,"3508":7976,"4000":7977,"4788":7978,"4509":7979,"4382":7980,"5508":7981,"5789":7982,"6362":7983,"7560":7984,"8598":7985,"CCED":7986,"CCBF":7987,"ECDB":7988,"EAAE":7989,"MIT":7990,"To":7991,"TWAR":7992,"UL":7993,"gment":7994,"les":7995,"por":7996,"sa":7997,"tect":7998,"Ġx":7999,"ĠBD":8000,"Ġbf":8001,"Ġ696":8002,"1139":8003,"3217269":8004,"5654":8005,"5629":8006,"5648":8007,"5646":8008,"5604":8009,"5695":8010,"5647":8011,"7214":8012,"7202":8013,"3806":8014,"1254":8015,"1214":8016,"1277":8017,"3962":8018,"3985":8019,"3903":8020,"5449":8021,"5409":8022,"5473":8023,"5404":8024,"5421":8025,"540939":8026,"7974":8027,"7992":8028,"5242":8029,"1636":8030,"1620":8031,"1604":8032,"1693":8033,"5892":8034,"7617":8035,"7643":8036,"5910":8037,"5994":8038,"3077":8039,"5092":8040,"1427":8041,"1403":8042,"1062":8043,"1084":8044,"1948":8045,"1924":8046,"1992":8047,"1997":8048,"7422":8049,"7464":8050,"7428":8051,"7068":8052,"7075":8053,"1834":8054,"1822":8055,"2074":8056,"2029":8057,"2044":8058,"2987":8059,"2985":8060,"8034":8061,"80889":8062,"6683":8063,"6681":8064,"8944":8065,"8962":8066,"8924":8067,"AAEF":8068,"6072":8069,"6010":8070,"6095":8071,"2272":8072,"2252":8073,"2213":8074,"2282":8075,"2284":8076,"CDEA":8077,"6915":8078,"6908":8079,"CBAD":8080,"CBEE":8081,"CBFF":8082,"ABBD":8083,"ABDC":8084,"FEDC":8085,"1358":8086,"1350":8087,"AEEC":8088,"AEBA":8089,"9069":8090,"ADDD":8091,"6272":8092,"6269":8093,"3712":8094,"3755":8095,"DBDD":8096,"EEFC":8097,"9938":8098,"9912":8099,"9982":8100,"5532":8101,"DDEB":8102,"7732":8103,"2834":8104,"2876":8105,"2818":8106,"2829":8107,"EBCD":8108,"EBFD":8109,"EDCA":8110,"3174":8111,"5738":8112,"8218":8113,"4656":8114,"ECAE":8115,"BDFE":8116,"can":8117,"2629":8118,"2689":8119,"5339":8120,"5334":8121,"8471":8122,"7300":8123,"7336":8124,"7370":8125,"5156":8126,"5138":8127,"8673":8128,"8651":8129,"Ġai":8130,"CFCE":8131,"CFAB":8132,"9455":8133,"0430":8134,"0255":8135,"BAFA":8136,"6711":8137,"4538":8138,"6550":8139,"ÄłS":8140,"8717":8141,"2311":8142,"4136":8143,"8312":8144,"2158":8145,"0556":8146,"0378":8147,"Ġthird":8148,"Ġcer":8149,"ðĳĳ":8150,"Ġop":8151,"Ġinst":8152,"Ã¢Ä¹Ä®ÃªÄ»":8153,"Ġeither":8154,"Ġfla":8155,"Ġnecess":8156,"ount":8157,"4146":8158,"Ġlin":8159,"âĹĮáĤ":8160,"5544":8161,"ÄŃÃ¯":8162,"5745":8163,"Ä¬Ã¯":8164,"330540939":8165,"4548":8166,"200619":8167,"7348":8168,"Ä°Ã¯":8169,"33976":8170,"3006":8171,"Ġup":8172,"Ġuti":8173,"ĠÃĥÄ±":8174,"ĠÃĥÄ¼":8175,"3549":8176,"6348":8177,"1745":8178,"4185":8179,"22956":8180,"6584":8181,"130609714":8182,"2348":8183,"Ġwithin":8184,"8807":8185,"5792089":8186,"Ġcast":8187,"9568":8188,"8344":8189,"2682":8190,"8105":8191,"6806":8192,"6394479":8193,"6887":8194,"8203":8195,"2324":8196,"8196":8197,"Ġpropag":8198,"idney":8199,"05079739270":8200,"ima":8201,"9346":8202,"2391":8203,"9684":8204,"4521":8205,"210356248":8206,"9826":8207,"Ġtratta":8208,"8505":8209,"9590":8210,"43530014":8211,"65511":8212,"Ġlaw":8213,"ĠGPL":8214,"Ġwho":8215,"0825":8216,"ential":8217,"Ġmost":8218,"ando":8219,"trauma":8220,"vascular":8221,"nonfree":8222,"arac":8223,"Ġpointer":8224,"Ġcontro":8225,"ĠÃĤÂµÃĥÂªÃĦ":8226,"ĠÃħÄ¥Ãĥ":8227,"ield":8228,"529996955224":8229,"permeab":8230,"Ġinclude":8231,"4654466679":8232,"96399637":8233,"Ġsome":8234,"333217197532":8235,"Ġparenchy":8236,"eccak":8237,"nique":8238,"Ġrappresentati":8239,"MAG":8240,"klm":8241,"Ġwarranty":8242,"401001436138":8243,"446345918554318":8244,"DTPA":8245,"98190079908139":8246,"2122790401001436138":8247,"46905279627659399":8248,"136332111386476861244038034":8249,"1132635693989563081522949135544336":8250,"0161":8251,"0175":8252,"0377":8253,"3786":8254,"4797":8255,"4377":8256,"6520":8257,"8000":8258,"8393":8259,"8508":8260,"8320":8261,"8175":8262,"CFCC":8263,"DADD":8264,"DFDA":8265,"DCCC":8266,"FCDF":8267,"FAAC":8268,"FCEF":8269,"GF":8270,"Pro":8271,"bum":8272,"cs":8273,"go":8274,"led":8275,"ĠBC":8276,"Ġ224":8277,"Ġ320":8278,"0044":8279,"0026":8280,"1111":8281,"1119":8282,"1182":8283,"3272":8284,"3253":8285,"3208":8286,"3204":8287,"5636":8288,"5669":8289,"5621":8290,"3809":8291,"3918":8292,"3982":8293,"3995":8294,"5460":8295,"5457":8296,"5451":8297,"7972":8298,"7954":8299,"7918":8300,"7967":8301,"5214":8302,"5208":8303,"3432":8304,"3616":8305,"3645":8306,"3665":8307,"3605":8308,"1615":8309,"1677":8310,"1692":8311,"1603":8312,"5887":8313,"7693":8314,"5942":8315,"5971":8316,"59656":8317,"3062":8318,"3033":8319,"5039":8320,"5040":8321,"5094":8322,"1017":8323,"1055":8324,"1977":8325,"7819":8326,"7842":8327,"7403":8328,"7058":8329,"7042":8330,"1831":8331,"1805":8332,"2020":8333,"2035":8334,"2942":8335,"2975":8336,"2923":8337,"2941":8338,"8016":8339,"8096":8340,"6677":8341,"6606":8342,"8904":8343,"4941":8344,"AABD":8345,"6050":8346,"6040":8347,"6071":8348,"6027":8349,"2239":8350,"CEAF":8351,"CEEF":8352,"FBFA":8353,"FBBF":8354,"6930":8355,"6927":8356,"CBEA":8357,"CBDF":8358,"4468":8359,"FDCB":8360,"FDFF":8361,"FDCF":8362,"FDDE":8363,"8859":8364,"8882":8365,"1531":8366,"1735":8367,"1777":8368,"AECA":8369,"9045":8370,"3554":8371,"3550":8372,"ADAB":8373,"ADFD":8374,"ADFA":8375,"6232":8376,"6252":8377,"6266":8378,"6275":8379,"4249":8380,"6836":8381,"6844":8382,"6841":8383,"4850":8384,"4818":8385,"EECC":8386,"3312":8387,"3374":8388,"9911":8389,"5512":8390,"DDAA":8391,"DDEF":8392,"2830":8393,"2880":8394,"BBCC":8395,"CCFB":8396,"EBDA":8397,"2432":8398,"5756":8399,"8256":8400,"0949":8401,"0988":8402,"0948":8403,"8459":8404,"8419":8405,"8418":8406,"7312":8407,"5179":8408,"8658":8409,"7170":8410,"inclu":8411,"9849":8412,"9673":8413,"BEFA":8414,"0433":8415,"DEAB":8416,"0229":8417,"2739":8418,"2754":8419,"2319":8420,"8317":8421,"9314":8422,"6130":8423,"9538":8424,"2130":8425,"0532":8426,"0536":8427,"8150":8428,"0158":8429,"Â´Â¢":8430,"Â´Â¤":8431,"Ġthen":8432,"ack":8433,"Ġob":8434,"Ġthem":8435,"ÅĤÃ¯":8436,"Ġwrit":8437,"âĹĮà¤":8438,"Ġreas":8439,"ument":8440,"Ġ256":8441,"rides":8442,"ĠCol":8443,"Ġblood":8444,"arr":8445,"Ġcons":8446,"lli":8447,"ÄºÃ¯":8448,"ÄªÃ¯":8449,"3129":8450,"1725":8451,"1729":8452,"3306":8453,"7190":8454,"7197":8455,"5344":8456,"76916":8457,"Ä±Ã¯":8458,"5391":8459,"3729":8460,"1580":8461,"3596":8462,"3548":8463,"6182":8464,"Ġhaem":8465,"3740":8466,"Ġgi":8467,"Ġgreater":8468,"ĠEX":8469,"6141":8470,"5763":8471,"urther":8472,"8346":8473,"4108":8474,"9721":8475,"6498":8476,"4207":8477,"0197":8478,"ĠMTT":8479,"6173":8480,"0881":8481,"4647":8482,"6551":8483,"9847":8484,"pilation":8485,"tiche":8486,"iven":8487,"Ġallow":8488,"zazione":8489,"RIGH":8490,"Ġvalutazione":8491,"====":8492,"64797660":8493,"cripts":8494,"553942450":8495,"Ġrecipi":8496,"oundation":8497,"ĠNOT":8498,"49407573":8499,"culature":8500,"7626974469":8501,"Ġdiagnos":8502,"ÎĶR":8503,"Ġexample":8504,"OFTWAR":8505,"Ġruolo":8506,"57746333217197532":8507,"321726943530014":8508,"330540939446345918554318":8509,"2006196394479":8510,"13060971498190079908139":8511,"5792089210356248":8512,"050797392704654466679":8513,"529996955224135760342422259061068":8514,"96399637136332111386476861244038034":8515,"469052796276593991132635693989563081522949135544336":8516,"7389":8517,"7524":8518,"9169":8519,"AFFF":8520,"CT":8521,"CADB":8522,"DCEF":8523,"DABC":8524,"DAED":8525,"DCEC":8526,"EFDB":8527,"FAAD":8528,"FCDB":8529,"FFBF":8530,"OL":8531,"PO":8532,"US":8533,"mio":8534,"pe":8535,"sur":8536,"Ġ)":8537,"Ġ+":8538,"ĠQ":8539,"Ġz":8540,"Ġbb":8541,"Ġfd":8542,"Ġ399":8543,"Ġ598":8544,"0088":8545,"0009":8546,"1176":8547,"1178":8548,"1144":8549,"1103":8550,"3239":8551,"3248":8552,"5600":8553,"5678":8554,"5682":8555,"5686":8556,"5643":8557,"7200":8558,"7220":8559,"7221":8560,"7297":8561,"3852":8562,"3816":8563,"3818":8564,"3884":8565,"1232":8566,"1256":8567,"1250":8568,"3993":8569,"5413":8570,"5492":8571,"7978":8572,"7966":8573,"7949":8574,"7935":8575,"5200":8576,"5290":8577,"5228":8578,"5265":8579,"3648":8580,"1659":8581,"1622":8582,"5829":8583,"5841":8584,"7624":8585,"5919":8586,"5940":8587,"5922":8588,"5992":8589,"5967":8590,"3017":8591,"3087":8592,"3085":8593,"5026":8594,"5023":8595,"1476":8596,"1459":8597,"1443":8598,"1957":8599,"1982":8600,"7815":8601,"7875":8602,"7886":8603,"7434":8604,"7416":8605,"7414":8606,"7478":8607,"7466":8608,"7050":8609,"7033":8610,"7085":8611,"1848":8612,"1809":8613,"2966":8614,"2951":8615,"8017":8616,"80620":8617,"6670":8618,"6621":8619,"4029":8620,"4064":8621,"4082":8622,"6039":8623,"6052":8624,"6090":8625,"6025":8626,"2256":8627,"2268":8628,"22700":8629,"6959":8630,"6980":8631,"6957":8632,"CBBE":8633,"4422":8634,"FECD":8635,"FEFE":8636,"FEFA":8637,"FDEE":8638,"1316":8639,"8889":8640,"1775":8641,"AEDD":8642,"9076":8643,"9087":8644,"3534":8645,"3516":8646,"3555":8647,"ADFB":8648,"ADDB":8649,"6256":8650,"6210":8651,"6274":8652,"4273":8653,"4245":8654,"3739":8655,"Ã¡Ä£Ä":8656,"6866":8657,"6860":8658,"4832":8659,"4856":8660,"4812":8661,"4819":8662,"DBCB":8663,"75158":8664,"3310":8665,"9929":8666,"6462":8667,"DDCE":8668,"DDFA":8669,"7712":8670,"7770":8671,"2812":8672,"FFFE":8673,"EDDB":8674,"EDFC":8675,"FACD":8676,"FAFD":8677,"8219":8678,"4636":8679,"4674":8680,"ECFF":8681,"0960":8682,"0969":8683,"2612":8684,"2614":8685,"7359":8686,"5154":8687,"8648":8688,"indi":8689,"Ġam":8690,"Ġacce":8691,"Ġtreated":8692,"CACB":8693,"9279":8694,"9839":8695,"9820":8696,"9451":8697,"effe":8698,"9636":8699,"9689":8700,"9675":8701,"DFCE":8702,"0440":8703,"DEAA":8704,"0275":8705,"DAFF":8706,"DCFF":8707,"BAFC":8708,"6759":8709,"4559":8710,"6512":8711,"2718":8712,"ÄłM":8713,"ÄłT":8714,"8500":8715,"8511":8716,"8534":8717,"2510":8718,"4134":8719,"9339":8720,"9511":8721,"9516":8722,"9578":8723,"ory":8724,"orted":8725,"tivo":8726,"0736":8727,"0717":8728,"eeef":8729,"ÂµÃ¢":8730,"ÃĥÄ¥":8731,"ÃĥÄ¿":8732,"rac":8733,"ðĳĩ":8734,"acer":8735,"Ġol":8736,"cdef":8737,"Ġtheir":8738,"reed":8739,"reter":8740,"Ġment":8741,"anda":8742,"Ġ176":8743,"untime":8744,"ĠPAR":8745,"ðŀ¥":8746,"set":8747,"Ġ416":8748,"Ġtomo":8749,"Ġdue":8750,"Ġdynamic":8751,"terapia":8752,"Ġconf":8753,"ĠÃłÅĤ":8754,"âĹĮáľ":8755,"76028":8756,"Ä´Ã¯":8757,"1389":8758,"3123":8759,"that":8760,"5342":8761,"2194":8762,"2199":8763,"6114":8764,"ications":8765,"7566":8766,"Ġist":8767,"ĠDCE":8768,"2142":8769,"2115":8770,"270700":8771,"6004":8772,"2690":8773,"8593":8774,"1391":8775,"5166":8776,"7791":8777,"2684":8778,"6102":8779,"9726":8780,"7523":8781,"ĠNo":8782,"2189":8783,"DEBA":8784,"6493":8785,"1504":8786,"EFEA":8787,"2328":8788,"6742":8789,"Ġprovi":8790,"8401":8791,"8405":8792,"4208":8793,"8896":8794,"0608":8795,"4781":8796,"0905":8797,"2302":8798,"DFEB":8799,"DFED":8800,"ules":8801,"0621":8802,"âĹĮðĳĨ":8803,"âĹĮðĳľ":8804,"02218":8805,"9463":8806,"ĠRadi":8807,"Ġrene":8808,"Ġworks":8809,"main":8810,"Ġresonance":8811,"Ġuser":8812,"Ġfarmac":8813,"Ġotherwise":8814,"ÃĦÅĤÃĦÅĤ":8815,"Ġrisul":8816,"Ġpost":8817,"Ġcontrol":8818,"ĠÃĤÂºÃĥÂªÃĦ":8819,"apie":8820,"Ġmodified":8821,"ĠÃħÄ¢ÃĥÂªÃĦ":8822,"ĠÃħÄ£Ãĥ":8823,"Ġconveying":8824,"Ġmodels":8825,"Ġprima":8826,"ĠCOPY":8827,"ÄłÄłÄłÄłÄłÄłÄłÄłÄłÄłÄłÄłÄłÄłÄłÄł":8828,"Ġnotices":8829,"colare":8830,"037280889":8831,"medi":8832,"posta":8833,"Ġdetermin":8834,"Ġgranted":8835,"33976553942450":8836,"2122790401001436138050797392704654466679":8837,"RIGHT":8838,"6479766013060971498190079908139":8839,"49407573529996955224135760342422259061068":8840,"762697446949407573529996955224135760342422259061068":8841,"OFTWARE":8842,"5774633321719753296399637136332111386476861244038034":8843,"321726943530014330540939446345918554318":8844,"2122790401001436138050797392704654466679469052796276593991132635693989563081522949135544336":8845,"0155":8846,"0557":8847,"1768":8848,"2000":8849,"2782":8850,"2362":8851,"3728":8852,"3502":8853,"4320":8854,"4357":8855,"5560":8856,"5382":8857,"6000":8858,"6798":8859,"7799":8860,"9362":8861,"As":8862,"ACDB":8863,"BAED":8864,"BAEB":8865,"BACF":8866,"BFBC":8867,"BABD":8868,"CFDD":8869,"CCDA":8870,"CAEA":8871,"DCBB":8872,"DFDE":8873,"DAAE":8874,"Data":8875,"ECBC":8876,"EACA":8877,"EADF":8878,"FFCC":8879,"FABA":8880,"FAEA":8881,"Int":8882,"Multi":8883,"New":8884,"Res":8885,"cy":8886,"over":8887,"tre":8888,"ub":8889,"yst":8890,"ĠDC":8891,"Ġfe":8892,"Ġ788":8893,"Ġ524":8894,"ĠFDD":8895,"ĠABE":8896,"Ġ785":8897,"ĠABC":8898,"0018":8899,"0013":8900,"0005":8901,"1110":8902,"1190":8903,"1109":8904,"1198":8905,"1127":8906,"3254":8907,"32520":8908,"5642":8909,"5698":8910,"3820":8911,"3805":8912,"1233":8913,"1207":8914,"3933":8915,"5452":8916,"5429":8917,"5475":8918,"7908":8919,"7947":8920,"5288":8921,"5201":8922,"3448":8923,"3425":8924,"3680":8925,"3646":8926,"3603":8927,"1650":8928,"1697":8929,"5856":8930,"5839":8931,"5830":8932,"5886":8933,"7620":8934,"5959":8935,"5963":8936,"5927":8937,"5089":8938,"5053":8939,"1472":8940,"1039":8941,"1019":8942,"1082":8943,"1051":8944,"1990":8945,"7858":8946,"7878":8947,"7865":8948,"7885":8949,"7456":8950,"7030":8951,"7019":8952,"7024":8953,"7096":8954,"7041":8955,"1866":8956,"2037":8957,"2064":8958,"2028":8959,"2905":8960,"8060":8961,"8065":8962,"6632":8963,"6686":8964,"4058":8965,"4050":8966,"4089":8967,"8932":8968,"8966":8969,"8942":8970,"8946":8971,"8973":8972,"8965":8973,"4950":8974,"4920":8975,"4917":8976,"AAFA":8977,"6018":8978,"6086":8979,"2250":8980,"2270":8981,"CDAC":8982,"CDEB":8983,"FBCC":8984,"FBEA":8985,"6942":8986,"6946":8987,"6984":8988,"6925":8989,"4452":8990,"4458":8991,"4478":8992,"4460":8993,"ABFB":8994,"ABFF":8995,"FEEC":8996,"FDDA":8997,"1315":8998,"8813":8999,"1532":9000,"1712":9001,"17381":9002,"9054":9003,"9019":9004,"9047":9005,"3513":9006,"6273":9007,"62756":9008,"4277":9009,"4285":9010,"3737":9011,"4829":9012,"4824":9013,"4841":9014,"DBCD":9015,"DBEF":9016,"DBBC":9017,"7574":9018,"7518":9019,"FCAF":9020,"EEAF":9021,"EEDF":9022,"9966":9023,"ACCC":9024,"5555":9025,"5553":9026,"6412":9027,"7777":9028,"2856":9029,"2816":9030,"2878":9031,"BBCD":9032,"BBDB":9033,"CCFF":9034,"EBAD":9035,"2437":9036,"3152":9037,"5778":9038,"8239":9039,"8216":9040,"4649":9041,"ECFE":9042,"0918":9043,"0966":9044,"0928":9045,"5372":9046,"5315":9047,"8432":9048,"8440":9049,"8600":9050,"8659":9051,"86358":9052,"7150":9053,"inding":9054,"eriv":9055,"ÃĥÂªÃħÄ¥":9056,"9258":9057,"9858":9058,"9844":9059,"94582":9060,"9654":9061,"9680":9062,"9635":9063,"0854":9064,"0846":9065,"0400":9066,"0478":9067,"0420":9068,"0469":9069,"BCAF":9070,"DECE":9071,"0656":9072,"0630":9073,"0671":9074,"0276":9075,"0231":9076,"DCCD":9077,"depend":9078,"Äłe":9079,"Äłg":9080,"Äłcon":9081,"8732":9082,"2530":9083,"âĹĮê£":9084,"8300":9085,"8372":9086,"9317":9087,"6138":9088,"6170":9089,"9519":9090,"4732":9091,"4714":9092,"2134":9093,"0734":9094,"0134":9095,"0159":9096,"0174":9097,"Ġsing":9098,"Ġsame":9099,"Ġour":9100,"Ġini":9101,"Ġindex":9102,"rel":9103,"Ġms":9104,"atoma":9105,"ÅĤÃ¢":9106,"Ġevid":9107,"Ġ312":9108,"ĠĠĠĠĠĠĠĠĠ":9109,"Ġbefore":9110,"Ġlacer":9111,"4119":9112,"Ä²Ã¯":9113,"Ġorgan":9114,"57471":9115,"Ä¬Ãł":9116,"1727":9117,"7007":9118,"Ä«Ã¯":9119,"ĠFoundation":9120,"7195":9121,"7199":9122,"7162":9123,"2001":9124,"5567":9125,"ĠÃĥÄ°":9126,"53942":9127,"1548":9128,"3722":9129,"3322":9130,"3326":9131,"5596":9132,"5110":9133,"Ġpers":9134,"7723":9135,"7725":9136,"3112":9137,"EAEE":9138,"8584":9139,"6327":9140,"6125":9141,"2116":9142,"6007":9143,"4661":9144,"4666":9145,"4589":9146,"6587":9147,"1302":9148,"ĠLa":9149,"8291":9150,"57980":9151,"4761":9152,"6507":9153,"FFEF":9154,"4103":9155,"4106":9156,"8146":9157,"6884":9158,"2806":9159,"9406":9160,"2204":9161,"4796":9162,"9221":9163,"7783":9164,"9281":9165,"9298":9166,"4707":9167,"0423":9168,"6364":9169,"Ã°Ä´":9170,"6482":9171,"ĠGd":9172,"Ġsupp":9173,"Ã¢Ä¹Ä®Ã¡ÅĢ":9174,"graphy":9175,"Ġ3940":9176,"Ġterapie":9177,"ITH":9178,"Ġcolon":9179,"angiogenesi":9180,"tumor":9181,"colo":9182,"ĠÃħÄ¥ÃĥÂªÃĦ":9183,"ĠÃħÄ£ÃĥÂªÃĦ":9184,"monstra":9185,"angu":9186,"ĠÃĦÂµÃĥ":9187,"ĠCON":9188,"Ġcharge":9189,"ĠÃĦÂªÃĥ":9190,"significa":9191,"pack":9192,"Ġpermissions":9193,"Ġelevati":9194,"apeu":9195,"Ġsignificant":9196,"bool":9197,"Ġoutput":9198,"Ġtessuto":9199,"Ġassociated":9200,"Ġriduzione":9201,"ĠâĢ¢":9202,"Ġexperimental":9203,"aracter":9204,"Ġreason":9205,"20061963944792122790401001436138050797392704654466679469052796276593991132635693989563081522949135544336":9206,"5792089210356248762697446949407573529996955224135760342422259061068":9207,"037280889270700":9208,"339765539424505774633321719753296399637136332111386476861244038034":9209,"6479766013060971498190079908139321726943530014330540939446345918554318":9210,"0353":9211,"0331":9212,"1569":9213,"2309":9214,"3360":9215,"3704":9216,"4598":9217,"4308":9218,"4175":9219,"5520":9220,"5522":9221,"6371":9222,"6133":9223,"7520":9224,"8728":9225,"8768":9226,"8399":9227,"8799":9228,"8569":9229,"8333":9230,"9599":9231,"9357":9232,"ACEB":9233,"BADD":9234,"BACC":9235,"BAEC":9236,"CCBC":9237,"CFFA":9238,"Cast":9239,"DFDC":9240,"ECDC":9241,"EAAA":9242,"EABF":9243,"ECCA":9244,"FCEC":9245,"FAAA":9246,"FFBC":9247,"IES":9248,"ha":9249,"ide":9250,"nal":9251,"pat":9252,"uta":9253,"vata":9254,"Î¼":9255,"Ġfc":9256,"Ġ798":9257,"Ġ169":9258,"Ġest":9259,"0071":9260,"1117":9261,"1193":9262,"3218":9263,"3237":9264,"3224":9265,"3223":9266,"3295":9267,"3205":9268,"5687":9269,"5603":9270,"7224":9271,"3850":9272,"3825":9273,"1251":9274,"1271":9275,"3954":9276,"5444":9277,"5417":9278,"5486":9279,"5443":9280,"5441":9281,"7911":9282,"7903":9283,"5216":9284,"3477":9285,"3612":9286,"3618":9287,"3644":9288,"3617":9289,"3691":9290,"1630":9291,"1671":9292,"1627":9293,"1647":9294,"5832":9295,"5834":9296,"5818":9297,"5842":9298,"5899":9299,"5857":9300,"5894":9301,"5802":9302,"7676":9303,"7604":9304,"5903":9305,"5012":9306,"5059":9307,"1432":9308,"1470":9309,"1415":9310,"1490":9311,"1050":9312,"1099":9313,"1094":9314,"1922":9315,"1946":9316,"1945":9317,"7859":9318,"7480":9319,"7499":9320,"7089":9321,"2030":9322,"2049":9323,"2057":9324,"2990":9325,"2948":9326,"8024":9327,"8031":9328,"6644":9329,"6684":9330,"6696":9331,"4088":9332,"4063":9333,"8917":9334,"8961":9335,"AAAA":9336,"AAEE":9337,"AAEB":9338,"AAADC":9339,"6096":9340,"2229":9341,"2264":9342,"CECC":9343,"FBCE":9344,"FBBC":9345,"6932":9346,"6976":9347,"6914":9348,"6964":9349,"69750":9350,"CBDC":9351,"4472":9352,"4420":9353,"4488":9354,"4462":9355,"4441":9356,"ABAD":9357,"FDFA":9358,"1332":9359,"1339":9360,"1333":9361,"8883":9362,"1578":9363,"AEED":9364,"AEDE":9365,"9029":9366,"9048":9367,"3530":9368,"ADCC":9369,"ADBD":9370,"ADABC":9371,"6288":9372,"6282":9373,"4266":9374,"4240":9375,"4253":9376,"4284":9377,"4287":9378,"6828":9379,"6846":9380,"6853":9381,"DBFA":9382,"DBCEF":9383,"7515":9384,"7517":9385,"EEED":9386,"EEEF":9387,"9972":9388,"5574":9389,"6472":9390,"6460":9391,"6469":9392,"6413":9393,"6415":9394,"DDCD":9395,"DDEC":9396,"7779":9397,"7758":9398,"2860":9399,"2857":9400,"FFCB":9401,"FFAF":9402,"BBEF":9403,"CCFE":9404,"EBAF":9405,"2418":9406,"FAFC":9407,"5752":9408,"4610":9409,"4615":9410,"ĠÃĽ":9411,"BDADE":9412,"0919":9413,"0980":9414,"2644":9415,"5336":9416,"5358":9417,"8430":9418,"8474":9419,"8429":9420,"5174":9421,"8634":9422,"7100":9423,"ined":9424,"index":9425,"eals":9426,"Ġation":9427,"erica":9428,"9248":9429,"9842":9430,"9410":9431,"9435":9432,"0844":9433,"DFAE":9434,"BCAA":9435,"BCFA":9436,"0672":9437,"0676":9438,"DACB":9439,"del":9440,"6379":9441,"6539":9442,"2736":9443,"Äłv":9444,"8514":9445,"4356":9446,"4172":9447,"8330":9448,"9334":9449,"9315":9450,"9512":9451,"9531":9452,"9734":9453,"0778":9454,"Â´Â¡":9455,"Â´Â£":9456,"Â´Â¥":9457,"Â°Â±":9458,"album":9459,"Ġcui":9460,"Ġpol":9461,"Ġinfa":9462,"requi":9463,"Ġanche":9464,"lace":9465,"Ġ756":9466,"Ġ752":9467,"sels":9468,"ĠCopyright":9469,"omi":9470,"6169":9471,"Ġlist":9472,"âĹĮáĿ":9473,"Ä¤Ãł":9474,"5540":9475,"5542":9476,"5548":9477,"5124":9478,"512044":9479,"Ä£Ãł":9480,"1383":9481,"5586":9482,"55802":9483,"1724":9484,"Ä»Ãł":9485,"Ä½Ã¯":9486,"ĠFree":9487,"3584":9488,"2003":9489,"6118":9490,"5364":9491,"1344":9492,"5103":9493,"5108":9494,"CFED":9495,"1742":9496,"7392":9497,"7394":9498,"5140":9499,"7361":9500,"Ġalong":9501,"5165":9502,"DFBB":9503,"perit":9504,"Ġcap":9505,"Ġcalled":9506,"Ġ115792089210356248762697446949407573529996955224135760342422259061068":9507,"2481":9508,"4163":9509,"67972":9510,"6761":9511,"CFBA":9512,"CFBF":9513,"ĠSh":9514,"ĠSOFTWARE":9515,"4402":9516,"41205":9517,"2492":9518,"01830":9519,"6544":9520,"imaging":9521,"0323":9522,"0993":9523,"0602":9524,"Ġ104":9525,"BEED":9526,"9682":9527,"07484":9528,"9383":9529,"check":9530,"8481":9531,"9795":9532,"0424":9533,"0627":9534,"8305":9535,"8641":9536,"0867":9537,"Ġdan":9538,"Ġvalid":9539,"diges":9540,"cons":9541,"Ġparty":9542,"ÃħÄ¤ÃĥÂªÃĦ":9543,"Ġenhancement":9544,"Ġesperi":9545,"Ġ686479766013060971498190079908139321726943530014330540939446345918554318":9546,"load":9547,"redist":9548,"Ġmean":9549,"ĠÃĦÅĥÃĥÂªÃĦ":9550,"ĠÃĦÂµÃĥÂªÃĦ":9551,"Ġantiangiogenic":9552,"Ġabove":9553,"ĠCONT":9554,"Ġreturn":9555,"ĠÃĦÂºÃĥ":9556,"Ġdistribution":9557,"ĠÃħÄ¤Ãĥ":9558,"Ġrepresent":9559,"Ġtumorale":9560,"renal":9561,"ĠCont":9562,"Ġauthors":9563,"tivamente":9564,"enocarcinoma":9565,"Ġinfring":9566,"ystem":9567,"Ġ394020061963944792122790401001436138050797392704654466679469052796276593991132635693989563081522949135544336":9568,"339765539424505774633321719753296399637136332111386476861244038034037280889270700":9569,"Ġ115792089210356248762697446949407573529996955224135760342422259061068512044":9570,"Ġ686479766013060971498190079908139321726943530014330540939446345918554318339765539424505774633321719753296399637136332111386476861244038034037280889270700":9571,"0303":9572,"0173":9573,"1000":9574,"1384":9575,"1368":9576,"1304":9577,"2760":9578,"2798":9579,"3709":9580,"4798":9581,"4746":9582,"4355":9583,"6175":9584,"7709":9585,"7382":9586,"8362":9587,"8573":9588,"9696":9589,"9709":9590,"Al":9591,"ACDD":9592,"AFDD":9593,"BFDE":9594,"BCDD":9595,"BFDF":9596,"BFDB":9597,"BCCA":9598,"BECF":9599,"CABD":9600,"DCDB":9601,"DABB":9602,"DAEC":9603,"DACA":9604,"FADD":9605,"FCBE":9606,"FCBA":9607,"IR":9608,"IED":9609,"Re":9610,"azioni":9611,"cun":9612,"dC":9613,"duc":9614,"dtype":9615,"ob":9616,"ola":9617,"port":9618,"sing":9619,"void":9620,"Ġ000":9621,"Ġ393":9622,"Ġ709":9623,"Ġ708":9624,"Ġ789":9625,"Ġ447":9626,"0089":9627,"0022":9628,"0075":9629,"0092":9630,"0096":9631,"0067":9632,"1156":9633,"1148":9634,"3286":9635,"5673":9636,"5685":9637,"5661":9638,"5697":9639,"3890":9640,"3804":9641,"3843":9642,"1258":9643,"3949":9644,"3945":9645,"5474":9646,"5477":9647,"7938":9648,"7940":9649,"7960":9650,"7922":9651,"7953":9652,"5219":9653,"5226":9654,"5267":9655,"5291":9656,"3412":9657,"3454":9658,"3476":9659,"3480":9660,"3401":9661,"3676":9662,"3673":9663,"1672":9664,"1649":9665,"1675":9666,"1646":9667,"1601":9668,"5800":9669,"5859":9670,"5807":9671,"7674":9672,"7692":9673,"7605":9674,"5948":9675,"3010":9676,"5061":9677,"1429":9678,"1090":9679,"1042":9680,"1075":9681,"1936":9682,"1969":9683,"1953":9684,"1951":9685,"7839":9686,"7835":9687,"7801":9688,"7439":9689,"7410":9690,"7441":9691,"7029":9692,"7026":9693,"1855":9694,"1892":9695,"1883":9696,"2940":9697,"8080":9698,"8082":9699,"8083":9700,"6640":9701,"4014":9702,"4096":9703,"8992":9704,"4999":9705,"AAAB":9706,"6051":9707,"6094":9708,"2236":9709,"2271":9710,"CEDF":9711,"CDEE":9712,"CDBB":9713,"6910":9714,"6974":9715,"6917":9716,"6937":9717,"6907":9718,"ABEC":9719,"FEBB":9720,"FDED":9721,"FDBC":9722,"1372":9723,"8870":9724,"8820":9725,"1556":9726,"9068":9727,"9065":9728,"3500":9729,"3556":9730,"ADAE":9731,"ADBF":9732,"ADBA":9733,"6240":9734,"6285":9735,"4269":9736,"3757":9737,"6856":9738,"6831":9739,"4879":9740,"DBFF":9741,"FCFB":9742,"EEBD":9743,"3319":9744,"3378":9745,"9970":9746,"9942":9747,"9999":9748,"5572":9749,"6430":9750,"DDED":9751,"7733":9752,"2872":9753,"BBFE":9754,"BBFC":9755,"CCAE":9756,"CCCF":9757,"EBFC":9758,"enzi":9759,"2455":9760,"3176":9761,"5731":9762,"8200":9763,"8274":9764,"4688":9765,"BDCB":9766,"5310":9767,"8400":9768,"8433":9769,"5170":9770,"ections":9771,"Ġarea":9772,"Ġtw":9773,"Ġtut":9774,"erc":9775,"ereas":9776,"CFFB":9777,"9488":9778,"9620":9779,"9642":9780,"0879":9781,"0829":9782,"0840":9783,"0456":9784,"0458":9785,"0474":9786,"0417":9787,"BCAE":9788,"0638":9789,"0675":9790,"0657":9791,"0256":9792,"0280":9793,"dbef":9794,"DCFA":9795,"6374":9796,"6718":9797,"6579":9798,"2700":9799,"Äłex":9800,"8752":9801,"2313":9802,"2337":9803,"4158":9804,"8335":9805,"9376":9806,"order":9807,"tiv":9808,"0776":9809,"8159":9810,"0316":9811,"9178":9812,"Â´Â§":9813,"ÃĥÄ½":9814,"Ġcould":9815,"Ġsia":9816,"Ġpor":9817,"act":9818,"ission":9819,"atura":9820,"ÅĤÃł":9821,"Ġanatom":9822,"lazione":9823,"âĹĮà³":9824,"ÅģÃł":9825,"Ġrea":9826,"Ġric":9827,"Ġ758":9828,"Ġ352":9829,"Ġ552":9830,"ries":9831,"omark":9832,"Ġves":9833,"Ġconven":9834,"2564":9835,"2568":9836,"Ä¢Ãł":9837,"ÄŃÃł":9838,"16159":9839,"Ġore":9840,"Ä¾Ã¯":9841,"3127":9842,"Ä¿Ãł":9843,"Ä¼Ã¯":9844,"5566":9845,"3391":9846,"Ä±Ãł":9847,"7584":9848,"5119":9849,"1345":9850,"7323":9851,"3541":9852,"6180":9853,"3347":9854,"EFBB":9855,"1566":9856,"4008":9857,"1002":9858,"3118":9859,"ĠBUT":9860,"5005":9861,"ĠIm":9862,"6126":9863,"aggio":9864,"8724":9865,"1390":9866,"6408":9867,"5160":9868,"5503":9869,"2887":9870,"6506":9871,"1705":9872,"4102":9873,"EDBF":9874,"2667":9875,"8740":9876,"6104":9877,"5323":9878,"DEBD":9879,"6883":9880,"4297":9881,"5194":9882,"4125":9883,"9361":9884,"2499":9885,"6748":9886,"8329":9887,"0501":9888,"8383":9889,"Ġnell":9890,"4881":9891,"0583":9892,"4196":9893,"0749":9894,"2593":9895,"othe":9896,"6196":9897,"8487":9898,"ults":9899,"2783":9900,"FAEE":9901,"oplas":9902,"8283":9903,"6553":9904,"tran":9905,"Ġexec":9906,"Ġchemotherapy":9907,"ĠWITH":9908,"ologia":9909,"Ġfail":9910,"Ġvalue":9911,"Ġcoll":9912,"ptr":9913,"Ġbased":9914,"lunt":9915,"TIC":9916,"TION":9917,"Ġpossib":9918,"ĠDAMAG":9919,"Ġtecn":9920,"signed":9921,"Ġreceived":9922,"Ġtechnique":9923,"ghijklm":9924,"Ġerror":9925,"Ġtomography":9926,"(\"":9927,"0786":9928,"0368":9929,"1560":9930,"1520":9931,"2399":9932,"2380":9933,"2526":9934,"2308":9935,"3522":9936,"4709":9937,"4785":9938,"5768":9939,"5788":9940,"5709":9941,"5799":9942,"5360":9943,"5133":9944,"6797":9945,"6389":9946,"6224":9947,"6355":9948,"8708":9949,"9191":9950,"Ar":9951,"ANT":9952,"BL":9953,"BCBE":9954,"BEDC":9955,"CAAE":9956,"CFDB":9957,"CCBD":9958,"Copy":9959,"DCDE":9960,"DCBA":9961,"EADD":9962,"EABC":9963,"FABC":9964,"FFCA":9965,"FACF":9966,"GRA":9967,"IP":9968,"LE":9969,"Microsoft":9970,"NO":9971,"Set":9972,"bu":9973,"ho":9974,"mit":9975,"nis":9976,"now":9977,"ok":9978,"rd":9979,"sp":9980,"tes":9981,"treatment":9982,"types":9983,"xif":9984,"ĠZ":9985,"Ġbd":9986,"Ġ--":9987,"Ġ509":9988,"Ġ599":9989,"Ġ308":9990,"Ġ784":9991,"Ġ584":9992,"Ġ592":9993,"0086":9994,"0098":9995,"0095":9996,"1179":9997,"1188":9998,"1146":9999,"1196":10000,"3238":10001,"3250":10002,"3285":10003,"5634":10004,"5633":10005,"5625":10006,"7269":10007,"3840":10008,"3873":10009,"3893":10010,"1239":10011,"1270":10012,"1266":10013,"1249":10014,"1215":10015,"1217":10016,"1262":10017,"1264":10018,"1284":10019,"3939":10020,"3920":10021,"3902":10022,"3961":10023,"5432":10024,"5440":10025,"5499":10026,"7920":10027,"7963":10028,"5292":10029,"5294":10030,"5247":10031,"3660":10032,"1611":10033,"1634":10034,"1614":10035,"1651":10036,"1602":10037,"1691":10038,"5812":10039,"5814":10040,"5819":10041,"5826":10042,"7656":10043,"7609":10044,"7696":10045,"5939":10046,"5965":10047,"3070":10048,"3037":10049,"3048":10050,"3047":10051,"5018":10052,"5017":10053,"1400":10054,"1442":10055,"1492":10056,"1012":10057,"1080":10058,"1015":10059,"1934":10060,"1980":10061,"7830":10062,"7849":10063,"7844":10064,"7469":10065,"7455":10066,"7051":10067,"1814":10068,"1802":10069,"2011":10070,"2059":10071,"2096":10072,"2958":10073,"2960":10074,"2982":10075,"2904":10076,"8039":10077,"8090":10078,"8037":10079,"8075":10080,"8099":10081,"8085":10082,"8095":10083,"6638":10084,"6675":10085,"4070":10086,"4028":10087,"8914":10088,"8945":10089,"8991":10090,"4912":10091,"4975":10092,"4909":10093,"4987":10094,"4981":10095,"2231":10096,"CEFD":10097,"6956":10098,"CBEF":10099,"4424":10100,"ABCA":10101,"FEEB":10102,"FEBC":10103,"FEBF":10104,"8878":10105,"8840":10106,"8831":10107,"8881":10108,"1572":10109,"1554":10110,"1574":10111,"AEEB":10112,"9077":10113,"9092":10114,"3537":10115,"3551":10116,"ADAF":10117,"ADDE":10118,"ADDA":10119,"6289":10120,"6264":10121,"4262":10122,"4263":10123,"4247":10124,"3716":10125,"3753":10126,"3751":10127,"6824":10128,"6867":10129,"6827":10130,"4822":10131,"4833":10132,"4845":10133,"DBCA":10134,"DBDA":10135,"DBBA":10136,"7530":10137,"EEFD":10138,"EEAC":10139,"EEEB":10140,"3356":10141,"ACCD":10142,"5513":10143,"5575":10144,"5577":10145,"6450":10146,"DDAC":10147,"7739":10148,"7750":10149,"2866":10150,"2822":10151,"FFFB":10152,"BBBF":10153,"BBBA":10154,"EBAA":10155,"EBCA":10156,"EBDF":10157,"EDCD":10158,"3156":10159,"edistrib":10160,"4652":10161,"4670":10162,"4640":10163,"ECAF":10164,"BDCD":10165,"BDAB":10166,"0936":10167,"0942":10168,"0975":10169,"0971":10170,"2639":10171,"2649":10172,"5337":10173,"8422":10174,"7332":10175,"7337":10176,"5159":10177,"8678":10178,"EAFD":10179,"Ġte":10180,"CFAA":10181,"CFAE":10182,"9218":10183,"9838":10184,"9813":10185,"9837":10186,"9414":10187,"dafc":10188,"date":10189,"9616":10190,"9615":10191,"BEFD":10192,"0815":10193,"DFFE":10194,"0410":10195,"BCCB":10196,"BCFE":10197,"0652":10198,"0678":10199,"0239":10200,"0270":10201,"0218":10202,"0289":10203,"DCFC":10204,"base":10205,"ccess":10206,"ðĲ±":10207,"6300":10208,"6350":10209,"6710":10210,"6774":10211,"6575":10212,"2713":10213,"2775":10214,"8714":10215,"8718":10216,"8532":10217,"8576":10218,"8559":10219,"2538":10220,"2332":10221,"2334":10222,"2316":10223,"2318":10224,"âĹĮðĲ¨":10225,"4139":10226,"8370":10227,"cbcf":10228,"9354":10229,"6139":10230,"6152":10231,"9536":10232,"4752":10233,"4733":10234,"9736":10235,"9730":10236,"9731":10237,"0558":10238,"0756":10239,"0715":10240,"estion":10241,"Â´Â¦":10242,"ðĿį":10243,"ðĳĵ":10244,"Ġsol":10245,"Ġstati":10246,"Ġpur":10247,"ÂºÃª":10248,"ÅĥÃ¢":10249,"Ġos":10250,"Â½Â³":10251,"Â½Â¼":10252,"Ġinformation":10253,"Ġthey":10254,"reg":10255,"ret":10256,"ĠÃĥÅĢ":10257,"ently":10258,"Ġfun":10259,"000000000000000000000000":10260,"Ġ640":10261,"ough":10262,"umer":10263,"Ġ712":10264,"Ġ736":10265,"Ġ336":10266,"ĠPer":10267,"Ġ536":10268,"Ġ824":10269,"Ġder":10270,"6165":10271,"Ġben":10272,"8490":10273,"8499":10274,"Ġvi":10275,"Ġconservati":10276,"Ä¨Ãł":10277,"Ä¥Ãł":10278,"Ä³Ã¯":10279,"ĠTo":10280,"tocol":10281,"5582":10282,"5741":10283,"Ã¢Ä¹Ä®ÃłÂµ":10284,"Ã¢Ä¹Ä®ÃłÅĥ":10285,"thy":10286,"thod":10287,"Ä»Ã¯":10288,"3582":10289,"4541":10290,"2005":10291,"3390":10292,"75453":10293,"5398":10294,"1584":10295,"1596":10296,"1597":10297,"6188":10298,"7121":10299,"7124":10300,"EFBA":10301,"1004":10302,"7182":10303,"6324":10304,"6326":10305,"sioni":10306,"5007":10307,"Ġgeneral":10308,"Ġgiven":10309,"2342":10310,"4893":10311,"2881":10312,"Ġcaso":10313,"1701":10314,"3781":10315,"9724":10316,"CFBEC":10317,"8107":10318,"8109":10319,"8147":10320,"9743":10321,"ĠÃ¢Ä¹Ä®ÃĻ":10322,"2899":10323,"9897":10324,"1366":10325,"6495":10326,"4401":10327,"9188":10328,"8366":10329,"4294":10330,"2765":10331,"2722":10332,"9882":10333,"0765":10334,"8707":10335,"0203":10336,"Ġneo":10337,"2201":10338,"2160":10339,"2394":10340,"9124":10341,"6701":10342,"6705":10343,"2544":10344,"2505":10345,"6781":10346,"2441":10347,"8601":10348,"2361":10349,"8162":10350,"9204":10351,"9327":10352,"0495":10353,"9283":10354,"9702":10355,"9825":10356,"0623":10357,"âĹĮðĳĢ":10358,"âĹĮðĳĺ":10359,"9597":10360,"ĠOn":10361,"8647":10362,"9426":10363,"0590":10364,"8247":10365,"Ġmaking":10366,"3351":10367,"ĠRM":10368,"ĠRuntime":10369,"romolec":10370,"eefd":10371,"grade":10372,"tici":10373,"0481":10374,"ĠÄ¤Ã¡":10375,"ĠÂªÃ¡":10376,"ĠÄ¨Ã¡":10377,"ivo":10378,"Ġsel":10379,"copy":10380,"Ġcharacter":10381,"IND":10382,"Ġadvan":10383,"Ġcannot":10384,"Ġgrant":10385,"ORDER":10386,"Ġvasi":10387,"Ġfolder":10388,"Ġstudio":10389,"Ġkidney":10390,"Ġdisclaim":10391,"Ġmagnetic":10392,"erodiges":10393,"ĠLIMIT":10394,"Ġsomministra":10395,"ĠConvey":10396,"ĠWorks":10397,"Ġimport":10398,"Ġspecific":10399,"Converter":10400,"Ġdefini":10401,"ĠWARRANTIES":10402,"Ġpermeability":10403,"Ġgenerated":10404,"MPLIED":10405,"Ġpublished":10406,"Ġnumerical":10407,"Ġutilizz":10408,"Ġtrattamento":10409,"reedom":10410,"ĠCOPYRIGHT":10411,"erivative":10412,"ĠLIMITED":10413,"0502":10414,"1709":10415,"1524":10416,"2797":10417,"2547":10418,"4792":10419,"4380":10420,"4529":10421,"4789":10422,"4133":10423,"6709":10424,"6399":10425,"6790":10426,"7760":10427,"7789":10428,"8524":10429,"8599":10430,"8769":10431,"9792":10432,"9309":10433,"BCBD":10434,"BCBA":10435,"CFDA":10436,"CAEB":10437,"CABF":10438,"DAAA":10439,"DECA":10440,"DADA":10441,"ECBF":10442,"ECBA":10443,"FCBB":10444,"FCEE":10445,"FAED":10446,"FFBD":10447,"FAAF":10448,"JK":10449,"OSS":10450,"gres":10451,"hi":10452,"micro":10453,"nu":10454,"ning":10455,"oth":10456,"rece":10457,"scripts":10458,"utions":10459,"xml":10460,"Ġj":10461,"Ġ292":10462,"Ġ595":10463,"Ġ782":10464,"Ġ529":10465,"Ġ790":10466,"Ġ786":10467,"Ġ164":10468,"Ġ746":10469,"Ġ588":10470,"Ġ896":10471,"Ġ544":10472,"0008":10473,"0091":10474,"1164":10475,"5667":10476,"7250":10477,"7289":10478,"7268":10479,"7277":10480,"7228":10481,"7246":10482,"7243":10483,"7223":10484,"3839":10485,"3876":10486,"3878":10487,"3888":10488,"3833":10489,"3871":10490,"1272":10491,"1268":10492,"3922":10493,"3957":10494,"3973":10495,"3997":10496,"5400":10497,"5437":10498,"5402":10499,"5463":10500,"5467":10501,"7914":10502,"7919":10503,"7913":10504,"5278":10505,"5274":10506,"5220":10507,"5240":10508,"5289":10509,"5215":10510,"5235":10511,"5297":10512,"3438":10513,"3452":10514,"3462":10515,"3442":10516,"3464":10517,"34718":10518,"3659":10519,"3663":10520,"1699":10521,"1608":10522,"1606":10523,"1641":10524,"7612":10525,"7679":10526,"7625":10527,"5946":10528,"3076":10529,"3050":10530,"3074":10531,"5072":10532,"5090":10533,"5025":10534,"1479":10535,"1064":10536,"1045":10537,"1926":10538,"7846":10539,"7803":10540,"7475":10541,"7431":10542,"7447":10543,"7401":10544,"7044":10545,"7071":10546,"70214":10547,"1872":10548,"1828":10549,"2036":10550,"2058":10551,"2013":10552,"2068":10553,"2075":10554,"2041":10555,"2930":10556,"2935":10557,"29174":10558,"8030":10559,"8057":10560,"8071":10561,"8093":10562,"6674":10563,"4072":10564,"4010":10565,"4045":10566,"8938":10567,"8928":10568,"8951":10569,"8967":10570,"8943":10571,"4944":10572,"4902":10573,"6036":10574,"6030":10575,"6088":10576,"2219":10577,"2224":10578,"CEED":10579,"CECA":10580,"CEDA":10581,"CDED":10582,"CDEC":10583,"FBEC":10584,"6929":10585,"6996":10586,"6997":10587,"CBFE":10588,"CBED":10589,"4423":10590,"FEFC":10591,"FEED":10592,"1356":10593,"1374":10594,"1357":10595,"8866":10596,"1751":10597,"90812":10598,"ADCD":10599,"ADCA":10600,"4210":10601,"4244":10602,"4251":10603,"3758":10604,"6876":10605,"6822":10606,"6851":10607,"DBDE":10608,"7537":10609,"7557":10610,"FCFC":10611,"FCFA":10612,"EEDA":10613,"9959":10614,"9973":10615,"5537":10616,"6436":10617,"6416":10618,"DDCF":10619,"7772":10620,"2800":10621,"2868":10622,"2833":10623,"FFFA":10624,"BBEA":10625,"ÂªÃª":10626,"CCCA":10627,"EBFB":10628,"EBDD":10629,"endo":10630,"2479":10631,"2417":10632,"2431":10633,"24640":10634,"8276":10635,"8235":10636,"8262":10637,"8251":10638,"4600":10639,"4612":10640,"4671":10641,"ECAA":10642,"ECAB":10643,"BDAD":10644,"BDFF":10645,"0954":10646,"cast":10647,"2622":10648,"5378":10649,"5370":10650,"AFAB":10651,"8479":10652,"8450":10653,"7339":10654,"5132":10655,"5136":10656,"7139":10657,"7136":10658,"ecbc":10659,"EFCE":10660,"EAFA":10661,"Ġaff":10662,"Ġaut":10663,"eri":10664,"9250":10665,"9229":10666,"9262":10667,"9233":10668,"9438":10669,"9480":10670,"9449":10671,"9611":10672,"BEAE":10673,"BEFC":10674,"0856":10675,"0889":10676,"DFFD":10677,"DEDD":10678,"DEFA":10679,"0649":10680,"0277":10681,"BFFE":10682,"DCFD":10683,"BACD":10684,"6715":10685,"4554":10686,"4517":10687,"6556":10688,"6513":10689,"2772":10690,"2759":10691,"ÄłL":10692,"Äłw":10693,"Äłde":10694,"Äłsu":10695,"8554":10696,"2558":10697,"2514":10698,"2578":10699,"2379":10700,"4100":10701,"8314":10702,"9515":10703,"4736":10704,"2179":10705,"2152":10706,"2159":10707,"2150":10708,"9779":10709,"9737":10710,"tivi":10711,"cell":10712,"cept":10713,"0518":10714,"0772":10715,"0730":10716,"0300":10717,"9172":10718,"9136":10719,"Â´Â±":10720,"Â´Â¨":10721,"Ġthere":10722,"ÂµÃª":10723,"Ġcount":10724,"Ġpancrea":10725,"aced":10726,"ÅĥÃª":10727,"Â½Â½":10728,"ates":10729,"ancer":10730,"ÅĤÃª":10731,"Ã¢Ä¹Ä®Ã¡Ä£":10732,"ÅĢÃł":10733,"ÅĢÃ¯":10734,"Ġ616":10735,"âĹĮà°":10736,"Ġ248":10737,"ÄµÃł":10738,"Ġ472":10739,"Ġ840":10740,"Ġdist":10741,"Ġdemonstra":10742,"Ä¦Ãł":10743,"omp":10744,"Ġbinary":10745,"Ġbuffer":10746,"ard":10747,"Ġica":10748,"Ġconse":10749,"Ġcontain":10750,"âĹĮáŁ":10751,"2569":10752,"5546":10753,"6444":10754,"5123":10755,"3566":10756,"todi":10757,"Ä·Ãł":10758,"hase":10759,"1722":10760,"00000000000000000000000000000000000000000000000000000000":10761,"Ä½Ãł":10762,"ĠFile":10763,"3304":10764,"5346":10765,"7346":10766,"etwork":10767,"6112":10768,"Ġureter":10769,"ĠÃĥÄ´":10770,"1543":10771,"1546":10772,"7587":10773,"7588":10774,"1594":10775,"5115":10776,"6184":10777,"CFEA":10778,"EFBE":10779,"5187":10780,"8665":10781,"Ġperfu":10782,"3182":10783,"6329":10784,"7745":10785,"7501":10786,"ĠDerivative":10787,"3749":10788,"Ġget":10789,"ĠEx":10790,"6725":10791,"size":10792,"BDBF":10793,"5765":10794,"4896":10795,"5168":10796,"moxif":10797,"DDBB":10798,"38800":10799,"FFEE":10800,"6767":10801,"DEEB":10802,"9723":10803,"6396":10804,"8119":10805,"9749":10806,"4563":10807,"4507":10808,"DEBF":10809,"2891":10810,"6891":10811,"6896":10812,"2329":10813,"6222":10814,"9884":10815,"8321":10816,"4624":10817,"0766":10818,"0186":10819,"8222":10820,"6387":10821,"2203":10822,"8003":10823,"4885":10824,"Ġ128":10825,"9102":10826,"9683":10827,"9387":10828,"Ġrel":10829,"9604":10830,"9607":10831,"ote":10832,"otto":10833,"4345":10834,"7784":10835,"9207":10836,"2106":10837,"9706":10838,"9791":10839,"9794":10840,"0299":10841,"Ã°Äµ":10842,"Ã°Ä¸":10843,"Ã°Ä¿":10844,"6306":10845,"5755":10846,"ĠĠĠĠĠĠĠĠĠĠĠĠĠĠĠĠĠĠĠĠĠĠ":10847,"9465":10848,"0596":10849,"lial":10850,"Ġmajor":10851,"Ġlar":10852,"CAEE":10853,"eceler":10854,"html":10855,"9243":10856,"contrast":10857,"Ġchemio":10858,"ĠÄ¬Ã¡":10859,"Ġchang":10860,"Ġchange":10861,"cryp":10862,"izz":10863,"ĠUSE":10864,"Ġrisposta":10865,"Ġcontributor":10866,"ORS":10867,"angiogene":10868,"ERCH":10869,"Ġmodel":10870,"Ġprior":10871,"Ġlesions":10872,"Ġshows":10873,"Ġliability":10874,"Ġscan":10875,"Ġcorrelation":10876,"duce":10877,"install":10878,"Ġassess":10879,"Ġapplicable":10880,"Ġidentify":10881,"ĠĠĠĠĠĠĠĠĠĠĠĠĠĠĠĠĠĠĠĠĠĠĠĠĠ":10882,"URPO":10883,"Ġmedium":10884,"tteratura":10885,"Ġblue":10886,"Ġclinical":10887,"velop":10888,"culation":10889,"Ġparameters":10890,"Ġparenchyma":10891,"OLDER":10892,"Ġprovide":10893,"Ġ39402006196394479212279040100143613805079739270465446667946905279627659399113263569398956308152294913554433653942":10894,"TICUL":10895,"ANTABILITY":10896,"0399":10897,"0509":10898,"0169":10899,"1792":10900,"2508":10901,"2746":10902,"3595":10903,"3792":10904,"3799":10905,"4768":10906,"4595":10907,"4171":10908,"5728":10909,"5502":10910,"5771":10911,"6547":10912,"7360":10913,"8360":10914,"8131":10915,"9898":10916,"9388":10917,"9377":10918,"9353":10919,"AFDF":10920,"ACBA":10921,"BCEE":10922,"BABA":10923,"BAEF":10924,"BADF":10925,"BCCC":10926,"CABB":10927,"CAEC":10928,"CFAF":10929,"DCBE":10930,"DACF":10931,"ECEC":10932,"FFCF":10933,"FABD":10934,"Files":10935,"NESS":10936,"Scalar":10937,"TE":10938,"cid":10939,"from":10940,"fecf":10941,"ffab":10942,"ger":10943,"mal":10944,"ule":10945,"ving":10946,"Ġbc":10947,"Ġ191":10948,"Ġ799":10949,"Ġ508":10950,"Ġ502":10951,"Ġ190":10952,"Ġ369":10953,"Ġ780":10954,"Ġ151":10955,"Ġ608":10956,"Ġ720":10957,"Ġ504":10958,"Ġ424":10959,"Ġ../":10960,"0053":10961,"1115":10962,"1173":10963,"1192":10964,"1102":10965,"1183":10966,"1197":10967,"3261":10968,"32774":10969,"5632":10970,"5649":10971,"5693":10972,"5605":10973,"7232":10974,"7272":10975,"7230":10976,"7260":10977,"7255":10978,"7263":10979,"3855":10980,"3883":10981,"1220":10982,"1260":10983,"1296":10984,"1267":10985,"3910":10986,"3924":10987,"3909":10988,"5484":10989,"5471":10990,"5487":10991,"7932":10992,"7937":10993,"7907":10994,"5272":10995,"5230":10996,"5283":10997,"5221":10998,"5205":10999,"3413":11000,"3435":11001,"3404":11002,"3487":11003,"34700":11004,"3638":11005,"3679":11006,"3690":11007,"1679":11008,"1617":11009,"1690":11010,"1696":11011,"1621":11012,"5888":11013,"5884":11014,"7654":11015,"7636":11016,"7664":11017,"5911":11018,"5944":11019,"5981":11020,"3089":11021,"3028":11022,"3026":11023,"30454":11024,"5020":11025,"5080":11026,"5066":11027,"5069":11028,"5099":11029,"5087":11030,"1439":11031,"1419":11032,"1478":11033,"1460":11034,"1468":11035,"1036":11036,"1018":11037,"1097":11038,"1972":11039,"1939":11040,"1929":11041,"1955":11042,"7856":11043,"7880":11044,"7889":11045,"7882":11046,"7887":11047,"7436":11048,"7460":11049,"7477":11050,"7446":11051,"7082":11052,"7067":11053,"1816":11054,"1859":11055,"1837":11056,"1824":11057,"1882":11058,"2015":11059,"2098":11060,"2023":11061,"2083":11062,"2933":11063,"2967":11064,"2961":11065,"8032":11066,"8064":11067,"8028":11068,"6659":11069,"6622":11070,"6669":11071,"6657":11072,"6671":11073,"6667":11074,"66578":11075,"4059":11076,"4080":11077,"4065":11078,"4083":11079,"8936":11080,"8976":11081,"8922":11082,"8968":11083,"8953":11084,"8998":11085,"4958":11086,"AAAD":11087,"6063":11088,"6067":11089,"6085":11090,"2289":11091,"2255":11092,"2228":11093,"2253":11094,"2265":11095,"2261":11096,"CEAB":11097,"CEAE":11098,"CEDD":11099,"CEDC":11100,"CDAB":11101,"CDDA":11102,"FBAC":11103,"FBDC":11104,"FBBA":11105,"6993":11106,"6901":11107,"CBBD":11108,"4456":11109,"4416":11110,"4418":11111,"4429":11112,"4485":11113,"ABCD":11114,"ABBF":11115,"FECE":11116,"FDFB":11117,"8880":11118,"8822":11119,"8868":11120,"8853":11121,"1750":11122,"1753":11123,"9010":11124,"9015":11125,"9017":11126,"9024":11127,"9026":11128,"9073":11129,"9098":11130,"3514":11131,"3518":11132,"ADAC":11133,"6218":11134,"6260":11135,"62814":11136,"4236":11137,"4260":11138,"3715":11139,"6852":11140,"6829":11141,"6855":11142,"6871":11143,"6843":11144,"6861":11145,"4876":11146,"DBFD":11147,"7510":11148,"7578":11149,"7535":11150,"FCFF":11151,"FCCC":11152,"EEFB":11153,"EEEA":11154,"EEBC":11155,"33798":11156,"9950":11157,"9915":11158,"9968":11159,"ACFC":11160,"5570":11161,"DDAD":11162,"DDDA":11163,"BBDA":11164,"EBCC":11165,"ences":11166,"encryp":11167,"2456":11168,"2412":11169,"2454":11170,"5716":11171,"5730":11172,"8259":11173,"8220":11174,"ECFA":11175,"0930":11176,"0946":11177,"0965":11178,"2640":11179,"2637":11180,"5311":11181,"5332":11182,"5338":11183,"5317":11184,"AFAD":11185,"8458":11186,"8449":11187,"84170":11188,"7358":11189,"73133":11190,"8679":11191,"8618":11192,"8655":11193,"7138":11194,"7179":11195,"EFAA":11196,"EFAD":11197,"Ġtyp":11198,"CFFE":11199,"9234":11200,"9269":11201,"9859":11202,"9850":11203,"9866":11204,"9436":11205,"9429":11206,"9440":11207,"9640":11208,"9655":11209,"9677":11210,"0868":11211,"BCCD":11212,"0650":11213,"0622":11214,"0254":11215,"02728":11216,"dbbb":11217,"BFFD":11218,"faef":11219,"ccur":11220,"6358":11221,"6714":11222,"4535":11223,"6533":11224,"2776":11225,"ÄłF":11226,"Äłan":11227,"Äłst":11228,"8738":11229,"8778":11230,"2532":11231,"2539":11232,"2519":11233,"4372":11234,"4330":11235,"4378":11236,"4313":11237,"2356":11238,"2354":11239,"2358":11240,"8339":11241,"9300":11242,"9374":11243,"dditional":11244,"9713":11245,"0500":11246,"0537":11247,"0152":11248,"0136":11249,"0376":11250,"9170":11251,"Â´Â¯":11252,"abili":11253,"Â°Â¬":11254,"Â°Â¦":11255,"Â°Â¨":11256,"Â°Â¢":11257,"Â°Â¤":11258,"alys":11259,"Â¶Â¦":11260,"Â¶Â¢":11261,"Â¶Â¤":11262,"ÃĥÄ¸":11263,"Ä¹Ãł":11264,"Ġcur":11265,"Ġclaim":11266,"afda":11267,"afef":11268,"Ġover":11269,"Â½Â²":11270,"bceb":11271,"aden":11272,"Ġind":11273,"Ġinte":11274,"dio":11275,"Ġmor":11276,"Ġmal":11277,"Ġmem":11278,"roperit":11279,"Ġfurther":11280,"Ġway":11281,"Ġwhether":11282,"Ġ136":11283,"Ġ272":11284,"Ġ240":11285,"ung":11286,"Ġ832":11287,"Ġ836":11288,"Ġ880":11289,"4142":11290,"Ġdegli":11291,"ĠCancer":11292,"6162":11293,"Ġblunt":11294,"Ġll":11295,"Ġlen":11296,"8492":11297,"8496":11298,"8497":11299,"Ġir":11300,"ĠAll":11301,"8184":11302,"8186":11303,"8189":11304,"Ä¤Ãª":11305,"6441":11306,"6448":11307,"Ä²Ãł":11308,"56059":11309,"ÄºÃł":11310,"1385":11311,"1386":11312,"ÄªÃł":11313,"tare":11314,"tail":11315,"5744":11316,"thing":11317,"Ä¿Ã¯":11318,"52855":11319,"ĠFIT":11320,"33098":11321,"7160":11322,"7164":11323,"7168":11324,"78289":11325,"1323":11326,"6119":11327,"1541":11328,"3329":11329,"1581":11330,"5591":11331,"5113":11332,"1342":11333,"1346":11334,"7325":11335,"6186":11336,"CFEF":11337,"3349":11338,"5189":11339,"7726":11340,"3106":11341,"7390":11342,"7397":11343,"8583":11344,"7101":11345,"7106":11346,"6322":11347,"BDDD":11348,"7506":11349,"ĠIMPLIED":11350,"2146":11351,"Ġgestion":11352,"ĠEVE":11353,"2691":11354,"2698":11355,"6588":11356,"6723":11357,"1305":11358,"ĠLibrary":11359,"6143":11360,"6145":11361,"7705":11362,"6402":11363,"4891":11364,"ures":11365,"DFBE":11366,"4741":11367,"8804":11368,"DDBD":11369,"6505":11370,"7763":11371,"9561":11372,"9564":11373,"2483":11374,"4167":11375,"5303":11376,"FFEA":11377,"EDBB":11378,"2662":11379,"3166":11380,"CFBC":11381,"4328":11382,"8114":11383,"3365":11384,"8123":11385,"9890":11386,"4720":11387,"9186":11388,"5706":11389,"8702":11390,"ĠÃ£Ä©":11391,"9495":11392,"8227":11393,"4394":11394,"0324":11395,"8683":11396,"8684":11397,"2205":11398,"8006":11399,"BEEA":11400,"BEEE":11401,"0668":11402,"9347":11403,"Ġ120":11404,"9007":11405,"2390":11406,"9122":11407,"2548":11408,"Ġrequired":11409,"4793":11410,"6783":11411,"0722":11412,"4686":11413,"BFEB":11414,"BFEF":11415,"01064":11416,"DFEC":11417,"Ġstata":11418,"9287":11419,"9294":11420,"ĠMapp":11421,"ĠMdC":11422,"9703":11423,"6177":11424,"Ġtran":11425,"9903":11426,"7757":11427,"0407":11428,"0144":11429,"ames":11430,"0702":11431,"0707":11432,"âĹĮðĳĲ":11433,"âĹĮðĳĴ":11434,"âĹĮðĳļ":11435,"6521":11436,"9809":11437,"0286":11438,"4307":11439,"9626":11440,"51318":11441,"Ġmap":11442,"0387":11443,"irurg":11444,"ĠGIL":11445,"Ġsugg":11446,"000000000000000000000000000000000000000000000000000000000000000000000000000000000000000000000000000000000000000000000000":11447,"htt":11448,"grams":11449,"Ġcomputed":11450,"Ġvalore":11451,"Ġexpres":11452,"ĠWh":11453,"Ġsepara":11454,"Ġsegment":11455,"ĠÄ´Ã¡":11456,"ĠÄ¼Ã¡":11457,"ĠÄªÃ¡":11458,"ĠHCC":11459,"vamente":11460,"Ġacqu":11461,"ĠVer":11462,"Ġear":11463,"Ġmeasur":11464,"tumore":11465,"ously":11466,"ĠÃĦÂºÃĥÂªÃĦ":11467,"Ġredistrib":11468,"Ġpossible":11469,"Ġscalar":11470,"Ġradiolog":11471,"Ġreceive":11472,"Ġmicrovasculature":11473,"ensitÃł":11474,"ĠPROGRA":11475,"Ġquesto":11476,"Ġappropriate":11477,"Convert":11478,"Ġhttps":11479,"arget":11480,"Ġphys":11481,"ĠTrauma":11482,"Ġperformed":11483,"Ġnecessari":11484,"andard":11485,"ĠPARTICUL":11486,"mediate":11487,"indings":11488,"Ġtwo":11489,"othelial":11490,"moxifen":11491,"ERCHANTABILITY":11492,"URPOSE":11493,"ĠPROGRAM":11494,"ĠPARTICULAR":11495,"0798":11496,"0362":11497,"0308":11498,"1393":11499,"1399":11500,"1799":11501,"2788":11502,"5760":11503,"5389":11504,"5309":11505,"6508":11506,"6382":11507,"6151":11508,"6375":11509,"7788":11510,"7508":11511,"7782":11512,"7502":11513,"7746":11514,"7331":11515,"8797":11516,"9509":11517,"9522":11518,"9780":11519,"ACDC":11520,"BCDB":11521,"BABE":11522,"BCBF":11523,"BADB":11524,"CR":11525,"CCEA":11526,"CCEF":11527,"DABE":11528,"DABA":11529,"ECED":11530,"ECBE":11531,"EFCC":11532,"EADE":11533,"FABE":11534,"FCBF":11535,"FFDB":11536,"IAL":11537,"MO":11538,"VD":11539,"``":11540,"fr":11541,"fia":11542,"gin":11543,"gal":11544,"ks":11545,"ken":11546,"kes":11547,"mea":11548,"na":11549,"xes":11550,"Ġ.":11551,"Ġ/":11552,"Ġ\\":11553,"Ġ797":11554,"Ġ389":11555,"Ġ769":11556,"Ġ380":11557,"Ġ175":11558,"ĠCEC":11559,"Ġ549":11560,"Ġ373":11561,"Ġ392":11562,"Ġ744":11563,"Ġ568":11564,"Ġ808":11565,"0079":11566,"0085":11567,"0021":11568,"00436":11569,"1133":11570,"1126":11571,"1187":11572,"11495":11573,"3289":11574,"3275":11575,"3296":11576,"3281":11577,"32854":11578,"7256":11579,"7215":11580,"7262":11581,"7253":11582,"3834":11583,"3858":11584,"3819":11585,"3813":11586,"3842":11587,"3881":11588,"38882":11589,"1229":11590,"1263":11591,"12179":11592,"3984":11593,"3986":11594,"3904":11595,"3947":11596,"39770":11597,"5433":11598,"7916":11599,"7985":11600,"7983":11601,"5275":11602,"5253":11603,"5227":11604,"52530":11605,"3488":11606,"3408":11607,"3497":11608,"34139":11609,"1669":11610,"1644":11611,"5848":11612,"5831":11613,"5898":11614,"7632":11615,"7678":11616,"7683":11617,"5986":11618,"5985":11619,"3052":11620,"3018":11621,"3064":11622,"3024":11623,"3063":11624,"5010":11625,"5042":11626,"5046":11627,"1438":11628,"1455":11629,"1408":11630,"1461":11631,"1401":11632,"1032":11633,"1054":11634,"1010":11635,"1061":11636,"10234":11637,"1938":11638,"1952":11639,"1986":11640,"7870":11641,"7809":11642,"7892":11643,"7823":11644,"7891":11645,"7458":11646,"7471":11647,"7487":11648,"7425":11649,"74798":11650,"7016":11651,"7055":11652,"7057":11653,"7046":11654,"70379":11655,"1839":11656,"1884":11657,"1807":11658,"2039":11659,"2019":11660,"2066":11661,"2040":11662,"2929":11663,"2999":11664,"2903":11665,"29010":11666,"8058":11667,"8068":11668,"8097":11669,"6679":11670,"6699":11671,"6641":11672,"6607":11673,"66138":11674,"4085":11675,"8910":11676,"8931":11677,"4979":11678,"4957":11679,"AAFE":11680,"AADB":11681,"6076":11682,"6043":11683,"2240":11684,"2242":11685,"2223":11686,"CEAAB":11687,"6979":11688,"6918":11689,"6949":11690,"6975":11691,"6947":11692,"69422":11693,"CBCE":11694,"CBFD":11695,"CBBA":11696,"4412":11697,"4476":11698,"ABEB":11699,"FEDB":11700,"FDAF":11701,"1334":11702,"1319":11703,"13152":11704,"8874":11705,"8835":11706,"8842":11707,"8885":11708,"1579":11709,"15332":11710,"AEEE":11711,"9075":11712,"9028":11713,"3579":11714,"6279":11715,"6216":11716,"6244":11717,"6287":11718,"62488":11719,"4279":11720,"4282":11721,"4271":11722,"423622":11723,"6814":11724,"6849":11725,"6868":11726,"6877":11727,"6857":11728,"6863":11729,"4811":11730,"4820":11731,"4868":11732,"48256":11733,"DBEC":11734,"7556":11735,"FCAC":11736,"3337":11737,"9976":11738,"9978":11739,"9926":11740,"9947":11741,"ACAC":11742,"5551":11743,"6477":11744,"6457":11745,"64801":11746,"DDDD":11747,"7754":11748,"77334":11749,"2864":11750,"2871":11751,"2827":11752,"2847":11753,"28122":11754,"BBBE":11755,"ÂªÃ¢":11756,"CCFD":11757,"CCFA":11758,"EBEF":11759,"EBDC":11760,"EBDDC":11761,"2411":11762,"2453":11763,"3134":11764,"3130":11765,"31768":11766,"eddb":11767,"8217":11768,"8257":11769,"4630":11770,"4644":11771,"ĠÃĭ":11772,"ÃªÄ£Ä":11773,"ECT":11774,"BDEF":11775,"0900":11776,"0978":11777,"2680":11778,"AFFD":11779,"8454":11780,"8434":11781,"8416":11782,"5150":11783,"EFFB":11784,"eaac":11785,"EAFB":11786,"Ġable":11787,"9256":11788,"9214":11789,"9219":11790,"9237":11791,"9852":11792,"9836":11793,"9835":11794,"9452":11795,"9413":11796,"94372":11797,"9672":11798,"9658":11799,"9659":11800,"BEFB":11801,"BECB":11802,"BEADF":11803,"0855":11804,"0857":11805,"0452":11806,"0457":11807,"04768":11808,"0688":11809,"0244":11810,"0288":11811,"BFFC":11812,"DCAD":11813,"BAFE":11814,"fafb":11815,"facd":11816,"babe":11817,"cccf":11818,"6354":11819,"4552":11820,"ÄłB":11821,"ÄłN":11822,"ÄłR":11823,"Äłne":11824,"8779":11825,"8510":11826,"ebdc":11827,"2533":11828,"41361":11829,"8354":11830,"9372":11831,"9336":11832,"9330":11833,"9337":11834,"6179":11835,"61384":11836,"9530":11837,"9535":11838,"4718":11839,"9712":11840,"0515":11841,"0732":11842,"0716":11843,"0770":11844,"8132":11845,"8179":11846,"8178":11847,"01593":11848,"0319":11849,"9134":11850,"Â´Â·":11851,"abile":11852,"Â°Â·":11853,"ally":11854,"ÂµÃł":11855,"Ġcr":11856,"rag":11857,"ratter":11858,"Ġsti":11859,"Ġsee":11860,"Ġplace":11861,"acromolec":11862,"ÅĥÃł":11863,"Ġinner":11864,"Ġmat":11865,"road":11866,"Ã¢Ä¹Ä®Ã°Ä³":11867,"Ġflu":11868,"Ġnetwork":11869,"Ġ600":11870,"Ġ680":11871,"Ġ651":11872,"21244":11873,"Ġrest":11874,"Ġ152":11875,"uman":11876,"ione":11877,"Ġ216":11878,"una":11879,"Ġ800":11880,"stand":11881,"stanti":11882,"ĠĠĠĠĠĠĠĠĠĠĠĠĠĠ":11883,"4148":11884,"Ġdtype":11885,"Ġdru":11886,"Ġdeceler":11887,"Ä¦Ãª":11888,"Ġ944":11889,"Ġ968":11890,"Ġconver":11891,"ĠAs":11892,"âĹĮá¨":11893,"âĹĮáª":11894,"4114":11895,"Ġ072":11896,"76060":11897,"9196":11898,"91955":11899,"64434":11900,"Ä¶Ãł":11901,"7112":11902,"ĠTum":11903,"55843":11904,"5742":11905,"57447":11906,"7009":11907,"3301":11908,"3307":11909,"56944":11910,"3585":11911,"3587":11912,"35823":11913,"71600":11914,"5562":11915,"21904":11916,"3195":11917,"3002":11918,"3009":11919,"75409":11920,"ĠÃĥÄ¿":11921,"1589":11922,"3149":11923,"5597":11924,"3592":11925,"3594":11926,"3387":11927,"57239":11928,"4005":11929,"4007":11930,"Ġperi":11931,"7721":11932,"7141":11933,"7143":11934,"EAEED":11935,"71024":11936,"Ġheal":11937,"ages":11938,"44970":11939,"ild":11940,"8727":11941,"6724":11942,"1301":11943,"sim":11944,"7707":11945,"BDBBD":11946,"6407":11947,"4899":11948,"uring":11949,"5501":11950,"4603":11951,"4604":11952,"8805":11953,"65011":11954,"Ġcasi":11955,"4222":11956,"2482":11957,"4166":11958,"7793":11959,"1796":11960,"1707":11961,"EDBA":11962,"65997":11963,"8106":11964,"6390":11965,"9745":11966,"3367":11967,"33619":11968,"4504":11969,"ĠÃ¢Ä¹Ä®Ãľ":11970,"2894":11971,"3707":11972,"6291":11973,"6294":11974,"6492":11975,"6496":11976,"44059":11977,"6893":11978,"27679":11979,"2804":11980,"6223":11981,"62224":11982,"8404":11983,"1781":11984,"4206":11985,"8221":11986,"Ġneoplas":11987,"atico":11988,"0160":11989,"0603":11990,"9348":11991,"Ġ1248":11992,"05874":11993,"2168":11994,"0194":11995,"0199":11996,"9686":11997,"08029":11998,"2401":11999,"9385":12000,"0902":12001,"9694":12002,"4805":12003,"23087":12004,"0727":12005,"Ġ184":12006,"4684":12007,"9585":12008,"97642":12009,"BFEC":12010,"8794":12011,"9209":12012,"Ġstruct":12013,"0795":12014,"EDDD":12015,"ĠMRI":12016,"8483":12017,"BEBF":12018,"8525":12019,"ACEED":12020,"0568":12021,"9168":12022,"BAEE":12023,"dedf":12024,"BBAFA":12025,"0345":12026,"CFCAC":12027,"esso":12028,"0225":12029,"ÃĤÂµÃĦ":12030,"51557":12031,"ĠRedistrib":12032,"38531":12033,"Ġcomple":12034,"...":12035,"Ġ344":12036,"ĠÄ¥Ã¡":12037,"ĠÄ§Ã¡":12038,"27336":12039,"ÃħÄ¤Ãĥ":12040,"ĠÄ³Ã¡":12041,"ĠÄ»Ã¡":12042,"vasive":12043,"ĠÄ¯Ã¡":12044,"ĠÄ«Ã¡":12045,"bfbb":12046,"07176":12047,"blig":12048,"ĠÄ²Ã¡":12049,"ĠÄ¶Ã¡":12050,"Ġarrays":12051,"Ġletteratura":12052,"Ġindivid":12053,"ĠÃŃÅĢ":12054,"ÃĥÅĤÃĤÂª":12055,"Ġabs":12056,"earch":12057,"Ġeffec":12058,"Ġurin":12059,"ĠÃĦÂªÃĥÂªÃĦ":12060,"Ġreduction":12061,"Ġindicate":12062,"Ġextra":12063,"ensity":12064,"modified":12065,"rowth":12066,"Ġentire":12067,"Ġlocal":12068,"Ġwritten":12069,"ĠColour":12070,"Ġaccept":12071,"Ġperson":12072,"loader":12073,"omarkers":12074,"encryption":12075,"ĠFITNESS":12076,"Ġrestric":12077,"0599":12078,"0224":12079,"1760":12080,"2161":12081,"2304":12082,"2153":12083,"3191":12084,"3520":12085,"3790":12086,"4728":12087,"4782":12088,"5595":12089,"5529":12090,"5790":12091,"6792":12092,"6708":12093,"7708":12094,"7528":12095,"8526":12096,"8309":12097,"8308":12098,"8190":12099,"8369":12100,"8169":12101,"8547":12102,"9560":12103,"9389":12104,"9786":12105,"9308":12106,"9573":12107,"ACBB":12108,"AFDE":12109,"ACBE":12110,"BAEA":12111,"BUT":12112,"CCEB":12113,"DAAF":12114,"EFDC":12115,"ECDE":12116,"EADB":12117,"FCED":12118,"FACA":12119,"Mem":12120,"Name":12121,"OD":12122,"PR":12123,"SU":12124,"by":12125,"ck":12126,"cent":12127,"cece":12128,"fer":12129,"nist":12130,"ron":12131,"rebbe":12132,"tec":12133,"ttati":12134,"uter":12135,"vic":12136,"vato":12137,"Ġic":12138,"ĠCBB":12139,"Ġ526":12140,"Ġ522":12141,"Ġ540":12142,"ĠCDC":12143,"ĠADA":12144,"Ġ371":12145,"Ġ133":12146,"Ġ496":12147,"Ġ624":12148,"Ġ448":12149,"Ġ408":12150,"Ġ296":12151,"Ġ992":12152,"Ġ904":12153,"Ġ0000000000000000000000000000000000000000000000000000000000000000000000000000000000000000000000000000000000000000000000000000000000000000000000000000000000000000000000000000000000000000000000000000000000000000000000000000000000000000000000000000000000000000":12154,"0011":12155,"0030":12156,"0037":12157,"0004":12158,"0002":12159,"1134":12160,"1159":12161,"1177":12162,"1194":12163,"1104":12164,"11418":12165,"11861":12166,"11427":12167,"3276":12168,"3251":12169,"3293":12170,"32242":12171,"32515":12172,"5610":12173,"5670":12174,"5626":12175,"5651":12176,"5671":12177,"5691":12178,"56380":12179,"7279":12180,"7236":12181,"7219":12182,"7278":12183,"7270":12184,"7231":12185,"7204":12186,"7227":12187,"72708":12188,"3826":12189,"3853":12190,"3847":12191,"3807":12192,"38613":12193,"1212":12194,"1236":12195,"1209":12196,"1226":12197,"1287":12198,"1247":12199,"12859":12200,"3970":12201,"3980":12202,"3937":12203,"3951":12204,"3994":12205,"3907":12206,"39629":12207,"5480":12208,"5415":12209,"5485":12210,"54172":12211,"54674":12212,"7948":12213,"7995":12214,"5238":12215,"5259":12216,"5243":12217,"5241":12218,"3400":12219,"3460":12220,"3431":12221,"3694":12222,"3627":12223,"3643":12224,"3623":12225,"36411":12226,"1666":12227,"1640":12228,"1662":12229,"1609":12230,"1681":12231,"58542":12232,"7611":12233,"7652":12234,"7629":12235,"7680":12236,"7622":12237,"7655":12238,"7671":12239,"7681":12240,"5938":12241,"5968":12242,"5955":12243,"5945":12244,"59318":12245,"3016":12246,"3060":12247,"3021":12248,"30132":12249,"30390":12250,"5011":12251,"5045":12252,"5097":12253,"1412":12254,"1410":12255,"1449":12256,"1464":12257,"1467":12258,"14551":12259,"1052":12260,"1030":12261,"1074":12262,"1049":12263,"1073":12264,"1095":12265,"10836":12266,"1920":12267,"1962":12268,"19418":12269,"7805":12270,"78781":12271,"7400":12272,"7468":12273,"7486":12274,"7463":12275,"7461":12276,"7495":12277,"74878":12278,"7023":12279,"1875":12280,"1864":12281,"1886":12282,"1863":12283,"1867":12284,"1891":12285,"18042":12286,"2018":12287,"2065":12288,"2095":12289,"20238":12290,"2911":12291,"2916":12292,"2909":12293,"2998":12294,"8069":12295,"8013":12296,"8045":12297,"80549":12298,"6680":12299,"6613":12300,"6662":12301,"6648":12302,"6628":12303,"6604":12304,"6627":12305,"6643":12306,"6603":12307,"4032":12308,"4060":12309,"4051":12310,"4067":12311,"4025":12312,"40811":12313,"8926":12314,"8908":12315,"8997":12316,"4949":12317,"AABC":12318,"605567":12319,"2274":12320,"2273":12321,"CEBF":12322,"CDAF":12323,"FBFB":12324,"FBDD":12325,"6953":12326,"6992":12327,"6998":12328,"69107":12329,"69933":12330,"CBBF":12331,"4400":12332,"4450":12333,"4447":12334,"44750":12335,"44229":12336,"ABCC":12337,"ABEA":12338,"FEAF":12339,"FDAD":12340,"FDEB":12341,"FDEC":12342,"8819":12343,"8844":12344,"8855":12345,"1575":12346,"AEAD":12347,"AEFC":12348,"9056":12349,"9013":12350,"9031":12351,"9063":12352,"9027":12353,"9095":12354,"909460":12355,"6211":12356,"6230":12357,"6270":12358,"4258":12359,"4276":12360,"4229":12361,"68400":12362,"DBAE":12363,"DBED":12364,"FCFE":12365,"EEFF":12366,"EEFEB":12367,"3330":12368,"9920":12369,"9992":12370,"9961":12371,"ACFA":12372,"6454":12373,"6466":12374,"DDDB":12375,"DDDF":12376,"BBEE":12377,"CCCD":12378,"2488":12379,"2463":12380,"24756":12381,"EDEB":12382,"EDED":12383,"EDEA":12384,"eded":12385,"edfa":12386,"5734":12387,"5717":12388,"5775":12389,"8248":12390,"8273":12391,"BDED":12392,"0968":12393,"0963":12394,"0961":12395,"AFAE":12396,"AFABD":12397,"8438":12398,"8412":12399,"8420":12400,"84536":12401,"84749":12402,"7376":12403,"7319":12404,"8636":12405,"8688":12406,"86743":12407,"ecea":12408,"EFCD":12409,"eadb":12410,"CAFD":12411,"CFCB":12412,"9236":12413,"9231":12414,"9273":12415,"9271":12416,"92512":12417,"9811":12418,"9822":12419,"9472":12420,"9479":12421,"daeb":12422,"daaa":12423,"96176":12424,"BEAD":12425,"0839":12426,"0876":12427,"0830":12428,"0818":12429,"0880":12430,"DEFF":12431,"DEBB":12432,"DECEA":12433,"DEFEE":12434,"0648":12435,"0252":12436,"0271":12437,"Ã¢Ä¨":12438,"DAFA":12439,"DAFEB":12440,"BFCD":12441,"DCAC":12442,"faab":12443,"della":12444,"6756":12445,"4579":12446,"4575":12447,"ÄłE":12448,"ÄłI":12449,"ÄłW":12450,"Äłdi":12451,"Äłcom":12452,"85198":12453,"ffde":12454,"fffd":12455,"ffic":12456,"ebea":12457,"ebcb":12458,"43502":12459,"43173":12460,"2336":12461,"âĹĮðĸ¬":12462,"8336":12463,"9318":12464,"6158":12465,"6159":12466,"4772":12467,"4770":12468,"4737":12469,"ddea":12470,"ddfb":12471,"2156":12472,"9752":12473,"oro":12474,"tis":12475,"ceee":12476,"0535":12477,"05757":12478,"8154":12479,"0359":12480,"0317":12481,"9156":12482,"bbff":12483,"bbbd":12484,"cfeb":12485,"Â´Â°":12486,"Â´Â©":12487,"abfa":12488,"Â°Â¿":12489,"Â¶Â¬":12490,"Â¶Â¨":12491,"Â¶Â«":12492,"Ġsolo":12493,"Ġpen":12494,"Ġpublic":12495,"bfba":12496,"Ġoblig":12497,"Â½Â¹":12498,"Ġincrea":12499,"cdfb":12500,"aeec":12501,"ĠÃ¡Ä£":12502,"roun":12503,"anza":12504,"Ġanni":12505,"Ġeven":12506,"Ġfu":12507,"Ġflow":12508,"Ġfreedom":12509,"Ġfindings":12510,"2121":12511,"2128":12512,"ÅģÃ¢":12513,"Ġread":12514,"ðĶĻ":12515,"ions":12516,"Ġ232":12517,"Ġ376":12518,"ĠPURPOSE":12519,"ĠÃ¢Ä¤":12520,"Ġ432":12521,"Ġ480":12522,"Ġ856":12523,"Ġ816":12524,"steals":12525,"Ġdesigned":12526,"Ġdetail":12527,"ĠClin":12528,"Ġboth":12529,"788666":12530,"Ġvis":12531,"ardi":12532,"Ġ912":12533,"Ġ952":12534,"Ġ976":12535,"ĠAss":12536,"âĹĮáŃ":12537,"4112":12538,"Ġdimen":12539,"Ġdirect":12540,"5541":12541,"5120":12542,"7113":12543,"7116":12544,"3562":12545,"70859":12546,"3121":12547,"3125":12548,"7004":12549,"7005":12550,"7196":12551,"5347":12552,"5349":12553,"53426":12554,"7166":12555,"4544":12556,"4545":12557,"7347":12558,"3395":12559,"3396":12560,"33938":12561,"2197":12562,"3194":12563,"5366":12564,"5397":12565,"1583":12566,"75809":12567,"3140":12568,"3141":12569,"5590":12570,"55984":12571,"15983":12572,"5111":12573,"5118":12574,"1349":12575,"3590":12576,"73203":12577,"5101":12578,"7122":12579,"7125":12580,"7128":12581,"5724":12582,"5727":12583,"6564":12584,"5184":12585,"5185":12586,"40099":12587,"1007":12588,"3109":12589,"31188":12590,"7145":12591,"5146":12592,"3745":12593,"2701":12594,"4494":12595,"44985":12596,"Ġgre":12597,"Ġgial":12598,"4665":12599,"4588":12600,"2294":12601,"2297":12602,"87218":12603,"6589":12604,"8591":12605,"8596":12606,"2346":12607,"BDBC":12608,"4892":12609,"4895":12610,"DFBF":12611,"8290":12612,"8298":12613,"quence":12614,"quival":12615,"AFEF":12616,"pers":12617,"4601":12618,"CBFAC":12619,"6504":12620,"Ġ112":12621,"FFED":12622,"2663":12623,"8749":12624,"AECFF":12625,"6597":12626,"5325":12627,"ĠSu":12628,"9111":12629,"13666":12630,"7301":12631,"4408":12632,"6890":12633,"8361":12634,"8208":12635,"2803":12636,"8394":12637,"2490":12638,"2729":12639,"7383":12640,"4623":12641,"4209":12642,"0184":12643,"6543":12644,"Ġyell":12645,"8386":12646,"8387":12647,"EBBCE":12648,"4390":12649,"43981":12650,"8681":12651,"8685":12652,"atica":12653,"0167":12654,"0168":12655,"2207":12656,"Ġ1024":12657,"BEEF":12658,"0584":12659,"9003":12660,"9106":12661,"9699":12662,"0394":12663,"4791":12664,"2590":12665,"2594":12666,"2597":12667,"92260":12668,"0117":12669,"4687":12670,"95817":12671,"8444":12672,"8445":12673,"9765":12674,"BFEE":12675,"7787":12676,"FCEFC":12677,"4365":12678,"2107":12679,"9299":12680,"ĠMicrosoft":12681,"ĠMERCHANTABILITY":12682,"8421":12683,"9147":12684,"9149":12685,"0126":12686,"BEBC":12687,"CCBEB":12688,"0891":12689,"8690":12690,"8562":12691,"0296":12692,"2601":12693,"EAABC":12694,"âĹĮðĳĭ":12695,"9804":12696,"9592":12697,"2646":12698,"CADCA":12699,"Ġmako":12700,"EFFAB":12701,"iren":12702,"9843":12703,"Ġdal":12704,"0461":12705,"45539":12706,"11531":12707,"2553":12708,"BADDE":12709,"eefb":12710,"ifest":12711,"83519":12712,"Ġcompl":12713,"Ġcompar":12714,"Ġ1536":12715,"traum":12716,"Ġexpl":12717,"Ġexclu":12718,"Ġexperi":12719,"dcbe":12720,"ĠWe":12721,"ĠÄ¸Ã¡":12722,"ĠÄ£Ã¡":12723,"Ġparte":12724,"saction":12725,"ĠÄµÃ¡":12726,"ĠÄ©Ã¡":12727,"Ġusers":12728,"ĠÃ¢Ä¹Ä®ÃłÅĤ":12729,"Ġquali":12730,"ĠÄ°Ã¡":12731,"63376":12732,"ĠÅĤÃ¡":12733,"ĠÄ¾Ã¡":12734,"ĠÄ¦Ã¡":12735,"ĠHOLDER":12736,"ĠÄ®Ã¡":12737,"ĠÄ¢Ã¡":12738,"Ġadenocarcinoma":12739,"ibit":12740,"ortMsgKAT":12741,"Ġpoint":12742,"Ġcolore":12743,"Ġinterac":12744,"ĠKeccak":12745,"Ġvascolare":12746,"ody":12747,"ĠProduct":12748,"egal":12749,"iew":12750,"Ġiteration":12751,"Ġeffe":12752,"Ġpatient":12753,"ĠÃĥÅĤÃĤÂª":12754,"Ġincluding":12755,"patic":12756,"Ġpaziente":12757,"magini":12758,"lassi":12759,"Ġidentifica":12760,"manifest":12761,"range":12762,"ministration":12763,"ĠÃĥÄ¬ÃĦ":12764,"Ġsulla":12765,"Ġ``":12766,"mpre":12767,"Ġfact":12768,"ĠWARRANTY":12769,"Ġhttp":12770,"rough":12771,"Ġpermitted":12772,"Ġbassi":12773,"Ġinstall":12774,"Ġpropagate":12775,"Ġobtain":12776,"Ġrecipient":12777,"Ġreasonable":12778,"ĠShortMsgKAT":12779,"Ġesperienze":12780,"Ġfailure":12781,"ĠDAMAGES":12782,"ghijklmn":12783,"Ġdisclaimer":12784,"Ġsomministrazione":12785,"ĠException":12786,"Ġ../../":12787,"alysis":12788,"adenop":12789,"Ġhealthy":12790,"Ġgiallo":12791,"Ġyellow":12792,"->":12793,"0191":12794,"0190":12795,"0157":12796,"1797":12797,"1599":12798,"1598":12799,"1308":12800,"1369":12801,"2709":12802,"2389":12803,"2773":12804,"3393":12805,"3760":12806,"3528":12807,"4393":12808,"4399":12809,"4569":12810,"4524":12811,"4190":12812,"5308":12813,"5355":12814,"5373":12815,"6788":12816,"6528":12817,"6522":12818,"6780":12819,"6388":12820,"6157":12821,"7191":12822,"7309":12823,"7780":12824,"7373":12825,"8788":12826,"84252":12827,"8704":12828,"9728":12829,"9393":12830,"9789":12831,"9173":12832,"9351":12833,"BFDA":12834,"Cor":12835,"CCBB":12836,"CCDB":12837,"CADC":12838,"CADF":12839,"DCCA":12840,"DEDF":12841,"ECDD":12842,"ECEA":12843,"EACC":12844,"EACF":12845,"FCDE":12846,"IM":12847,"ISE":12848,"OUT":12849,"aes":12850,"ays":12851,"cop":12852,"ned":12853,"num":12854,"oper":12855,"other":12856,"ood":12857,"pre":12858,"ral":12859,"sono":12860,"tom":12861,"test":12862,"ug":12863,"via":12864,"xim":12865,"zzazione":12866,"Ġion":12867,"Ġ569":12868,"Ġkey":12869,"Ġ362":12870,"Ġ309":12871,"Ġ388":12872,"Ġ357":12873,"Ġ155":12874,"Ġ303":12875,"Ġ747":12876,"Ġ626":12877,"Ġ664":12878,"Ġ888":12879,"0054":12880,"0063":12881,"0003":12882,"1158":12883,"1174":12884,"1160":12885,"1168":12886,"1147":12887,"1101":12888,"11238":12889,"11920":12890,"3256":12891,"3280":12892,"3266":12893,"3262":12894,"3294":12895,"3263":12896,"5675":12897,"7282":12898,"7273":12899,"72155":12900,"72165":12901,"3812":12902,"3879":12903,"3814":12904,"3874":12905,"3864":12906,"3882":12907,"3894":12908,"38668":12909,"1219":12910,"1235":12911,"1242":12912,"1224":12913,"1253":12914,"3948":12915,"3927":12916,"3987":12917,"3905":12918,"39680":12919,"5456":12920,"5439":12921,"5489":12922,"5446":12923,"5425":12924,"5483":12925,"7952":12926,"7971":12927,"5254":12928,"5276":12929,"5250":12930,"5249":12931,"5287":12932,"3475":12933,"3455":12934,"3467":12935,"3481":12936,"3619":12937,"3628":12938,"3657":12939,"3651":12940,"3671":12941,"3641":12942,"36356":12943,"1652":12944,"1643":12945,"16878":12946,"5878":12947,"5855":12948,"5804":12949,"5863":12950,"5893":12951,"5881":12952,"58878":12953,"7650":12954,"7689":12955,"7615":12956,"7635":12957,"7645":12958,"5957":12959,"5998":12960,"5902":12961,"5947":12962,"5921":12963,"3099":12964,"5095":12965,"1469":12966,"1435":12967,"1486":12968,"1471":12969,"14176":12970,"1038":12971,"1066":12972,"1086":12973,"1098":12974,"1096":12975,"1093":12976,"1906":12977,"7888":12978,"7419":12979,"7443":12980,"74558":12981,"7037":12982,"7064":12983,"7094":12984,"7021":12985,"1857":12986,"2021":12987,"20248":12988,"2934":12989,"2928":12990,"2996":12991,"2995":12992,"29611":12993,"8011":12994,"8012":12995,"8010":12996,"8019":12997,"8094":12998,"6629":12999,"6690":13000,"4019":13001,"4017":13002,"4048":13003,"4087":13004,"4061":13005,"4021":13006,"8930":13007,"8915":13008,"8955":13009,"8906":13010,"8925":13011,"4900":13012,"4910":13013,"4970":13014,"4971":13015,"4967":13016,"4945":13017,"49138":13018,"49132":13019,"AAFB":13020,"AACC":13021,"AADF":13022,"AABF":13023,"6058":13024,"6070":13025,"6020":13026,"6044":13027,"6082":13028,"60350":13029,"2211":13030,"2262":13031,"CDFF":13032,"FBFE":13033,"6940":13034,"6935":13035,"6994":13036,"6945":13037,"6943":13038,"69254":13039,"CBFB":13040,"CBCB":13041,"CBFA":13042,"4489":13043,"4426":13044,"4484":13045,"FECA":13046,"FDDB":13047,"1379":13048,"13356":13049,"8875":13050,"1517":13051,"1776":13052,"1759":13053,"1770":13054,"1713":13055,"1771":13056,"AEAC":13057,"AEBB":13058,"AEFA":13059,"9011":13060,"9020":13061,"9082":13062,"ADAD":13063,"ADCF":13064,"6236":13065,"6284":13066,"4213":13067,"4237":13068,"4261":13069,"3756":13070,"68804":13071,"4854":13072,"4874":13073,"4844":13074,"4853":13075,"4851":13076,"48758":13077,"DBFE":13078,"7516":13079,"FCCD":13080,"FCAB":13081,"EEFE":13082,"EEDE":13083,"EEDC":13084,"3352":13085,"3317":13086,"9936":13087,"9964":13088,"9931":13089,"9921":13090,"ACFF":13091,"5578":13092,"5515":13093,"55304":13094,"55514":13095,"6480":13096,"6463":13097,"7710":13098,"7718":13099,"77760":13100,"2814":13101,"2837":13102,"EBCE":13103,"EBAB":13104,"2400":13105,"2430":13106,"2414":13107,"2470":13108,"2480":13109,"2461":13110,"EDEF":13111,"8212":13112,"4676":13113,"4629":13114,"BDEE":13115,"0953":13116,"09536":13117,"cafb":13118,"cause":13119,"2676":13120,"2678":13121,"7334":13122,"7318":13123,"7315":13124,"8619":13125,"8653":13126,"eade":13127,"EACE":13128,"Ġaerodiges":13129,"Ġtext":13130,"Ġtardi":13131,"CFAC":13132,"9216":13133,"9220":13134,"9244":13135,"9832":13136,"9853":13137,"9873":13138,"98136":13139,"94311":13140,"daea":13141,"efbe":13142,"eful":13143,"9638":13144,"9629":13145,"BECE":13146,"0832":13147,"0834":13148,"0870":13149,"0842":13150,"0875":13151,"0616":13152,"0670":13153,"0640":13154,"0635":13155,"0677":13156,"0673":13157,"06352":13158,"0238":13159,"0210":13160,"BAFF":13161,"facf":13162,"fadc":13163,"baec":13164,"baad":13165,"ccbe":13166,"6719":13167,"4537":13168,"6500":13169,"6538":13170,"6559":13171,"6578":13172,"2735":13173,"Äłse":13174,"Äłth":13175,"Äłqu":13176,"Äłpo":13177,"8772":13178,"8516":13179,"85348":13180,"ffef":13181,"ebfb":13182,"2513":13183,"25329":13184,"âĹĮêł":13185,"4159":13186,"41724":13187,"cbff":13188,"9332":13189,"9352":13190,"9350":13191,"9556":13192,"4738":13193,"4731":13194,"2154":13195,"9711":13196,"tig":13197,"0519":13198,"0574":13199,"0570":13200,"0754":13201,"0752":13202,"0710":13203,"8156":13204,"0150":13205,"aaaa":13206,"0337":13207,"bbed":13208,"Â´Â¬":13209,"Â´Â®":13210,"Â´Â¸":13211,"abor":13212,"Â°Â¶":13213,"Â°Â£":13214,"Â±Â·":13215,"Ġsurgery":13216,"Ġsystem":13217,"fcfa":13218,"Ġpl":13219,"ÂºÃ¡Âµ":13220,"afcc":13221,"afdf":13222,"Ġove":13223,"Â½Â¾":13224,"Â¾Â³":13225,"adef":13226,"fdcc":13227,"ĠÃªÄ´":13228,"Ġmark":13229,"atti":13230,"ani":13231,"Ġname":13232,"Ġ632":13233,"Ġ656":13234,"Ġ672":13235,"Ġ688":13236,"Ġ648":13237,"âĹĮà¨":13238,"âĹĮàª":13239,"ÅģÃ¯":13240,"umPy":13241,"Ġ200":13242,"Ġ218":13243,"Ġ264":13244,"Ġ2008":13245,"Ġ776":13246,"Ġ774":13247,"Ġ356":13248,"rio":13249,"Ġ400":13250,"Ġ456":13251,"Ġ872":13252,"ĠĠĠĠĠĠĠĠĠĠĠĠĠ":13253,"Ä§Ãª":13254,"Ġdeve":13255,"ĠCode":13256,"Ġlong":13257,"Ġlicens":13258,"8491":13259,"array":13260,"teri":13261,"Ġ988":13262,"Ġ928":13263,"ĠAR":13264,"ĠAl":13265,"ĠÃłÂµ":13266,"8188":13267,"Ġdiver":13268,"âĢĿ":13269,"9190":13270,"6443":13271,"Ä¨Ãª":13272,"1380":13273,"1388":13274,"tative":13275,"71100":13276,"3564":13277,"3567":13278,"70864":13279,"Ä¬Ãª":13280,"52469":13281,"2002":13282,"2006":13283,"1328":13284,"ett":13285,"Ä°Ãł":13286,"Ã¡ÂµÂºÃ¡Âµ":13287,"3392":13288,"52649":13289,"52969":13290,"5361":13291,"ically":13292,"ĠÃĥÄ¥":13293,"5390":13294,"1545":13295,"7585":13296,"75856":13297,"5116":13298,"5117":13299,"1347":13300,"3593":13301,"3546":13302,"5102":13303,"5109":13304,"3386":13305,"3342":13306,"6346":13307,"EFBF":13308,"6567":13309,"65614":13310,"1562":13311,"1747":13312,"3108":13313,"7142":13314,"7149":13315,"7183":13316,"7104":13317,"7105":13318,"7109":13319,"3762":13320,"3186":13321,"6325":13322,"7741":13323,"BDDF":13324,"3795":13325,"7504":13326,"7507":13327,"ĠDAB":13328,"ĠII":13329,"6120":13330,"2148":13331,"4180":13332,"2117":13333,"6008":13334,"Ġgive":13335,"4586":13336,"2291":13337,"2293":13338,"6583":13339,"65826":13340,"ĠLe":13341,"ĠLegal":13342,"Ġalter":13343,"1396":13344,"5505":13345,"DFBAB":13346,"mode":13347,"4748":13348,"8297":13349,"8801":13350,"5794":13351,"4762":13352,"Ġcaratter":13353,"4225":13354,"2748":13355,"5302":13356,"1794":13357,"EDBC":13358,"EDBD":13359,"8741":13360,"DEEE":13361,"3163":13362,"6802":13363,"8110":13364,"4564":13365,"9112":13366,"1367":13367,"6494":13368,"6499":13369,"7302":13370,"EFEF":13371,"6897":13372,"8365":13373,"8207":13374,"8195":13375,"2807":13376,"5195":13377,"75900":13378,"Ġ160":13379,"2795":13380,"9888":13381,"Ġprotocol":13382,"8407":13383,"8322":13384,"9666":13385,"5783":13386,"4204":13387,"6545":13388,"8892":13389,"0208":13390,"0995":13391,"0163":13392,"8009":13393,"80012":13394,"06678":13395,"4884":13396,"9342":13397,"9441":13398,"2395":13399,"2397":13400,"Ġrela":13401,"-----":13402,"0398":13403,"vers":13404,"verso":13405,"2446":13406,"8602":13407,"9601":13408,"0692":13409,"DFEA":13410,"DFEE":13411,"9206":13412,"EDDC":13413,"ĠMR":13414,"1523":13415,"6421":13416,"61700":13417,"0885":13418,"8693":13419,"Ġ192":13420,"6751":13421,"9909":13422,"7751":13423,"7753":13424,"0624":13425,"8302":13426,"8764":13427,"0344":13428,"8624":13429,"9487":13430,"0228":13431,"8284":13432,"Ġsuccess":13433,"Ġdalla":13434,"51511":13435,"72257":13436,"ribution":13437,"produce":13438,"dcbd":13439,"cono":13440,"accb":13441,"Ġsempre":13442,"Ġtermin":13443,"Ġchirurg":13444,"ĠÂµÃ¡":13445,"ĠÄ·Ã¡":13446,"ĠÄŃÃ¡":13447,"Ġresult":13448,"vascolari":13449,"Ġquanto":13450,"ĠÄ¿Ã¡":13451,"ĠHowever":13452,"ĠÄºÃ¡":13453,"reement":13454,"phic":13455,"ible":13456,"ĠUrol":13457,"00000000000000000000000000000000000000000000000000000000000000000000000000000000000000000000000000000000000000000000000000000000000000000000000000000000000000000000000000000000000000000000000000000000000000000000000000000000000000000000000000000000":13458,"RIBUT":13459,"Ġpoor":13460,"Ġposi":13461,"Ġinterface":13462,"Ġlegal":13463,"ORT":13464,"vention":13465,"Ġrosso":13466,"ĠINCLUDING":13467,"rue":13468,"Ġretto":13469,"Ġtherefore":13470,"Ġpresenza":13471,"vant":13472,"Ġreported":13473,"Ġmonitoraggio":13474,"astas":13475,"Ġcorrel":13476,"duzione":13477,"Ġanimali":13478,"ĠLIABILITY":13479,"Ġspecified":13480,"ĠÃĥÄ²ÃĦ":13481,"Ġsubstanti":13482,"Ġquesti":13483,"ĠÃĥÄ³ÃĦ":13484,"Ġcompil":13485,"Ġmediante":13486,"Ġdescri":13487,"Ġendothelial":13488,"ĠThese":13489,"ĠpermeabilitÃł":13490,"Ġpredic":13491,"Ġmicrocircolo":13492,"Ġmaggiore":13493,"MENT":13494,"insum":13495,"Ġoperand":13496,"Ġflags":13497,"including":13498,"ĠQu":13499,"apeutic":13500,"Ġinfringe":13501,"BLAS":13502,"Ġosser":13503,"Ġdemonstrated":13504,"Ġmemory":13505,"Ġphysical":13506,"lassifica":13507,"%âĢĵ":13508,".:":13509,"0898":13510,"0769":13511,"0704":13512,"0540":13513,"0355":13514,"0594":13515,"1526":13516,"1362":13517,"2708":13518,"2529":13519,"3768":13520,"3375":13521,"4169":13522,"4177":13523,"5380":13524,"5704":13525,"5304":13526,"5388":13527,"6380":13528,"6308":13529,"6368":13530,"7393":13531,"7768":13532,"7797":13533,"7569":13534,"7377":13535,"8760":13536,"8560":13537,"8509":13538,"8380":13539,"8151":13540,"8757":13541,"9399":13542,"9798":13543,"9777":13544,"All":13545,"ACEF":13546,"AFDB":13547,"BFCC":13548,"BFBA":13549,"BEDE":13550,"Com":13551,"CCDF":13552,"CAAD":13553,"CCDC":13554,"DFCA":13555,"EADA":13556,"FADA":13557,"Gener":13558,"ION":13559,"LI":13560,"On":13561,"PQ":13562,"TC":13563,"adee":13564,"ction":13565,"cli":13566,"cecd":13567,"decf":13568,"dfaa":13569,"ddee":13570,"eeaf":13571,"eecb":13572,"fi":13573,"fead":13574,"feaf":13575,"fcce":13576,"hibit":13577,"len":13578,"licenses":13579,"mun":13580,"mall":13581,"pr":13582,"present":13583,"qr":13584,"run":13585,"src":13586,"spec":13587,"tri":13588,"vc":13589,"wor":13590,"writ":13591,"year":13592,"«êĻ":13593,"Ã«":13594,"ĠAAD":13595,"Ġ382":13596,"Ġ547":13597,"ĠFDB":13598,"Ġ137":13599,"ĠFBB":13600,"ĠObject":13601,"Ġ355":13602,"Ġ135":13603,"Ġ328":13604,"ĠÎĶR":13605,"ľâĦ":13606,"0076":13607,"0084":13608,"0047":13609,"00900":13610,"002460":13611,"1138":13612,"1154":13613,"1129":13614,"1135":13615,"1162":13616,"1186":13617,"11318":13618,"11689":13619,"3233":13620,"3255":13621,"3241":13622,"3247":13623,"32556":13624,"32163":13625,"5679":13626,"5609":13627,"5653":13628,"5608":13629,"56472":13630,"7210":13631,"7264":13632,"7251":13633,"7206":13634,"7207":13635,"72678":13636,"3863":13637,"38393":13638,"1275":13639,"1255":13640,"1228":13641,"1231":13642,"1293":13643,"1281":13644,"12279":13645,"12503":13646,"3917":13647,"3977":13648,"3998":13649,"3965":13650,"39522":13651,"5454":13652,"5470":13653,"5469":13654,"5490":13655,"5426":13656,"5406":13657,"5461":13658,"5497":13659,"5405":13660,"54611":13661,"54578":13662,"7962":13663,"7928":13664,"7994":13665,"7927":13666,"79792":13667,"5202":13668,"5263":13669,"52138":13670,"3459":13671,"3422":13672,"3453":13673,"3484":13674,"3406":13675,"34414":13676,"34012":13677,"34441":13678,"3674":13679,"3615":13680,"3685":13681,"36579":13682,"1619":13683,"1678":13684,"1661":13685,"16552":13686,"5872":13687,"5854":13688,"5815":13689,"5828":13690,"5827":13691,"7670":13692,"7644":13693,"7684":13694,"76623":13695,"5969":13696,"5913":13697,"5962":13698,"5973":13699,"5951":13700,"5996":13701,"5901":13702,"59293":13703,"59406":13704,"3079":13705,"3030":13706,"3098":13707,"3094":13708,"307310":13709,"5029":13710,"5024":13711,"5082":13712,"5086":13713,"50159":13714,"50309":13715,"1436":13716,"1480":13717,"1422":13718,"1426":13719,"1451":13720,"1463":13721,"1487":13722,"1441":13723,"14229":13724,"14434":13725,"1078":13726,"1040":13727,"1022":13728,"1085":13729,"1091":13730,"10270":13731,"10232":13732,"10151":13733,"1956":13734,"1959":13735,"1923":13736,"1947":13737,"1981":13738,"19252":13739,"19617":13740,"7800":13741,"7836":13742,"78647":13743,"7479":13744,"7452":13745,"7444":13746,"7413":13747,"7426":13748,"7483":13749,"7481":13750,"7043":13751,"1836":13752,"1830":13753,"1835":13754,"18696":13755,"18438":13756,"20156":13757,"20910":13758,"2937":13759,"2931":13760,"29989":13761,"29065":13762,"295511":13763,"8063":13764,"6661":13765,"4011":13766,"4084":13767,"4047":13768,"40368":13769,"40519":13770,"40492":13771,"8933":13772,"8986":13773,"8941":13774,"89654":13775,"89892":13776,"4938":13777,"4939":13778,"4916":13779,"4966":13780,"4969":13781,"4904":13782,"4925":13783,"AAAC":13784,"AADE":13785,"AAABC":13786,"6074":13787,"6062":13788,"6099":13789,"60382":13790,"2217":13791,"2227":13792,"2247":13793,"22312":13794,"22334":13795,"CEAD":13796,"CEEA":13797,"CDAE":13798,"CDDBC":13799,"FBCB":13800,"FBCF":13801,"6939":13802,"6978":13803,"6933":13804,"6955":13805,"6973":13806,"6971":13807,"4446":13808,"44858":13809,"ABFE":13810,"ABAC":13811,"FEEF":13812,"FEEA":13813,"FDFD":13814,"1311":13815,"1336":13816,"1370":13817,"13396":13818,"8829":13819,"8877":13820,"8821":13821,"1530":13822,"15510":13823,"15130":13824,"1736":13825,"1717":13826,"1731":13827,"AECB":13828,"9058":13829,"9030":13830,"9050":13831,"9078":13832,"9049":13833,"9086":13834,"90866":13835,"90101":13836,"905379":13837,"ADEE":13838,"ADDC":13839,"6247":13840,"62117":13841,"4230":13842,"4218":13843,"4231":13844,"3770":13845,"6818":13846,"6820":13847,"6865":13848,"68269":13849,"68672":13850,"68248":13851,"4814":13852,"4870":13853,"4869":13854,"4815":13855,"4862":13856,"4848":13857,"4855":13858,"4864":13859,"4827":13860,"48510":13861,"48547":13862,"48279":13863,"DBFB":13864,"DBAC":13865,"DBBE":13866,"FCAE":13867,"EECB":13868,"EEEE":13869,"EEBA":13870,"EEBBE":13871,"33175":13872,"9979":13873,"9913":13874,"9988":13875,"9933":13876,"9924":13877,"9967":13878,"99916":13879,"998070":13880,"ACCE":13881,"5514":13882,"55700":13883,"55776":13884,"55370":13885,"55184":13886,"DDFB":13887,"7775":13888,"2810":13889,"2842":13890,"2826":13891,"FFCE":13892,"BBDE":13893,"ÂªÃ¡Ä©":13894,"ÂªÃ¡Ä¨":13895,"CCCC":13896,"EBCF":13897,"EBDE":13898,"2478":13899,"2467":13900,"2465":13901,"FAFB":13902,"FAFA":13903,"edcc":13904,"5718":13905,"57549":13906,"8234":13907,"8255":13908,"4618":13909,"ECAC":13910,"BDFA":13911,"BDADA":13912,"0912":13913,"0982":13914,"0983":13915,"09274":13916,"26558":13917,"26511":13918,"5330":13919,"8415":13920,"5139":13921,"5130":13922,"51782":13923,"8652":13924,"8633":13925,"7159":13926,"ecfc":13927,"ecro":13928,"inam":13929,"inali":13930,"EFFC":13931,"EFCBC":13932,"eat":13933,"eafa":13934,"eafc":13935,"eafd":13936,"ease":13937,"Ġae":13938,"Ġate":13939,"CAST":13940,"9240":13941,"9264":13942,"9860":13943,"9877":13944,"9439":13945,"9420":13946,"9462":13947,"94303":13948,"efef":13949,"efdf":13950,"9670":13951,"BEAB":13952,"BEAC":13953,"0838":13954,"DFCD":13955,"0411":13956,"0449":13957,"0415":13958,"04716":13959,"DEFE":13960,"DEAD":13961,"0658":13962,"0644":13963,"06156":13964,"0273":13965,"02708":13966,"dbee":13967,"BFCE":13968,"faba":13969,"faee":13970,"farmac":13971,"dem":13972,"bacf":13973,"ccdd":13974,"cccd":13975,"6312":13976,"6334":13977,"6754":13978,"6778":13979,"4570":13980,"6554":13981,"6517":13982,"2758":13983,"Äłu":13984,"Äłca":13985,"8754":13986,"ffdb":13987,"ebcf":13988,"2535":13989,"2577":13990,"4352":13991,"4335":13992,"2315":13993,"23788":13994,"23705":13995,"231511":13996,"âĹĮãĢ":13997,"âĹĮê«":13998,"4178":13999,"9379":14000,"6136":14001,"4756":14002,"4716":14003,"dddf":14004,"2138":14005,"21540":14006,"fbbc":14007,"orectal":14008,"0575":14009,"0731":14010,"aabc":14011,"9132":14012,"cfce":14013,"Â´Â«":14014,"Â´Â¿":14015,"abfb":14016,"abcf":14017,"abfc":14018,"Ġthrough":14019,"Â°Â§":14020,"Â°Â«":14021,"ÂµÃ¡Ä©":14022,"ÂµÃ¡Ä¨":14023,"Â¶Â£":14024,"Â¶Â¯":14025,"Â¶Â§":14026,"Â¶Â©":14027,"ÃĥÄ»":14028,"Ä®Ã¡Ä©":14029,"Â±Â¯":14030,"ðĳĻ":14031,"fcff":14032,"Ġpy":14033,"Ġped":14034,"Ġprec":14035,"ÂºÃ¡Ä©":14036,"ÂºÃ¡Ä¨":14037,"ised":14038,"ÅĥÃ¡Ä©":14039,"ÅĥÃ¡Ä¨":14040,"aded":14041,"adec":14042,"cddb":14043,"requ":14044,"retto":14045,"Â¼Â³":14046,"Â¼Â¹":14047,"Ġmam":14048,"ropriate":14049,"any":14050,"Ã¢Ä¹Ä®ÃªÂª":14051,"Ġepati":14052,"Ġeinsum":14053,"Ġnames":14054,"72878":14055,"âĹĮà¹":14056,"Ġ280":14057,"Ġ288":14058,"Ġ2000":14059,"ride":14060,"Ġ440":14061,"Ġ488":14062,"Ġ433":14063,"Ġ842":14064,"Ġ864":14065,"state":14066,"Ä§Ã¡Ä©":14067,"4145":14068,"Ä¦Ã¡Ä©":14069,"ome":14070,"6167":14071,"Ġlater":14072,"Ã¡Ä©Ä£":14073,"Ã¡Ä©Ä¥":14074,"Ã¡Ä©Ä©":14075,"Ã¡Ä©ÄŃ":14076,"Ã¡Ä©Ä«":14077,"Ã¡Ä©Ä±":14078,"Ã¡Ä©ÂªÃ¡Ä©":14079,"Ã¡Ä©ÂµÃ¡Ä©":14080,"Ġven":14081,"Ã¡Ä¨ÂªÃ¡Ä¨":14082,"Ã¡Ä¨ÂµÃ¡Ä¨":14083,"42522":14084,"Ġ936":14085,"Ġ920":14086,"Ġ960":14087,"ĠAJ":14088,"8180":14089,"4118":14090,"373853":14091,"31321522":14092,"25626":14093,"91921":14094,"5547":14095,"5126":14096,"13809":14097,"79275":14098,"71194":14099,"ĠTH":14100,"ĠTer":14101,"70860":14102,"39932":14103,"3126":14104,"5583":14105,"5587":14106,"57482":14107,"1721":14108,"700419":14109,"79971":14110,"50932":14111,"52869":14112,"7193":14113,"52433":14114,"7169":14115,"71696":14116,"Ä¼Ãł":14117,"59940":14118,"Ä¯Ã¡Ä©":14119,"78210":14120,"59839":14121,"59854172":14122,"2009":14123,"2196":14124,"6115":14125,"6116":14126,"52979":14127,"5362":14128,"30079":14129,"50239":14130,"7541":14131,"Ġut":14132,"1542":14133,"3723":14134,"3727":14135,"3320":14136,"1586":14137,"15847":14138,"158258":14139,"CEBDBB":14140,"1592":14141,"1348":14142,"134370":14143,"3597":14144,"7329":14145,"73243":14146,"3542":14147,"35466":14148,"35402":14149,"6189":14150,"CFEB":14151,"3345":14152,"6340":14153,"6344":14154,"5729":14155,"6566":14156,"1563":14157,"5182":14158,"40049":14159,"3103":14160,"3105":14161,"3110":14162,"3111":14163,"EAECF":14164,"7180":14165,"36931":14166,"8582":14167,"7103":14168,"3765":14169,"3180":14170,"5009":14171,"5145":14172,"Ġhowever":14173,"Ġhuman":14174,"37482":14175,"60087":14176,"1761":14177,"Ġgro":14178,"Ġgrowth":14179,"7363":14180,"4662":14181,"ĠEn":14182,"ADDFA":14183,"2299":14184,"Ġalle":14185,"Ġalcun":14186,"2349":14187,"4693":14188,"4694":14189,"7701":14190,"5767":14191,"6401":14192,"6403":14193,"ured":14194,"51686":14195,"4744":14196,"8296":14197,"AFEA":14198,"4608":14199,"8802":14200,"DDBA":14201,"5791":14202,"2885":14203,"77600":14204,"4223":14205,"4227":14206,"77971":14207,"8347":14208,"1703":14209,"2686":14210,"67944":14211,"CDEAD":14212,"6765":14213,"4104":14214,"4109":14215,"6103":14216,"9720":14217,"CFBAA":14218,"6809":14219,"68088":14220,"54978":14221,"4322":14222,"4329":14223,"6392":14224,"6394":14225,"6398":14226,"9747":14227,"33666":14228,"ĠST":14229,"4567":14230,"45040":14231,"45093":14232,"ĠÃ¢Ä¹Ä®Ãĸ":14233,"2897":14234,"13634":14235,"6497":14236,"1503":14237,"1505":14238,"6882":14239,"4721":14240,"9184":14241,"9187":14242,"EFEFE":14243,"8204":14244,"4295":14245,"42956":14246,"2801":14247,"83914":14248,"6228":14249,"2793":14250,"2720":14251,"2725":14252,"Ġpropri":14253,"identi":14254,"8327":14255,"4625":14256,"42054":14257,"0761":14258,"8894":14259,"8381":14260,"EBBF":14261,"4391":14262,"Ġbelow":14263,"istono":14264,"0996":14265,"Ġneph":14266,"8686":14267,"8687":14268,"2206":14269,"Ġ1016":14270,"4883":14271,"9443":14272,"zionale":14273,"2166":14274,"21620":14275,"9009":14276,"01918":14277,"0744":14278,"0806":14279,"0441":14280,"4523":14281,"2546":14282,"2621":14283,"2624":14284,"4802":14285,"9227":14286,"92234":14287,"Ġ1880":14288,"Ġ1896":14289,"9603":14290,"0697":14291,"4340":14292,"9580":14293,"9588":14294,"Ġ144":14295,"0103":14296,"0106":14297,"01054":14298,"Ġstated":14299,"4361":14300,"9325":14301,"93254":14302,"9282":14303,"2102":14304,"2108":14305,"9391":14306,"93910":14307,"9296":14308,"ĠMar":14309,"0124":14310,"DBFFC":14311,"4705":14312,"97959":14313,"0897":14314,"8692":14315,"Ġtrattati":14316,"este":14317,"Ġ1976":14318,"Ġ1992":14319,"Ġitem":14320,"9902":14321,"2426":14322,"2607":14323,"ppo":14324,"âĹĮðĳģ":14325,"âĹĮðĳĪ":14326,"âĹĮðĳĸ":14327,"83059":14328,"9166":14329,"ACBFC":14330,"6301":14331,"6305":14332,"9787":14333,"8628":14334,"5753":14335,"9421":14336,"ĠĠĠĠĠĠĠĠĠĠĠĠĠĠĠĠĠĠ":14337,"0544":14338,"9541":14339,"9543":14340,"93072":14341,"gia":14342,"08689":14343,"Ġwhereas":14344,"Ġ208":14345,"Ġ2016":14346,"Ġ2048":14347,"9261":14348,"0247":14349,"pia":14350,"ĠRE":14351,"ĠRo":14352,"0646":14353,"0647":14354,"49813":14355,"oriz":14356,"eedc":14357,"BEDFC":14358,"fbac":14359,"ccac":14360,"Ġimmagini":14361,"ĠÄ¤Ã¯":14362,"ĠÂªÃ¯":14363,"sub":14364,"afbe":14365,"ĠÄ¨Ã¯":14366,"ĠÄ¸Ã¯":14367,"Ġsell":14368,"Ġparties":14369,"Ġpartico":14370,"code":14371,"covered":14372,"Ġcho":14373,"docs":14374,"ĠÅĢÃ¡":14375,"Ġresol":14376,"dfbd":14377,"ĠÂºÃ¡":14378,"Ġshape":14379,"ĠÅĥÃ¡":14380,"ĠÄ½Ã¡":14381,"point":14382,"INCLUDING":14383,"Ġnelle":14384,"plan":14385,"nosi":14386,"vice":14387,"ĠUser":14388,"RIS":14389,"Ġobjects":14390,"hani":14391,"ĠProcess":14392,"Ġbase":14393,"Ġmedia":14394,"Ġmodifications":14395,"parench":14396,"Ġagent":14397,"Ġagents":14398,"Ġiterated":14399,"Ġantian":14400,"Ġmodello":14401,"Ġdisp":14402,"utilizz":14403,"ATL":14404,"Index":14405,"ĠĠĠĠĠĠĠĠĠĠĠĠĠĠĠĠĠĠĠĠĠĠĠĠĠĠĠĠĠĠĠĠĠĠ":14406,"Ġ->":14407,"ound":14408,"Ġelements":14409,"ĠComput":14410,"ĠCompilation":14411,"quiring":14412,"Ġauthoriz":14413,"inally":14414,"And":14415,"Ġtessuti":14416,"Ġmethod":14417,"Ġmetodi":14418,"penBLAS":14419,"Ġseconda":14420,"layed":14421,"Ġdocumentation":14422,"Ġtempo":14423,"Ġown":14424,"ioli":14425,"www":14426,"Ġdimostrato":14427,"Ġupper":14428,"effetto":14429,"Ġrisultati":14430,"DataMem":14431,"Ġsingle":14432,"Ġsupport":14433,"patent":14434,"Î¼m":14435,"albumin":14436,"Ġpolmon":14437,"Ġvessels":14438,"ĠImaging":14439,"ĠWITHOUT":14440,"Ġtecnica":14441,"Ġadvanced":14442,"8417040":14443,"Ġclaims":14444,"roperiton":14445,"ĠMappa":14446,"Ġtransaction":14447,"http":14448,"Ġacquisi":14449,"Ġredistribute":14450,"standing":14451,"simple":14452,"Ġgreen":14453,"Ã¡Ä©Ä£Ã¡Ä©":14454,"Ã¡Ä©Ä¥Ã¡Ä©":14455,"Ã¡Ä©Ä©Ã¡Ä©":14456,"Ã¡Ä©ÄŃÃ¡Ä©":14457,"Ã¡Ä©Ä«Ã¡Ä©":14458,"Ã¡Ä©Ä±Ã¡Ä©":14459,"\")":14460,"/>":14461,"0529":14462,"0789":14463,"0164":14464,"0746":14465,"0304":14466,"0382":14467,"0371":14468,"0545":14469,"0777":14470,"1528":14471,"1789":14472,"1746":14473,"1309":14474,"1785":14475,"2528":14476,"2368":14477,"2355":14478,"2371":14479,"2177":14480,"3708":14481,"3524":14482,"3769":14483,"4708":14484,"4304":14485,"4388":14486,"4371":14487,"4135":14488,"5792":14489,"5569":14490,"6292":14491,"6599":14492,"6502":14493,"6786":14494,"6155":14495,"6571":14496,"7161":14497,"7137":14498,"7151":14499,"8595":14500,"8502":14501,"8786":14502,"8224":14503,"8780":14504,"8540":14505,"8137":14506,"8463":14507,"9526":14508,"9529":14509,"9157":14510,"9177":14511,"AIM":14512,"BFFF":14513,"BFCF":14514,"BFBF":14515,"BFAF":14516,"BEDA":14517,"Ch":14518,"CCBE":14519,"CAEF":14520,"DCDD":14521,"DFDB":14522,"DABF":14523,"Ex":14524,"EFDA":14525,"ECCC":14526,"EMENT":14527,"FR":14528,"FAAE":14529,"FACC":14530,"FFDC":14531,"FADB":14532,"FFBB":14533,"FADE":14534,"FFBA":14535,"GPL":14536,"GEN":14537,"Lo":14538,"PV":14539,"QU":14540,"Radi":14541,"Se":14542,"WISE":14543,"aeff":14544,"acfd":14545,"becc":14546,"cebc":14547,"cus":14548,"deae":14549,"ele":14550,"febf":14551,"fine":14552,"gl":14553,"gith":14554,"jury":14555,"list":14556,"lesion":14557,"menti":14558,"mary":14559,"mission":14560,"ook":14561,"pa":14562,"uale":14563,"uced":14564,"wxy":14565,"³â´":14566,"Ã¬":14567,"Ġ161":14568,"Ġ898":14569,"ĠAAC":14570,"ĠCDD":14571,"ĠCEE":14572,"ĠCDB":14573,"ĠCBE":14574,"ĠCDA":14575,"ĠFCF":14576,"ĠFCC":14577,"ĠAEB":14578,"ĠEED":14579,"Ġ004":14580,"Ġ301":14581,"Ġ571":14582,"Ġ333":14583,"Ġ325":14584,"Ġ891":14585,"ĠEAEED":14586,"Ĩï½":14587,"0039":14588,"0058":14589,"0014":14590,"0064":14591,"0031":14592,"0057":14593,"00518":14594,"00757":14595,"004318":14596,"008040":14597,"009339":14598,"1131":14599,"1157":14600,"11798":14601,"11559":14602,"11044":14603,"114730":14604,"3269":14605,"3282":14606,"3287":14607,"32856":14608,"32743":14609,"327802":14610,"5676":14611,"5659":14612,"565398":14613,"7218":14614,"7266":14615,"7275":14616,"7299":14617,"7261":14618,"723013":14619,"729538":14620,"3800":14621,"3856":14622,"3838":14623,"3849":14624,"3875":14625,"3898":14626,"38539":14627,"38338":14628,"1238":14629,"1259":14630,"1269":14631,"1273":14632,"1292":14633,"1202":14634,"1227":14635,"1285":14636,"1295":14637,"12736":14638,"12276":14639,"127890":14640,"3953":14641,"39572":14642,"39567":14643,"39725":14644,"5445":14645,"5481":14646,"54614":14647,"7956":14648,"7924":14649,"7957":14650,"7987":14651,"79634":14652,"79564":14653,"793268":14654,"5211":14655,"5222":14656,"5255":14657,"5246":14658,"3479":14659,"3419":14660,"3429":14661,"3482":14662,"3421":14663,"34940":14664,"34341":14665,"34862":14666,"34477":14667,"342248":14668,"345359":14669,"348294":14670,"3631":14671,"3684":14672,"3621":14673,"36891":14674,"36823":14675,"365714":14676,"3670859":14677,"1676":14678,"1664":14679,"16760":14680,"16889":14681,"16608":14682,"16424":14683,"5879":14684,"5852":14685,"5845":14686,"5843":14687,"5861":14688,"58350":14689,"58619":14690,"58144":14691,"58181":14692,"588062":14693,"7639":14694,"7668":14695,"7601":14696,"5956":14697,"5929":14698,"5966":14699,"5995":14700,"59618":14701,"59640":14702,"59896":14703,"59883":14704,"3086":14705,"30289":14706,"306098":14707,"5044":14708,"5064":14709,"5096":14710,"5041":14711,"5083":14712,"5047":14713,"50897":14714,"1454":14715,"1457":14716,"1465":14717,"1423":14718,"14739":14719,"14216":14720,"14928":14721,"14014":14722,"14513":14723,"14165":14724,"145890":14725,"147036":14726,"141140":14727,"146806":14728,"1079":14729,"1013":14730,"1035":14731,"1048":14732,"1031":14733,"10644":14734,"10374":14735,"1916":14736,"1987":14737,"1995":14738,"1901":14739,"19898":14740,"19218":14741,"196037":14742,"196507":14743,"1983914":14744,"7852":14745,"7814":14746,"7866":14747,"7862":14748,"7868":14749,"7833":14750,"7855":14751,"7884":14752,"7896":14753,"7893":14754,"78389":14755,"78136":14756,"78104":14757,"78305":14758,"78447":14759,"78163":14760,"7415":14761,"7484":14762,"7498":14763,"7408":14764,"74314":14765,"74756":14766,"74810":14767,"74016":14768,"74948":14769,"74104":14770,"74585":14771,"74685":14772,"740459":14773,"7020":14774,"7093":14775,"705557":14776,"1817":14777,"1833":14778,"1873":14779,"1861":14780,"1803":14781,"18268":14782,"18688":14783,"18578":14784,"ÃĥÅģ":14785,"2078":14786,"2055":14787,"2082":14788,"2071":14789,"2025":14790,"2093":14791,"20454":14792,"2087833":14793,"2969":14794,"2984":14795,"29520":14796,"29618":14797,"29858":14798,"29579":14799,"29966":14800,"29855":14801,"29424":14802,"29402":14803,"295098":14804,"297725":14805,"8054":14806,"8059":14807,"8061":14808,"80710":14809,"80352":14810,"80966":14811,"80876":14812,"80546":14813,"805689":14814,"808265":14815,"808383":14816,"6672":14817,"6694":14818,"6625":14819,"66323":14820,"666775":14821,"4076":14822,"4069":14823,"4042":14824,"40216":14825,"40896":14826,"40291":14827,"407958":14828,"8970":14829,"8940":14830,"8913":14831,"89554":14832,"89529":14833,"89676":14834,"89205":14835,"896318":14836,"4989":14837,"4937":14838,"4982":14839,"49632":14840,"49880":14841,"49552":14842,"49608":14843,"49290":14844,"49607":14845,"49162":14846,"4974878":14847,"AACE":14848,"6056":14849,"6080":14850,"6055":14851,"6083":14852,"6061":14853,"6097":14854,"60330":14855,"60301":14856,"60891":14857,"60726":14858,"60475":14859,"60993":14860,"2212":14861,"2226":14862,"2286":14863,"2225":14864,"226054":14865,"CEEE":14866,"CEBC":14867,"CDCE":14868,"CDDD":14869,"CDCC":14870,"CDBF":14871,"FBFD":14872,"FBBB":14873,"FBBD":14874,"6911":14875,"6906":14876,"6991":14877,"69242":14878,"69447":14879,"693359":14880,"CBDB":14881,"CBEB":14882,"CBEC":14883,"4436":14884,"4430":14885,"4417":14886,"4433":14887,"4461":14888,"44698":14889,"447554":14890,"ABAE":14891,"ABBE":14892,"ABLE":14893,"FDAB":14894,"FDBA":14895,"FDFCA":14896,"1371":14897,"13558":14898,"13363":14899,"8839":14900,"8869":14901,"88818":14902,"88169":14903,"88449":14904,"88829":14905,"88450":14906,"1510":14907,"1573":14908,"15511":14909,"15350":14910,"1757":14911,"17301":14912,"17742":14913,"AECEE":14914,"AEAAF":14915,"9072":14916,"9052":14917,"9036":14918,"9018":14919,"9025":14920,"90739":14921,"90989":14922,"90979":14923,"90847":14924,"906138":14925,"35164":14926,"35780":14927,"35530":14928,"35357":14929,"35589":14930,"357779":14931,"ADEC":14932,"6278":14933,"6229":14934,"6235":14935,"6255":14936,"6231":14937,"62190":14938,"625627":14939,"625488":14940,"4238":14941,"4239":14942,"4274":14943,"42676":14944,"42839":14945,"42642":14946,"42631":14947,"4257980":14948,"3777":14949,"37334":14950,"37188":14951,"6832":14952,"6859":14953,"6830":14954,"6874":14955,"6817":14956,"68454":14957,"68376":14958,"68239":14959,"68586":14960,"683090":14961,"4834":14962,"4835":14963,"4873":14964,"4861":14965,"48244":14966,"48322":14967,"48706":14968,"483575":14969,"485739":14970,"DBBF":14971,"DBFEE":14972,"DBBDC":14973,"7531":14974,"75540":14975,"FCCF":14976,"EEEC":14977,"EECA":14978,"EEFBC":14979,"EEDBB":14980,"3315":14981,"337853":14982,"9930":14983,"9928":14984,"9945":14985,"9925":14986,"99711":14987,"99476":14988,"99998":14989,"99985":14990,"994480":14991,"991827":14992,"55570":14993,"55727":14994,"55342":14995,"55363":14996,"55188":14997,"6411":14998,"6452":14999,"6471":15000,"64502":15001,"64559":15002,"64006":15003,"64324":15004,"64787":15005,"64496":15006,"643872":15007,"DDEA":15008,"DDCA":15009,"DDDAB":15010,"7752":15011,"7759":15012,"7771":15013,"77169":15014,"77544":15015,"771100":15016,"2813":15017,"2862":15018,"2824":15019,"2843":15020,"2861":15021,"28460":15022,"28579":15023,"28303":15024,"28324":15025,"282464":15026,"285242":15027,"BBDD":15028,"BBBB":15029,"BBADA":15030,"ÂªÃ¡Ä§":15031,"ÂªÃ¡Ä¦":15032,"CCFDE":15033,"EBFE":15034,"EBEE":15035,"EBAEB":15036,"2439":15037,"2440":15038,"2468":15039,"24368":15040,"24738":15041,"243096":15042,"EDFF":15043,"EDEBF":15044,"FAFDB":15045,"31549":15046,"edec":15047,"edfb":15048,"edcf":15049,"edee":15050,"eddc":15051,"edbe":15052,"5710":15053,"57188":15054,"8270":15055,"8260":15056,"8244":15057,"8288":15058,"8267":15059,"8261":15060,"82132":15061,"82310":15062,"82316":15063,"82688":15064,"82447":15065,"821103":15066,"8275158":15067,"8261700":15068,"4639":15069,"46798":15070,"46510":15071,"46500":15072,"463019":15073,"463890":15074,"BDCF":15075,"0914":15076,"0920":15077,"0922":15078,"0915":15079,"0955":15080,"09115":15081,"09381":15082,"09442":15083,"097876":15084,"093029":15085,"090029":15086,"091146":15087,"cav":15088,"caef":15089,"cace":15090,"carcinoma":15091,"2634":15092,"2670":15093,"2688":15094,"2633":15095,"26169":15096,"26137":15097,"26555":15098,"267512":15099,"5318":15100,"53371":15101,"AFFB":15102,"AFAC":15103,"AFAECE":15104,"8456":15105,"8410":15106,"847514":15107,"7335":15108,"73792":15109,"73524":15110,"51508":15111,"8672":15112,"8616":15113,"8689":15114,"86325":15115,"86703":15116,"86408":15117,"7154":15118,"71341":15119,"ecda":15120,"EFAC":15121,"eaff":15122,"eaaf":15123,"eaad":15124,"EACDB":15125,"Ġtu":15126,"92109":15127,"922964":15128,"926609":15129,"928813":15130,"ona":15131,"9879":15132,"9846":15133,"98139":15134,"98106":15135,"984849":15136,"9469":15137,"9437":15138,"9475":15139,"94605":15140,"daed":15141,"daef":15142,"dabd":15143,"efbf":15144,"96546":15145,"BECC":15146,"0862":15147,"0864":15148,"0877":15149,"08716":15150,"08782":15151,"08738":15152,"0432":15153,"0412":15154,"0450":15155,"0464":15156,"0451":15157,"04176":15158,"04549":15159,"04325":15160,"BCFF":15161,"BCFBE":15162,"DEAC":15163,"DEDBBB":15164,"0689":15165,"06008":15166,"06747":15167,"061966":15168,"0211":15169,"0272":15170,"0214":15171,"0220":15172,"dbec":15173,"dbaf":15174,"DAFBE":15175,"BFAA":15176,"BAFB":15177,"baca":15178,"6335":15179,"6732":15180,"67547":15181,"671844":15182,"45594":15183,"6536":15184,"6515":15185,"6537":15186,"2750":15187,"271908":15188,"Äłper":15189,"Äłcont":15190,"8736":15191,"8719":15192,"8715":15193,"8538":15194,"8539":15195,"8579":15196,"8537":15197,"85588":15198,"85002":15199,"ffee":15200,"2575":15201,"251314":15202,"25006":15203,"251832":15204,"4312":15205,"4319":15206,"4315":15207,"4337":15208,"2376":15209,"237923":15210,"âĹĮÝ":15211,"âĹĮê©":15212,"âĹĮê¯":15213,"âĹĮðĲį":15214,"4132":15215,"4174":15216,"41598":15217,"8316":15218,"83746":15219,"83727":15220,"83146":15221,"831610":15222,"cbfd":15223,"93008":15224,"93791":15225,"6154":15226,"9558":15227,"9518":15228,"9517":15229,"95707":15230,"4774":15231,"4715":15232,"4717":15233,"475034":15234,"dddc":15235,"21524":15236,"fbca":15237,"9772":15238,"9739":15239,"97393":15240,"0511":15241,"0559":15242,"0510":15243,"055014":15244,"057539":15245,"0578289":15246,"0737":15247,"0132":15248,"0138":15249,"0154":15250,"0172257":15251,"aadc":15252,"aaab":15253,"aaac":15254,"0332":15255,"0379":15256,"033284":15257,"91397":15258,"bbfd":15259,"dfcc":15260,"dfcd":15261,"cfdb":15262,"Â´Â¶":15263,"Â´Â»":15264,"ables":15265,"Ġthus":15266,"Â°Â´":15267,"Â°Â¥":15268,"Â°Â»":15269,"ÂµÃ¡Ä§":15270,"ÂµÃ¡Ä¦":15271,"Â¶Â¡":15272,"Â¶Â®":15273,"Â¶Â·":15274,"Ä¹Ã¡Ä©":15275,"Ä¹Ã¡Ä¨":15276,"Ä¹Ã¡Ä§":15277,"Ä¹ÃĬ":15278,"Ġclassifica":15279,"Ä®Ã¡Ä¨":15280,"Ä®Ã¡Ä§":15281,"Ġsum":15282,"Ġsos":15283,"Ġsperiment":15284,"Ġsangu":15285,"Ġsotto":15286,"Ġpass":15287,"Ġphase":15288,"acda":15289,"acef":15290,"ÂºÃ¡Ä§":15291,"ÂºÃ¡Ä¦":15292,"ison":15293,"ister":15294,"afca":15295,"afdd":15296,"ÅĥÃ¡Ä§":15297,"ÅĥÃ¡Âµ":15298,"Ġott":15299,"Ġoccur":15300,"Â¾Â¹":15301,"bcda":15302,"cdcf":15303,"bdda":15304,"Ġmm":15305,"Ġmacromolec":15306,"00024":15307,"0003866":15308,"ÅĤÃ¡Ä©":15309,"ÅĤÃ¡Ä¨":15310,"Ġanalysis":15311,"1910094":15312,"Ġel":15313,"Ġequival":15314,"lari":15315,"lags":15316,"ÅĢÃ¡Ä©":15317,"ÅĢÃ¡Ä¨":15318,"icle":15319,"Ġwell":15320,"ingu":15321,"Ġ6348":15322,"âĹĮà¬":15323,"2123":15324,"ÅģÃ¡Ä©":15325,"ÅģÃ¡Ä¨":15326,"ÅģÃĬ":15327,"Ġrectal":15328,"Ġ138":15329,"Ġ1594":15330,"Ġ1744":15331,"ash":15332,"10201":15333,"50609":15334,"131441":15335,"70804":15336,"Ġ700":15337,"ĠPath":15338,"ÄµÃ¡Ä©":15339,"ÄµÃ¡Ä¨":15340,"ÄµÃ¡Ä§":15341,"Ġ464":15342,"Ġ848":15343,"Ä§Ã¡Ä¨":15344,"Ä§Ã¡Ä§":15345,"4140":15346,"Ġdevelop":15347,"Ä¦Ã¡Ä¨":15348,"Ä¦Ã¡Ä§":15349,"ominal":15350,"6161":15351,"Ġlung":15352,"8493":15353,"84953":15354,"Ã¡Ä©Ä³":15355,"Ã¡Ä©Ä·":15356,"Ã¡Ä©Ä»":15357,"Ã¡Ä©Ä¿":15358,"Ã¡Ä©Ä½":15359,"Ã¡Ä©ÂºÃ¡Ä©":15360,"Ã¡Ä©ÅĥÃ¡Ä©":15361,"Ã¡Ä©Ä¹Ã¡Ä©":15362,"Ã¡Ä©ÄµÃ¡Ä©":15363,"Ġvan":15364,"Ġvivo":15365,"Ã¡Ä¨Ä£":15366,"Ã¡Ä¨Ä¥":15367,"Ã¡Ä¨Ä³":15368,"Ã¡Ä¨Ä©":15369,"Ã¡Ä¨ÄŃ":15370,"Ã¡Ä¨Ä·":15371,"Ã¡Ä¨Ä»":15372,"Ã¡Ä¨Ä«":15373,"Ã¡Ä¨Ä¿":15374,"Ã¡Ä¨Ä½":15375,"Ã¡Ä¨Ä±":15376,"Ã¡Ä¨ÂºÃ¡Ä¨":15377,"Ã¡Ä¨ÅĥÃ¡Ä¨":15378,"Ã¡Ä¨Ä¹Ã¡Ä¨":15379,"Ã¡Ä¨ÄµÃ¡Ä¨":15380,"Ġ984":15381,"ĠApp":15382,"ĠARIS":15383,"Ã¡Ä§Ä£":15384,"Ã¡Ä§Ä¥":15385,"Ã¡Ä§Ä³":15386,"Ã¡Ä§Ä©":15387,"Ã¡Ä§ÄŃ":15388,"Ã¡Ä§Ä·":15389,"Ã¡Ä§Ä»":15390,"Ã¡Ä§Ä«":15391,"Ã¡Ä§Ä½":15392,"Ã¡Ä§Ä±":15393,"Ã¡Ä§ÂªÃ¡Ä§":15394,"Ã¡Ä§ÂµÃ¡Ä§":15395,"Ã¡Ä§Ä¹Ã¡Ä§":15396,"Ã¡Ä§ÄµÃ¡Ä§":15397,"81881":15398,"Ä¤Ã¡Ä©Ä¥Ã¡Ä©":15399,"4111":15400,"41111":15401,"41131":15402,"37388":15403,"Ã¡Ä¦ÂªÃ¡Ä¦":15404,"Ã¡Ä¦ÂµÃ¡Ä¦":15405,"Ġ07906":15406,"696295511":15407,"25681":15408,"256916":15409,"76033798":15410,"9199":15411,"91919":15412,"5543":15413,"5545":15414,"5547027":15415,"Ä¢Ãª":15416,"Ä¢Ã£Ä¨":15417,"Ä¢Ã¡Ä©Ä£Ã¡Ä©":15418,"5122":15419,"512518":15420,"Ä£Ãª":15421,"56032":15422,"56017":15423,"5603925":15424,"Ä¨Ã¡Ä©Ä©Ã¡Ä©":15425,"1387":15426,"ÄªÃ¡Ä©Ä«Ã¡Ä©":15427,"tavia":15428,"7110":15429,"35654":15430,"Ä¸Ãł":15431,"token":15432,"Ä·ÃĬ":15433,"Ġorig":15434,"39990":15435,"55848":15436,"558864":15437,"5584860":15438,"5743":15439,"Ä¬Ã¡Ä©ÄŃÃ¡Ä©":15440,"1723":15441,"7001":15442,"7006":15443,"this":15444,"ÃĬÅĢ":15445,"ÃĬÄ¾":15446,"ÃĬÄ»":15447,"ÃĬÄ¿":15448,"ÃĬÄ½":15449,"ÃĬÄ¼":15450,"36076623":15451,"Ä«Ãª":15452,"Ä½Ãª":15453,"ĠFacc":15454,"38989":15455,"389894":15456,"3303539":15457,"3301802":15458,"7192":15459,"71951":15460,"719074":15461,"7198038":15462,"52438":15463,"5241811":15464,"3581":15465,"5340":15466,"Ä¯Ã¡Ä¨":15467,"Ä¯Ã¡Ä§":15468,"59860":15469,"5980028":15470,"76946510":15471,"4540":15472,"4546":15473,"45429":15474,"4541755":15475,"2000354":15476,"13210":15477,"Ä°Ã¡Ä©Ä±Ã¡Ä©":15478,"556285242":15479,"33973":15480,"33997":15481,"52654":15482,"3190":15483,"70438":15484,"70457":15485,"7043456":15486,"53672":15487,"53649":15488,"3001":15489,"754844":15490,"79031":15491,"78631":15492,"16433":15493,"1645779":15494,"164009339":15495,"15454":15496,"15457":15497,"154837":15498,"3321":15499,"74619":15500,"3143":15501,"3144010":15502,"36251":15503,"362308":15504,"FDEFBD":15505,"13463":15506,"1346910":15507,"359352":15508,"359160":15509,"7324":15510,"732959":15511,"30859854172":15512,"3545":15513,"5105":15514,"3385":15515,"CFEAFE":15516,"3346":15517,"6348577":15518,"712154837":15519,"EFBBE":15520,"6568":15521,"1561":15522,"15638":15523,"1740":15524,"1741":15525,"174114730":15526,"4004":15527,"40051":15528,"8664":15529,"8660918":15530,"10001":15531,"1004154":15532,"Ġperiren":15533,"7722":15534,"77251":15535,"3107":15536,"31170379":15537,"71473":15538,"7185":15539,"858758":15540,"7108":15541,"37674":15542,"3189":15543,"31863":15544,"ĠBY":15545,"6328":15546,"63252":15547,"37913":15548,"7505876":15549,"AFBA":15550,"AFBAD":15551,"AFBDE":15552,"Ġhow":15553,"Ġhyp":15554,"ĠINT":15555,"3741":15556,"3743":15557,"2114":15558,"4490":15559,"4491":15560,"4492":15561,"4493":15562,"44962":15563,"1764":15564,"73621":15565,"7364642":15566,"45833":15567,"458034":15568,"ĠEur":15569,"2692":15570,"26947":15571,"2298":15572,"658057539":15573,"8592012":15574,"6722":15575,"1307":15576,"side":15577,"utable":15578,"ĠLi":15579,"ĠLicens":15580,"13969":15581,"2343144010":15582,"4690":15583,"61428":15584,"57697":15585,"576197":15586,"4897":15587,"4893043":15588,"48954978":15589,"5502840":15590,"4743":15591,"474337":15592,"829065":15593,"4602":15594,"8809046":15595,"2888":15596,"47695":15597,"65071100":15598,"Ġcause":15599,"Ġ1120":15600,"2487":15601,"24859656":15602,"41667":15603,"83409":15604,"8343301802":15605,"27416":15606,"5307":15607,"530313":15608,"1793":15609,"17964":15610,"6795":15611,"ÃĳÄ¢":15612,"6763":15613,"6766":15614,"3786339":15615,"AEDFA":15616,"EDBE":15617,"EDBBE":15618,"2661":15619,"26679":15620,"266272":15621,"874928813":15622,"DEEF":15623,"DEECA":15624,"6105":15625,"61040":15626,"6593":15627,"9725":15628,"3165":15629,"CFBB":15630,"5322":15631,"81017269":15632,"43215":15633,"8116":15634,"ĠNumPy":15635,"8140":15636,"21868804":15637,"3363":15638,"4561":15639,"4568":15640,"45685":15641,"45082":15642,"8127":15643,"9110":15644,"9119":15645,"6201":15646,"6204":15647,"9892":15648,"98970":15649,"1363":15650,"37081":15651,"6496276":15652,"73021":15653,"44057":15654,"91812":15655,"8361056":15656,"8201":15657,"23252":15658,"28099":15659,"8393658":15660,"8394170":15661,"8395875":15662,"7591":15663,"7593":15664,"Ġ168":15665,"Ġ1600":15666,"Ġ1624":15667,"9407":15668,"44544":15669,"ADBAFCE":15670,"9366":15671,"CBDFD":15672,"2796274":15673,"2497":15674,"ÃĦÅĥÃĦ":15675,"27240":15676,"57089":15677,"6749":15678,"674210":15679,"9887":15680,"Ġproduc":15681,"84070":15682,"5527":15683,"55238":15684,"55231":15685,"55261":15686,"8324":15687,"8328275158":15688,"966566":15689,"9662760":15690,"57871":15691,"17834":15692,"4626":15693,"0764":15694,"0506":15695,"65415":15696,"88932":15697,"9491":15698,"ÃıÄ¢":15699,"Ġuno":15700,"8223":15701,"82242":15702,"FBBAD":15703,"4387":15704,"43843":15705,"0201":15706,"0998":15707,"63895":15708,"01666578":15709,"0601":15710,"22030":15711,"Ġ1056":15712,"0663":15713,"0664":15714,"0665":15715,"87879634":15716,"9446":15717,"9444049":15718,"Ġ1200":15719,"0585":15720,"21691":15721,"9006":15722,"9008":15723,"4198":15724,"9125":15725,"0199770":15726,"96829":15727,"0745":15728,"0803":15729,"45274":15730,"icensed":15731,"2385":15732,"2403":15733,"2409":15734,"93826":15735,"9382335":15736,"9383719":15737,"0395":15738,"03986":15739,"2628814":15740,"47971":15741,"4807":15742,"53886":15743,"67885":15744,"vere":15745,"2301":15746,"2305":15747,"2442":15748,"2444":15749,"24440":15750,"85485":15751,"8605":15752,"0724":15753,"0729":15754,"Ġ1800":15755,"Ġ1832":15756,"Ġ1888":15757,"9605":15758,"06924":15759,"9581":15760,"2364":15761,"8443011":15762,"DBECC":15763,"Ġ1472":15764,"87970":15765,"9201":15766,"92093":15767,"Ġstr":15768,"Ġstar":15769,"Ġstato":15770,"Ġstating":15771,"Ġstrides":15772,"07971":15773,"07981":15774,"9326":15775,"ĠMed":15776,"ĠMod":15777,"ĠMVD":15778,"8423":15779,"8428":15780,"01220":15781,"01253":15782,"6427":15783,"6428":15784,"64256":15785,"6193":15786,"6195":15787,"84843":15788,"DBFFCC":15789,"56661376":15790,"0883":15791,"0884":15792,"8695":15793,"8697":15794,"8698":15795,"Ġ1912":15796,"Ġ1944":15797,"Ġ1968":15798,"675547":15799,"8521":15800,"0527":15801,"05267":15802,"0426":15803,"0423336":15804,"2424":15805,"2605":15806,"26041724":15807,"FECFD":15808,"FECFC":15809,"6484":15810,"64859":15811,"07060":15812,"0707201":15813,"9802":15814,"7374157":15815,"9591":15816,"0283":15817,"02835":15818,"4302":15819,"4304959":15820,"dedc":15821,"63058":15822,"8762":15823,"9781":15824,"bcbe":15825,"54673":15826,"EABFB":15827,"ĠOUT":15828,"27829174":15829,"FABDE":15830,"5757":15831,"BFBAD":15832,"BFBEF":15833,"00637":15834,"51371":15835,"5135100":15836,"5137409":15837,"ĠĠĠĠĠĠĠĠĠĠĠĠĠĠĠĠĠĠĠĠ":15838,"ĠĠĠĠĠĠĠĠĠĠĠĠĠĠĠĠĠĠĠĠĠ":15839,"0221":15840,"94633":15841,"9463249":15842,"lied":15843,"CCDEC":15844,"95451":15845,"9305":15846,"93096":15847,"8287":15848,"EFDDD":15849,"03877":15850,"0361":15851,"0366":15852,"0863":15853,"0868827":15854,"Ġwhole":15855,"Ġsuperi":15856,"9841":15857,"3157078":15858,"73551":15859,"Ġ2032":15860,"8171":15861,"11831":15862,"39271":15863,"3355999":15864,"9503759":15865,"18048":15866,"DCEFB":15867,"0243":15868,"0245":15869,"9641":15870,"9647":15871,"BCEDC":15872,"45519":15873,"BFAFDBE":15874,"8963558":15875,"2551":15876,"BADCB":15877,"93356":15878,"5355944":15879,"0645":15880,"0261":15881,"98600":15882,"0841":15883,"477743":15884,"eede":15885,"7023370":15886,"Ġ1312":15887,"Ġ1376":15888,"52731321522":15889,"Ã£Ä¨Ä¢Ã£Ä¨":15890,"Ġ1576":15891,"97335":15892,"Ġexp":15893,"73170214":15894,"ccad":15895,"ccae":15896,"Ġ1755":15897,"999549":15898,"ĠWHE":15899,"2827736":15900,"83358":15901,"45315130":15902,"ĠÄ¥Ã¯":15903,"ĠÂµÃ¯":15904,"53736":15905,"03354":15906,"67314":15907,"adbc":15908,"dfbe":15909,"ĠÂºÃ¯":15910,"Ġuseful":15911,"fcfe":15912,"eebe":15913,"poses":15914,"ĠÄ±Ã¡":15915,"ĠÅĤÃª":15916,"fcaf":15917,"bddc":15918,"zip":15919,"edel":15920,"ĠÃĥÂªÃħÄ¢":15921,"Ġverde":15922,"Ġadministration":15923,"compati":15924,"pher":15925,"nel":15926,"ĠUn":15927,"ĠUni":15928,"ially":15929,"Ġvascolari":15930,"Ġmeasure":15931,"Ġ0172":15932,"Äłpar":15933,"descr":15934,"early":15935,"Ġaccess":15936,"elle":15937,"Ġlesione":15938,"atory":15939,"603778389":15940,"Ġurinary":15941,"permis":15942,"Ġindicano":15943,"patients":15944,"Ġextent":15945,"Ġextravas":15946,"27903636":15947,"30543819":15948,"Ġshown":15949,"rmsg":15950,"81398963558":15951,"36586200":15952,"104130859854172":15953,"ÃĥÄ´ÃĦ":15954,"Ġriport":15955,"792640":15956,"195049880":15957,"04193602":15958,"ÃĥÅĢÃĦ":15959,"Ġassum":15960,"59153815":15961,"108877":15962,"Ġparenchima":15963,"207944":15964,"AACBAC":15965,"8550307310":15966,"ibraries":15967,"Ġarteri":15968,"ĠPROVI":15969,"8378345359":15970,"91587364642":15971,"70340860":15972,"684874":15973,"28541346910":15974,"733817":15975,"80148550307310":15976,"335891":15977,"Ġpotenzi":15978,"ĠÃĥÄ¨ÃĦ":15979,"06120229":15980,"Ġbiomarkers":15981,"ĠÃĥÄ§ÃĦ":15982,"32645241811":15983,"564473792":15984,"1846808265":15985,"81768261700":15986,"008779":15987,"Ġneeded":15988,"436959153815":15989,"ĠÃĥÄ¶ÃĦ":15990,"149379275":15991,"47697202":15992,"Ġloop":15993,"ĠOTHERWISE":15994,"51646256":15995,"Ġaccording":15996,"5629195049880":15997,"ields":15998,"1622614":15999,"ĠRadiology":16000,"Ġfarmaco":16001,"dependent":16002,"9317556285242":16003,"Ġinitial":16004,"8799771100":16005,"erican":16006,"ĠCONTRIBUT":16007,"build":16008,"727716":16009,"Ġchanges":16010,"ĠEVENT":16011,"measure":16012,"Ġflusso":16013,"Ġindividual":16014,"Ġpenet":16015,"2961145315130":16016,"Ġchirurgica":16017,"Generic":16018,"99807051508":16019,"CASTING":16020,"Ä®Ã¡Ä©Ä¯Ã¡Ä©":16021,
[...]
